<unk>	0
<s>	0
</s>	0
▁t	-0
▁a	-1
he	-2
in	-3
on	-4
re	-5
▁the	-6
er	-7
at	-8
▁o	-9
en	-10
▁s	-11
it	-12
es	-13
an	-14
▁c	-15
or	-16
▁w	-17
is	-18
ion	-19
al	-20
nd	-21
▁of	-22
▁p	-23
ed	-24
ou	-25
ing	-26
▁in	-27
▁f	-28
▁b	-29
ar	-30
▁to	-31
▁and	-32
▁m	-33
ic	-34
▁d	-35
om	-36
ent	-37
le	-38
▁h	-39
as	-40
▁re	-41
▁th	-42
ation	-43
ro	-44
il	-45
▁T	-46
ve	-47
▁I	-48
ec	-49
▁S	-50
▁C	-51
st	-52
▁n	-53
▁A	-54
▁e	-55
▁l	-56
et	-57
ac	-58
ly	-59
ut	-60
ot	-61
id	-62
▁g	-63
im	-64
ol	-65
20	-66
▁for	-67
▁is	-68
ment	-69
▁on	-70
ur	-71
▁y	-72
el	-73
ig	-74
▁that	-75
▁be	-76
▁1	-77
ver	-78
▁M	-79
ad	-80
ow	-81
ce	-82
▁P	-83
us	-84
▁The	-85
▁(	-86
▁pro	-87
ir	-88
ay	-89
▁you	-90
▁con	-91
am	-92
ter	-93
ct	-94
▁st	-95
▁it	-96
ith	-97
op	-98
▁H	-99
ul	-100
▁W	-101
▁B	-102
ies	-103
▁as	-104
▁with	-105
her	-106
se	-107
▁al	-108
ts	-109
▁R	-110
▁D	-111
ate	-112
un	-113
▁N	-114
ill	-115
ld	-116
▁G	-117
ity	-118
ess	-119
if	-120
ers	-121
▁an	-122
▁F	-123
▁wh	-124
▁com	-125
em	-126
ab	-127
pp	-128
ch	-129
ort	-130
▁E	-131
▁20	-132
▁are	-133
ag	-134
ain	-135
res	-136
igh	-137
od	-138
est	-139
▁su	-140
▁he	-141
▁we	-142
ive	-143
▁r	-144
▁or	-145
▁U	-146
▁ex	-147
um	-148
我们	-149
▁L	-150
▁“	-151
art	-152
ial	-153
▁de	-154
and	-155
ect	-156
ave	-157
qu	-158
iv	-159
ore	-160
▁O	-161
ist	-162
▁by	-163
ke	-164
oc	-165
rom	-166
▁-	-167
▁not	-168
ations	-169
nt	-170
th	-171
▁at	-172
▁was	-173
ew	-174
ust	-175
▁In	-176
▁v	-177
os	-178
end	-179
ant	-180
ud	-181
一个	-182
▁have	-183
ap	-184
▁2	-185
ould	-186
▁tr	-187
ff	-188
our	-189
▁"	-190
▁sh	-191
ions	-192
ure	-193
▁from	-194
ri	-195
00	-196
▁wor	-197
▁me	-198
▁res	-199
▁le	-200
▁u	-201
▁ch	-202
iz	-203
ear	-204
▁im	-205
▁this	-206
▁St	-207
▁will	-208
all	-209
ard	-210
vel	-211
ep	-212
ther	-213
▁us	-214
ational	-215
▁J	-216
▁ad	-217
▁en	-218
▁3	-219
te	-220
▁我	-221
▁can	-222
ip	-223
▁all	-224
ight	-225
ome	-226
..	-227
ia	-228
▁comp	-229
rou	-230
ge	-231
▁has	-232
ary	-233
cc	-234
ance	-235
ber	-236
red	-237
ated	-238
og	-239
ice	-240
他们	-241
ost	-242
ical	-243
▁imp	-244
▁cont	-245
act	-246
ell	-247
du	-248
ong	-249
gh	-250
ren	-251
age	-252
▁Y	-253
▁inc	-254
▁its	-255
▁k	-256
ak	-257
▁Ch	-258
tern	-259
▁ab	-260
omm	-261
ount	-262
▁se	-263
ich	-264
orm	-265
▁ne	-266
▁go	-267
per	-268
▁sp	-269
国家	-270
ans	-271
▁Th	-272
200	-273
▁200	-274
▁Un	-275
▁201	-276
out	-277
ide	-278
▁do	-279
ast	-280
▁part	-281
▁pl	-282
able	-283
ine	-284
▁their	-285
ry	-286
ous	-287
ace	-288
velop	-289
ok	-290
lo	-291
▁ag	-292
▁j	-293
ited	-294
hen	-295
可以	-296
ra	-297
lic	-298
▁rep	-299
工作	-300
ib	-301
so	-302
▁这	-303
▁在	-304
▁man	-305
▁your	-306
ub	-307
▁which	-308
▁K	-309
▁app	-310
form	-311
▁19	-312
▁sa	-313
▁per	-314
ates	-315
问题	-316
▁4	-317
提供	-318
ult	-319
19	-320
▁5	-321
one	-322
▁they	-323
ru	-324
ence	-325
erv	-326
▁pe	-327
▁dis	-328
ime	-329
ack	-330
very	-331
ments	-332
▁It	-333
▁other	-334
ord	-335
ake	-336
...	-337
ities	-338
ue	-339
ress	-340
pt	-341
▁un	-342
▁more	-343
ign	-344
▁also	-345
▁work	-346
委员	-347
ction	-348
ie	-349
国际	-350
▁develop	-351
委员会	-352
are	-353
ire	-354
▁pr	-355
ech	-356
▁but	-357
▁Comm	-358
ian	-359
▁out	-360
▁rec	-361
▁V	-362
会议	-363
gr	-364
公司	-365
▁year	-366
ind	-367
ild	-368
▁int	-369
没有	-370
▁comm	-371
nder	-372
ition	-373
▁acc	-374
▁Con	-375
▁been	-376
fe	-377
▁so	-378
eral	-379
发展	-380
▁reg	-381
▁one	-382
ree	-383
▁United	-384
ual	-385
10	-386
▁prov	-387
联合	-388
▁up	-389
iss	-390
reat	-391
ase	-392
ternational	-393
ach	-394
▁你	-395
ook	-396
▁ar	-397
▁As	-398
▁had	-399
可能	-400
now	-401
ame	-402
▁exp	-403
▁were	-404
▁He	-405
lud	-406
▁cons	-407
▁count	-408
ose	-409
所有	-410
其他	-411
vent	-412
▁our	-413
ang	-414
ople	-415
ish	-416
anc	-417
▁ind	-418
ail	-419
▁We	-420
▁his	-421
ll	-422
ark	-423
▁would	-424
▁pre	-425
▁under	-426
ade	-427
▁there	-428
▁my	-429
▁about	-430
ution	-431
以及	-432
pport	-433
报告	-434
▁them	-435
),	-436
av	-437
▁who	-438
ons	-439
▁li	-440
ite	-441
▁6	-442
▁act	-443
ors	-444
▁co	-445
▁Pro	-446
▁new	-447
vern	-448
组织	-449
▁Wh	-450
使用	-451
什么	-452
▁off	-453
▁cl	-454
▁said	-455
▁know	-456
▁includ	-457
ile	-458
ens	-459
通过	-460
▁than	-461
包括	-462
需要	-463
进行	-464
政府	-465
这些	-466
oun	-467
联合国	-468
▁people	-469
如果	-470
eneral	-471
ays	-472
yst	-473
gan	-474
▁need	-475
▁time	-476
▁any	-477
ond	-478
ory	-479
▁eff	-480
12	-481
▁qu	-482
ric	-483
ights	-484
美国	-485
ven	-486
世界	-487
uman	-488
ings	-489
ass	-490
aw	-491
ific	-492
oll	-493
▁You	-494
▁ass	-495
ystem	-496
ove	-497
use	-498
▁should	-499
▁dec	-500
服务	-501
echn	-502
技术	-503
▁他	-504
安全	-505
enc	-506
▁我们	-507
▁am	-508
▁over	-509
▁bec	-510
▁no	-511
olog	-512
自己	-513
关于	-514
▁Nations	-515
irst	-516
的人	-517
▁sec	-518
duct	-519
▁rel	-520
▁This	-521
ink	-522
▁like	-523
ted	-524
▁pol	-525
▁ro	-526
uc	-527
ious	-528
▁7	-529
ork	-530
ative	-531
ices	-532
lect	-533
方面	-534
▁what	-535
ater	-536
▁bet	-537
gram	-538
社会	-539
ublic	-540
ries	-541
ft	-542
ident	-543
201	-544
here	-545
vers	-546
we	-547
▁inv	-548
▁sub	-549
mer	-550
▁States	-551
▁add	-552
▁Chin	-553
onom	-554
iew	-555
itte	-556
▁some	-557
▁Sec	-558
▁tw	-559
rough	-560
ility	-561
▁sc	-562
经济	-563
oin	-564
研究	-565
old	-566
▁into	-567
情况	-568
hed	-569
▁resp	-570
▁only	-571
ating	-572
les	-573
▁requ	-574
▁8	-575
ember	-576
lement	-577
ov	-578
000	-579
ough	-580
▁Re	-581
ittee	-582
因为	-583
resent	-584
▁international	-585
▁system	-586
erm	-587
ound	-588
不是	-589
▁serv	-590
ally	-591
▁such	-592
▁Go	-593
▁world	-594
ures	-595
▁inform	-596
rent	-597
▁pers	-598
任何	-599
▁And	-600
ning	-601
rop	-602
酒店	-603
▁if	-604
▁report	-605
中国	-606
▁proc	-607
系统	-608
vernment	-609
ise	-610
ission	-611
的一	-612
▁years	-613
已经	-614
▁10	-615
ganiz	-616
▁just	-617
▁her	-618
知道	-619
▁development	-620
row	-621
▁des	-622
ty	-623
▁但	-624
roup	-625
rib	-626
▁Committee	-627
ret	-628
ject	-629
▁'	-630
ecial	-631
机构	-632
ient	-633
▁first	-634
▁ob	-635
▁trans	-636
rit	-637
方案	-638
▁9	-639
und	-640
▁partic	-641
ob	-642
管理	-643
▁use	-644
ied	-645
项目	-646
omen	-647
ional	-648
ange	-649
urity	-650
.”	-651
ne	-652
any	-653
ause	-654
▁may	-655
ular	-656
合作	-657
重要	-658
ces	-659
get	-660
▁em	-661
ful	-662
这个	-663
▁human	-664
▁ent	-665
▁support	-666
▁techn	-667
活动	-668
ased	-669
▁how	-670
eration	-671
11	-672
).	-673
▁conc	-674
▁–	-675
▁two	-676
特别	-677
▁countries	-678
orts	-679
▁when	-680
▁Ar	-681
支持	-682
▁te	-683
▁him	-684
▁att	-685
行动	-686
▁could	-687
xt	-688
▁fin	-689
▁pos	-690
执行	-691
▁most	-692
ible	-693
▁inst	-694
时间	-695
信息	-696
代表	-697
uring	-698
▁”	-699
认为	-700
▁these	-701
ues	-702
▁again	-703
ounc	-704
▁cent	-705
olution	-706
▁through	-707
计划	-708
▁Sp	-709
gramm	-710
ife	-711
有关	-712
50	-713
产品	-714
人员	-715
fore	-716
otel	-717
必须	-718
▁child	-719
▁rem	-720
fter	-721
30	-722
▁including	-723
▁199	-724
▁see	-725
现在	-726
数据	-727
ower	-728
air	-729
▁well	-730
amp	-731
▁information	-732
ives	-733
▁every	-734
ision	-735
elf	-736
▁she	-737
▁contin	-738
▁ec	-739
▁get	-740
▁Rep	-741
ks	-742
▁dif	-743
hip	-744
ection	-745
就是	-746
ood	-747
▁meet	-748
ms	-749
wn	-750
feren	-751
▁want	-752
alth	-753
你的	-754
▁De	-755
全球	-756
▁But	-757
▁those	-758
▁rights	-759
own	-760
▁soc	-761
▁str	-762
▁China	-763
影响	-764
tain	-765
15	-766
)。	-767
一些	-768
▁fe	-769
1.	-770
ata	-771
这一	-772
▁don	-773
▁An	-774
▁_	-775
arket	-776
ween	-777
▁aut	-778
▁Ad	-779
部分	-780
▁est	-781
我的	-782
▁[	-783
▁make	-784
▁For	-785
根据	-786
▁inter	-787
▁made	-788
▁now	-789
▁did	-790
▁import	-791
lp	-792
▁many	-793
mb	-794
199	-795
▁implement	-796
决议	-797
ouncil	-798
tic	-799
▁bu	-800
eth	-801
▁En	-802
中心	-803
▁exper	-804
▁par	-805
▁UN	-806
ology	-807
com	-808
▁right	-809
▁between	-810
▁econom	-811
▁mon	-812
ting	-813
rap	-814
▁provid	-815
gy	-816
美元	-817
iness	-818
ick	-819
ys	-820
开始	-821
▁law	-822
▁disc	-823
app	-824
,”	-825
▁good	-826
ollow	-827
▁process	-828
▁第	-829
▁high	-830
▁How	-831
建议	-832
▁women	-833
▁commun	-834
▁Council	-835
abl	-836
▁cap	-837
▁Is	-838
illion	-839
▁Tr	-840
18	-841
▁organiz	-842
作为	-843
▁iss	-844
oth	-845
ward	-846
als	-847
▁num	-848
▁ac	-849
▁help	-850
▁不	-851
ily	-852
▁stud	-853
表示	-854
round	-855
▁br	-856
2.	-857
▁incre	-858
▁bel	-859
▁prot	-860
决定	-861
▁如果	-862
妇女	-863
秘书	-864
要求	-865
的是	-866
uss	-867
▁What	-868
▁very	-869
ern	-870
▁Co	-871
aking	-872
保护	-873
▁Al	-874
ince	-875
▁If	-876
vention	-877
▁Ex	-878
他的	-879
大的	-880
ah	-881
▁gu	-882
人的	-883
ble	-884
lob	-885
ath	-886
ural	-887
▁take	-888
▁national	-889
▁Ind	-890
pr	-891
儿童	-892
▁car	-893
▁call	-894
▁ph	-895
ination	-896
法律	-897
ics	-898
ever	-899
公约	-900
人权	-901
ects	-902
主要	-903
▁inte	-904
ality	-905
企业	-906
▁set	-907
主义	-908
▁min	-909
other	-910
its	-911
ism	-912
▁They	-913
▁think	-914
land	-915
urn	-916
▁product	-917
ference	-918
成为	-919
▁long	-920
中的	-921
▁person	-922
生活	-923
继续	-924
我们的	-925
ix	-926
utions	-927
市场	-928
▁where	-929
3.	-930
ivers	-931
环境	-932
▁sm	-933
如何	-934
▁market	-935
▁oper	-936
,000	-937
▁because	-938
▁New	-939
led	-940
▁$	-941
iet	-942
usiness	-943
▁own	-944
up	-945
▁follow	-946
▁ref	-947
▁loc	-948
▁data	-949
uch	-950
区域	-951
day	-952
ool	-953
政策	-954
lear	-955
ute	-956
ters	-957
aff	-958
▁det	-959
解决	-960
ience	-961
▁must	-962
ene	-963
▁activ	-964
▁Sh	-965
大会	-966
ank	-967
▁life	-968
16	-969
▁end	-970
pos	-971
."	-972
der	-973
▁>	-974
ict	-975
▁way	-976
ved	-977
▁cur	-978
▁country	-979
▁leg	-980
ized	-981
事会	-982
▁All	-983
目标	-984
▁back	-985
▁prom	-986
ants	-987
▁even	-988
▁programm	-989
正在	-990
方式	-991
irect	-992
▁ful	-993
pl	-994
▁invest	-995
▁State	-996
▁conf	-997
lobal	-998
arm	-999
▁International	-1000
规定	-1001
▁look	-1002
▁At	-1003
iron	-1004
采取	-1005
获得	-1006
▁after	-1007
meric	-1008
raph	-1009
▁ke	-1010
因此	-1011
14	-1012
bers	-1013
▁main	-1014
▁There	-1015
ession	-1016
▁equ	-1017
新的	-1018
——	-1019
▁Af	-1020
这种	-1021
非常	-1022
能够	-1023
能力	-1024
ective	-1025
agement	-1026
是一个	-1027
▁against	-1028
arch	-1029
▁Secret	-1030
提出	-1031
view	-1032
▁的	-1033
▁level	-1034
地区	-1035
ents	-1036
是一	-1037
▁ext	-1038
▁say	-1039
▁great	-1040
inc	-1041
25	-1042
▁Z	-1043
13	-1044
这样	-1045
▁sign	-1046
▁then	-1047
不同	-1048
▁Dec	-1049
▁lead	-1050
教育	-1051
hor	-1052
▁same	-1053
▁here	-1054
▁No	-1055
rim	-1056
▁15	-1057
希望	-1058
semb	-1059
▁number	-1060
▁mod	-1061
理事会	-1062
4.	-1063
▁General	-1064
▁18	-1065
▁Americ	-1066
ral	-1067
措施	-1068
ital	-1069
oy	-1070
ai	-1071
▁有	-1072
之间	-1073
▁does	-1074
▁gr	-1075
▁On	-1076
权利	-1077
好的	-1078
▁children	-1079
cept	-1080
行为	-1081
rest	-1082
17	-1083
▁polic	-1084
更多	-1085
ock	-1086
缔约	-1087
▁establ	-1088
0.	-1089
其中	-1090
oint	-1091
它们	-1092
努力	-1093
成员	-1094
ished	-1095
ency	-1096
▁resolution	-1097
loy	-1098
viron	-1099
rol	-1100
▁public	-1101
▁bl	-1102
资源	-1103
▁used	-1104
min	-1105
▁pur	-1106
duc	-1107
许多	-1108
▁adv	-1109
▁Res	-1110
▁Le	-1111
▁col	-1112
:“	-1113
▁Eu	-1114
和平	-1115
io	-1116
ten	-1117
▁being	-1118
ner	-1119
”。	-1120
生产	-1121
ax	-1122
▁Or	-1123
▁health	-1124
▁op	-1125
ather	-1126
▁plan	-1127
▁fam	-1128
建立	-1129
帮助	-1130
▁God	-1131
mit	-1132
ese	-1133
sembly	-1134
▁ed	-1135
个人	-1136
▁meas	-1137
开发	-1138
▁ser	-1139
▁day	-1140
投资	-1141
ommend	-1142
▁Off	-1143
确保	-1144
实现	-1145
▁So	-1146
到了	-1147
▁group	-1148
way	-1149
▁state	-1150
目前	-1151
▁financ	-1152
ages	-1153
ources	-1154
ron	-1155
应该	-1156
ected	-1157
▁before	-1158
▁mem	-1159
▁av	-1160
duction	-1161
文件	-1162
ieve	-1163
▁sit	-1164
▁cre	-1165
▁important	-1166
vironment	-1167
发生	-1168
ruct	-1169
第一	-1170
关系	-1171
▁一	-1172
▁med	-1173
▁security	-1174
6.	-1175
▁ins	-1176
hes	-1177
ilit	-1178
增加	-1179
ploy	-1180
ize	-1181
领域	-1182
▁Commission	-1183
▁grow	-1184
▁three	-1185
用于	-1186
▁particular	-1187
注意	-1188
▁business	-1189
rope	-1190
ug	-1191
▁为	-1192
▁1.	-1193
▁indust	-1194
自己的	-1195
ines	-1196
▁That	-1197
alk	-1198
tle	-1199
▁Q	-1200
相关	-1201
icial	-1202
▁12	-1203
▁Assembly	-1204
▁ens	-1205
▁lar	-1206
man	-1207
▁rele	-1208
▁form	-1209
▁sur	-1210
▁still	-1211
▁fac	-1212
▁services	-1213
基金	-1214
raft	-1215
resident	-1216
不能	-1217
az	-1218
7.	-1219
▁appro	-1220
port	-1221
▁dem	-1222
▁def	-1223
不会	-1224
▁poss	-1225
他们的	-1226
ouse	-1227
▁Europe	-1228
▁inf	-1229
ium	-1230
ually	-1231
aj	-1232
▁US	-1233
时候	-1234
yp	-1235
同时	-1236
aining	-1237
ros	-1238
ferent	-1239
持续	-1240
▁,	-1241
选择	-1242
▁cour	-1243
程序	-1244
▁她	-1245
ticle	-1246
▁Hotel	-1247
urther	-1248
▁Com	-1249
▁provide	-1250
▁stand	-1251
60	-1252
ady	-1253
ote	-1254
iel	-1255
设计	-1256
▁within	-1257
▁recommend	-1258
▁impro	-1259
ability	-1260
stand	-1261
▁To	-1262
▁comple	-1263
iol	-1264
▁find	-1265
▁Afric	-1266
▁Mr	-1267
▁order	-1268
ars	-1269
ared	-1270
ases	-1271
ists	-1272
▁val	-1273
leg	-1274
▁2.	-1275
▁—	-1276
The	-1277
▁million	-1278
▁Be	-1279
是在	-1280
ness	-1281
▁social	-1282
▁much	-1283
▁当	-1284
ration	-1285
政治	-1286
促进	-1287
参与	-1288
▁each	-1289
了一	-1290
▁activities	-1291
▁design	-1292
au	-1293
▁dr	-1294
▁fl	-1295
▁fact	-1296
iving	-1297
iod	-1298
▁last	-1299
发现	-1300
▁different	-1301
ale	-1302
地方	-1303
▁found	-1304
ows	-1305
▁Part	-1306
li	-1307
▁consid	-1308
▁Cent	-1309
ody	-1310
▁She	-1311
5.	-1312
▁ev	-1313
▁Republic	-1314
chool	-1315
▁session	-1316
▁company	-1317
▁play	-1318
网络	-1319
operation	-1320
▁他们	-1321
▁/	-1322
所以	-1323
方法	-1324
年的	-1325
ature	-1326
利亚	-1327
▁present	-1328
处理	-1329
ization	-1330
▁both	-1331
先生	-1332
▁som	-1333
▁implementation	-1334
▁fund	-1335
eng	-1336
med	-1337
得到	-1338
▁该	-1339
▁author	-1340
▁Convention	-1341
▁proble	-1342
标准	-1343
而且	-1344
General	-1345
▁represent	-1346
▁它	-1347
24	-1348
加强	-1349
stit	-1350
▁Secretary	-1351
▁peace	-1352
▁down	-1353
▁Government	-1354
▁Develop	-1355
人民	-1356
的事	-1357
设备	-1358
▁assist	-1359
▁economic	-1360
▁Pl	-1361
部门	-1362
▁global	-1363
iven	-1364
imate	-1365
uation	-1366
▁applic	-1367
▁non	-1368
欧洲	-1369
work	-1370
上的	-1371
▁supp	-1372
▁ret	-1373
▁during	-1374
▁Group	-1375
有效	-1376
考虑	-1377
我們	-1378
▁special	-1379
1,	-1380
▁adop	-1381
ird	-1382
▁sim	-1383
ention	-1384
err	-1385
▁Se	-1386
8.	-1387
orld	-1388
▁while	-1389
▁elect	-1390
ash	-1391
▁--	-1392
共和	-1393
控制	-1394
▁real	-1395
▁spec	-1396
秘书长	-1397
ield	-1398
网站	-1399
主席	-1400
▁fore	-1401
imes	-1402
ph	-1403
IC	-1404
科学	-1405
有限	-1406
9.	-1407
▁current	-1408
▁del	-1409
inal	-1410
存在	-1411
ered	-1412
▁build	-1413
▁place	-1414
ustom	-1415
▁financial	-1416
▁power	-1417
▁mat	-1418
对于	-1419
▁dist	-1420
▁particip	-1421
▁hand	-1422
▁start	-1423
itical	-1424
/5	-1425
文化	-1426
▁view	-1427
▁那	-1428
▁concern	-1429
▁viol	-1430
ract	-1431
▁meeting	-1432
基础	-1433
▁Min	-1434
▁educ	-1435
40	-1436
自由	-1437
▁rese	-1438
期间	-1439
outh	-1440
erc	-1441
atic	-1442
战略	-1443
▁happ	-1444
家庭	-1445
并且	-1446
▁period	-1447
是否	-1448
▁air	-1449
▁addition	-1450
▁aff	-1451
▁regard	-1452
itions	-1453
▁come	-1454
很多	-1455
斯坦	-1456
孩子	-1457
▁care	-1458
▁cost	-1459
▁access	-1460
▁shall	-1461
ering	-1462
▁cor	-1463
ired	-1464
▁environment	-1465
ilities	-1466
提交	-1467
ential	-1468
▁members	-1469
.,	-1470
ari	-1471
看到	-1472
▁bas	-1473
健康	-1474
▁technology	-1475
aken	-1476
riend	-1477
▁accord	-1478
调查	-1479
大学	-1480
▁month	-1481
▁address	-1482
拥有	-1483
▁best	-1484
▁quest	-1485
▁since	-1486
▁ear	-1487
提高	-1488
▁最	-1489
uture	-1490
▁open	-1491
▁&	-1492
或者	-1493
▁too	-1494
23	-1495
贸易	-1496
ateg	-1497
”,	-1498
▁然	-1499
ves	-1500
80	-1501
▁X	-1502
line	-1503
ained	-1504
▁此	-1505
城市	-1506
cent	-1507
▁rece	-1508
ulation	-1509
举行	-1510
之一	-1511
▁government	-1512
gest	-1513
的工作	-1514
▁vis	-1515
▁management	-1516
作用	-1517
具有	-1518
应用	-1519
第二	-1520
▁是	-1521
▁though	-1522
▁respons	-1523
less	-1524
ically	-1525
▁without	-1526
▁po	-1527
号决议	-1528
▁World	-1529
机会	-1530
▁never	-1531
ergy	-1532
ocu	-1533
thing	-1534
▁pract	-1535
▁:	-1536
▁但是	-1537
ways	-1538
▁going	-1539
由于	-1540
ross	-1541
▁direct	-1542
了解	-1543
ying	-1544
▁rest	-1545
▁fun	-1546
ccess	-1547
ified	-1548
客户	-1549
▁Me	-1550
▁30	-1551
增长	-1552
▁0	-1553
▁Su	-1554
akes	-1555
分析	-1556
▁Gu	-1557
▁measures	-1558
22	-1559
▁further	-1560
▁Security	-1561
els	-1562
▁3.	-1563
▁gen	-1564
bs	-1565
▁let	-1566
结果	-1567
▁ensure	-1568
ajor	-1569
一直	-1570
▁resources	-1571
▁prof	-1572
人们	-1573
▁account	-1574
ued	-1575
▁ach	-1576
enn	-1577
reng	-1578
您的	-1579
AR	-1580
iation	-1581
be	-1582
▁ann	-1583
self	-1584
▁interest	-1585
非洲	-1586
来的	-1587
etwork	-1588
part	-1589
接受	-1590
▁13	-1591
▁better	-1592
▁Development	-1593
▁Sc	-1594
利用	-1595
▁When	-1596
iversity	-1597
ners	-1598
go	-1599
▁spe	-1600
ivil	-1601
reed	-1602
一步	-1603
▁change	-1604
武器	-1605
▁around	-1606
iety	-1607
▁control	-1608
▁ris	-1609
▁organizations	-1610
agraph	-1611
orth	-1612
共和国	-1613
ert	-1614
▁Pr	-1615
▁Rights	-1616
援助	-1617
两个	-1618
罗斯	-1619
);	-1620
ived	-1621
▁cooperation	-1622
por	-1623
各种	-1624
▁second	-1625
,“	-1626
讨论	-1627
▁Ro	-1628
▁future	-1629
▁Fr	-1630
实施	-1631
▁contrib	-1632
之前	-1633
ised	-1634
▁che	-1635
▁products	-1636
这是	-1637
▁bo	-1638
▁efforts	-1639
▁.	-1640
ivid	-1641
▁service	-1642
▁Cl	-1643
都是	-1644
只有	-1645
▁treat	-1646
▁lit	-1647
▁pop	-1648
ards	-1649
▁Can	-1650
▁issues	-1651
来自	-1652
▁avail	-1653
缔约国	-1654
▁understand	-1655
用户	-1656
届会议	-1657
确定	-1658
▁char	-1659
ption	-1660
那些	-1661
IN	-1662
指出	-1663
▁small	-1664
▁Pe	-1665
ined	-1666
ertain	-1667
ER	-1668
▁working	-1669
▁water	-1670
▁Man	-1671
/6	-1672
联系	-1673
▁Do	-1674
一起	-1675
成功	-1676
▁cr	-1677
acy	-1678
的最	-1679
▁term	-1680
▁cond	-1681
▁sol	-1682
▁major	-1683
▁May	-1684
ON	-1685
gress	-1686
▁14	-1687
▁require	-1688
une	-1689
▁next	-1690
ibility	-1691
▁fr	-1692
▁President	-1693
ware	-1694
▁el	-1695
ason	-1696
减少	-1697
▁ask	-1698
▁Conference	-1699
▁commit	-1700
▁bro	-1701
▁full	-1702
ification	-1703
sp	-1704
性的	-1705
▁effective	-1706
▁‘	-1707
▁eng	-1708
▁political	-1709
esp	-1710
ains	-1711
lease	-1712
26	-1713
minist	-1714
▁areas	-1715
ek	-1716
▁Comp	-1717
▁review	-1718
aterial	-1719
完成	-1720
▁policy	-1721
ogn	-1722
但是	-1723
▁continue	-1724
▁With	-1725
系列	-1726
▁16	-1727
一种	-1728
协调	-1729
电子	-1730
▁lear	-1731
▁Ag	-1732
ope	-1733
ecess	-1734
超过	-1735
▁custom	-1736
▁team	-1737
▁streng	-1738
▁really	-1739
▁17	-1740
例如	-1741
▁*	-1742
草案	-1743
▁instit	-1744
▁always	-1745
的问题	-1746
▁docu	-1747
审查	-1748
参加	-1749
isions	-1750
▁another	-1751
itor	-1752
▁propos	-1753
▁var	-1754
vant	-1755
ocus	-1756
oh	-1757
▁App	-1758
▁four	-1759
告诉	-1760
28	-1761
▁pay	-1762
▁agree	-1763
事务	-1764
▁become	-1765
ister	-1766
▁things	-1767
▁My	-1768
27	-1769
ator	-1770
▁possible	-1771
行业	-1772
sh	-1773
俄罗斯	-1774
▁大	-1775
有限公司	-1776
学生	-1777
1)	-1778
尼亚	-1779
▁general	-1780
vious	-1781
和其他	-1782
▁among	-1783
▁family	-1784
▁expl	-1785
ething	-1786
▁list	-1787
开展	-1788
▁needs	-1789
▁love	-1790
共同	-1791
iti	-1792
各国	-1793
▁war	-1794
变化	-1795
▁chang	-1796
▁Pol	-1797
任务	-1798
▁met	-1799
▁home	-1800
▁industry	-1801
ger	-1802
▁Human	-1803
▁post	-1804
作出	-1805
oss	-1806
▁school	-1807
专家	-1808
ES	-1809
伙伴	-1810
IS	-1811
今天	-1812
产生	-1813
过程	-1814
....	-1815
▁following	-1816
▁free	-1817
▁got	-1818
▁education	-1819
▁draft	-1820
完全	-1821
▁Ph	-1822
▁old	-1823
rug	-1824
oney	-1825
业务	-1826
incip	-1827
ving	-1828
▁area	-1829
▁Serv	-1830
▁examp	-1831
ier	-1832
fact	-1833
▁community	-1834
▁typ	-1835
▁priv	-1836
▁decision	-1837
只是	-1838
ently	-1839
▁paragraph	-1840
▁party	-1841
之后	-1842
uly	-1843
▁employ	-1844
▁pat	-1845
enef	-1846
范围	-1847
你们	-1848
▁ident	-1849
印度	-1850
▁4.	-1851
▁provided	-1852
▁Chinese	-1853
▁《	-1854
责任	-1855
▁这些	-1856
▁Office	-1857
▁However	-1858
▁project	-1859
进一步	-1860
▁proper	-1861
▁上	-1862
无法	-1863
▁might	-1864
必要	-1865
▁beh	-1866
ecut	-1867
ets	-1868
atives	-1869
▁give	-1870
ode	-1871
▁Cont	-1872
▁called	-1873
the	-1874
一次	-1875
喜欢	-1876
▁anal	-1877
▁prep	-1878
▁因此	-1879
仍然	-1880
▁percent	-1881
▁available	-1882
21	-1883
udget	-1884
基本	-1885
▁cult	-1886
AN	-1887
审议	-1888
▁regional	-1889
▁National	-1890
设施	-1891
一样	-1892
▁perform	-1893
▁research	-1894
▁exc	-1895
取得	-1896
▁capac	-1897
▁occ	-1898
▁developing	-1899
培训	-1900
▁article	-1901
的情况	-1902
▁held	-1903
的报告	-1904
受到	-1905
英国	-1906
isc	-1907
▁food	-1908
▁programme	-1909
?”	-1910
to	-1911
▁success	-1912
▁friend	-1913
小组	-1914
▁show	-1915
▁means	-1916
过去	-1917
这里	-1918
也是	-1919
东西	-1920
2,	-1921
专业	-1922
▁exist	-1923
▁focus	-1924
▁something	-1925
显示	-1926
▁feel	-1927
▁necess	-1928
▁local	-1929
▁Russ	-1930
▁case	-1931
来说	-1932
▁December	-1933
rem	-1934
▁11	-1935
▁sect	-1936
汽车	-1937
td	-1938
尽管	-1939
jects	-1940
▁protection	-1941
alf	-1942
领导	-1943
ck	-1944
▁Bo	-1945
▁result	-1946
▁large	-1947
/200	-1948
ins	-1949
29	-1950
预算	-1951
集团	-1952
历史	-1953
▁Eng	-1954
oms	-1955
▁men	-1956
▁mult	-1957
▁improve	-1958
▁pass	-1959
anies	-1960
人类	-1961
▁staff	-1962
▁put	-1963
aren	-1964
ims	-1965
▁request	-1966
怎么	-1967
▁dev	-1968
虽然	-1969
▁name	-1970
iver	-1971
100	-1972
▁benef	-1973
ton	-1974
▁mar	-1975
pportun	-1976
ense	-1977
需求	-1978
▁enc	-1979
for	-1980
方面的	-1981
制造	-1982
▁today	-1983
▁Rec	-1984
ready	-1985
utes	-1986
未来	-1987
▁experience	-1988
then	-1989
aving	-1990
▁Acc	-1991
irl	-1992
▁One	-1993
▁新	-1994
▁taken	-1995
▁Ec	-1996
▁stat	-1997
▁assistance	-1998
▁eas	-1999
▁sl	-2000
ults	-2001
▁2018	-2002
AT	-2003
改变	-2004
▁energy	-2005
▁less	-2006
▁few	-2007
-0	-2008
70	-2009
▁委员会	-2010
ividual	-2011
原因	-2012
还有	-2013
第三	-2014
朋友	-2015
交易	-2016
评估	-2017
起来	-2018
itive	-2019
▁civil	-2020
▁Dep	-2021
实际	-2022
▁official	-2023
reen	-2024
▁material	-2025
人口	-2026
▁network	-2027
uclear	-2028
▁establish	-2029
▁head	-2030
▁read	-2031
及其	-2032
ances	-2033
▁invol	-2034
ina	-2035
▁role	-2036
▁Special	-2037
▁对	-2038
内容	-2039
▁big	-2040
▁event	-2041
▁...	-2042
犯罪	-2043
▁production	-2044
▁allow	-2045
▁Ab	-2046
▁relevant	-2047
资料	-2048
▁South	-2049
▁const	-2050
学习	-2051
▁trad	-2052
▁integr	-2053
多数	-2054
▁trade	-2055
▁clear	-2056
▁based	-2057
▁word	-2058
定的	-2059
▁action	-2060
uck	-2061
条件	-2062
▁tell	-2063
▁already	-2064
ocr	-2065
3,	-2066
甚至	-2067
意见	-2068
民主	-2069
5,	-2070
发言	-2071
ament	-2072
iqu	-2073
风险	-2074
▁field	-2075
▁legal	-2076
enda	-2077
建设	-2078
欢迎	-2079
▁mean	-2080
公共	-2081
▁training	-2082
保持	-2083
orn	-2084
ream	-2085
▁example	-2086
▁opportun	-2087
▁why	-2088
ury	-2089
▁land	-2090
▁away	-2091
银行	-2092
▁whe	-2093
We	-2094
位置	-2095
▁discuss	-2096
abor	-2097
ories	-2098
▁Soc	-2099
ling	-2100
▁days	-2101
ior	-2102
▁companies	-2103
▁chall	-2104
▁European	-2105
▁increase	-2106
▁lim	-2107
apan	-2108
angu	-2109
rior	-2110
相信	-2111
直接	-2112
ID	-2113
创造	-2114
idence	-2115
以来	-2116
mm	-2117
日本	-2118
价值	-2119
▁Reg	-2120
error	-2121
可持续	-2122
▁situation	-2123
ended	-2124
ource	-2125
ences	-2126
材料	-2127
ify	-2128
ned	-2129
▁sk	-2130
▁tot	-2131
▁individual	-2132
▁able	-2133
▁和	-2134
▁test	-2135
echan	-2136
国家的	-2137
法院	-2138
原则	-2139
▁express	-2140
咨询	-2141
▁Ass	-2142
造成	-2143
▁compet	-2144
ilitary	-2145
▁从	-2146
挑战	-2147
▁little	-2148
议程	-2149
ee	-2150
游戏	-2151
fer	-2152
lose	-2153
▁Not	-2154
aster	-2155
总统	-2156
not	-2157
▁recogn	-2158
说明	-2159
独立	-2160
▁include	-2161
出现	-2162
lus	-2163
rist	-2164
负责	-2165
金融	-2166
▁strong	-2167
ours	-2168
暴力	-2169
▁此外	-2170
▁least	-2171
以下	-2172
atch	-2173
计算	-2174
86	-2175
ender	-2176
▁hist	-2177
如此	-2178
机制	-2179
▁Techn	-2180
▁growth	-2181
▁ur	-2182
▁princip	-2183
知识	-2184
▁Organiz	-2185
之间的	-2186
▁la	-2187
严重	-2188
ple	-2189
▁2017	-2190
ex	-2191
▁capacity	-2192
ructure	-2193
强调	-2194
duce	-2195
冲突	-2196
质量	-2197
ames	-2198
ept	-2199
工业	-2200
aration	-2201
▁Work	-2202
▁sust	-2203
▁ide	-2204
还是	-2205
come	-2206
ipment	-2207
联盟	-2208
earch	-2209
osed	-2210
ED	-2211
▁light	-2212
▁Fin	-2213
,"	-2214
▁然而	-2215
▁believe	-2216
ules	-2217
▁systems	-2218
wards	-2219
▁progress	-2220
注意到	-2221
▁Africa	-2222
sel	-2223
▁item	-2224
1/	-2225
icult	-2226
ians	-2227
epend	-2228
运动	-2229
▁bre	-2230
AS	-2231
ait	-2232
▁toget	-2233
▁lot	-2234
na	-2235
▁together	-2236
4,	-2237
ruction	-2238
ng	-2239
特别是	-2240
▁fil	-2241
工程	-2242
▁dom	-2243
▁keep	-2244
▁respect	-2245
▁June	-2246
▁communic	-2247
以便	-2248
▁conn	-2249
▁Japan	-2250
▁beg	-2251
▁关于	-2252
的国家	-2253
▁Mar	-2254
▁book	-2255
aged	-2256
真的	-2257
导致	-2258
形式	-2259
ests	-2260
空间	-2261
高级	-2262
▁100	-2263
▁using	-2264
色列	-2265
▁related	-2266
自然	-2267
--	-2268
▁Am	-2269
以色列	-2270
ropri	-2271
▁strengthen	-2272
平台	-2273
ators	-2274
iate	-2275
分钟	-2276
能源	-2277
▁hig	-2278
asing	-2279
整个	-2280
功能	-2281
▁hard	-2282
ising	-2283
35	-2284
ont	-2285
▁这是	-2286
工具	-2287
承诺	-2288
aring	-2289
全面	-2290
▁five	-2291
rael	-2292
行政	-2293
协议	-2294
ery	-2295
▁quality	-2296
价格	-2297
ufact	-2298
▁These	-2299
▁indic	-2300
具体	-2301
恐怖	-2302
▁technical	-2303
▁object	-2304
资金	-2305
▁established	-2306
一切	-2307
onomic	-2308
者的	-2309
▁cho	-2310
办公	-2311
▁i	-2312
数字	-2313
准备	-2314
▁past	-2315
▁partners	-2316
生物	-2317
▁Act	-2318
lection	-2319
她的	-2320
▁certain	-2321
▁Pal	-2322
▁Jan	-2323
▁neg	-2324
尤其	-2325
ump	-2326
AC	-2327
真正	-2328
▁American	-2329
▁hotel	-2330
制定	-2331
▁comb	-2332
电话	-2333
ief	-2334
平等	-2335
▁arr	-2336
▁says	-2337
框架	-2338
▁talk	-2339
▁often	-2340
条约	-2341
进入	-2342
▁parties	-2343
社区	-2344
rict	-2345
为了	-2346
表明	-2347
▁Aust	-2348
ises	-2349
国内	-2350
▁25	-2351
▁necessary	-2352
sc	-2353
▁而	-2354
安全理事会	-2355
正式	-2356
▁2008	-2357
▁key	-2358
▁Pre	-2359
那么	-2360
制度	-2361
▁2019	-2362
▁consum	-2363
ison	-2364
▁study	-2365
ik	-2366
▁Israel	-2367
▁far	-2368
▁move	-2369
▁Col	-2370
eb	-2371
目的	-2372
▁budget	-2373
▁run	-2374
费用	-2375
▁Prot	-2376
代表团	-2377
▁money	-2378
EC	-2379
▁upon	-2380
▁thing	-2381
收入	-2382
ainable	-2383
了一个	-2384
duced	-2385
商业	-2386
aut	-2387
可能会	-2388
nov	-2389
irc	-2390
▁5.	-2391
▁six	-2392
▁whether	-2393
并不	-2394
▁unt	-2395
司法	-2396
小时	-2397
▁Par	-2398
▁relations	-2399
▁consult	-2400
问题的	-2401
2)	-2402
su	-2403
▁24	-2404
▁dep	-2405
▁prior	-2406
ales	-2407
ework	-2408
▁Bl	-2409
▁top	-2410
艺术	-2411
ecially	-2412
▁signific	-2413
▁本	-2414
▁city	-2415
通常	-2416
atory	-2417
▁job	-2418
ternal	-2419
为什么	-2420
充分	-2421
▁pot	-2422
▁step	-2423
▁course	-2424
AD	-2425
▁cla	-2426
经验	-2427
发展中	-2428
▁adopted	-2429
6,	-2430
▁下	-2431
支助	-2432
45	-2433
▁每	-2434
▁July	-2435
▁question	-2436
▁Br	-2437
▁。	-2438
▁mechan	-2439
mp	-2440
认识	-2441
▁Germ	-2442
▁根据	-2443
▁kind	-2444
关注	-2445
▁Ne	-2446
▁programmes	-2447
gramme	-2448
学校	-2449
):	-2450
▁与	-2451
ged	-2452
▁sever	-2453
▁miss	-2454
▁private	-2455
▁low	-2456
▁promot	-2457
book	-2458
▁cases	-2459
lish	-2460
▁near	-2461
-200	-2462
▁University	-2463
arth	-2464
%。	-2465
▁close	-2466
▁risk	-2467
▁Ltd	-2468
▁Sw	-2469
加拿	-2470
▁return	-2471
个月	-2472
科技	-2473
▁others	-2474
▁Why	-2475
▁appropri	-2476
积极	-2477
找到	-2478
90	-2479
idd	-2480
会员	-2481
▁record	-2482
ried	-2483
▁阿	-2484
amework	-2485
IT	-2486
重新	-2487
结束	-2488
▁America	-2489
生命	-2490
ending	-2491
▁jud	-2492
想要	-2493
▁persons	-2494
arian	-2495
▁region	-2496
▁mach	-2497
的一个	-2498
uge	-2499
ethod	-2500
oman	-2501
消费	-2502
osp	-2503
▁military	-2504
ban	-2505
▁•	-2506
essional	-2507
▁50	-2508
▁美国	-2509
yr	-2510
▁developed	-2511
▁consider	-2512
▁tar	-2513
ably	-2514
▁total	-2515
限制	-2516
dd	-2517
uild	-2518
的时候	-2519
特派	-2520
▁live	-2521
▁specific	-2522
▁II	-2523
▁kill	-2524
关键	-2525
hib	-2526
▁didn	-2527
▁ve	-2528
▁problems	-2529
ands	-2530
记录	-2531
新闻	-2532
ober	-2533
over	-2534
▁enter	-2535
▁nuclear	-2536
▁several	-2537
▁deal	-2538
建筑	-2539
▁third	-2540
▁Oct	-2541
▁请	-2542
▁given	-2543
进程	-2544
▁reports	-2545
augh	-2546
▁girl	-2547
办法	-2548
▁turn	-2549
▁until	-2550
▁achieve	-2551
▁times	-2552
歧视	-2553
▁assess	-2554
访问	-2555
ariat	-2556
▁中	-2557
hing	-2558
▁By	-2559
规则	-2560
ety	-2561
重要的	-2562
加入	-2563
OS	-2564
oot	-2565
结构	-2566
星期	-2567
▁langu	-2568
airs	-2569
软件	-2570
▁society	-2571
世纪	-2572
▁Sept	-2573
▁various	-2574
发布	-2575
▁space	-2576
▁submit	-2577
▁months	-2578
▁body	-2579
▁Car	-2580
感到	-2581
秘书处	-2582
部队	-2583
媒体	-2584
水平	-2585
令人	-2586
▁value	-2587
▁seem	-2588
▁told	-2589
7,	-2590
按照	-2591
死亡	-2592
▁week	-2593
OR	-2594
▁His	-2595
特派团	-2596
2/	-2597
▁Li	-2598
▁art	-2599
▁opt	-2600
▁class	-2601
▁deb	-2602
▁diff	-2603
▁Organization	-2604
卫生	-2605
rial	-2606
德国	-2607
▁esp	-2608
▁program	-2609
▁point	-2610
▁line	-2611
▁groups	-2612
▁bi	-2613
加拿大	-2614
▁accordance	-2615
%,	-2616
▁Your	-2617
ided	-2618
▁mov	-2619
ledge	-2620
▁writ	-2621
▁dest	-2622
ones	-2623
▁Christ	-2624
▁bring	-2625
aus	-2626
▁proced	-2627
▁prevent	-2628
bsite	-2629
▁significant	-2630
▁issue	-2631
31	-2632
▁common	-2633
most	-2634
mber	-2635
ule	-2636
▁conflic	-2637
ological	-2638
EN	-2639
▁High	-2640
9,	-2641
▁document	-2642
▁house	-2643
▁problem	-2644
▁impact	-2645
▁sex	-2646
ceed	-2647
医疗	-2648
采用	-2649
▁September	-2650
▁complete	-2651
▁cannot	-2652
hold	-2653
▁Int	-2654
▁strateg	-2655
......	-2656
ges	-2657
适当	-2658
selves	-2659
▁hold	-2660
的方式	-2661
▁death	-2662
长期	-2663
利益	-2664
▁2000	-2665
▁sing	-2666
▁就	-2667
广泛	-2668
▁obs	-2669
▁年	-2670
2000	-2671
ipp	-2672
意味	-2673
ternet	-2674
联邦	-2675
供应	-2676
vis	-2677
icient	-2678
▁crim	-2679
不断	-2680
同意	-2681
Ch	-2682
▁所以	-2683
他們	-2684
verage	-2685
fety	-2686
▁crit	-2687
▁done	-2688
▁making	-2689
▁students	-2690
uary	-2691
鼓励	-2692
▁administ	-2693
▁early	-2694
isl	-2695
▁tem	-2696
▁short	-2697
改善	-2698
▁Some	-2699
ovember	-2700
▁Social	-2701
将在	-2702
▁especially	-2703
▁appropriate	-2704
智能	-2705
▁tre	-2706
88	-2707
什麼	-2708
▁Our	-2709
errit	-2710
涉及	-2711
▁above	-2712
竞争	-2713
atural	-2714
▁method	-2715
▁initi	-2716
▁wel	-2717
消除	-2718
▁March	-2719
irm	-2720
▁age	-2721
工作人员	-2722
▁這	-2723
▁required	-2724
允许	-2725
▁wr	-2726
传统	-2727
▁deleg	-2728
75	-2729
▁October	-2730
的大	-2731
至少	-2732
▁manufact	-2733
▁Now	-2734
:00	-2735
ither	-2736
itional	-2737
地位	-2738
▁basis	-2739
▁vol	-2740
eal	-2741
▁Add	-2742
▁现在	-2743
▁Cour	-2744
▁potential	-2745
Th	-2746
不要	-2747
团队	-2748
cy	-2749
▁pres	-2750
▁yet	-2751
成本	-2752
然后	-2753
ran	-2754
事实	-2755
▁2010	-2756
销售	-2757
side	-2758
▁November	-2759
▁happen	-2760
应当	-2761
▁Just	-2762
维持	-2763
▁Depart	-2764
▁personal	-2765
DP	-2766
▁conduct	-2767
语言	-2768
▁sug	-2769
某些	-2770
▁levels	-2771
同样	-2772
▁conditions	-2773
3/	-2774
▁6.	-2775
威胁	-2776
▁Te	-2777
▁encour	-2778
▁coord	-2779
of	-2780
▁violence	-2781
▁equipment	-2782
)(	-2783
encies	-2784
▁ever	-2785
▁results	-2786
36	-2787
nel	-2788
though	-2789
▁中国	-2790
▁sw	-2791
by	-2792
进展	-2793
▁press	-2794
▁您	-2795
更加	-2796
不知道	-2797
的所有	-2798
5/	-2799
4/	-2800
arc	-2801
▁African	-2802
介绍	-2803
事件	-2804
▁Let	-2805
▁difficult	-2806
基于	-2807
▁doing	-2808
▁took	-2809
▁Programme	-2810
▁institutions	-2811
lig	-2812
▁create	-2813
▁effect	-2814
▁share	-2815
ides	-2816
idered	-2817
ocol	-2818
法国	-2819
atform	-2820
3)	-2821
▁projects	-2822
▁ra	-2823
7/	-2824
自动	-2825
距离	-2826
▁After	-2827
aging	-2828
免费	-2829
hers	-2830
new	-2831
▁suff	-2832
9/	-2833
▁resol	-2834
工作组	-2835
那里	-2836
意味着	-2837
▁Apr	-2838
▁Member	-2839
位于	-2840
难民	-2841
不仅	-2842
测试	-2843
▁enough	-2844
不可	-2845
亿美元	-2846
estic	-2847
▁requirements	-2848
apons	-2849
▁building	-2850
▁Home	-2851
▁considered	-2852
▁January	-2853
aced	-2854
所有的	-2855
▁Med	-2856
istan	-2857
阿拉	-2858
▁terror	-2859
▁policies	-2860
改革	-2861
▁Law	-2862
▁thought	-2863
ording	-2864
▁desc	-2865
ced	-2866
▁govern	-2867
▁circ	-2868
ung	-2869
▁rev	-2870
不同的	-2871
比亚	-2872
raz	-2873
ada	-2874
hem	-2875
▁More	-2876
▁Department	-2877
▁Arab	-2878
最近	-2879
解释	-2880
因素	-2881
hens	-2882
办事	-2883
▁City	-2884
▁determ	-2885
一项	-2886
▁agenda	-2887
▁property	-2888
▁sure	-2889
最后	-2890
▁came	-2891
声明	-2892
▁threat	-2893
ats	-2894
▁Economic	-2895
▁reason	-2896
▁attack	-2897
▁leaders	-2898
▁好	-2899
▁stop	-2900
▁公司	-2901
达到	-2902
▁night	-2903
军事	-2904
▁comput	-2905
▁recommendations	-2906
▁enh	-2907
▁tool	-2908
▁safe	-2909
ecutive	-2910
▁April	-2911
治疗	-2912
▁sent	-2913
程度	-2914
▁Board	-2915
办公室	-2916
申请	-2917
▁room	-2918
▁application	-2919
▁sector	-2920
针对	-2921
▁联合国	-2922
几乎	-2923
女性	-2924
▁whole	-2925
ategy	-2926
宣布	-2927
▁foreign	-2928
▁Union	-2929
AL	-2930
ctions	-2931
滋病	-2932
▁young	-2933
▁population	-2934
▁investment	-2935
保证	-2936
▁Product	-2937
anced	-2938
▁recent	-2939
▁monitor	-2940
▁independ	-2941
警察	-2942
创新	-2943
理解	-2944
▁billion	-2945
ique	-2946
公民	-2947
▁later	-2948
▁attention	-2949
▁intro	-2950
▁investig	-2951
icro	-2952
规模	-2953
▁particularly	-2954
协助	-2955
eed	-2956
▁provides	-2957
▁self	-2958
▁once	-2959
▁orig	-2960
avel	-2961
uilding	-2962
istry	-2963
8/	-2964
In	-2965
安排	-2966
艾滋病	-2967
的影响	-2968
ftware	-2969
预防	-2970
性别	-2971
▁framework	-2972
US	-2973
▁According	-2974
全国	-2975
ched	-2976
▁amount	-2977
▁rate	-2978
ony	-2979
)、	-2980
▁target	-2981
6/	-2982
▁酒店	-2983
做出	-2984
erved	-2985
tion	-2986
义务	-2987
▁Austral	-2988
批准	-2989
规划	-2990
▁taking	-2991
▁previous	-2992
▁known	-2993
办事处	-2994
一般	-2995
▁vict	-2996
▁Sa	-2997
有一	-2998
阶段	-2999
▁challeng	-3000
▁left	-3001
IV	-3002
设立	-3003
▁accept	-3004
ients	-3005
br	-3006
纽约	-3007
▁首	-3008
sequ	-3009
urs	-3010
缔约方	-3011
▁Tw	-3012
acebook	-3013
▁protect	-3014
ging	-3015
based	-3016
▁ago	-3017
ilar	-3018
▁member	-3019
izing	-3020
ux	-3021
▁police	-3022
▁legisl	-3023
▁mand	-3024
▁approach	-3025
选举	-3026
joy	-3027
拉克	-3028
▁emer	-3029
500	-3030
▁function	-3031
▁gender	-3032
▁Cop	-3033
ici	-3034
reg	-3035
故事	-3036
每个	-3037
做法	-3038
▁40	-3039
formation	-3040
raw	-3041
▁fail	-3042
▁Asia	-3043
▁matter	-3044
▁York	-3045
ulations	-3046
▁hours	-3047
电影	-3048
lex	-3049
▁sat	-3050
▁mind	-3051
▁Fund	-3052
气候	-3053
▁也	-3054
支付	-3055
▁Gr	-3056
▁Sy	-3057
满足	-3058
▁Are	-3059
▁begin	-3060
▁due	-3061
▁scient	-3062
禁止	-3063
▁Don	-3064
ured	-3065
ef	-3066
战争	-3067
aper	-3068
证明	-3069
▁across	-3070
有的	-3071
推动	-3072
▁sy	-3073
▁increased	-3074
▁laun	-3075
人道	-3076
ored	-3077
▁increasing	-3078
力的	-3079
▁position	-3080
▁gl	-3081
▁seen	-3082
▁force	-3083
成立	-3084
▁living	-3085
有一个	-3086
▁statement	-3087
巴勒	-3088
的事情	-3089
ape	-3090
.1	-3091
▁serious	-3092
经常	-3093
组成	-3094
▁performance	-3095
nex	-3096
面临	-3097
▁operations	-3098
▁promote	-3099
似乎	-3100
▁King	-3101
▁camp	-3102
ij	-3103
▁minutes	-3104
谈判	-3105
▁Kore	-3106
bo	-3107
▁Cor	-3108
更多的	-3109
次会议	-3110
▁website	-3111
UR	-3112
2005	-3113
▁这个	-3114
内的	-3115
▁Aug	-3116
▁©	-3117
▁Service	-3118
▁oblig	-3119
itarian	-3120
▁subject	-3121
ees	-3122
机器	-3123
发展中国家	-3124
OM	-3125
▁media	-3126
2010	-3127
▁Ser	-3128
▁Court	-3129
一定	-3130
▁visit	-3131
▁ste	-3132
▁Mal	-3133
提供了	-3134
rehens	-3135
会员国	-3136
宗教	-3137
dom	-3138
pro	-3139
▁received	-3140
觉得	-3141
除了	-3142
obile	-3143
ogle	-3144
ograph	-3145
ohn	-3146
各项	-3147
电视	-3148
▁hope	-3149
内部	-3150
AP	-3151
aur	-3152
oud	-3153
2008	-3154
ites	-3155
监测	-3156
ane	-3157
货币	-3158
▁costs	-3159
2006	-3160
2004	-3161
模式	-3162
它的	-3163
37	-3164
巴勒斯坦	-3165
stitution	-3166
▁Parties	-3167
▁knowledge	-3168
▁maintain	-3169
aps	-3170
最终	-3171
▁innov	-3172
离开	-3173
▁Aut	-3174
另一	-3175
▁link	-3176
当地	-3177
容易	-3178
并在	-3179
istics	-3180
85	-3181
eah	-3182
状况	-3183
▁economy	-3184
解决方案	-3185
▁reported	-3186
联网	-3187
符合	-3188
▁additional	-3189
观察	-3190
hic	-3191
西亚	-3192
▁terms	-3193
CT	-3194
2018	-3195
▁subst	-3196
▁我們	-3197
▁mor	-3198
唯一	-3199
▁While	-3200
▁having	-3201
▁won	-3202
▁detail	-3203
种族	-3204
rimination	-3205
▁tax	-3206
视频	-3207
”.	-3208
▁Other	-3209
▁coll	-3210
大多数	-3211
▁importance	-3212
▁sustainable	-3213
保障	-3214
▁Air	-3215
阿拉伯	-3216
▁everything	-3217
▁Govern	-3218
▁natural	-3219
▁caus	-3220
▁concerned	-3221
今年	-3222
▁7.	-3223
stitute	-3224
▁East	-3225
课程	-3226
▁half	-3227
▁21	-3228
▁Fed	-3229
稳定	-3230
通知	-3231
而不是	-3232
▁fully	-3233
▁Brit	-3234
▁India	-3235
▁creat	-3236
承认	-3237
▁however	-3238
▁changes	-3239
ologies	-3240
附件	-3241
公寓	-3242
change	-3243
▁stay	-3244
year	-3245
到的	-3246
ills	-3247
▁mom	-3248
acter	-3249
日第	-3250
indows	-3251
▁organization	-3252
事情	-3253
随着	-3254
▁Qu	-3255
▁Palest	-3256
精神	-3257
▁·	-3258
▁Fl	-3259
ysis	-3260
▁history	-3261
▁2016	-3262
▁standards	-3263
▁win	-3264
▁rules	-3265
onse	-3266
▁game	-3267
日至	-3268
▁虽然	-3269
CN	-3270
▁#	-3271
▁towards	-3272
品牌	-3273
▁通过	-3274
term	-3275
▁Dr	-3276
恢复	-3277
才能	-3278
rehensive	-3279
▁phys	-3280
量的	-3281
▁guid	-3282
▁Dis	-3283
▁North	-3284
▁contact	-3285
▁Dem	-3286
▁walk	-3287
pose	-3288
▁needed	-3289
带来	-3290
▁Trans	-3291
yc	-3292
OP	-3293
反对	-3294
▁First	-3295
▁Oh	-3296
▁professional	-3297
UN	-3298
ateral	-3299
▁Then	-3300
sw	-3301
提供的	-3302
▁Direct	-3303
无论	-3304
38	-3305
部长	-3306
▁ey	-3307
▁English	-3308
简单	-3309
▁Women	-3310
rast	-3311
▁repl	-3312
成果	-3313
▁face	-3314
▁Article	-3315
eping	-3316
综合	-3317
这样的	-3318
igital	-3319
▁host	-3320
▁August	-3321
aces	-3322
olid	-3323
39	-3324
▁assoc	-3325
议定	-3326
▁collect	-3327
gu	-3328
协会	-3329
情况下	-3330
▁enjoy	-3331
34	-3332
▁Mon	-3333
手机	-3334
arter	-3335
oid	-3336
▁2006	-3337
的新	-3338
▁1,	-3339
▁ce	-3340
▁drug	-3341
int	-3342
▁poin	-3343
▁heart	-3344
音乐	-3345
▁asked	-3346
从而	-3347
▁continued	-3348
let	-3349
aid	-3350
▁Feb	-3351
▁El	-3352
▁users	-3353
▁higher	-3354
▁Us	-3355
▁+	-3356
▁Every	-3357
▁From	-3358
武装	-3359
购买	-3360
▁noted	-3361
▁single	-3362
▁domestic	-3363
▁friends	-3364
防止	-3365
▁secret	-3366
▁decl	-3367
▁deep	-3368
ival	-3369
▁28	-3370
▁国际	-3371
▁conflict	-3372
yright	-3373
法庭	-3374
▁site	-3375
▁treatment	-3376
的重要	-3377
立法	-3378
▁Well	-3379
odies	-3380
员工	-3381
可以在	-3382
的主要	-3383
出口	-3384
优先	-3385
▁weapons	-3386
AM	-3387
当局	-3388
亚洲	-3389
▁autom	-3390
监督	-3391
▁Please	-3392
▁meetings	-3393
▁according	-3394
▁People	-3395
两年	-3396
检查	-3397
oon	-3398
▁existing	-3399
rain	-3400
▁「	-3401
明确	-3402
发挥	-3403
▁infl	-3404
▁provisions	-3405
equ	-3406
government	-3407
再次	-3408
危险	-3409
▁capital	-3410
▁aim	-3411
▁anything	-3412
上帝	-3413
▁almost	-3414
一致	-3415
最大的	-3416
▁note	-3417
条款	-3418
现代	-3419
▁Sub	-3420
议定书	-3421
ilateral	-3422
▁tas	-3423
▁authorities	-3424
公里	-3425
类型	-3426
ev	-3427
▁Technology	-3428
即使	-3429
ront	-3430
澳大	-3431
指导	-3432
amb	-3433
ires	-3434
▁proposed	-3435
▁relationship	-3436
机场	-3437
论坛	-3438
▁Cons	-3439
职业	-3440
str	-3441
▁safety	-3442
资产	-3443
▁makes	-3444
意识	-3445
lood	-3446
▁reform	-3447
》(	-3448
put	-3449
▁nothing	-3450
▁expected	-3451
决议草案	-3452
年度	-3453
疾病	-3454
移民	-3455
▁office	-3456
▁environmental	-3457
2015	-3458
▁successful	-3459
reet	-3460
▁platform	-3461
十年	-3462
▁active	-3463
itation	-3464
▁series	-3465
65	-3466
▁22	-3467
zer	-3468
协定	-3469
▁ill	-3470
ideo	-3471
itiz	-3472
▁Russian	-3473
恐怖主义	-3474
▁broad	-3475
▁oil	-3476
St	-3477
ney	-3478
▁Cong	-3479
▁price	-3480
▁一个	-3481
▁customers	-3482
▁Indust	-3483
▁2015	-3484
ennium	-3485
▁mother	-3486
财务	-3487
》,	-3488
避免	-3489
▁可	-3490
意义	-3491
▁imm	-3492
▁Per	-3493
▁gener	-3494
uel	-3495
▁如果你	-3496
ilt	-3497
统计	-3498
▁Tur	-3499
IP	-3500
▁自	-3501
▁forward	-3502
▁engine	-3503
是一种	-3504
lean	-3505
世界上	-3506
▁therefore	-3507
▁norm	-3508
ruary	-3509
ama	-3510
伊拉克	-3511
▁range	-3512
-5	-3513
连接	-3514
▁Working	-3515
称为	-3516
iated	-3517
ley	-3518
▁为了	-3519
erson	-3520
发表	-3521
▁2005	-3522
agn	-3523
学院	-3524
mediate	-3525
▁doll	-3526
以前	-3527
助于	-3528
usic	-3529
澳大利亚	-3530
rative	-3531
这么	-3532
▁words	-3533
来越	-3534
iddle	-3535
▁aw	-3536
ades	-3537
▁software	-3538
▁entire	-3539
▁cred	-3540
▁climate	-3541
▁freed	-3542
的第	-3543
▁questions	-3544
reme	-3545
越来越	-3546
危机	-3547
ining	-3548
不得	-3549
2012	-3550
北京	-3551
▁尽管	-3552
香港	-3553
▁ant	-3554
▁60	-3555
所需	-3556
▁Report	-3557
▁Child	-3558
▁soon	-3559
ift	-3560
text	-3561
▁consideration	-3562
fort	-3563
快速	-3564
▁continu	-3565
ocratic	-3566
受害	-3567
旨在	-3568
▁doesn	-3569
▁pub	-3570
▁itself	-3571
▁cell	-3572
▁language	-3573
▁response	-3574
2019	-3575
▁Chair	-3576
▁lack	-3577
▁reflect	-3578
▁人	-3579
▁demand	-3580
的时间	-3581
▁relig	-3582
▁status	-3583
verty	-3584
领土	-3585
▁enterpr	-3586
▁poverty	-3587
▁regular	-3588
土耳	-3589
▁longer	-3590
补充	-3591
组织的	-3592
临时	-3593
▁agreement	-3594
▁23	-3595
ached	-3596
变得	-3597
▁February	-3598
▁included	-3599
移动	-3600
▁vers	-3601
2017	-3602
官员	-3603
土耳其	-3604
这项	-3605
有人	-3606
EL	-3607
▁went	-3608
▁speak	-3609
read	-3610
化学	-3611
raq	-3612
anks	-3613
的一部分	-3614
财政	-3615
欧盟	-3616
▁themselves	-3617
▁leave	-3618
打击	-3619
▁ess	-3620
操作	-3621
Wh	-3622
▁prim	-3623
有关的	-3624
inary	-3625
年轻	-3626
ush	-3627
▁traff	-3628
▁challenges	-3629
感觉	-3630
bit	-3631
国的	-3632
永远	-3633
基督	-3634
▁bodies	-3635
iam	-3636
▁looking	-3637
力量	-3638
是什么	-3639
lands	-3640
▁dise	-3641
而言	-3642
▁2012	-3643
▁Health	-3644
2007	-3645
▁其	-3646
governmental	-3647
67	-3648
force	-3649
▁8.	-3650
▁198	-3651
核心	-3652
数量	-3653
ieved	-3654
uth	-3655
CC	-3656
呼吁	-3657
就业	-3658
化的	-3659
案件	-3660
扩大	-3661
▁break	-3662
非法	-3663
▁created	-3664
▁2007	-3665
▁describ	-3666
▁standard	-3667
▁Em	-3668
son	-3669
▁agreed	-3670
roll	-3671
另外	-3672
org	-3673
▁Commun	-3674
非政府	-3675
土地	-3676
▁因为	-3677
▁2004	-3678
▁Iraq	-3679
宣言	-3680
▁offer	-3681
co	-3682
▁instru	-3683
▁Global	-3684
load	-3685
▁displ	-3686
▁Inter	-3687
48	-3688
▁fight	-3689
尊重	-3690
平均	-3691
▁产品	-3692
▁decided	-3693
ull	-3694
▁abs	-3695
▁dou	-3696
▁据	-3697
▁appear	-3698
降低	-3699
房间	-3700
▁coun	-3701
▁responsibility	-3702
▁along	-3703
▁date	-3704
▁Center	-3705
▁providing	-3706
▁lab	-3707
▁phot	-3708
val	-3709
来源	-3710
▁由于	-3711
尤其是	-3712
▁currently	-3713
的地方	-3714
一下	-3715
创建	-3716
▁news	-3717
▁hear	-3718
▁2014	-3719
▁similar	-3720
专门	-3721
It	-3722
英语	-3723
▁Bank	-3724
开放	-3725
另一个	-3726
atures	-3727
▁type	-3728
▁wide	-3729
农业	-3730
▁agencies	-3731
克朗	-3732
收集	-3733
iang	-3734
ots	-3735
将会	-3736
Add	-3737
▁ways	-3738
请求	-3739
▁side	-3740
的话	-3741
动物	-3742
▁26	-3743
▁lo	-3744
大利	-3745
贡献	-3746
感谢	-3747
▁compl	-3748
▁asp	-3749
提出的	-3750
acts	-3751
官方	-3752
▁)	-3753
▁quick	-3754
ET	-3755
▁strategy	-3756
49	-3757
海洋	-3758
▁System	-3759
ids	-3760
报道	-3761
▁true	-3762
▁fall	-3763
istic	-3764
▁content	-3765
▁super	-3766
安理	-3767
复杂	-3768
用的	-3769
▁model	-3770
实验	-3771
ensive	-3772
abilities	-3773
ott	-3774
unt	-3775
▁John	-3776
履行	-3777
更新	-3778
▁bal	-3779
应对	-3780
You	-3781
最高	-3782
▁wish	-3783
hest	-3784
33	-3785
▁claim	-3786
▁online	-3787
人道主义	-3788
▁vehic	-3789
▁Sm	-3790
▁transport	-3791
▁bar	-3792
▁ele	-3793
▁Ge	-3794
▁Aff	-3795
▁negot	-3796
▁reach	-3797
三个	-3798
▁pain	-3799
▁Since	-3800
▁Stud	-3801
▁suggest	-3802
斯特	-3803
yl	-3804
对话	-3805
▁final	-3806
▁distrib	-3807
rel	-3808
▁ground	-3809
ze	-3810
定义	-3811
地址	-3812
食品	-3813
有助于	-3814
更好	-3815
地球	-3816
事项	-3817
正确	-3818
直到	-3819
▁woman	-3820
▁opportunity	-3821
保留	-3822
aly	-3823
特殊	-3824
▁comprehensive	-3825
▁Bel	-3826
▁wait	-3827
rec	-3828
▁participation	-3829
万美元	-3830
民族	-3831
▁upd	-3832
刑事	-3833
see	-3834
▁aud	-3835
▁目前	-3836
▁facilit	-3837
▁dam	-3838
▁马	-3839
!”	-3840
遵守	-3841
以上	-3842
▁Des	-3843
保险	-3844
▁rather	-3845
zh	-3846
▁canc	-3847
2011	-3848
▁cal	-3849
运输	-3850
▁machine	-3851
▁27	-3852
错误	-3853
意大利	-3854
ellig	-3855
比赛	-3856
▁2013	-3857
▁medical	-3858
外国	-3859
▁plans	-3860
iles	-3861
▁humanitarian	-3862
▁beaut	-3863
imum	-3864
▁Park	-3865
安理会	-3866
旅行	-3867
就会	-3868
ana	-3869
razil	-3870
ately	-3871
都有	-3872
保健	-3873
▁House	-3874
出的	-3875
:0	-3876
西班	-3877
▁wanted	-3878
▁likely	-3879
▁Action	-3880
西班牙	-3881
▁loss	-3882
▁Minister	-3883
▁materials	-3884
▁Hong	-3885
▁pack	-3886
body	-3887
注册	-3888
▁else	-3889
重点	-3890
▁lives	-3891
kay	-3892
每年	-3893
▁famil	-3894
iting	-3895
wide	-3896
▁please	-3897
ferences	-3898
沒有	-3899
药物	-3900
人在	-3901
EP	-3902
主题	-3903
▁largest	-3904
▁started	-3905
▁Who	-3906
atter	-3907
▁Copyright	-3908
▁mess	-3909
▁actually	-3910
▁contract	-3911
瑞士	-3912
▁submitted	-3913
▁territ	-3914
▁join	-3915
医生	-3916
▁2002	-3917
xic	-3918
▁eval	-3919
的能力	-3920
ha	-3921
▁context	-3922
试图	-3923
预计	-3924
评论	-3925
99	-3926
▁nature	-3927
女孩	-3928
▁father	-3929
分享	-3930
CR	-3931
2002	-3932
▁mass	-3933
▁practice	-3934
进行了	-3935
普遍	-3936
ension	-3937
在其	-3938
▁日	-3939
外交	-3940
客房	-3941
▁comes	-3942
2009	-3943
rew	-3944
▁要	-3945
▁analysis	-3946
▁coming	-3947
ops	-3948
重大	-3949
▁everyone	-3950
展示	-3951
速度	-3952
▁applications	-3953
下的	-3954
▁text	-3955
▁understanding	-3956
▁fav	-3957
属于	-3958
▁我的	-3959
eur	-3960
▁197	-3961
CP	-3962
▁reduce	-3963
第五	-3964
▁Yes	-3965
▁respond	-3966
▁Internet	-3967
身体	-3968
▁cut	-3969
ookie	-3970
▁undert	-3971
▁seek	-3972
nam	-3973
人和	-3974
全部	-3975
消息	-3976
ental	-3977
▁exerc	-3978
▁involved	-3979
▁try	-3980
▁Sum	-3981
▁someone	-3982
▁Yeah	-3983
ead	-3984
▁immediate	-3985
伊朗	-3986
▁rad	-3987
▁outside	-3988
▁Her	-3989
重申	-3990
▁travel	-3991
出了	-3992
致力	-3993
▁Ra	-3994
大约	-3995
ercial	-3996
▁rule	-3997
的情况下	-3998
4)	-3999
里亚	-4000
▁Brazil	-4001
协商	-4002
合同	-4003
可持续发展	-4004
▁sep	-4005
rought	-4006
的国际	-4007
▁mission	-4008
性和	-4009
▁estim	-4010
反应	-4011
ronic	-4012
ends	-4013
▁Inc	-4014
▁Bec	-4015
▁either	-4016
▁sens	-4017
▁easy	-4018
航空	-4019
▁Central	-4020
食物	-4021
usp	-4022
▁Germany	-4023
II	-4024
▁greater	-4025
▁Google	-4026
加坡	-4027
总是	-4028
▁Information	-4029
▁transfer	-4030
攻击	-4031
▁concer	-4032
▁9.	-4033
47	-4034
包含	-4035
2001	-4036
adem	-4037
▁added	-4038
▁trust	-4039
▁Company	-4040
看看	-4041
▁Canada	-4042
irt	-4043
▁opportunities	-4044
确认	-4045
公司的	-4046
▁workers	-4047
估计	-4048
▁bad	-4049
伊斯	-4050
体验	-4051
▁port	-4052
劳动	-4053
▁没有	-4054
▁Imp	-4055
▁Lord	-4056
▁citiz	-4057
▁War	-4058
▁Plan	-4059
▁offers	-4060
也不	-4061
▁Palestin	-4062
▁learn	-4063
ude	-4064
▁saw	-4065
etimes	-4066
▁monitoring	-4067
▁2009	-4068
通信	-4069
文章	-4070
mission	-4071
ann	-4072
▁remain	-4073
▁Fore	-4074
类似	-4075
在这	-4076
oke	-4077
".	-4078
一名	-4079
▁buy	-4080
omes	-4081
▁red	-4082
▁expert	-4083
2013	-4084
的权利	-4085
▁巴	-4086
▁supply	-4087
表现	-4088
你們	-4089
▁2011	-4090
身份	-4091
▁dead	-4092
32	-4093
▁expect	-4094
▁Protocol	-4095
评价	-4096
uted	-4097
▁Red	-4098
2003	-4099
rench	-4100
改进	-4101
▁10.	-4102
的信	-4103
考虑到	-4104
iful	-4105
每天	-4106
▁source	-4107
▁justice	-4108
▁Where	-4109
飞机	-4110
多的	-4111
▁annual	-4112
▁Management	-4113
做的	-4114
2016	-4115
my	-4116
1999	-4117
▁hon	-4118
▁modern	-4119
不到	-4120
和国际	-4121
运行	-4122
phas	-4123
▁Mission	-4124
预测	-4125
一份	-4126
▁directly	-4127
▁Count	-4128
Ph	-4129
▁parts	-4130
▁responsible	-4131
工作的	-4132
46	-4133
-1	-4134
ourn	-4135
在一起	-4136
▁cultural	-4137
达成	-4138
▁former	-4139
vest	-4140
足够	-4141
▁这种	-4142
▁Bar	-4143
▁Over	-4144
名字	-4145
lam	-4146
arents	-4147
群体	-4148
定期	-4149
ring	-4150
▁decisions	-4151
igr	-4152
委员会的	-4153
▁delegation	-4154
▁mot	-4155
isms	-4156
▁fa	-4157
体系	-4158
关切	-4159
相同	-4160
几个	-4161
▁purpose	-4162
发达	-4163
▁Of	-4164
▁technologies	-4165
▁practices	-4166
▁forces	-4167
▁story	-4168
▁principles	-4169
人都	-4170
oph	-4171
▁essential	-4172
互联网	-4173
愿意	-4174
太阳	-4175
▁Secretariat	-4176
私人	-4177
ST	-4178
▁funds	-4179
▁road	-4180
▁appl	-4181
维护	-4182
keeping	-4183
arent	-4184
证据	-4185
后的	-4186
▁experi	-4187
EM	-4188
▁Under	-4189
ogue	-4190
▁character	-4191
▁Iran	-4192
▁joint	-4193
▁actions	-4194
▁对于	-4195
有些	-4196
▁31	-4197
清楚	-4198
▁lost	-4199
▁29	-4200
理由	-4201
▁Ministry	-4202
▁fire	-4203
我想	-4204
▁heav	-4205
ivity	-4206
▁作为	-4207
基金会	-4208
版本	-4209
▁benefits	-4210
urch	-4211
第四	-4212
building	-4213
anger	-4214
rastructure	-4215
缺乏	-4216
下降	-4217
交流	-4218
ounts	-4219
▁average	-4220
▁president	-4221
▁planning	-4222
▁West	-4223
结论	-4224
▁x	-4225
▁Australia	-4226
▁Pan	-4227
▁became	-4228
isis	-4229
▁Decl	-4230
▁Centre	-4231
的信息	-4232
▁evidence	-4233
▁below	-4234
▁bank	-4235
eter	-4236
▁resolutions	-4237
just	-4238
▁log	-4239
▁例如	-4240
fect	-4241
issions	-4242
▁opp	-4243
出版	-4244
ulated	-4245
igen	-4246
▁occup	-4247
计算机	-4248
vert	-4249
土著	-4250
lier	-4251
下来	-4252
旅游	-4253
享受	-4254
那样	-4255
就像	-4256
细胞	-4257
▁exam	-4258
▁criminal	-4259
▁basic	-4260
报告员	-4261
▁answ	-4262
▁idea	-4263
CH	-4264
概念	-4265
uan	-4266
▁>>	-4267
know	-4268
致力于	-4269
他说	-4270
▁facilities	-4271
▁pred	-4272
itc	-4273
的发展	-4274
▁2003	-4275
▁所有	-4276
▁requested	-4277
女人	-4278
▁leading	-4279
停止	-4280
▁communication	-4281
最佳	-4282
▁ord	-4283
寻求	-4284
▁refer	-4285
arant	-4286
▁不过	-4287
inated	-4288
多个	-4289
▁Kong	-4290
▁receive	-4291
▁apply	-4292
▁laws	-4293
armament	-4294
年来	-4295
ipl	-4296
▁Russia	-4297
▁During	-4298
▁limited	-4299
irit	-4300
55	-4301
效率	-4302
face	-4303
▁Elect	-4304
本身	-4305
过程中	-4306
▁Sing	-4307
▁wrong	-4308
父母	-4309
300	-4310
▁Korea	-4311
可能是	-4312
详细	-4313
▁representatives	-4314
▁fif	-4315
▁began	-4316
ara	-4317
▁exchange	-4318
在这里	-4319
77	-4320
▁drink	-4321
▁learning	-4322
imately	-4323
att	-4324
相互	-4325
比较	-4326
时代	-4327
▁2020	-4328
▁industrial	-4329
运营	-4330
▁code	-4331
违反	-4332
▁harm	-4333
▁consist	-4334
▁sound	-4335
照片	-4336
状态	-4337
▁organ	-4338
担任	-4339
的研究	-4340
▁moment	-4341
▁culture	-4342
一篇	-4343
旅馆	-4344
公开	-4345
pen	-4346
estern	-4347
如果你	-4348
▁Declaration	-4349
非政府组织	-4350
▁saying	-4351
▁Affairs	-4352
▁designed	-4353
▁到	-4354
各地	-4355
女士	-4356
▁如	-4357
兴趣	-4358
▁carry	-4359
安装	-4360
▁contained	-4361
适用于	-4362
▁Assoc	-4363
▁sales	-4364
▁France	-4365
出来	-4366
审计	-4367
ancing	-4368
伙伴关系	-4369
▁chem	-4370
af	-4371
itled	-4372
▁Executive	-4373
ao	-4374
▁thous	-4375
▁Administ	-4376
action	-4377
▁markets	-4378
日期	-4379
▁0.	-4380
现有	-4381
▁except	-4382
意思	-4383
▁yourself	-4384
吸引	-4385
uests	-4386
▁tele	-4387
8,	-4388
66	-4389
requ	-4390
iveness	-4391
▁commitment	-4392
▁representative	-4393
▁computer	-4394
▁ability	-4395
urance	-4396
▁Str	-4397
失去	-4398
那个	-4399
拒绝	-4400
美洲	-4401
▁Institute	-4402
举办	-4403
▁sell	-4404
▁establishment	-4405
ole	-4406
▁collabor	-4407
erve	-4408
ookies	-4409
▁deli	-4410
当时	-4411
父亲	-4412
ler	-4413
vere	-4414
人士	-4415
▁income	-4416
con	-4417
▁Represent	-4418
▁positive	-4419
▁digital	-4420
调整	-4421
iciency	-4422
▁expressed	-4423
签署	-4424
▁center	-4425
ables	-4426
▁我想	-4427
现实	-4428
▁Director	-4429
残疾	-4430
vey	-4431
▁independent	-4432
▁French	-4433
实际上	-4434
第一次	-4435
inate	-4436
more	-4437
▁acqu	-4438
▁Will	-4439
igenous	-4440
▁cause	-4441
ume	-4442
第十	-4443
▁compon	-4444
▁Apple	-4445
order	-4446
▁legislation	-4447
ervation	-4448
itable	-4449
▁Ant	-4450
▁prec	-4451
onna	-4452
▁天	-4453
商品	-4454
▁Mod	-4455
▁concerning	-4456
▁News	-4457
▁Day	-4458
▁Peace	-4459
▁prob	-4460
▁publ	-4461
▁Many	-4462
困难	-4463
aries	-4464
esc	-4465
基础设施	-4466
▁小	-4467
▁sold	-4468
破坏	-4469
▁insp	-4470
▁includes	-4471
▁partnership	-4472
▁expand	-4473
邮件	-4474
EF	-4475
规定的	-4476
IL	-4477
立即	-4478
▁committed	-4479
▁led	-4480
icking	-4481
▁然后	-4482
▁check	-4483
▁三	-4484
2014	-4485
CO	-4486
▁Services	-4487
comm	-4488
ounced	-4489
▁solutions	-4490
▁rat	-4491
多少	-4492
iction	-4493
▁Most	-4494
年前	-4495
纳入	-4496
▁sett	-4497
宪法	-4498
▁?	-4499
伊斯兰	-4500
era	-4501
▁z	-4502
不再	-4503
经历	-4504
gency	-4505
最好的	-4506
▁Facebook	-4507
▁dial	-4508
▁anim	-4509
▁structure	-4510
议程项目	-4511
▁2001	-4512
寻找	-4513
▁Cal	-4514
key	-4515
▁complex	-4516
ijing	-4517
▁offic	-4518
瑞典	-4519
▁refuge	-4520
▁documents	-4521
▁clean	-4522
▁video	-4523
▁Som	-4524
的任何	-4525
itial	-4526
查看	-4527
alled	-4528
▁Governments	-4529
▁regarding	-4530
▁states	-4531
▁Road	-4532
分子	-4533
将其	-4534
▁heard	-4535
room	-4536
▁steps	-4537
▁user	-4538
应用程序	-4539
相当	-4540
葡萄	-4541
sy	-4542
▁Har	-4543
light	-4544
▁officials	-4545
▁personnel	-4546
partment	-4547
umb	-4548
44	-4549
▁construction	-4550
交通	-4551
趋势	-4552
▁infrastructure	-4553
物质	-4554
总部	-4555
形成	-4556
和社会	-4557
wh	-4558
▁growing	-4559
墨西	-4560
之外	-4561
法官	-4562
▁Prof	-4563
他在	-4564
南非	-4565
经过	-4566
▁cop	-4567
▁procedures	-4568
▁watch	-4569
▁girls	-4570
▁goal	-4571
观点	-4572
▁sle	-4573
▁experts	-4574
▁Business	-4575
gent	-4576
▁univers	-4577
墨西哥	-4578
心理	-4579
▁Jes	-4580
ya	-4581
学家	-4582
准则	-4583
oper	-4584
ducing	-4585
ultural	-4586
rary	-4587
▁events	-4588
▁Advis	-4589
▁让	-4590
▁reporting	-4591
去年	-4592
作品	-4593
ION	-4594
▁remains	-4595
的数据	-4596
OT	-4597
▁avoid	-4598
iations	-4599
▁parents	-4600
母亲	-4601
▁brought	-4602
给予	-4603
的目标	-4604
▁central	-4605
▁individuals	-4606
的东西	-4607
▁About	-4608
▁Treat	-4609
aily	-4610
▁science	-4611
最大	-4612
▁Good	-4613
▁TV	-4614
压力	-4615
▁armed	-4616
elt	-4617
uff	-4618
现象	-4619
▁susp	-4620
权力	-4621
▁freedom	-4622
arily	-4623
▁select	-4624
比如	-4625
迅速	-4626
▁School	-4627
asons	-4628
构成	-4629
男人	-4630
▁sexual	-4631
▁welcom	-4632
▁substant	-4633
▁Cap	-4634
而是	-4635
当前	-4636
▁alone	-4637
▁throughout	-4638
▁Trade	-4639
▁rap	-4640
训练	-4641
▁works	-4642
omb	-4643
▁poor	-4644
▁demon	-4645
收到	-4646
ivision	-4647
▁crisis	-4648
▁provision	-4649
▁traditional	-4650
▁Educ	-4651
▁separ	-4652
想法	-4653
▁discrimination	-4654
▁fast	-4655
律师	-4656
ips	-4657
年代	-4658
irth	-4659
值得	-4660
enty	-4661
议会	-4662
侵犯	-4663
专员	-4664
正常	-4665
处于	-4666
▁mandate	-4667
▁table	-4668
▁trying	-4669
损失	-4670
▁wind	-4671
公平	-4672
▁strategic	-4673
我不	-4674
授权	-4675
▁ut	-4676
在线	-4677
描述	-4678
▁relating	-4679
分配	-4680
大家	-4681
▁cover	-4682
▁fear	-4683
▁Public	-4684
89	-4685
▁pursu	-4686
▁influ	-4687
▁Because	-4688
▁victims	-4689
▁operation	-4690
消费者	-4691
5%	-4692
uty	-4693
EO	-4694
▁emphas	-4695
▁Equ	-4696
▁Party	-4697
这一点	-4698
裁军	-4699
▁et	-4700
▁disp	-4701
oul	-4702
▁多	-4703
决策	-4704
▁overall	-4705
举行的	-4706
▁forms	-4707
pporteur	-4708
▁web	-4709
石油	-4710
▁Research	-4711
yond	-4712
time	-4713
明显	-4714
附近	-4715
▁regist	-4716
▁court	-4717
▁goals	-4718
紧急	-4719
回答	-4720
宣传	-4721
▁Palestinian	-4722
aches	-4723
▁hous	-4724
ino	-4725
useum	-4726
▁tour	-4727
ica	-4728
ading	-4729
▁music	-4730
▁commercial	-4731
上述	-4732
机械	-4733
ager	-4734
资本	-4735
▁purch	-4736
▁entitled	-4737
▁Trump	-4738
bon	-4739
▁benefit	-4740
▁built	-4741
▁enhance	-4742
▁tools	-4743
很好	-4744
▁guarant	-4745
▁activity	-4746
▁effects	-4747
都会	-4748
经费	-4749
十分	-4750
▁blood	-4751
反映	-4752
核武器	-4753
行的	-4754
▁Exp	-4755
▁annex	-4756
▁size	-4757
de	-4758
itness	-4759
▁、	-4760
▁第二	-4761
▁11.	-4762
▁truth	-4763
星级	-4764
itch	-4765
▁earth	-4766
▁recently	-4767
astic	-4768
vision	-4769
真正的	-4770
▁paper	-4771
▁conclud	-4772
oples	-4773
▁physical	-4774
国际社会	-4775
年龄	-4776
used	-4777
▁2,	-4778
▁points	-4779
该国	-4780
PS	-4781
▁morning	-4782
▁solution	-4783
▁pros	-4784
的活动	-4785
▁mechanisms	-4786
la	-4787
▁deg	-4788
只要	-4789
▁getting	-4790
▁defin	-4791
▁search	-4792
引起	-4793
▁sum	-4794
▁Support	-4795
居民	-4796
的一些	-4797
ruit	-4798
完整	-4799
产业	-4800
登记	-4801
lusion	-4802
都在	-4803
▁proceed	-4804
▁lower	-4805
-3	-4806
森林	-4807
yle	-4808
head	-4809
▁takes	-4810
▁TH	-4811
青年	-4812
va	-4813
?"	-4814
设置	-4815
DC	-4816
NA	-4817
公众	-4818
▁located	-4819
▁Port	-4820
▁这一	-4821
fully	-4822
担心	-4823
▁IS	-4824
手段	-4825
局势	-4826
▁ver	-4827
▁Jesus	-4828
men	-4829
▁remember	-4830
▁himself	-4831
大量	-4832
▁processes	-4833
IM	-4834
▁还	-4835
alls	-4836
aign	-4837
▁gas	-4838
▁80	-4839
▁son	-4840
咖啡	-4841
▁eyes	-4842
部署	-4843
▁Rel	-4844
▁citizens	-4845
样的	-4846
▁其他	-4847
▁Ed	-4848
技能	-4849
ece	-4850
▁grad	-4851
▁stress	-4852
地点	-4853
▁fig	-4854
▁funding	-4855
▁speed	-4856
87	-4857
▁Beijing	-4858
orrow	-4859
▁communities	-4860
elines	-4861
apt	-4862
事实上	-4863
▁fundament	-4864
特别报告员	-4865
lege	-4866
体育	-4867
传播	-4868
实体	-4869
▁di	-4870
400	-4871
▁我们的	-4872
高兴	-4873
▁unc	-4874
相关的	-4875
▁Although	-4876
▁section	-4877
▁doct	-4878
▁behind	-4879
约翰	-4880
▁trend	-4881
▁addressed	-4882
沙特	-4883
icy	-4884
arters	-4885
▁cross	-4886
oday	-4887
apter	-4888
罗马	-4889
oly	-4890
▁institution	-4891
ING	-4892
▁gonna	-4893
▁advant	-4894
▁正	-4895
▁rates	-4896
患者	-4897
执行情况	-4898
▁Next	-4899
▁phone	-4900
hibition	-4901
69	-4902
porate	-4903
其中包括	-4904
▁obligations	-4905
▁将	-4906
其它	-4907
enge	-4908
▁Out	-4909
igration	-4910
叙利亚	-4911
一位	-4912
挪威	-4913
▁HIV	-4914
只能	-4915
系统的	-4916
▁thus	-4917
urer	-4918
▁Dist	-4919
▁concerns	-4920
ox	-4921
的规定	-4922
▁Mexic	-4923
▁Mill	-4924
oice	-4925
并没有	-4926
医院	-4927
▁Phil	-4928
特朗	-4929
▁adoption	-4930
▁Lat	-4931
▁late	-4932
富汗	-4933
▁coordination	-4934
广告	-4935
▁features	-4936
▁以	-4937
▁types	-4938
ey	-4939
▁electric	-4940
Sh	-4941
TM	-4942
ought	-4943
zhou	-4944
地区的	-4945
▁assessment	-4946
▁12.	-4947
▁categ	-4948
▁Windows	-4949
▁matters	-4950
▁location	-4951
▁San	-4952
▁Oper	-4953
增强	-4954
:「	-4955
指标	-4956
▁Great	-4957
level	-4958
▁hotels	-4959
lia	-4960
▁century	-4961
回顾	-4962
单位	-4963
▁simple	-4964
粮食	-4965
▁Second	-4966
▁devices	-4967
▁sal	-4968
PA	-4969
ply	-4970
领域的	-4971
▁Kingdom	-4972
投票	-4973
eks	-4974
污染	-4975
是个	-4976
▁page	-4977
undred	-4978
▁issued	-4979
where	-4980
根本	-4981
▁mobile	-4982
▁Rapporteur	-4983
科学家	-4984
idge	-4985
▁最后	-4986
oved	-4987
▁authority	-4988
▁arrange	-4989
▁Environment	-4990
▁supported	-4991
▁crime	-4992
▁foot	-4993
面的	-4994
▁prepared	-4995
eria	-4996
▁sense	-4997
特朗普	-4998
▁researc	-4999
客人	-5000
ployment	-5001
▁Even	-5002
▁Val	-5003
overy	-5004
会议的	-5005
▁families	-5006
哪些	-5007
-10	-5008
▁bed	-5009
enced	-5010
▁arch	-5011
▁beautiful	-5012
▁”“	-5013
从事	-5014
▁san	-5015
▁clos	-5016
ondon	-5017
很快	-5018
少数	-5019
▁emb	-5020
▁announced	-5021
主管	-5022
▁analy	-5023
▁mention	-5024
▁anyone	-5025
▁affected	-5026
▁高	-5027
▁occur	-5028
acific	-5029
成员国	-5030
比例	-5031
是我	-5032
▁published	-5033
▁knew	-5034
第六	-5035
▁Up	-5036
orry	-5037
▁hands	-5038
▁Cr	-5039
▁employment	-5040
▁Come	-5041
▁skills	-5042
团体	-5043
▁elim	-5044
哪里	-5045
poses	-5046
▁Further	-5047
▁pressure	-5048
日在	-5049
▁为什么	-5050
ication	-5051
anda	-5052
▁bur	-5053
▁Head	-5054
债务	-5055
▁unique	-5056
FF	-5057
▁contributions	-5058
▁Ac	-5059
进行的	-5060
▁exercise	-5061
▁cert	-5062
▁affect	-5063
道路	-5064
▁km	-5065
▁arms	-5066
▁Ang	-5067
angh	-5068
▁complain	-5069
soft	-5070
hood	-5071
肯定	-5072
有可能	-5073
气候变化	-5074
▁obtain	-5075
▁000	-5076
IDS	-5077
倡议	-5078
你可以	-5079
▁Micro	-5080
▁Syri	-5081
▁beginning	-5082
DA	-5083
▁choose	-5084
ta	-5085
透明	-5086
千年	-5087
件事	-5088
▁nearly	-5089
▁letter	-5090
▁version	-5091
时期	-5092
使用的	-5093
活动的	-5094
▁eat	-5095
-2	-5096
制订	-5097
izes	-5098
▁今天	-5099
▁drive	-5100
是不	-5101
▁measure	-5102
适用	-5103
▁lat	-5104
所述	-5105
ground	-5106
ghan	-5107
的一切	-5108
▁initial	-5109
▁track	-5110
获取	-5111
电脑	-5112
partments	-5113
也可以	-5114
ador	-5115
▁happy	-5116
▁””	-5117
阅读	-5118
▁den	-5119
▁employees	-5120
▁gave	-5121
iff	-5122
▁ready	-5123
背景	-5124
▁dream	-5125
rect	-5126
模型	-5127
回到	-5128
63	-5129
▁wond	-5130
制作	-5131
▁goods	-5132
方向	-5133
▁usually	-5134
▁wants	-5135
▁carried	-5136
▁apprec	-5137
▁chemical	-5138
真主	-5139
▁functions	-5140
▁worth	-5141
gen	-5142
ulate	-5143
empt	-5144
搜索	-5145
▁Cur	-5146
▁Official	-5147
▁block	-5148
机构的	-5149
适合	-5150
也许	-5151
▁reached	-5152
▁Get	-5153
▁我不	-5154
▁cry	-5155
人数	-5156
▁British	-5157
编写	-5158
▁isn	-5159
▁Review	-5160
官网	-5161
▁Stat	-5162
▁connection	-5163
ches	-5164
band	-5165
▁black	-5166
因為	-5167
▁purposes	-5168
一年	-5169
amed	-5170
▁terrorism	-5171
性能	-5172
我在	-5173
▁shows	-5174
▁Loc	-5175
▁wife	-5176
OL	-5177
▁Room	-5178
ulner	-5179
并不是	-5180
▁eth	-5181
aul	-5182
▁Net	-5183
的法律	-5184
▁London	-5185
范围内	-5186
▁Exper	-5187
承担	-5188
▁views	-5189
ticles	-5190
▁ple	-5191
▁rob	-5192
▁alleg	-5193
维持和平	-5194
▁vac	-5195
▁Inst	-5196
▁stated	-5197
▁Earth	-5198
▁quickly	-5199
▁attract	-5200
▁rapid	-5201
伦敦	-5202
▁pun	-5203
ening	-5204
▁whose	-5205
▁他说	-5206
▁intellig	-5207
色的	-5208
▁Any	-5209
曾经	-5210
▁**	-5211
▁approved	-5212
名的	-5213
▁Here	-5214
▁Association	-5215
▁equal	-5216
▁Power	-5217
erman	-5218
57	-5219
1998	-5220
▁Democratic	-5221
omp	-5222
也有	-5223
▁agric	-5224
▁principle	-5225
▁weeks	-5226
大部分	-5227
▁在这	-5228
▁dialogue	-5229
▁Disc	-5230
▁conference	-5231
采取的	-5232
▁{	-5233
▁temper	-5234
.2	-5235
邀请	-5236
多样	-5237
▁Open	-5238
▁Mor	-5239
▁EU	-5240
lim	-5241
ournal	-5242
一天	-5243
▁connect	-5244
顾问	-5245
许可	-5246
▁behalf	-5247
▁recommended	-5248
anghai	-5249
财产	-5250
合法	-5251
接触	-5252
有效的	-5253
尚未	-5254
▁extreme	-5255
sych	-5256
▁processing	-5257
放在	-5258
▁安	-5259
▁methods	-5260
▁prevention	-5261
普通	-5262
▁initiatives	-5263
看起来	-5264
areness	-5265
受害者	-5266
步骤	-5267
iter	-5268
▁concept	-5269
▁flo	-5270
▁uses	-5271
lin	-5272
必要的	-5273
一级	-5274
▁Ms	-5275
▁disease	-5276
▁90	-5277
orage	-5278
▁二	-5279
▁fair	-5280
▁town	-5281
▁critical	-5282
▁adequ	-5283
博士	-5284
障碍	-5285
uations	-5286
电池	-5287
▁70	-5288
▁operating	-5289
爱的	-5290
明白	-5291
▁Year	-5292
going	-5293
密切	-5294
▁布	-5295
▁格	-5296
▁Real	-5297
出生	-5298
iple	-5299
▁vote	-5300
▁smart	-5301
▁strategies	-5302
检测	-5303
▁priority	-5304
197	-5305
▁cancer	-5306
▁Afghan	-5307
▁effort	-5308
▁perfect	-5309
▁debt	-5310
结合	-5311
▁Policy	-5312
▁prison	-5313
.5	-5314
名称	-5315
▁cou	-5316
ened	-5317
porary	-5318
▁rooms	-5319
▁studies	-5320
▁英	-5321
娱乐	-5322
▁或	-5323
▁core	-5324
变成	-5325
▁front	-5326
ua	-5327
▁killed	-5328
▁500	-5329
▁Prov	-5330
启动	-5331
▁prices	-5332
▁Im	-5333
▁happened	-5334
▁sources	-5335
▁interests	-5336
特定	-5337
▁hum	-5338
视为	-5339
高的	-5340
▁Products	-5341
related	-5342
预期	-5343
▁UK	-5344
aby	-5345
▁vulner	-5346
2020	-5347
▁strengthening	-5348
▁internal	-5349
68	-5350
ously	-5351
▁campaign	-5352
igned	-5353
yd	-5354
▁大会	-5355
Phone	-5356
▁reduction	-5357
uk	-5358
ster	-5359
oring	-5360
▁Mac	-5361
▁customer	-5362
apore	-5363
▁mechanism	-5364
合理	-5365
He	-5366
我们在	-5367
条第	-5368
▁hundred	-5369
owers	-5370
This	-5371
▁Leg	-5372
儿子	-5373
ague	-5374
▁什么	-5375
hab	-5376
▁Also	-5377
▁Today	-5378
▁ge	-5379
▁requests	-5380
rad	-5381
集中	-5382
▁Meet	-5383
博物	-5384
首脑	-5385
ifying	-5386
TR	-5387
▁behav	-5388
iable	-5389
▁beyond	-5390
▁Look	-5391
苹果	-5392
表达	-5393
采购	-5394
▁hosp	-5395
haps	-5396
▁ten	-5397
▁primary	-5398
lusive	-5399
▁mark	-5400
▁af	-5401
袭击	-5402
▁pen	-5403
认证	-5404
quarters	-5405
PC	-5406
的其他	-5407
理论	-5408
▁Ob	-5409
的基础	-5410
▁seems	-5411
修改	-5412
▁Invest	-5413
▁Representative	-5414
▁operational	-5415
ancy	-5416
的经济	-5417
▁answer	-5418
▁CO	-5419
▁海	-5420
▁Web	-5421
▁Che	-5422
▁cities	-5423
高度	-5424
捐助	-5425
ighb	-5426
riage	-5427
▁probably	-5428
ties	-5429
▁opin	-5430
ayer	-5431
▁green	-5432
声音	-5433
▁promotion	-5434
tenance	-5435
▁demonstr	-5436
▁seven	-5437
统一	-5438
▁draw	-5439
43	-5440
浏览	-5441
▁acts	-5442
-8	-5443
▁Islam	-5444
rep	-5445
▁fem	-5446
更好的	-5447
贫困	-5448
可靠	-5449
下载	-5450
公园	-5451
▁respective	-5452
▁meaning	-5453
bur	-5454
▁factors	-5455
▁fundamental	-5456
▁popular	-5457
中央	-5458
idents	-5459
ington	-5460
▁histor	-5461
▁efficiency	-5462
扩散	-5463
合作伙伴	-5464
TS	-5465
▁scientific	-5466
▁aspects	-5467
拉斯	-5468
▁teach	-5469
▁Education	-5470
▁总	-5471
itter	-5472
▁schools	-5473
基因	-5474
革命	-5475
各个	-5476
版权	-5477
▁Art	-5478
下列	-5479
▁equality	-5480
▁slow	-5481
▁stage	-5482
▁reasons	-5483
▁regions	-5484
▁satis	-5485
star	-5486
▁changed	-5487
▁研究	-5488
两年期	-5489
》。	-5490
▁See	-5491
▁consequ	-5492
liament	-5493
真实	-5494
▁birth	-5495
平衡	-5496
▁efficient	-5497
埃及	-5498
和技术	-5499
▁卡	-5500
osition	-5501
▁Advisory	-5502
▁base	-5503
确实	-5504
生态	-5505
阿尔	-5506
▁items	-5507
▁La	-5508
是由	-5509
59	-5510
fl	-5511
▁myself	-5512
▁circum	-5513
▁assets	-5514
▁Non	-5515
认识到	-5516
do	-5517
代码	-5518
▁sil	-5519
发达国家	-5520
文书	-5521
效果	-5522
▁danger	-5523
阿富汗	-5524
▁vot	-5525
▁discussion	-5526
试验	-5527
▁俄罗斯	-5528
我是	-5529
ares	-5530
▁path	-5531
▁wid	-5532
illed	-5533
▁brother	-5534
▁administrative	-5535
优势	-5536
▁cru	-5537
▁administration	-5538
▁conv	-5539
▁Sim	-5540
TD	-5541
itors	-5542
员额	-5543
▁released	-5544
▁tal	-5545
mar	-5546
nes	-5547
里的	-5548
roid	-5549
彩票	-5550
mail	-5551
潜在	-5552
▁subs	-5553
▁manufacturing	-5554
▁frequ	-5555
尝试	-5556
BC	-5557
ulture	-5558
▁German	-5559
往往	-5560
▁Last	-5561
享有	-5562
商务	-5563
42	-5564
▁thinking	-5565
▁1999	-5566
oming	-5567
▁doub	-5568
rief	-5569
▁faith	-5570
首先	-5571
▁【	-5572
▁firm	-5573
And	-5574
▁integrated	-5575
▁IN	-5576
▁highest	-5577
▁choice	-5578
指控	-5579
▁requires	-5580
▁Mach	-5581
落实	-5582
▁notes	-5583
的技术	-5584
▁secretariat	-5585
▁und	-5586
▁Code	-5587
▁continues	-5588
塞尔	-5589
▁View	-5590
贫穷	-5591
cl	-5592
▁quite	-5593
工人	-5594
排放	-5595
▁nation	-5596
▁indigenous	-5597
▁mut	-5598
▁enforce	-5599
地图	-5600
",	-5601
ball	-5602
▁serve	-5603
▁majority	-5604
▁elements	-5605
▁surv	-5606
ham	-5607
▁Char	-5608
有所	-5609
▁counter	-5610
▁sea	-5611
实践	-5612
首次	-5613
-6	-5614
管制	-5615
一直在	-5616
▁anti	-5617
▁awareness	-5618
▁paid	-5619
▁trial	-5620
ky	-5621
▁recognized	-5622
▁enable	-5623
双方	-5624
▁Two	-5625
度假	-5626
”(	-5627
enior	-5628
▁tou	-5629
▁challenge	-5630
RO	-5631
适应	-5632
全世界	-5633
▁agreements	-5634
▁世界	-5635
tt	-5636
▁written	-5637
aughter	-5638
▁altern	-5639
▁inside	-5640
▁promoting	-5641
▁brand	-5642
▁transp	-5643
账户	-5644
▁Children	-5645
加工	-5646
的方法	-5647
在一个	-5648
wise	-5649
提议	-5650
▁spirit	-5651
▁Singapore	-5652
不足	-5653
▁researchers	-5654
命令	-5655
▁thank	-5656
▁Sol	-5657
民间	-5658
目的是	-5659
▁如何	-5660
给我	-5661
rency	-5662
▁associated	-5663
▁station	-5664
▁grant	-5665
让我	-5666
独特	-5667
经营	-5668
▁13.	-5669
使得	-5670
standing	-5671
住宿	-5672
▁mill	-5673
▁procedure	-5674
监管	-5675
每个人	-5676
农村	-5677
教授	-5678
▁calls	-5679
的生活	-5680
▁manner	-5681
▁peoples	-5682
▁Market	-5683
▁Forum	-5684
▁Agree	-5685
ishing	-5686
ript	-5687
cast	-5688
▁device	-5689
伤害	-5690
▁Street	-5691
分别	-5692
服务的	-5693
▁film	-5694
▁Est	-5695
ishment	-5696
▁patients	-5697
gypt	-5698
essions	-5699
▁peacekeeping	-5700
road	-5701
▁instruments	-5702
耶稣	-5703
▁disapp	-5704
▁teac	-5705
▁original	-5706
▁(1)	-5707
提升	-5708
艾滋病毒	-5709
的位置	-5710
▁Contact	-5711
▁consultations	-5712
▁Chairman	-5713
外的	-5714
▁rac	-5715
一家	-5716
▁claims	-5717
▁latest	-5718
venue	-5719
ube	-5720
▁Mc	-5721
爱尔	-5722
▁relative	-5723
▁reve	-5724
依赖	-5725
当然	-5726
到达	-5727
苏丹	-5728
▁Nor	-5729
▁contribute	-5730
做了	-5731
▁highly	-5732
▁etc	-5733
ii	-5734
▁Found	-5735
▁although	-5736
占领	-5737
坚持	-5738
▁cloud	-5739
空气	-5740
▁Japanese	-5741
▁sometimes	-5742
ping	-5743
hern	-5744
SC	-5745
返回	-5746
▁launched	-5747
丰富	-5748
.3	-5749
▁missions	-5750
▁organized	-5751
列入	-5752
▁Western	-5753
▁主	-5754
在于	-5755
和第	-5756
roy	-5757
etic	-5758
▁aimed	-5759
的主	-5760
▁deliver	-5761
她们	-5762
ww	-5763
妻子	-5764
▁hop	-5765
▁simply	-5766
▁fulf	-5767
▁Ste	-5768
IF	-5769
IG	-5770
▁pict	-5771
爱尔兰	-5772
▁国家	-5773
投资者	-5774
拘留	-5775
▁statements	-5776
战斗	-5777
▁别	-5778
维亚	-5779
的安全	-5780
▁immediately	-5781
▁Stand	-5782
▁Bur	-5783
▁IP	-5784
感染	-5785
▁美	-5786
-4	-5787
alling	-5788
▁white	-5789
供应商	-5790
▁Hey	-5791
ma	-5792
▁worked	-5793
第一个	-5794
▁park	-5795
RC	-5796
月份	-5797
一個	-5798
▁Mem	-5799
晚上	-5800
进口	-5801
▁Mexico	-5802
▁implemented	-5803
的建议	-5804
岁的	-5805
卫星	-5806
▁35	-5807
刚果	-5808
▁cand	-5809
▁participate	-5810
相比	-5811
like	-5812
▁Food	-5813
巨大的	-5814
▁effectively	-5815
克兰	-5816
支出	-5817
为止	-5818
▁star	-5819
▁sun	-5820
▁Dav	-5821
▁advance	-5822
格的	-5823
▁save	-5824
修正	-5825
▁Form	-5826
我们将	-5827
▁card	-5828
存储	-5829
mark	-5830
ris	-5831
期待	-5832
Go	-5833
▁prin	-5834
pts	-5835
▁offices	-5836
一点	-5837
尼斯	-5838
▁hur	-5839
的行为	-5840
icip	-5841
網站	-5842
索赔	-5843
从来	-5844
飞行	-5845
工厂	-5846
▁died	-5847
lying	-5848
完美	-5849
▁eight	-5850
眼睛	-5851
发展的	-5852
www	-5853
后来	-5854
par	-5855
▁introduced	-5856
▁daily	-5857
aven	-5858
▁Trib	-5859
作者	-5860
克斯	-5861
▁origin	-5862
▁Site	-5863
ICP	-5864
信任	-5865
是因为	-5866
▁completed	-5867
你会	-5868
▁identified	-5869
▁14.	-5870
set	-5871
ression	-5872
▁而且	-5873
后续	-5874
If	-5875
▁Post	-5876
▁transl	-5877
GB	-5878
EA	-5879
▁conducted	-5880
运作	-5881
将于	-5882
stances	-5883
house	-5884
的原因	-5885
craft	-5886
back	-5887
探索	-5888
关闭	-5889
▁objectives	-5890
irmed	-5891
▁referred	-5892
ibilities	-5893
▁compared	-5894
▁poll	-5895
▁1998	-5896
▁Shanghai	-5897
至关	-5898
投入	-5899
▁由	-5900
istance	-5901
TC	-5902
▁Sud	-5903
思想	-5904
角色	-5905
▁加拿大	-5906
▁Italy	-5907
▁boy	-5908
添加	-5909
▁很	-5910
▁innovation	-5911
▁completely	-5912
▁forg	-5913
aurant	-5914
▁achieved	-5915
一个人	-5916
▁Del	-5917
actions	-5918
博物馆	-5919
▁lif	-5920
▁welcome	-5921
前往	-5922
股份	-5923
▁pret	-5924
阻止	-5925
有利	-5926
▁adjust	-5927
▁regulations	-5928
面对	-5929
▁max	-5930
房子	-5931
hel	-5932
▁communications	-5933
▁rural	-5934
▁born	-5935
这样做	-5936
▁cat	-5937
的小	-5938
ny	-5939
▁Egypt	-5940
▁generally	-5941
iture	-5942
▁places	-5943
的努力	-5944
包装	-5945
▁bit	-5946
▁neighb	-5947
▁disarmament	-5948
▁forest	-5949
▁jobs	-5950
▁ult	-5951
▁使用	-5952
荷兰	-5953
unal	-5954
联合国系统	-5955
推出	-5956
itude	-5957
私营	-5958
敦促	-5959
▁当然	-5960
▁Sal	-5961
遭受	-5962
研发	-5963
ava	-5964
满意	-5965
resp	-5966
▁qual	-5967
▁Middle	-5968
▁knows	-5969
说的	-5970
早餐	-5971
▁felt	-5972
▁leadership	-5973
▁launch	-5974
IA	-5975
上升	-5976
隐私	-5977
无线	-5978
▁allowed	-5979
信仰	-5980
贩运	-5981
UB	-5982
▁inj	-5983
holders	-5984
▁AP	-5985
▁加	-5986
你在	-5987
▁Energy	-5988
▁normal	-5989
修订	-5990
▁estimated	-5991
,《	-5992
▁values	-5993
▁sem	-5994
▁caused	-5995
▁signed	-5996
gn	-5997
▁identify	-5998
▁interp	-5999
▁Paris	-6000
▁presented	-6001
▁rein	-6002
的不	-6003
▁Division	-6004
▁fell	-6005
lies	-6006
quare	-6007
▁participants	-6008
▁秘书长	-6009
▁creation	-6010
▁ensuring	-6011
▁described	-6012
全体	-6013
▁exact	-6014
召开	-6015
itect	-6016
▁die	-6017
▁delivery	-6018
41	-6019
▁enterprises	-6020
王国	-6021
▁Federation	-6022
▁澳	-6023
提案	-6024
▁trafficking	-6025
▁worldwide	-6026
和平与	-6027
▁arrest	-6028
▁Wel	-6029
▁cells	-6030
的机会	-6031
等待	-6032
iding	-6033
妈妈	-6034
▁talking	-6035
病毒	-6036
各方	-6037
venant	-6038
以后	-6039
▁produce	-6040
十一	-6041
▁rise	-6042
▁bus	-6043
▁continuing	-6044
▁他的	-6045
▁release	-6046
▁balance	-6047
名单	-6048
▁minor	-6049
▁competition	-6050
▁limit	-6051
服务器	-6052
不过	-6053
SS	-6054
zech	-6055
替代	-6056
的决定	-6057
▁il	-6058
多边	-6059
毒品	-6060
▁Only	-6061
难以	-6062
社交	-6063
在美国	-6064
▁Protection	-6065
atab	-6066
▁Foreign	-6067
我会	-6068
基斯坦	-6069
▁export	-6070
▁bath	-6071
▁Fam	-6072
rown	-6073
里斯	-6074
代理	-6075
它是	-6076
▁facilitate	-6077
本国	-6078
▁Sat	-6079
显然	-6080
▁你们	-6081
▁maintenance	-6082
ixed	-6083
指南	-6084
我要	-6085
也会	-6086
题为	-6087
古巴	-6088
早期	-6089
ffee	-6090
诉讼	-6091
在那里	-6092
快乐	-6093
境内	-6094
▁Therefore	-6095
▁earlier	-6096
如下	-6097
akers	-6098
军队	-6099
▁summ	-6100
▁treaty	-6101
ensus	-6102
行动计划	-6103
asc	-6104
GO	-6105
▁Mus	-6106
首席	-6107
▁creating	-6108
▁door	-6109
▁Science	-6110
失败	-6111
以确保	-6112
希腊	-6113
cont	-6114
akistan	-6115
▁strength	-6116
▁belie	-6117
▁一些	-6118
▁Perman	-6119
▁send	-6120
▁Microsoft	-6121
▁Priv	-6122
准确	-6123
▁Lab	-6124
▁businesses	-6125
基地	-6126
▁violations	-6127
下午	-6128
个国家	-6129
iance	-6130
▁Treaty	-6131
ike	-6132
;(	-6133
▁除了	-6134
居住	-6135
▁Asian	-6136
58	-6137
cean	-6138
▁Justice	-6139
ask	-6140
损害	-6141
orthern	-6142
转移	-6143
▁religious	-6144
eff	-6145
▁conven	-6146
▁implementing	-6147
除非	-6148
▁Such	-6149
ervations	-6150
▁Pacific	-6151
▁options	-6152
小的	-6153
▁details	-6154
▁airport	-6155
▁pan	-6156
▁improving	-6157
▁articles	-6158
▁Agreement	-6159
▁storage	-6160
64	-6161
▁email	-6162
▁sleep	-6163
福利	-6164
提到	-6165
任命	-6166
▁allows	-6167
充满	-6168
重要的是	-6169
朝鲜	-6170
6)	-6171
▁看	-6172
enth	-6173
▁nor	-6174
▁partner	-6175
的支持	-6176
接近	-6177
▁Sur	-6178
▁Israeli	-6179
▁instead	-6180
道德	-6181
和发展	-6182
▁task	-6183
osing	-6184
赔偿	-6185
▁round	-6186
打算	-6187
▁1990	-6188
▁300	-6189
▁season	-6190
和经济	-6191
irms	-6192
马里	-6193
iverse	-6194
liance	-6195
**	-6196
▁Permanent	-6197
iring	-6198
BA	-6199
▁integration	-6200
▁lic	-6201
▁Supp	-6202
▁advanced	-6203
主任	-6204
某种	-6205
▁Sam	-6206
职位	-6207
▁board	-6208
条例	-6209
inery	-6210
lick	-6211
怎样	-6212
OK	-6213
▁plant	-6214
▁CH	-6215
▁不要	-6216
▁vehicles	-6217
金属	-6218
▁movement	-6219
▁reference	-6220
家人	-6221
巴西	-6222
off	-6223
的结果	-6224
实质	-6225
udi	-6226
▁accur	-6227
mitted	-6228
▁illeg	-6229
相对	-6230
进步	-6231
安全的	-6232
鉴于	-6233
73	-6234
▁struct	-6235
▁其中	-6236
ps	-6237
▁multiple	-6238
扩展	-6239
▁box	-6240
发展目标	-6241
▁Wash	-6242
先进	-6243
年以来	-6244
▁Hel	-6245
▁cooper	-6246
▁Czech	-6247
▁Crim	-6248
▁shop	-6249
▁clearly	-6250
编制	-6251
Un	-6252
▁contain	-6253
▁posts	-6254
▁AI	-6255
▁circumstances	-6256
uate	-6257
▁Ann	-6258
▁Data	-6259
Al	-6260
▁brain	-6261
▁Constitution	-6262
▁CN	-6263
▁distribution	-6264
▁aircraft	-6265
▁Network	-6266
▁Commissioner	-6267
记者	-6268
▁另外	-6269
.4	-6270
▁improved	-6271
发送	-6272
RL	-6273
As	-6274
SE	-6275
建造	-6276
回来	-6277
:30	-6278
资助	-6279
▁financing	-6280
领导人	-6281
驾驶	-6282
外部	-6283
5)	-6284
▁manufacturer	-6285
▁urban	-6286
▁首页	-6287
会议上	-6288
加以	-6289
aint	-6290
重视	-6291
百万	-6292
▁Gene	-6293
取消	-6294
▁White	-6295
▁cyc	-6296
▁proposal	-6297
rote	-6298
▁Exc	-6299
▁resource	-6300
用来	-6301
▁adequate	-6302
▁dog	-6303
reak	-6304
十二	-6305
▁Def	-6306
▁同时	-6307
ximately	-6308
▁combat	-6309
▁Panel	-6310
▁Vis	-6311
▁negative	-6312
▁kids	-6313
▁Rem	-6314
▁Agency	-6315
▁Hu	-6316
▁ones	-6317
▁generation	-6318
ancial	-6319
▁er	-6320
▁月	-6321
▁dollars	-6322
少年	-6323
ilization	-6324
并将	-6325
▁Summit	-6326
▁consumption	-6327
anish	-6328
上海	-6329
▁Met	-6330
▁3,	-6331
若干	-6332
识别	-6333
俱乐	-6334
▁这就是	-6335
法案	-6336
▁技术	-6337
▁gold	-6338
▁Civil	-6339
▁color	-6340
▁recon	-6341
长的	-6342
将是	-6343
性质	-6344
▁evaluation	-6345
▁focused	-6346
▁西	-6347
俱乐部	-6348
此类	-6349
提出了	-6350
▁extra	-6351
▁fuck	-6352
自我	-6353
公布	-6354
▁hus	-6355
▁Industry	-6356
给你	-6357
▁file	-6358
很大	-6359
▁Inn	-6360
很好的	-6361
▁virt	-6362
iment	-6363
深圳	-6364
计划署	-6365
▁联系	-6366
案例	-6367
▁Those	-6368
ventions	-6369
atever	-6370
内瓦	-6371
oe	-6372
▁Have	-6373
▁guidelines	-6374
▁Like	-6375
有时	-6376
实验室	-6377
酷刑	-6378
▁negotiations	-6379
▁scale	-6380
放弃	-6381
▁Lib	-6382
ruption	-6383
物理	-6384
首页	-6385
▁correct	-6386
大型	-6387
▁extent	-6388
krain	-6389
▁mid	-6390
▁Swed	-6391
▁applied	-6392
lications	-6393
▁renew	-6394
▁easily	-6395
营销	-6396
iers	-6397
▁contribution	-6398
整体	-6399
例子	-6400
AH	-6401
出售	-6402
赢得	-6403
▁write	-6404
▁marketing	-6405
▁会	-6406
▁reality	-6407
▁(2)	-6408
▁condition	-6409
▁dri	-6410
住房	-6411
过渡	-6412
▁message	-6413
使其	-6414
▁»	-6415
▁raised	-6416
▁如果您	-6417
▁informed	-6418
痛苦	-6419
▁shared	-6420
▁15.	-6421
对其	-6422
▁secure	-6423
▁numbers	-6424
▁你的	-6425
▁followed	-6426
irection	-6427
No	-6428
▁labour	-6429
▁whom	-6430
me	-6431
未来的	-6432
▁16.	-6433
▁Force	-6434
▁III	-6435
▁dark	-6436
ocracy	-6437
你是	-6438
▁stake	-6439
打开	-6440
600	-6441
▁Mos	-6442
▁pi	-6443
▁feature	-6444
oo	-6445
ouble	-6446
警告	-6447
▁psych	-6448
▁investigation	-6449
以为	-6450
▁随着	-6451
1-	-6452
▁train	-6453
▁thousands	-6454
▁Requ	-6455
▁command	-6456
▁biennium	-6457
▁Pakistan	-6458
分类	-6459
车辆	-6460
▁worksh	-6461
▁Millennium	-6462
▁surpr	-6463
oyal	-6464
▁presence	-6465
所在	-6466
并非	-6467
▁attacks	-6468
▁chance	-6469
就可以	-6470
▁weight	-6471
▁USD	-6472
听到	-6473
▁looked	-6474
让你	-6475
thern	-6476
isation	-6477
▁Cooperation	-6478
iplom	-6479
他们在	-6480
及时	-6481
▁Cub	-6482
贷款	-6483
▁vill	-6484
UD	-6485
黎巴	-6486
太平	-6487
nic	-6488
▁electronic	-6489
▁Did	-6490
▁Meeting	-6491
实行	-6492
▁wasn	-6493
▁credit	-6494
▁useful	-6495
黎巴嫩	-6496
ding	-6497
▁把	-6498
意识到	-6499
▁Tel	-6500
日益	-6501
▁perman	-6502
预订	-6503
igation	-6504
审判	-6505
通过了	-6506
elling	-6507
▁voice	-6508
▁depend	-6509
组织和	-6510
▁feed	-6511
国民	-6512
▁destroy	-6513
▁Time	-6514
共享	-6515
▁damage	-6516
▁objective	-6517
▁shown	-6518
aught	-6519
▁risks	-6520
物的	-6521
非正式	-6522
▁territory	-6523
▁networks	-6524
RW	-6525
BM	-6526
▁hor	-6527
▁mainly	-6528
150	-6529
▁Project	-6530
我认为	-6531
▁wrote	-6532
▁labor	-6533
▁::	-6534
策略	-6535
▁incor	-6536
▁mount	-6537
▁Author	-6538
Pro	-6539
▁UNDP	-6540
数据库	-6541
▁produced	-6542
▁biggest	-6543
▁comfort	-6544
▁games	-6545
▁hot	-6546
得到了	-6547
取决	-6548
▁spread	-6549
▁Mad	-6550
通过的	-6551
天然	-6552
▁Black	-6553
被称为	-6554
自愿	-6555
▁huge	-6556
每一个	-6557
▁encourage	-6558
▁Water	-6559
▁officers	-6560
ecution	-6561
▁fed	-6562
wan	-6563
塑料	-6564
已經	-6565
▁dollar	-6566
SP	-6567
▁comment	-6568
取决于	-6569
bert	-6570
▁jur	-6571
的一项	-6572
的产品	-6573
研究所	-6574
大规模	-6575
▁Ukrain	-6576
▁writing	-6577
不可能	-6578
fered	-6579
▁install	-6580
职能	-6581
者和	-6582
▁Implement	-6583
▁farm	-6584
我国	-6585
▁它们	-6586
han	-6587
▁Opt	-6588
▁ded	-6589
▁degree	-6590
不需要	-6591
▁Each	-6592
ointed	-6593
▁running	-6594
▁Space	-6595
营养	-6596
很难	-6597
ores	-6598
绝对	-6599
检察	-6600
▁advice	-6601
最新	-6602
2:	-6603
▁screen	-6604
▁许多	-6605
▁temperature	-6606
azon	-6607
▁Another	-6608
attle	-6609
▁regul	-6610
▁display	-6611
▁mag	-6612
▁Design	-6613
▁interested	-6614
随后	-6615
▁units	-6616
aled	-6617
▁Free	-6618
▁collaboration	-6619
Fi	-6620
▁gone	-6621
overed	-6622
的要求	-6623
多种	-6624
别人	-6625
驱动	-6626
▁stability	-6627
态度	-6628
公正	-6629
▁insurance	-6630
▁Sun	-6631
制造商	-6632
56	-6633
所作	-6634
生效	-6635
▁turned	-6636
1997	-6637
仅仅	-6638
灵活	-6639
委会	-6640
arden	-6641
成就	-6642
妇女和	-6643
▁goes	-6644
欧元	-6645
▁proposals	-6646
▁opened	-6647
燃料	-6648
谢谢	-6649
▁我是	-6650
国际法	-6651
▁powerful	-6652
▁optim	-6653
▁looks	-6654
▁ongoing	-6655
▁belong	-6656
▁Afghanistan	-6657
▁Cookie	-6658
只需	-6659
▁Four	-6660
▁奥	-6661
可能性	-6662
__	-6663
▁enforcement	-6664
▁dated	-6665
▁desp	-6666
采取行动	-6667
▁Congress	-6668
atically	-6669
从未	-6670
▁yes	-6671
▁external	-6672
▁Sudan	-6673
▁flex	-6674
CD	-6675
▁academ	-6676
▁programs	-6677
广泛的	-6678
▁四	-6679
▁IT	-6680
▁comments	-6681
巴黎	-6682
项目的	-6683
▁testing	-6684
fast	-6685
癌症	-6686
▁老	-6687
▁Vill	-6688
宪章	-6689
让我们	-6690
▁sufficient	-6691
▁outcome	-6692
思考	-6693
依然	-6694
规范	-6695
▁Pat	-6696
▁variety	-6697
▁圣	-6698
▁persp	-6699
▁THE	-6700
爆炸	-6701
isters	-6702
有权	-6703
▁finally	-6704
制裁	-6705
▁arrangements	-6706
800	-6707
▁ww	-6708
%)	-6709
体制	-6710
及社会	-6711
▁image	-6712
▁Indian	-6713
orture	-6714
▁liber	-6715
▁Paul	-6716
▁witness	-6717
华盛	-6718
▁Geneva	-6719
▁emp	-6720
▁guidance	-6721
oto	-6722
身上	-6723
这是一个	-6724
▁refugees	-6725
▁award	-6726
▁giving	-6727
想象	-6728
▁Covenant	-6729
▁hour	-6730
pe	-6731
的世界	-6732
▁brief	-6733
SA	-6734
▁可以	-6735
▁Washington	-6736
▁advantage	-6737
斯拉	-6738
▁players	-6739
▁imag	-6740
不得不	-6741
幸福	-6742
ram	-6743
▁ideas	-6744
兄弟	-6745
▁Its	-6746
▁div	-6747
▁increasingly	-6748
辩论	-6749
ocks	-6750
▁www	-6751
华盛顿	-6752
▁determine	-6753
婚姻	-6754
纪念	-6755
▁collection	-6756
▁candid	-6757
政府的	-6758
▁attempt	-6759
他是	-6760
▁esc	-6761
男子	-6762
犹太	-6763
▁waste	-6764
之中	-6765
▁Zeal	-6766
日的	-6767
▁cam	-6768
▁mis	-6769
▁Leban	-6770
▁career	-6771
更好地	-6772
▁又	-6773
平民	-6774
▁enterprise	-6775
▁主席	-6776
▁scientists	-6777
覆盖	-6778
▁para	-6779
加密	-6780
heng	-6781
混合	-6782
▁aid	-6783
▁crimes	-6784
餐厅	-6785
图像	-6786
▁Financial	-6787
有趣	-6788
▁Zealand	-6789
▁Enter	-6790
rupt	-6791
▁17.	-6792
▁ban	-6793
成年	-6794
日内瓦	-6795
▁Green	-6796
▁opinion	-6797
▁Gl	-6798
active	-6799
PR	-6800
▁Sch	-6801
适当的	-6802
秘密	-6803
▁District	-6804
othing	-6805
▁cele	-6806
打印	-6807
▁Their	-6808
▁repe	-6809
▁practical	-6810
出席	-6811
机关	-6812
政府间	-6813
▁Follow	-6814
itle	-6815
▁mob	-6816
▁Vol	-6817
将继续	-6818
▁difference	-6819
▁payment	-6820
▁我要	-6821
▁supporting	-6822
reland	-6823
的作用	-6824
▁fine	-6825
常驻	-6826
▁事实上	-6827
或其他	-6828
▁Spain	-6829
▁Territ	-6830
den	-6831
ype	-6832
▁Museum	-6833
rugg	-6834
▁involve	-6835
组合	-6836
▁female	-6837
▁learned	-6838
的高	-6839
现场	-6840
同一	-6841
中所	-6842
▁ang	-6843
▁sectors	-6844
▁initiative	-6845
▁husband	-6846
哥伦	-6847
温度	-6848
玻璃	-6849
最不	-6850
▁datab	-6851
▁migr	-6852
ming	-6853
▁languages	-6854
展览	-6855
otal	-6856
差异	-6857
电子邮件	-6858
▁recommendation	-6859
▁emergency	-6860
经理	-6861
▁他們	-6862
▁Book	-6863
▁via	-6864
▁stock	-6865
ula	-6866
号决定	-6867
领先	-6868
▁hit	-6869
▁explo	-6870
神的	-6871
▁Charter	-6872
▁compliance	-6873
斯科	-6874
▁wonder	-6875
清单	-6876
79	-6877
把它	-6878
▁leader	-6879
世界各地	-6880
▁marriage	-6881
▁situations	-6882
▁books	-6883
.’	-6884
政策和	-6885
专题	-6886
翻译	-6887
▁multilateral	-6888
▁consumers	-6889
民间社会	-6890
▁student	-6891
▁excell	-6892
una	-6893
取得的	-6894
截至	-6895
▁governance	-6896
太平洋	-6897
▁Turkey	-6898
▁tried	-6899
▁Criminal	-6900
相反	-6901
记得	-6902
▁Industrial	-6903
造成的	-6904
▁investors	-6905
AI	-6906
爸爸	-6907
监狱	-6908
oliday	-6909
▁Hotels	-6910
▁offered	-6911
▁controll	-6912
▁丹	-6913
▁快	-6914
角度	-6915
在内的	-6916
后果	-6917
-12	-6918
▁mist	-6919
▁replace	-6920
▁weak	-6921
▁components	-6922
▁pursuant	-6923
▁guests	-6924
antly	-6925
▁survey	-6926
idi	-6927
▁batter	-6928
▁Coord	-6929
乌克兰	-6930
不起	-6931
▁hair	-6932
韩国	-6933
用途	-6934
eler	-6935
劳工	-6936
原子	-6937
▁更	-6938
这类	-6939
网上	-6940
增加了	-6941
▁fifty	-6942
▁interview	-6943
机器人	-6944
依据	-6945
ords	-6946
▁stri	-6947
53	-6948
男孩	-6949
▁Prom	-6950
▁transition	-6951
ala	-6952
outhern	-6953
unch	-6954
教会	-6955
第三方	-6956
▁只有	-6957
▁Jew	-6958
OC	-6959
学术	-6960
▁twenty	-6961
证书	-6962
ICEF	-6963
编辑	-6964
▁新加坡	-6965
好了	-6966
Ar	-6967
▁ship	-6968
欧洲联盟	-6969
▁Life	-6970
▁compens	-6971
▁steel	-6972
▁是的	-6973
▁Best	-6974
▁Main	-6975
▁Tribunal	-6976
erce	-6977
▁models	-6978
▁gives	-6979
▁Ireland	-6980
▁alloc	-6981
即将	-6982
weet	-6983
51	-6984
net	-6985
几年	-6986
▁Fif	-6987
▁全球	-6988
AIDS	-6989
cess	-6990
▁direction	-6991
▁entities	-6992
拟议	-6993
▁Custom	-6994
aves	-6995
▁map	-6996
也没有	-6997
▁Engine	-6998
▁owners	-6999
有很多	-7000
▁brow	-7001
▁guy	-7002
olute	-7003
见的	-7004
ieving	-7005
▁fuel	-7006
▁applicable	-7007
▁ir	-7008
▁克	-7009
198	-7010
来到	-7011
――	-7012
▁Unit	-7013
▁notice	-7014
的需求	-7015
伟大的	-7016
▁expend	-7017
加拉	-7018
面前	-7019
▁accounts	-7020
▁trading	-7021
情报	-7022
自身	-7023
这个问题	-7024
两种	-7025
习惯	-7026
中文	-7027
中国的	-7028
▁quant	-7029
▁AN	-7030
oral	-7031
▁Sea	-7032
ommod	-7033
KD	-7034
ola	-7035
▁tro	-7036
uting	-7037
▁PC	-7038
▁juris	-7039
!!	-7040
oking	-7041
▁电	-7042
▁har	-7043
各国政府	-7044
iling	-7045
美丽	-7046
▁企业	-7047
▁baby	-7048
的重要性	-7049
▁Agenda	-7050
予以	-7051
会在	-7052
行使	-7053
▁border	-7054
美国的	-7055
2-	-7056
▁confidence	-7057
申诉	-7058
hotel	-7059
ken	-7060
▁strugg	-7061
ray	-7062
▁commitments	-7063
▁Bang	-7064
▁favor	-7065
▁preparation	-7066
标志	-7067
What	-7068
▁healthy	-7069
▁Inte	-7070
Sp	-7071
植物	-7072
ald	-7073
▁charge	-7074
研讨	-7075
▁polit	-7076
▁List	-7077
专利	-7078
▁Cam	-7079
▁Indones	-7080
▁Sust	-7081
强烈	-7082
▁advis	-7083
add	-7084
越南	-7085
高级专员	-7086
▁Federal	-7087
▁还有	-7088
答复	-7089
▁floor	-7090
出去	-7091
立场	-7092
8)	-7093
▁Okay	-7094
▁placed	-7095
了我	-7096
图书	-7097
untary	-7098
行动纲	-7099
tr	-7100
最低	-7101
▁unit	-7102
的前	-7103
care	-7104
▁king	-7105
形式的	-7106
▁Gold	-7107
asts	-7108
▁decades	-7109
orge	-7110
EB	-7111
发生了	-7112
▁Liber	-7113
▁stars	-7114
尽可能	-7115
来西亚	-7116
绿色	-7117
ael	-7118
▁middle	-7119
被认为	-7120
▁Ref	-7121
男性	-7122
▁mentioned	-7123
▁prop	-7124
▁Tim	-7125
▁%	-7126
▁rent	-7127
答案	-7128
▁cash	-7129
▁18.	-7130
所谓	-7131
教师	-7132
▁island	-7133
等等	-7134
现金	-7135
▁sorry	-7136
▁undertaken	-7137
我说	-7138
专注	-7139
我们可以	-7140
▁Right	-7141
illing	-7142
.)	-7143
机构和	-7144
▁(2	-7145
▁restrict	-7146
我們的	-7147
马拉	-7148
动力	-7149
清洁	-7150
▁internet	-7151
拉丁	-7152
▁无	-7153
App	-7154
▁sites	-7155
▁approximately	-7156
▁Tai	-7157
来看	-7158
流动	-7159
ago	-7160
南部	-7161
54	-7162
▁vehicle	-7163
中东	-7164
▁cars	-7165
▁那么	-7166
▁David	-7167
中有	-7168
這些	-7169
▁Address	-7170
▁elections	-7171
交换	-7172
▁willing	-7173
▁也许	-7174
▁housing	-7175
eared	-7176
西兰	-7177
▁decre	-7178
▁没	-7179
▁institutional	-7180
umber	-7181
点击	-7182
▁Av	-7183
anch	-7184
工资	-7185
vered	-7186
uses	-7187
ifically	-7188
医学	-7189
走了	-7190
▁moving	-7191
▁meters	-7192
▁Third	-7193
▁vision	-7194
举措	-7195
最初	-7196
▁election	-7197
oes	-7198
流程	-7199
▁Latin	-7200
aza	-7201
释放	-7202
ror	-7203
orial	-7204
的社会	-7205
▁Det	-7206
最好	-7207
哥伦比亚	-7208
▁influence	-7209
verse	-7210
pet	-7211
菲律	-7212
巨大	-7213
筹备	-7214
资格	-7215
力资源	-7216
还在	-7217
DF	-7218
▁Lim	-7219
尼日	-7220
making	-7221
管辖	-7222
7)	-7223
▁passed	-7224
▁debate	-7225
ounce	-7226
stream	-7227
名为	-7228
▁=	-7229
▁我知道	-7230
ishes	-7231
▁土耳其	-7232
▁<	-7233
及社会理事会	-7234
▁Maybe	-7235
的任务	-7236
▁drugs	-7237
iday	-7238
resh	-7239
▁Congo	-7240
▁judge	-7241
巴基斯坦	-7242
▁separate	-7243
程度上	-7244
和保护	-7245
▁第一	-7246
▁ahead	-7247
▁reduced	-7248
▁Him	-7249
▁Nig	-7250
gin	-7251
泰国	-7252
▁Regional	-7253
▁quarter	-7254
▁会议	-7255
有什么	-7256
▁rich	-7257
起诉	-7258
▁Reserved	-7259
▁Beach	-7260
新加坡	-7261
了一些	-7262
害怕	-7263
智慧	-7264
▁senior	-7265
▁Malays	-7266
还没有	-7267
▁在这方面	-7268
推广	-7269
▁Mond	-7270
▁cold	-7271
动机	-7272
转让	-7273
MP	-7274
▁played	-7275
▁illegal	-7276
▁youth	-7277
apon	-7278
对此	-7279
对象	-7280
做到	-7281
失所	-7282
MS	-7283
▁convers	-7284
都不	-7285
候选	-7286
流离	-7287
▁科	-7288
oration	-7289
▁summer	-7290
▁invited	-7291
▁centre	-7292
男女	-7293
▁multi	-7294
phone	-7295
▁Technical	-7296
TO	-7297
▁Zh	-7298
▁Implementation	-7299
▁Jer	-7300
▁remained	-7301
▁Current	-7302
Facebook	-7303
▁Section	-7304
iferation	-7305
或是	-7306
▁becoming	-7307
這樣	-7308
回应	-7309
▁architect	-7310
▁哈	-7311
▁Americans	-7312
腐败	-7313
ses	-7314
CA	-7315
也在	-7316
▁subsequ	-7317
▁lose	-7318
ynam	-7319
▁closely	-7320
eters	-7321
次会议上	-7322
▁intelligence	-7323
▁瑞士	-7324
▁Viet	-7325
▁fields	-7326
丈夫	-7327
看法	-7328
▁abuse	-7329
▁Crime	-7330
▁Ke	-7331
▁spent	-7332
▁Ku	-7333
怀疑	-7334
ription	-7335
gment	-7336
推荐	-7337
各自	-7338
▁nations	-7339
链接	-7340
irty	-7341
▁Bas	-7342
▁Gen	-7343
cH	-7344
olf	-7345
▁亚	-7346
并为	-7347
▁prem	-7348
氧化	-7349
连续	-7350
▁Note	-7351
周期	-7352
ength	-7353
61	-7354
▁economies	-7355
▁cookies	-7356
▁instance	-7357
▁地	-7358
comes	-7359
▁warm	-7360
拟订	-7361
▁medic	-7362
是对	-7363
▁Bed	-7364
HO	-7365
rig	-7366
流离失所	-7367
▁Pers	-7368
▁scope	-7369
▁Ben	-7370
▁400	-7371
▁follows	-7372
inating	-7373
▁recommends	-7374
测量	-7375
▁mer	-7376
升级	-7377
谷歌	-7378
强大的	-7379
▁reading	-7380
死了	-7381
▁phase	-7382
▁Use	-7383
urement	-7384
62	-7385
格兰	-7386
左右	-7387
能量	-7388
▁store	-7389
▁Dom	-7390
▁governments	-7391
▁manage	-7392
▁calc	-7393
▁Britain	-7394
女儿	-7395
灾害	-7396
▁”””	-7397
LD	-7398
▁第三	-7399
▁teams	-7400
▁于	-7401
▁项目	-7402
足球	-7403
▁innovative	-7404
版权所有	-7405
周围	-7406
▁日本	-7407
asion	-7408
在此	-7409
尼西亚	-7410
▁Administration	-7411
良好的	-7412
ship	-7413
▁Ber	-7414
日常	-7415
aria	-7416
angzhou	-7417
5-	-7418
GD	-7419
市场的	-7420
▁网站	-7421
▁Bet	-7422
▁Series	-7423
▁wealth	-7424
便利	-7425
▁forced	-7426
▁Christian	-7427
▁indicated	-7428
▁至	-7429
ibly	-7430
▁全	-7431
▁permanent	-7432
▁fourth	-7433
▁Take	-7434
▁fit	-7435
ienn	-7436
▁Amazon	-7437
itzer	-7438
▁tom	-7439
Is	-7440
▁helped	-7441
ka	-7442
▁Police	-7443
▁consumer	-7444
场所	-7445
▁micro	-7446
▁covered	-7447
神经	-7448
指定	-7449
▁solid	-7450
是最	-7451
理想	-7452
告诉我	-7453
▁spend	-7454
▁output	-7455
▁首先	-7456
球员	-7457
菲律宾	-7458
▁experiences	-7459
luding	-7460
▁okay	-7461
▁Islamic	-7462
▁sessions	-7463
与其他	-7464
▁这样	-7465
体的	-7466
▁withd	-7467
▁starting	-7468
法规	-7469
明天	-7470
▁truly	-7471
做什么	-7472
▁enem	-7473
chang	-7474
mon	-7475
国防	-7476
▁pattern	-7477
▁positions	-7478
▁recovery	-7479
干事	-7480
essor	-7481
▁Host	-7482
▁Foundation	-7483
▁Ver	-7484
▁政府	-7485
▁universal	-7486
▁aware	-7487
▁amend	-7488
▁印度	-7489
回家	-7490
▁LED	-7491
对妇女	-7492
▁Gre	-7493
咨询委员会	-7494
▁maybe	-7495
▁diplom	-7496
▁Mo	-7497
时刻	-7498
▁pretty	-7499
ault	-7500
结婚	-7501
▁forget	-7502
虐待	-7503
▁lay	-7504
配置	-7505
▁vulnerable	-7506
▁Family	-7507
下去	-7508
四个	-7509
venth	-7510
▁glass	-7511
▁pregn	-7512
浴室	-7513
▁net	-7514
▁Saudi	-7515
依照	-7516
在我	-7517
▁不是	-7518
产生的	-7519
是有	-7520
民主共和国	-7521
▁特	-7522
▁Political	-7523
在这个	-7524
很少	-7525
方便	-7526
▁served	-7527
图片	-7528
国家和	-7529
▁真	-7530
abled	-7531
报告中	-7532
▁showed	-7533
▁tur	-7534
重建	-7535
▁4,	-7536
52	-7537
▁previously	-7538
信号	-7539
▁peaceful	-7540
▁entry	-7541
儿童基金会	-7542
▁Community	-7543
正确的	-7544
今后	-7545
▁Friday	-7546
▁东	-7547
▁来	-7548
期望	-7549
观察员	-7550
▁educational	-7551
▁contains	-7552
▁instrument	-7553
▁19.	-7554
ansion	-7555
▁minimum	-7556
罪行	-7557
ien	-7558
▁coffee	-7559
▁Cy	-7560
▁developments	-7561
icit	-7562
报告的	-7563
怎麼	-7564
ensions	-7565
捐款	-7566
▁Control	-7567
▁actual	-7568
毫无	-7569
▁Rest	-7570
IR	-7571
追求	-7572
受益	-7573
彼此	-7574
延长	-7575
▁Annex	-7576
声称	-7577
移徙	-7578
▁playing	-7579
▁consequences	-7580
类别	-7581
▁Sil	-7582
加勒	-7583
ipe	-7584
▁ton	-7585
▁波	-7586
▁appeal	-7587
特别是在	-7588
▁weather	-7589
▁gun	-7590
该公司	-7591
▁Mont	-7592
展开	-7593
区块	-7594
产品的	-7595
教堂	-7596
zhen	-7597
消失	-7598
otion	-7599
▁(19	-7600
▁金	-7601
首脑会议	-7602
联络	-7603
▁concent	-7604
▁mine	-7605
带来的	-7606
▁traffic	-7607
千年发展目标	-7608
▁Super	-7609
struction	-7610
berg	-7611
我知道	-7612
▁touch	-7613
方案的	-7614
▁raise	-7615
▁satell	-7616
▁soul	-7617
▁clients	-7618
▁Sk	-7619
持久	-7620
颜色	-7621
▁你知道	-7622
▁Resp	-7623
ille	-7624
MA	-7625
▁determined	-7626
发出	-7627
融资	-7628
好处	-7629
▁flow	-7630
殖民	-7631
特征	-7632
▁believed	-7633
一系列	-7634
▁同	-7635
▁Lin	-7636
良好	-7637
▁surface	-7638
克斯坦	-7639
▁Chief	-7640
▁carbon	-7641
▁Eas	-7642
研讨会	-7643
▁Grand	-7644
百分	-7645
第五十	-7646
技术的	-7647
98	-7648
pped	-7649
▁option	-7650
▁Page	-7651
▁Back	-7652
▁changing	-7653
货物	-7654
▁电话	-7655
认可	-7656
▁detailed	-7657
▁causes	-7658
没有任何	-7659
零售	-7660
▁acknow	-7661
▁jurisd	-7662
根廷	-7663
que	-7664
▁certainly	-7665
▁terrorist	-7666
▁discussions	-7667
这次	-7668
PY	-7669
▁older	-7670
▁TR	-7671
动态	-7672
▁widely	-7673
装置	-7674
边界	-7675
不想	-7676
艺术家	-7677
和服务	-7678
utr	-7679
▁Eth	-7680
这就是	-7681
▁前	-7682
有效地	-7683
治理	-7684
▁斯	-7685
职责	-7686
大使	-7687
78	-7688
▁Jud	-7689
经济及社会理事会	-7690
▁Set	-7691
▁sharing	-7692
生存	-7693
coming	-7694
始终	-7695
▁waiting	-7696
▁Monday	-7697
▁瑞典	-7698
虚拟	-7699
优惠	-7700
▁hospital	-7701
▁lik	-7702
▁names	-7703
ped	-7704
▁accommod	-7705
下一	-7706
friend	-7707
▁improvement	-7708
▁banks	-7709
▁emissions	-7710
▁Att	-7711
单独	-7712
获得了	-7713
▁intended	-7714
证实	-7715
开发计划署	-7716
更为	-7717
▁opening	-7718
深入	-7719
再生	-7720
▁Philipp	-7721
▁capt	-7722
▁Wed	-7723
购物	-7724
▁Previous	-7725
▁journal	-7726
▁guarantee	-7727
▁chain	-7728
▁federal	-7729
▁reb	-7730
onia	-7731
▁highlight	-7732
德里	-7733
人工	-7734
未能	-7735
▁20.	-7736
执法	-7737
1000	-7738
racts	-7739
▁closed	-7740
▁ball	-7741
▁150	-7742
▁achieving	-7743
SR	-7744
元素	-7745
▁guys	-7746
待遇	-7747
杂志	-7748
icated	-7749
岛屿	-7750
▁named	-7751
▁正如	-7752
▁33	-7753
和我	-7754
细节	-7755
严格	-7756
▁helping	-7757
▁五	-7758
hemical	-7759
输入	-7760
▁unless	-7761
▁anc	-7762
在过去	-7763
▁英国	-7764
▁finance	-7765
▁36	-7766
iy	-7767
可在	-7768
▁delegations	-7769
▁failure	-7770
互动	-7771
毕业	-7772
了他	-7773
ipped	-7774
▁45	-7775
▁reject	-7776
itzerland	-7777
▁song	-7778
Sc	-7779
的风险	-7780
宇宙	-7781
TP	-7782
▁21.	-7783
▁exactly	-7784
▁Thank	-7785
▁OF	-7786
▁dim	-7787
▁compar	-7788
不受	-7789
▁欢迎	-7790
▁Mich	-7791
▁有些	-7792
▁defined	-7793
▁regime	-7794
iforn	-7795
▁Turk	-7796
设有	-7797
▁Bro	-7798
chain	-7799
需要的	-7800
因为它	-7801
▁sanctions	-7802
▁vari	-7803
▁cool	-7804
标签	-7805
面积	-7806
▁Bu	-7807
▁revolution	-7808
bour	-7809
▁attend	-7810
▁Quest	-7811
途径	-7812
▁celebr	-7813
▁Conc	-7814
突然	-7815
bean	-7816
▁32	-7817
贸发	-7818
▁Building	-7819
▁animals	-7820
▁religion	-7821
lock	-7822
ography	-7823
▁becomes	-7824
▁pick	-7825
▁Airport	-7826
研究人员	-7827
▁wat	-7828
推进	-7829
▁millions	-7830
▁returned	-7831
alian	-7832
raid	-7833
工程师	-7834
KK	-7835
▁谁	-7836
每一	-7837
成长	-7838
▁College	-7839
成功的	-7840
ellect	-7841
UT	-7842
重复	-7843
rence	-7844
BI	-7845
▁Ha	-7846
▁Dar	-7847
行为的	-7848
▁consistent	-7849
1990	-7850
▁married	-7851
▁Hist	-7852
▁alternative	-7853
斗争	-7854
本书	-7855
▁reserved	-7856
的一种	-7857
henzhen	-7858
在该	-7859
▁radio	-7860
取代	-7861
磋商	-7862
▁feeling	-7863
▁effectiveness	-7864
▁2008,	-7865
rees	-7866
▁solar	-7867
▁corporate	-7868
步行	-7869
西方	-7870
▁suggested	-7871
▁records	-7872
▁比	-7873
大会第	-7874
poration	-7875
▁Partners	-7876
▁club	-7877
ureau	-7878
aker	-7879
▁absolute	-7880
有必要	-7881
▁purs	-7882
▁detention	-7883
▁worry	-7884
是我们	-7885
所载	-7886
有多	-7887
事业	-7888
▁couldn	-7889
▁emerging	-7890
平方	-7891
天气	-7892
▁specialized	-7893
人民币	-7894
CTAD	-7895
财富	-7896
▁construct	-7897
95	-7898
etary	-7899
付款	-7900
uration	-7901
▁judicial	-7902
转换	-7903
电力	-7904
ios	-7905
▁美元	-7906
▁Six	-7907
高级别	-7908
▁currency	-7909
LO	-7910
分之一	-7911
TA	-7912
▁{\	-7913
▁meant	-7914
▁race	-7915
保存	-7916
▁moved	-7917
▁centres	-7918
▁再	-7919
足够的	-7920
▁Once	-7921
更大的	-7922
▁Mag	-7923
▁Prime	-7924
▁bill	-7925
known	-7926
▁expertise	-7927
星级酒店	-7928
▁failed	-7929
▁obvious	-7930
icon	-7931
ompl	-7932
收购	-7933
▁helps	-7934
来了	-7935
▁perhaps	-7936
▁kept	-7937
▁Pop	-7938
▁transform	-7939
place	-7940
▁adapt	-7941
▁adopt	-7942
▁forth	-7943
▁favour	-7944
▁double	-7945
▁ep	-7946
uated	-7947
品质	-7948
▁planned	-7949
inner	-7950
▁hom	-7951
▁Adv	-7952
▁mur	-7953
▁remind	-7954
60/	-7955
年底	-7956
段时间	-7957
▁Sustainable	-7958
▁最近	-7959
工艺	-7960
▁iPhone	-7961
ifornia	-7962
▁被	-7963
的第一	-7964
▁你可以	-7965
▁prepare	-7966
核准	-7967
商店	-7968
了一项	-7969
▁extremely	-7970
▁despite	-7971
erous	-7972
建立一个	-7973
婴儿	-7974
enses	-7975
说话	-7976
▁advoc	-7977
▁delay	-7978
总体	-7979
▁guide	-7980
梦想	-7981
穆斯	-7982
▁2005,	-7983
黄金	-7984
维持和平行动	-7985
的环境	-7986
▁informal	-7987
▁assum	-7988
▁welcomed	-7989
指示	-7990
和文化	-7991
▁stakeholders	-7992
▁accepted	-7993
▁挪威	-7994
▁significantly	-7995
▁indicators	-7996
能力建设	-7997
-11	-7998
900	-7999
▁新闻	-8000
ider	-8001
▁exceed	-8002
▁perspective	-8003
▁advert	-8004
▁industries	-8005
▁larger	-8006
▁Furthermore	-8007
But	-8008
▁belief	-8009
▁Atl	-8010
▁medium	-8011
群岛	-8012
▁reducing	-8013
极端	-8014
删除	-8015
▁invent	-8016
▁Both	-8017
▁greatest	-8018
提交人	-8019
lication	-8020
▁為	-8021
你知道	-8022
▁daughter	-8023
两性	-8024
imb	-8025
ENT	-8026
1]	-8027
▁lines	-8028
此同时	-8029
▁2006,	-8030
▁possibility	-8031
以外	-8032
▁Thus	-8033
grad	-8034
▁Syrian	-8035
年至	-8036
看见	-8037
▁Offic	-8038
时的	-8039
1:	-8040
▁南非	-8041
之下	-8042
rooms	-8043
发生在	-8044
▁tomorrow	-8045
▁destruction	-8046
76	-8047
一条	-8048
iant	-8049
▁1997	-8050
页面	-8051
▁doubt	-8052
尺寸	-8053
istical	-8054
股票	-8055
現在	-8056
文本	-8057
会计	-8058
▁penal	-8059
rete	-8060
▁valid	-8061
的项目	-8062
分发	-8063
小型	-8064
优秀	-8065
表决	-8066
▁democracy	-8067
▁wouldn	-8068
的人权	-8069
▁grand	-8070
有着	-8071
▁这里	-8072
herlands	-8073
with	-8074
▁地址	-8075
简介	-8076
糟糕	-8077
发射	-8078
芬兰	-8079
指数	-8080
▁doctor	-8081
用品	-8082
遭到	-8083
▁formal	-8084
▁recognition	-8085
▁2007,	-8086
za	-8087
感兴趣	-8088
取得了	-8089
abit	-8090
▁cruc	-8091
私营部门	-8092
▁resulting	-8093
特点	-8094
isional	-8095
休息	-8096
▁supports	-8097
▁appoint	-8098
自行	-8099
ria	-8100
现有的	-8101
有了	-8102
教学	-8103
▁Allah	-8104
osure	-8105
学会	-8106
▁heat	-8107
▁der	-8108
▁interpret	-8109
▁indeed	-8110
沟通	-8111
它们的	-8112
▁Fac	-8113
▁已	-8114
就能	-8115
列表	-8116
▁background	-8117
装备	-8118
理念	-8119
▁Model	-8120
▁Island	-8121
ailand	-8122
▁civilian	-8123
▁Carib	-8124
▁Aud	-8125
低于	-8126
可能的	-8127
孩子们	-8128
▁duty	-8129
1996	-8130
关心	-8131
▁arbit	-8132
类型的	-8133
联合王国	-8134
维也	-8135
ste	-8136
iar	-8137
您可以	-8138
儿童权利	-8139
▁patient	-8140
舒适	-8141
部的	-8142
通讯	-8143
遇到	-8144
▁priorities	-8145
▁agency	-8146
▁relation	-8147
▁人权	-8148
▁listen	-8149
LE	-8150
▁California	-8151
arge	-8152
▁deploy	-8153
民众	-8154
▁Indonesia	-8155
照顾	-8156
▁ign	-8157
彻底	-8158
▁Taiwan	-8159
▁accompl	-8160
▁purchase	-8161
▁distance	-8162
助理	-8163
ano	-8164
▁recognize	-8165
▁proceedings	-8166
和管理	-8167
▁22.	-8168
▁independence	-8169
签证	-8170
我很	-8171
▁nine	-8172
▁UNICEF	-8173
ZD	-8174
权的	-8175
ively	-8176
▁CEO	-8177
uled	-8178
BS	-8179
▁blog	-8180
环保	-8181
▁prohib	-8182
▁Love	-8183
行动纲领	-8184
▁executive	-8185
▁Light	-8186
生的	-8187
威特	-8188
美国人	-8189
是为了	-8190
导弹	-8191
▁Switzerland	-8192
儿童的	-8193
▁沙特	-8194
接收	-8195
▁alia	-8196
维也纳	-8197
▁forum	-8198
批评	-8199
▁household	-8200
▁37	-8201
▁sovere	-8202
▁vir	-8203
逮捕	-8204
▁Moreover	-8205
▁Australian	-8206
脆弱	-8207
▁Eff	-8208
护理	-8209
所需的	-8210
▁Fe	-8211
repren	-8212
My	-8213
▁toward	-8214
stan	-8215
▁dangerous	-8216
▁Countries	-8217
表面	-8218
▁Spanish	-8219
eg	-8220
第二次	-8221
▁bag	-8222
iques	-8223
▁relatively	-8224
游客	-8225
▁bound	-8226
▁statistics	-8227
▁Church	-8228
4-	-8229
不在	-8230
▁setting	-8231
▁concluded	-8232
▁无论	-8233
▁acceler	-8234
协作	-8235
yn	-8236
▁engineering	-8237
Ltd	-8238
不扩散	-8239
▁actively	-8240
▁afraid	-8241
AW	-8242
▁港	-8243
发电	-8244
ifications	-8245
▁encouraged	-8246
敏感	-8247
信息和	-8248
iences	-8249
▁connected	-8250
穆斯林	-8251
▁Jack	-8252
▁sale	-8253
团结	-8254
▁figure	-8255
否则	-8256
会者	-8257
▁水	-8258
发生的	-8259
▁paragraphs	-8260
agers	-8261
▁ethnic	-8262
▁说	-8263
▁Cuba	-8264
加勒比	-8265
▁decide	-8266
出于	-8267
▁Caribbean	-8268
索沃	-8269
轻松	-8270
至关重要	-8271
化和	-8272
▁Mat	-8273
姆斯	-8274
▁Android	-8275
▁species	-8276
▁provisional	-8277
▁disaster	-8278
衣服	-8279
▁Roman	-8280
季度	-8281
▁entered	-8282
紧张	-8283
▁Land	-8284
120	-8285
:(	-8286
▁用	-8287
▁repro	-8288
▁各	-8289
的政治	-8290
广场	-8291
潜力	-8292
▁capabilities	-8293
roud	-8294
700	-8295
▁近	-8296
相同的	-8297
蛋白	-8298
There	-8299
安全和	-8300
▁agricultural	-8301
▁revised	-8302
▁addressing	-8303
赞赏	-8304
inding	-8305
跟踪	-8306
▁Den	-8307
▁pil	-8308
iny	-8309
国会	-8310
还要	-8311
▁tasks	-8312
▁Trust	-8313
EE	-8314
志愿	-8315
惩罚	-8316
信心	-8317
▁speaking	-8318
▁Three	-8319
▁39	-8320
arency	-8321
▁chair	-8322
常常	-8323
jiang	-8324
尔斯	-8325
▁Does	-8326
▁当前	-8327
▁南	-8328
双边	-8329
miss	-8330
▁haven	-8331
▁prefer	-8332
▁Mart	-8333
wood	-8334
传感	-8335
▁gets	-8336
强制	-8337
武装冲突	-8338
▁Canad	-8339
提醒	-8340
我就	-8341
▁Top	-8342
ienna	-8343
ini	-8344
▁nice	-8345
▁Joint	-8346
down	-8347
▁Ins	-8348
但在	-8349
▁diseases	-8350
说过	-8351
-20	-8352
▁北京	-8353
▁人们	-8354
▁approval	-8355
▁两	-8356
▁master	-8357
▁lawy	-8358
oles	-8359
▁23.	-8360
▁Argent	-8361
▁Club	-8362
vo	-8363
▁driving	-8364
tical	-8365
▁severe	-8366
▁Table	-8367
▁listed	-8368
umin	-8369
好像	-8370
▁discussed	-8371
ellectual	-8372
▁报告	-8373
▁fat	-8374
负担	-8375
在全球	-8376
▁explain	-8377
▁Members	-8378
马来西亚	-8379
的全球	-8380
具备	-8381
▁Netherlands	-8382
▁Through	-8383
▁protected	-8384
▁database	-8385
▁Medical	-8386
区块链	-8387
▁substantial	-8388
▁merc	-8389
▁Legal	-8390
及其他	-8391
▁Fil	-8392
▁●	-8393
▁kid	-8394
▁Long	-8395
▁constit	-8396
ona	-8397
▁committee	-8398
▁UNCTAD	-8399
▁existence	-8400
议员	-8401
▁element	-8402
到底	-8403
unte	-8404
ZK	-8405
▁revenue	-8406
▁clar	-8407
有点	-8408
▁Scient	-8409
去了	-8410
▁registered	-8411
▁afford	-8412
提及	-8413
参考	-8414
任何人	-8415
▁ID	-8416
是你	-8417
▁个	-8418
节目	-8419
大陆	-8420
▁tim	-8421
mbass	-8422
▁chief	-8423
早上	-8424
▁predict	-8425
▁Thailand	-8426
超级	-8427
▁bott	-8428
▁decade	-8429
udd	-8430
這個	-8431
▁director	-8432
相应	-8433
多年	-8434
▁sustain	-8435
▁appointed	-8436
集体	-8437
ATION	-8438
▁我在	-8439
▁confirmed	-8440
▁compr	-8441
胜利	-8442
收益	-8443
▁所	-8444
1995	-8445
free	-8446
eless	-8447
▁couple	-8448
▁substantive	-8449
▁disabilities	-8450
达尔	-8451
▁Show	-8452
干预	-8453
▁James	-8454
▁whatever	-8455
交付	-8456
招聘	-8457
▁university	-8458
▁maximum	-8459
▁trib	-8460
ashion	-8461
▁excellent	-8462
▁Malaysia	-8463
apers	-8464
▁香港	-8465
▁Apartments	-8466
流行	-8467
▁distin	-8468
▁heavy	-8469
上诉	-8470
▁torture	-8471
迄今	-8472
enary	-8473
▁lies	-8474
72	-8475
▁faster	-8476
▁church	-8477
▁magn	-8478
9)	-8479
respond	-8480
▁identity	-8481
▁Guests	-8482
▁selected	-8483
其他人	-8484
天的	-8485
警方	-8486
▁memory	-8487
但我	-8488
▁phil	-8489
▁remaining	-8490
isher	-8491
lav	-8492
加速	-8493
yth	-8494
▁believes	-8495
uable	-8496
▁nav	-8497
了吗	-8498
▁38	-8499
微软	-8500
ania	-8501
技术和	-8502
▁Old	-8503
ius	-8504
person	-8505
▁specifically	-8506
unately	-8507
▁amb	-8508
▁picture	-8509
▁arg	-8510
中心的	-8511
而不	-8512
unction	-8513
ector	-8514
ser	-8515
▁Ukraine	-8516
▁rare	-8517
本地	-8518
▁Log	-8519
▁consensus	-8520
▁server	-8521
▁Arch	-8522
▁Goals	-8523
▁5,	-8524
▁holding	-8525
记忆	-8526
额外	-8527
生活在	-8528
优先事项	-8529
争议	-8530
明的	-8531
没有人	-8532
acing	-8533
▁experienced	-8534
▁targets	-8535
为此	-8536
▁glob	-8537
国王	-8538
▁obligation	-8539
eline	-8540
▁trave	-8541
▁clin	-8542
法郎	-8543
▁Ur	-8544
▁depos	-8545
▁哦	-8546
▁爱	-8547
主持	-8548
▁fish	-8549
蒙特	-8550
▁版权所有	-8551
涵盖	-8552
▁defend	-8553
▁ourselves	-8554
▁definition	-8555
▁skin	-8556
▁temporary	-8557
CE	-8558
记住	-8559
▁shoot	-8560
都能	-8561
总理	-8562
忘记	-8563
大脑	-8564
▁pet	-8565
▁happens	-8566
是如何	-8567
掌握	-8568
公路	-8569
▁alleged	-8570
▁wall	-8571
▁即使	-8572
▁establishing	-8573
存在的	-8574
▁Fire	-8575
▁compensation	-8576
▁feet	-8577
里夫	-8578
quir	-8579
▁conce	-8580
▁crucial	-8581
尼日利亚	-8582
antic	-8583
讲习	-8584
▁legislative	-8585
退休	-8586
▁IV	-8587
▁threats	-8588
失业	-8589
▁Team	-8590
96	-8591
▁stable	-8592
espite	-8593
▁Chapter	-8594
▁服务	-8595
▁Autom	-8596
其实	-8597
third	-8598
作为一个	-8599
rated	-8600
提交的	-8601
我们必须	-8602
jan	-8603
▁向	-8604
▁ST	-8605
oted	-8606
▁Program	-8607
▁Total	-8608
wing	-8609
▁Ret	-8610
▁Play	-8611
▁spons	-8612
广播	-8613
对我	-8614
拯救	-8615
严重的	-8616
自动化	-8617
图书馆	-8618
▁television	-8619
ivered	-8620
▁24.	-8621
▁拉	-8622
所有人	-8623
▁confident	-8624
▁Cost	-8625
ications	-8626
▁Alex	-8627
内亚	-8628
box	-8629
留下	-8630
bed	-8631
大量的	-8632
▁eye	-8633
共有	-8634
▁consolid	-8635
可怕	-8636
▁academic	-8637
的关键	-8638
▁($	-8639
▁Hell	-8640
▁Franc	-8641
▁2004,	-8642
会议室	-8643
China	-8644
太阳能	-8645
▁consc	-8646
▁component	-8647
▁下一篇	-8648
力和	-8649
成了	-8650
五年	-8651
iber	-8652
专注于	-8653
▁shut	-8654
过来	-8655
▁interesting	-8656
捷克	-8657
▁Academ	-8658
.[	-8659
气体	-8660
▁spok	-8661
的使用	-8662
海滩	-8663
▁Yet	-8664
▁aren	-8665
▁category	-8666
里拉	-8667
刚刚	-8668
▁Name	-8669
都可以	-8670
几内亚	-8671
▁famous	-8672
▁今年	-8673
▁cycle	-8674
然而	-8675
区别	-8676
▁神	-8677
▁2003,	-8678
仲裁	-8679
的服务	-8680
▁expansion	-8681
▁leaving	-8682
▁mental	-8683
▁(3)	-8684
地利	-8685
谈论	-8686
▁settlement	-8687
▁joined	-8688
▁trends	-8689
永久	-8690
ruitment	-8691
▁achievement	-8692
▁34	-8693
▁explore	-8694
高效	-8695
unk	-8696
对待	-8697
▁Finally	-8698
▁Tour	-8699
▁Ext	-8700
组成部分	-8701
句话	-8702
将被	-8703
▁teaching	-8704
▁Sund	-8705
asters	-8706
▁investments	-8707
终于	-8708
▁Qual	-8709
▁Bal	-8710
判决	-8711
▁argu	-8712
酒吧	-8713
▁engaged	-8714
▁Korean	-8715
▁obst	-8716
umn	-8717
▁download	-8718
拉丁美洲	-8719
▁courses	-8720
▁有人	-8721
彼得	-8722
▁obser	-8723
利润	-8724
▁25.	-8725
▁bilateral	-8726
▁Que	-8727
▁files	-8728
▁reiter	-8729
在一	-8730
▁应	-8731
构建	-8732
垃圾	-8733
▁1996	-8734
▁Islands	-8735
▁Miss	-8736
▁otherwise	-8737
▁Lear	-8738
▁loved	-8739
的内容	-8740
青少年	-8741
遗憾	-8742
和政治	-8743
▁lib	-8744
▁Parliament	-8745
usion	-8746
的故事	-8747
▁歐	-8748
实质性	-8749
诊断	-8750
的行动	-8751
分布	-8752
▁周	-8753
▁Conf	-8754
传感器	-8755
制品	-8756
▁approaches	-8757
监控	-8758
97	-8759
博客	-8760
▁Tom	-8761
风格	-8762
▁theme	-8763
▁surround	-8764
▁player	-8765
▁Training	-8766
▁Somal	-8767
▁appreciation	-8768
路线	-8769
▁thanks	-8770
葡萄牙	-8771
十三	-8772
250	-8773
强迫	-8774
▁update	-8775
▁Bi	-8776
专家组	-8777
▁rock	-8778
的最后	-8779
▁strict	-8780
ki	-8781
▁plastic	-8782
的公司	-8783
▁expression	-8784
▁對	-8785
差距	-8786
▁这是一个	-8787
▁pool	-8788
aling	-8789
▁Before	-8790
告诉你	-8791
是的	-8792
转型	-8793
▁Mult	-8794
Home	-8795
卢布	-8796
zz	-8797
万人	-8798
▁involving	-8799
股份有限公司	-8800
奇怪	-8801
刚果民主共和国	-8802
▁actors	-8803
ipping	-8804
▁Rev	-8805
会上	-8806
▁stream	-8807
mosp	-8808
▁homes	-8809
▁sort	-8810
▁voluntary	-8811
▁extended	-8812
▁transactions	-8813
ossible	-8814
▁retail	-8815
▁findings	-8816
▁NGO	-8817
▁2002,	-8818
的基本	-8819
▁USA	-8820
地产	-8821
喜歡	-8822
regional	-8823
▁consultation	-8824
▁白	-8825
▁seeking	-8826
讲习班	-8827
▁Number	-8828
格式	-8829
▁Media	-8830
大幅	-8831
随时	-8832
跨国	-8833
▁Drug	-8834
假设	-8835
庆祝	-8836
物品	-8837
有机会	-8838
▁behavior	-8839
火车	-8840
参加了	-8841
▁Item	-8842
▁sn	-8843
▁successfully	-8844
缅甸	-8845
%.	-8846
▁street	-8847
日子	-8848
的合作	-8849
▁violation	-8850
yan	-8851
▁这项	-8852
尔德	-8853
olic	-8854
▁match	-8855
▁offering	-8856
▁Angel	-8857
usal	-8858
ford	-8859
幸运	-8860
▁humans	-8861
▁Portug	-8862
hi	-8863
inea	-8864
▁上一篇	-8865
心脏	-8866
▁欧洲	-8867
▁Test	-8868
小组委员会	-8869
▁input	-8870
▁mal	-8871
多样性	-8872
产权	-8873
▁同样	-8874
▁disse	-8875
地理	-8876
上午	-8877
不管	-8878
▁elected	-8879
担保	-8880
▁并	-8881
▁mort	-8882
新西兰	-8883
▁spending	-8884
看着	-8885
▁proud	-8886
▁flu	-8887
▁images	-8888
▁promise	-8889
》、	-8890
管理和	-8891
▁Win	-8892
▁appears	-8893
期限	-8894
alse	-8895
了对	-8896
▁Star	-8897
▁delivered	-8898
PN	-8899
排名	-8900
▁Mark	-8901
世界的	-8902
erves	-8903
ighth	-8904
转变	-8905
▁registration	-8906
不仅仅	-8907
事故	-8908
▁Recalling	-8909
▁transportation	-8910
uesday	-8911
▁samp	-8912
出现在	-8913
▁Authority	-8914
以及在	-8915
▁planet	-8916
▁48	-8917
争取	-8918
▁Society	-8919
▁divid	-8920
ovo	-8921
▁factor	-8922
兰特	-8923
▁Down	-8924
验证	-8925
里面	-8926
▁Rob	-8927
和联合国	-8928
太空	-8929
annel	-8930
▁Big	-8931
▁Ken	-8932
情绪	-8933
▁去	-8934
显著	-8935
▁manager	-8936
▁Bay	-8937
▁!	-8938
▁2000,	-8939
▁dynam	-8940
ita	-8941
失踪	-8942
▁Hol	-8943
odes	-8944
sec	-8945
▁drop	-8946
bi	-8947
agon	-8948
▁AR	-8949
地注意到	-8950
3-	-8951
▁facing	-8952
遵循	-8953
FC	-8954
▁Nav	-8955
iced	-8956
▁等	-8957
我们会	-8958
▁Princip	-8959
uls	-8960
▁buildings	-8961
▁eventually	-8962
▁conflicts	-8963
well	-8964
▁Sen	-8965
▁Java	-8966
▁lived	-8967
ception	-8968
为您	-8969
▁England	-8970
▁hundreds	-8971
▁roll	-8972
rical	-8973
▁EUR	-8974
▁Intro	-8975
LA	-8976
▁extensive	-8977
信用	-8978
贸发会议	-8979
▁Bureau	-8980
▁constitution	-8981
合适	-8982
▁Vienna	-8983
▁gain	-8984
的政策	-8985
board	-8986
LC	-8987
▁trip	-8988
ressed	-8989
▁Term	-8990
配备	-8991
▁client	-8992
地亚	-8993
▁partnerships	-8994
电动	-8995
▁Ma	-8996
指挥	-8997
amm	-8998
▁Northern	-8999
lusions	-9000
rant	-9001
▁德	-9002
还将	-9003
为基础	-9004
▁combined	-9005
▁guess	-9006
选项	-9007
▁reaff	-9008
acle	-9009
▁privacy	-9010
▁flight	-9011
从来没有	-9012
▁theory	-9013
三年	-9014
有一些	-9015
▁Despite	-9016
▁reflected	-9017
itchen	-9018
▁Person	-9019
日星期	-9020
▁numerous	-9021
▁GB	-9022
的承诺	-9023
这将	-9024
主权	-9025
的关系	-9026
十字	-9027
老年	-9028
▁Prevention	-9029
▁coast	-9030
通报	-9031
▁movie	-9032
检察官	-9033
!"	-9034
就在	-9035
▁speech	-9036
科索沃	-9037
摄影	-9038
与发展	-9039
▁rain	-9040
▁restaurant	-9041
▁courts	-9042
▁democratic	-9043
▁外	-9044
III	-9045
alities	-9046
最不发达国家	-9047
burg	-9048
▁plants	-9049
▁→	-9050
▁你是	-9051
▁Never	-9052
▁dro	-9053
▁style	-9054
▁查看	-9055
影响的	-9056
▁Lu	-9057
▁Wi	-9058
住在	-9059
▁Georg	-9060
產品	-9061
▁sir	-9062
▁Kor	-9063
▁Mil	-9064
▁Royal	-9065
土著人民	-9066
波兰	-9067
▁correspond	-9068
中间	-9069
▁中文	-9070
索马里	-9071
▁Tuesday	-9072
▁implications	-9073
发起	-9074
屏幕	-9075
统治	-9076
▁window	-9077
LED	-9078
▁crypt	-9079
逐渐	-9080
后续行动	-9081
ourney	-9082
Ex	-9083
180	-9084
保罗	-9085
培养	-9086
▁家	-9087
▁Administrative	-9088
黑暗	-9089
▁3-	-9090
▁接	-9091
抱歉	-9092
▁founded	-9093
osystem	-9094
▁26.	-9095
▁commission	-9096
案文	-9097
hips	-9098
.'	-9099
▁Kuw	-9100
▁satisfact	-9101
包括在	-9102
贝尔	-9103
ounds	-9104
▁hyd	-9105
赋予	-9106
inth	-9107
模块	-9108
各级	-9109
▁seemed	-9110
EW	-9111
▁dedicated	-9112
▁Tem	-9113
对手	-9114
▁Tele	-9115
国籍	-9116
asure	-9117
▁CD	-9118
economic	-9119
▁Italian	-9120
是一家	-9121
或许	-9122
花园	-9123
发了	-9124
▁god	-9125
▁criteria	-9126
简单的	-9127
国际公约	-9128
ented	-9129
科威特	-9130
▁Safety	-9131
决心	-9132
士兵	-9133
▁earn	-9134
istant	-9135
的那	-9136
▁Inf	-9137
▁法	-9138
▁2009,	-9139
同事	-9140
定制	-9141
OD	-9142
▁discovered	-9143
一体	-9144
循环	-9145
▁easier	-9146
▁艾	-9147
初步	-9148
amber	-9149
海外	-9150
▁hate	-9151
74	-9152
▁zone	-9153
恐惧	-9154
▁cast	-9155
▁Pay	-9156
che	-9157
成绩	-9158
创始	-9159
▁Sir	-9160
▁除	-9161
▁Station	-9162
数额	-9163
▁]	-9164
▁2001,	-9165
马逊	-9166
▁1995	-9167
rend	-9168
免疫	-9169
lor	-9170
十五	-9171
▁當	-9172
▁Guinea	-9173
▁Max	-9174
增进	-9175
塞拉	-9176
建立了	-9177
▁Thanks	-9178
▁desire	-9179
侵害	-9180
印刷	-9181
▁Equipment	-9182
▁Twitter	-9183
分钟的	-9184
▁calling	-9185
▁instruct	-9186
关税	-9187
切实	-9188
▁威	-9189
▁bul	-9190
▁tend	-9191
ingu	-9192
逐步	-9193
短期	-9194
▁Camp	-9195
部件	-9196
dden	-9197
教育和	-9198
我可以	-9199
ographic	-9200
▁sides	-9201
▁diagn	-9202
还可以	-9203
子女	-9204
unicip	-9205
1%	-9206
▁罗	-9207
筹资	-9208
▁reliable	-9209
▁pray	-9210
▁Sant	-9211
表演	-9212
▁realize	-9213
▁conclusion	-9214
▁Rad	-9215
▁wood	-9216
▁thousand	-9217
▁Headquarters	-9218
SD	-9219
▁manufacturers	-9220
▁Hall	-9221
Cookie	-9222
消耗	-9223
▁Care	-9224
▁transparency	-9225
不应	-9226
▁jurisdiction	-9227
▁legit	-9228
▁length	-9229
▁withdraw	-9230
看到了	-9231
▁teachers	-9232
▁miles	-9233
度的	-9234
//	-9235
▁Budget	-9236
▁schem	-9237
▁PR	-9238
▁attrib	-9239
▁protocol	-9240
▁fresh	-9241
▁iron	-9242
服务和	-9243
学位	-9244
look	-9245
▁sports	-9246
▁wire	-9247
▁Lebanon	-9248
剥夺	-9249
An	-9250
退出	-9251
▁dra	-9252
▁Ear	-9253
主要是	-9254
▁linked	-9255
▁Tor	-9256
▁techniques	-9257
ails	-9258
想到	-9259
▁proport	-9260
得以	-9261
玩家	-9262
mas	-9263
akh	-9264
旺达	-9265
某个	-9266
抗议	-9267
▁suffering	-9268
:1	-9269
▁fighting	-9270
ursday	-9271
▁鉴于	-9272
发行	-9273
rid	-9274
▁differences	-9275
▁estimates	-9276
ena	-9277
▁wine	-9278
套房	-9279
过的	-9280
▁remote	-9281
任择	-9282
XX	-9283
▁unp	-9284
仍在	-9285
ronics	-9286
-19	-9287
▁battery	-9288
▁technological	-9289
MI	-9290
▁Rich	-9291
▁Step	-9292
▁sudden	-9293
你不	-9294
▁Vice	-9295
优化	-9296
idden	-9297
ulg	-9298
已被	-9299
▁seeing	-9300
rier	-9301
里亚尔	-9302
▁scen	-9303
▁wear	-9304
▁minister	-9305
▁Town	-9306
▁engage	-9307
▁Nuclear	-9308
帐户	-9309
▁Award	-9310
iliation	-9311
▁Sweden	-9312
留在	-9313
For	-9314
▁好吧	-9315
▁relationships	-9316
▁recorded	-9317
卢旺达	-9318
▁Slo	-9319
面临的	-9320
▁(1	-9321
方案和	-9322
议院	-9323
▁Draft	-9324
创业	-9325
▁suc	-9326
eurs	-9327
▁hell	-9328
▁Canadian	-9329
▁furn	-9330
ificate	-9331
▁Watch	-9332
储存	-9333
▁Strategy	-9334
▁sixty	-9335
All	-9336
▁Vietnam	-9337
约束	-9338
缔约方会议	-9339
介绍了	-9340
完善	-9341
海军	-9342
尽快	-9343
▁philos	-9344
来文	-9345
两性平等	-9346
nia	-9347
长时间	-9348
共识	-9349
▁2010,	-9350
roc	-9351
first	-9352
▁196	-9353
说法	-9354
此种	-9355
荣誉	-9356
英文	-9357
的最佳	-9358
▁liqu	-9359
raight	-9360
othes	-9361
受伤	-9362
▁公	-9363
疫苗	-9364
容忍	-9365
种族主义	-9366
inations	-9367
▁原	-9368
年期间	-9369
子的	-9370
▁breat	-9371
▁Integr	-9372
nesday	-9373
Be	-9374
▁我很	-9375
和他的	-9376
aser	-9377
▁Cultural	-9378
老师	-9379
roat	-9380
▁Thursday	-9381
▁competitive	-9382
▁Pet	-9383
ym	-9384
太多	-9385
▁hurt	-9386
两次	-9387
▁或者	-9388
fur	-9389
▁ISO	-9390
▁William	-9391
▁27.	-9392
▁objects	-9393
▁deployment	-9394
中期	-9395
▁hun	-9396
正如	-9397
▁aims	-9398
.9	-9399
▁periodic	-9400
oses	-9401
▁department	-9402
▁coal	-9403
化学品	-9404
▁工作	-9405
被告	-9406
▁explained	-9407
以往	-9408
iled	-9409
▁displaced	-9410
▁bringing	-9411
▁bear	-9412
▁Pack	-9413
诸如	-9414
谴责	-9415
但它	-9416
西蘭	-9417
▁nom	-9418
计划的	-9419
方针	-9420
▁atmosp	-9421
▁consent	-9422
呼吸	-9423
浦路	-9424
灾难	-9425
minute	-9426
和国家	-9427
▁开	-9428
候选人	-9429
合并	-9430
▁conferences	-9431
▁Philippines	-9432
▁Agr	-9433
董事	-9434
▁Shenzhen	-9435
▁timely	-9436
▁Peter	-9437
▁formed	-9438
rate	-9439
科技有限公司	-9440
▁valuable	-9441
▁judges	-9442
地说	-9443
▁sched	-9444
▁perpet	-9445
▁提供	-9446
▁boys	-9447
They	-9448
▁liter	-9449
▁minute	-9450
因为他们	-9451
▁rapidly	-9452
未经	-9453
年在	-9454
rav	-9455
他人	-9456
▁上海	-9457
▁selection	-9458
州的	-9459
任择议定书	-9460
漂亮	-9461
stood	-9462
引擎	-9463
阿根廷	-9464
▁Je	-9465
ander	-9466
大大	-9467
▁structures	-9468
▁chapter	-9469
部门的	-9470
阶级	-9471
球队	-9472
在本	-9473
elled	-9474
摩洛	-9475
▁concrete	-9476
▁finding	-9477
otic	-9478
和安全	-9479
ston	-9480
塞浦路	-9481
▁Read	-9482
俄罗斯联邦	-9483
回收	-9484
停车	-9485
▁title	-9486
▁您的	-9487
▁Michael	-9488
信托	-9489
▁安全理事会	-9490
的原则	-9491
▁George	-9492
▁kinds	-9493
塞浦路斯	-9494
▁driver	-9495
▁pollution	-9496
领袖	-9497
▁stories	-9498
会有	-9499
▁600	-9500
▁historical	-9501
New	-9502
渠道	-9503
资讯	-9504
生活的	-9505
看来	-9506
▁animal	-9507
目前的	-9508
▁square	-9509
▁evil	-9510
▁Requests	-9511
帝汶	-9512
使命	-9513
▁Kos	-9514
HCR	-9515
seas	-9516
很容易	-9517
成为一个	-9518
▁苏	-9519
cing	-9520
和不	-9521
▁sym	-9522
▁韓	-9523
解放	-9524
▁英镑	-9525
ieth	-9526
ida	-9527
层面	-9528
▁Wednesday	-9529
唯一的	-9530
▁@	-9531
▁operate	-9532
优质	-9533
▁Enterpr	-9534
▁repeated	-9535
▁treaties	-9536
集成	-9537
▁River	-9538
▁safegu	-9539
一场	-9540
临床	-9541
▁civilians	-9542
遗产	-9543
▁explos	-9544
▁人民币	-9545
▁ap	-9546
▁categories	-9547
几个月	-9548
超越	-9549
常规	-9550
妇女的	-9551
12)	-9552
▁mil	-9553
AO	-9554
▁紐	-9555
▁我会	-9556
▁缔约国	-9557
独特的	-9558
印度尼西亚	-9559
iop	-9560
巴马	-9561
://	-9562
▁entrepren	-9563
▁remed	-9564
▁Rome	-9565
oor	-9566
演讲	-9567
▁solve	-9568
年轻人	-9569
已经在	-9570
▁college	-9571
))	-9572
▁ended	-9573
真理	-9574
lete	-9575
斯拉夫	-9576
救济	-9577
▁managed	-9578
▁Material	-9579
▁extend	-9580
▁Make	-9581
▁Press	-9582
oving	-9583
▁updated	-9584
▁satellite	-9585
成熟	-9586
field	-9587
正是	-9588
.10	-9589
▁appeared	-9590
事务高级专员	-9591
一旦	-9592
▁Resort	-9593
▁Vict	-9594
▁00	-9595
做好	-9596
政府和	-9597
的价格	-9598
azing	-9599
▁surve	-9600
写道	-9601
▁fle	-9602
▁Fort	-9603
inet	-9604
我也	-9605
配有	-9606
开发署	-9607
uries	-9608
▁allowing	-9609
iamond	-9610
让他们	-9611
▁adults	-9612
▁Sunday	-9613
▁Dan	-9614
皇家	-9615
▁tests	-9616
可用	-9617
和执行	-9618
▁volume	-9619
▁satisf	-9620
itely	-9621
onomy	-9622
▁Move	-9623
83	-9624
你要	-9625
▁Small	-9626
▁’	-9627
作了	-9628
▁hearing	-9629
▁abroad	-9630
osen	-9631
▁页	-9632
▁Frank	-9633
探讨	-9634
時候	-9635
▁therap	-9636
▁28.	-9637
▁任何	-9638
licit	-9639
残疾人	-9640
区的	-9641
▁electricity	-9642
habilit	-9643
▁mutual	-9644
给了	-9645
▁vital	-9646
▁primarily	-9647
▁prosp	-9648
参观	-9649
▁Access	-9650
所涉	-9651
▁第五	-9652
▁rank	-9653
心的	-9654
业绩	-9655
▁丹麥	-9656
▁shot	-9657
▁mainstream	-9658
▁remark	-9659
▁一般	-9660
原子能	-9661
▁lie	-9662
▁瑞士法郎	-9663
方的	-9664
摩洛哥	-9665
冠军	-9666
▁Officer	-9667
更改	-9668
一半	-9669
在我们	-9670
相似	-9671
▁Know	-9672
▁Independ	-9673
rd	-9674
rey	-9675
游泳	-9676
毁灭	-9677
海岸	-9678
▁俄罗斯卢布	-9679
▁Discrimination	-9680
▁mere	-9681
▁」	-9682
她说	-9683
种族歧视	-9684
▁worse	-9685
▁revealed	-9686
▁unf	-9687
地雷	-9688
▁passeng	-9689
▁紐西蘭	-9690
比利	-9691
作家	-9692
▁affairs	-9693
▁arm	-9694
▁dealing	-9695
▁unable	-9696
认真	-9697
2%	-9698
▁Ev	-9699
智利	-9700
书面	-9701
重量	-9702
▁payments	-9703
▁Sign	-9704
▁港元	-9705
外地	-9706
anging	-9707
起草	-9708
▁瑞典克朗	-9709
▁agriculture	-9710
▁pointed	-9711
附加	-9712
论文	-9713
自治	-9714
秩序	-9715
▁歐元	-9716
▁IM	-9717
▁contracts	-9718
▁victim	-9719
▁links	-9720
itcoin	-9721
▁土耳其里拉	-9722
▁Saint	-9723
▁120	-9724
▁新加坡元	-9725
>>	-9726
▁accounting	-9727
▁沙特里亚尔	-9728
lined	-9729
▁2012,	-9730
▁表	-9731
▁punishment	-9732
oT	-9733
stein	-9734
▁neither	-9735
▁urgent	-9736
▁南非兰特	-9737
▁挪威克朗	-9738
当事	-9739
▁Mary	-9740
▁north	-9741
Windows	-9742
▁♪	-9743
告訴	-9744
uro	-9745
oub	-9746
▁格里夫	-9747
传统的	-9748
▁Army	-9749
打造	-9750
整合	-9751
grade	-9752
▁加拿大元	-9753
▁regulatory	-9754
▁respectively	-9755
▁acquis	-9756
的各项	-9757
▁日圓	-9758
▁Privacy	-9759
▁Express	-9760
▁UNF	-9761
▁dry	-9762
合众	-9763
Rev	-9764
目录	-9765
”)	-9766
房屋	-9767
▁格里夫納	-9768
▁Tra	-9769
裁决	-9770
▁紐西蘭元	-9771
▁澳幣	-9772
瑞拉	-9773
▁smaller	-9774
▁丹麥克朗	-9775
▁韓圓	-9776
▁increases	-9777
▁Master	-9778
在中国	-9779
▁Chemical	-9780
限于	-9781
减轻	-9782
人力资源	-9783
▁Norway	-9784
人员的	-9785
ga	-9786
▁exclusive	-9787
固定	-9788
响应	-9789
寿命	-9790
▁represents	-9791
▁30.	-9792
reek	-9793
▁SE	-9794
▁tick	-9795
的历史	-9796
ett	-9797
▁desk	-9798
▁埃	-9799
北部	-9800
icing	-9801
▁AM	-9802
▁Cat	-9803
生涯	-9804
▁广	-9805
▁symb	-9806
比特	-9807
▁黑	-9808
▁critic	-9809
ams	-9810
▁Argentina	-9811
lymp	-9812
▁Tok	-9813
▁internationally	-9814
▁ON	-9815
亲爱的	-9816
Ad	-9817
▁phen	-9818
eland	-9819
兴奋	-9820
▁army	-9821
gg	-9822
上了	-9823
印象	-9824
▁mic	-9825
边境	-9826
▁difficulties	-9827
利坚	-9828
ierra	-9829
▁impossible	-9830
伯特	-9831
拍摄	-9832
十四	-9833
right	-9834
orders	-9835
▁suitable	-9836
▁flag	-9837
不利	-9838
▁Bol	-9839
▁Greece	-9840
▁米	-9841
维和	-9842
基督徒	-9843
▁管理	-9844
▁alive	-9845
▁luck	-9846
▁wild	-9847
▁(3	-9848
while	-9849
▁professionals	-9850
台湾	-9851
担忧	-9852
言论	-9853
会的	-9854
ounter	-9855
浏览器	-9856
▁observations	-9857
▁End	-9858
受欢迎	-9859
饮食	-9860
都要	-9861
enez	-9862
QL	-9863
▁procurement	-9864
▁orders	-9865
▁就是	-9866
不久	-9867
▁Sup	-9868
▁我认为	-9869
PT	-9870
ocal	-9871
▁succeed	-9872
?」	-9873
我们需要	-9874
▁declared	-9875
传输	-9876
▁Recommend	-9877
了解更多	-9878
▁ecosystem	-9879
▁prompt	-9880
仍然是	-9881
播放	-9882
的各种	-9883
▁kil	-9884
价值观	-9885
▁Change	-9886
特别代表	-9887
▁observed	-9888
葡萄酒	-9889
人口基金	-9890
▁Persons	-9891
手术	-9892
▁Mount	-9893
法治	-9894
Cl	-9895
▁seriously	-9896
▁我也	-9897
▁Labour	-9898
▁complaints	-9899
▁Bill	-9900
发明	-9901
hu	-9902
▁Mess	-9903
无人	-9904
▁stressed	-9905
▁Area	-9906
天主	-9907
同样的	-9908
▁mostly	-9909
以上的	-9910
服務	-9911
酒店酒店	-9912
号码	-9913
和解	-9914
▁represented	-9915
▁2011,	-9916
rip	-9917
灵魂	-9918
▁Capital	-9919
▁Mot	-9920
▁headquarters	-9921
▁TO	-9922
的儿童	-9923
▁integrity	-9924
▁Class	-9925
▁outcomes	-9926
▁;	-9927
▁客人	-9928
▁eliminate	-9929
高速	-9930
参数	-9931
orters	-9932
▁strongly	-9933
DS	-9934
▁德国	-9935
93	-9936
▁Online	-9937
美國	-9938
▁emot	-9939
观看	-9940
bl	-9941
oslav	-9942
深刻	-9943
▁Engineering	-9944
rian	-9945
▁Bos	-9946
ASA	-9947
的可能性	-9948
riers	-9949
阻碍	-9950
▁Process	-9951
网页	-9952
▁retain	-9953
▁printing	-9954
特性	-9955
▁与此同时	-9956
▁Mobile	-9957
alle	-9958
/199	-9959
过了	-9960
必须在	-9961
▁motor	-9962
▁quiet	-9963
持有	-9964
▁Elim	-9965
采访	-9966
▁programming	-9967
▁IC	-9968
under	-9969
▁false	-9970
▁confirm	-9971
▁expensive	-9972
▁granted	-9973
▁occurred	-9974
些时候	-9975
▁|	-9976
▁另一	-9977
▁Operations	-9978
▁south	-9979
▁evol	-9980
▁execut	-9981
▁他在	-9982
▁arrived	-9983
这意味着	-9984
national	-9985
▁capable	-9986
Do	-9987
USD	-9988
EX	-9989
▁architecture	-9990
▁Agricult	-9991
▁Men	-9992
▁announce	-9993
▁tea	-9994
abling	-9995
的个人	-9996
▁Syria	-9997
▁piece	-9998
▁想	-9999
▁Nigeria	-10000
的人口	-10001
大楼	-10002
铁路	-10003
roliferation	-10004
▁twice	-10005
▁Notice	-10006
天然气	-10007
▁minim	-10008
被视为	-10009
发展中国家的	-10010
osis	-10011
itage	-10012
的资料	-10013
是谁	-10014
▁€	-10015
▁Colomb	-10016
▁signs	-10017
84	-10018
怀孕	-10019
.6	-10020
以及其他	-10021
▁topic	-10022
▁considering	-10023
▁missing	-10024
real	-10025
▁participated	-10026
▁rout	-10027
▁Turkish	-10028
▁audit	-10029
▁shape	-10030
inger	-10031
正义	-10032
ieties	-10033
▁29.	-10034
-15	-10035
▁intellectual	-10036
▁Yug	-10037
▁officer	-10038
▁somew	-10039
」。	-10040
▁corruption	-10041
160	-10042
▁resident	-10043
ordan	-10044
▁relief	-10045
乔治	-10046
greg	-10047
在他	-10048
cow	-10049
ortion	-10050
农民	-10051
▁Pen	-10052
花费	-10053
也就是	-10054
对该	-10055
▁closer	-10056
不错	-10057
▁Stock	-10058
▁blue	-10059
▁sole	-10060
利坚合众	-10061
▁Kh	-10062
和你	-10063
的执行情况	-10064
药品	-10065
▁journey	-10066
atern	-10067
▁sch	-10068
▁org	-10069
▁怎么	-10070
成年人	-10071
▁mir	-10072
判断	-10073
文明	-10074
融入	-10075
睡眠	-10076
ils	-10077
否认	-10078
eneg	-10079
有机	-10080
▁erad	-10081
▁Olymp	-10082
▁plenary	-10083
▁param	-10084
多次	-10085
ellow	-10086
▁sought	-10087
委内	-10088
危害	-10089
一页	-10090
▁virtual	-10091
很大的	-10092
中最	-10093
采取措施	-10094
lines	-10095
▁fixed	-10096
▁Which	-10097
▁Docu	-10098
可以通过	-10099
estival	-10100
▁77	-10101
▁ice	-10102
总额	-10103
委员会主席	-10104
▁introduction	-10105
▁・	-10106
你就	-10107
▁photos	-10108
病人	-10109
▁Mars	-10110
▁colle	-10111
AG	-10112
经济增长	-10113
▁在此	-10114
委内瑞拉	-10115
▁unem	-10116
owered	-10117
▁characteristics	-10118
▁camera	-10119
dule	-10120
pass	-10121
▁Hon	-10122
▁enhanced	-10123
尔的	-10124
了一种	-10125
▁involvement	-10126
▁Belg	-10127
▁Pros	-10128
▁accountability	-10129
▁Yugoslav	-10130
/57/	-10131
▁sets	-10132
▁Lo	-10133
▁Limited	-10134
▁troops	-10135
▁Lead	-10136
依靠	-10137
scale	-10138
日和	-10139
▁reasonable	-10140
众多	-10141
物种	-10142
塞拜	-10143
jud	-10144
的文件	-10145
柏林	-10146
住宅	-10147
▁rub	-10148
疑问	-10149
▁Rules	-10150
▁Obs	-10151
▁faced	-10152
▁vast	-10153
▁metal	-10154
▁按	-10155
▁能	-10156
▁sister	-10157
参与者	-10158
硬件	-10159
▁Welcome	-10160
复杂的	-10161
▁complement	-10162
▁absence	-10163
▁ven	-10164
▁非洲	-10165
▁我不知道	-10166
▁behavi	-10167
的基础上	-10168
orter	-10169
▁Optional	-10170
发展和	-10171
▁phenomen	-10172
▁55	-10173
eck	-10174
▁exploitation	-10175
塞俄	-10176
的代表	-10177
加快	-10178
效益	-10179
▁GDP	-10180
时时	-10181
▁Framework	-10182
单一	-10183
prus	-10184
fortunately	-10185
▁candidates	-10186
▁kn	-10187
透明度	-10188
▁Univers	-10189
When	-10190
▁Hot	-10191
▁Poland	-10192
斯洛	-10193
tered	-10194
激光	-10195
▁sav	-10196
知识产权	-10197
▁soldiers	-10198
▁membership	-10199
▁若	-10200
▁sin	-10201
▁Hen	-10202
▁Sierra	-10203
▁percentage	-10204
利比	-10205
arity	-10206
win	-10207
▁produc	-10208
▁Machine	-10209
▁按照	-10210
是我的	-10211
duces	-10212
▁Disarmament	-10213
的最新	-10214
ova	-10215
以英语	-10216
1994	-10217
莫斯科	-10218
▁asking	-10219
▁illicit	-10220
▁Ocean	-10221
▁decline	-10222
▁diversity	-10223
过去的	-10224
bai	-10225
▁enemy	-10226
▁largely	-10227
促使	-10228
强大	-10229
熟悉	-10230
▁Dub	-10231
更大	-10232
▁Professional	-10233
皮肤	-10234
▁straight	-10235
塞俄比亚	-10236
icious	-10237
南亚	-10238
▁requirement	-10239
hedule	-10240
家里	-10241
▁以色列	-10242
陷入	-10243
▁国	-10244
alt	-10245
▁profit	-10246
illa	-10247
的学生	-10248
▁Date	-10249
▁Account	-10250
▁800	-10251
克服	-10252
浙江	-10253
经典	-10254
▁CR	-10255
份额	-10256
独立的	-10257
有利于	-10258
▁amounts	-10259
教训	-10260
董事会	-10261
主流	-10262
并未	-10263
▁Rw	-10264
都没有	-10265
▁Venez	-10266
运用	-10267
aming	-10268
世界上最	-10269
高于	-10270
雇员	-10271
▁6,	-10272
▁accurate	-10273
▁Holiday	-10274
体现	-10275
▁machines	-10276
▁outstanding	-10277
的措施	-10278
▁UNHCR	-10279
▁foundation	-10280
law	-10281
▁handle	-10282
密码	-10283
no	-10284
How	-10285
我们对	-10286
het	-10287
▁伊	-10288
法令	-10289
附属	-10290
月的	-10291
执行官	-10292
▁rail	-10293
刺激	-10294
met	-10295
变革	-10296
▁regularly	-10297
驱逐	-10298
play	-10299
icians	-10300
塞拜疆	-10301
丰富的	-10302
▁更多	-10303
目标是	-10304
▁需要	-10305
人工智能	-10306
▁welcomes	-10307
▁Bah	-10308
▁Father	-10309
孟加拉	-10310
如今	-10311
▁battle	-10312
▁gather	-10313
观众	-10314
Hz	-10315
▁2013,	-10316
你能	-10317
▁submission	-10318
▁packaging	-10319
國家	-10320
克罗	-10321
不會	-10322
-9	-10323
▁coverage	-10324
▁indicate	-10325
后者	-10326
▁AND	-10327
知的	-10328
▁teacher	-10329
ota	-10330
rick	-10331
rize	-10332
▁Event	-10333
是一项	-10334
厨房	-10335
BO	-10336
terday	-10337
isco	-10338
基督教	-10339
▁keeping	-10340
▁exports	-10341
▁Regist	-10342
▁Arabia	-10343
▁(10	-10344
utrition	-10345
HS	-10346
第七	-10347
ye	-10348
▁注意到	-10349
ns	-10350
▁Consult	-10351
▁occupied	-10352
▁cooperate	-10353
▁fifth	-10354
▁非	-10355
▁collective	-10356
是非常	-10357
▁Cyprus	-10358
▁hardware	-10359
uxury	-10360
▁为此	-10361
That	-10362
利昂	-10363
▁depends	-10364
▁支持	-10365
▁Expl	-10366
▁honour	-10367
▁Key	-10368
地的	-10369
▁gap	-10370
▁locations	-10371
最多	-10372
▁excess	-10373
年和	-10374
形象	-10375
次数	-10376
也将	-10377
ideos	-10378
ython	-10379
生素	-10380
▁Break	-10381
▁Whe	-10382
ventional	-10383
感受	-10384
▁Put	-10385
...]	-10386
▁worst	-10387
ooth	-10388
迹象	-10389
▁migration	-10390
十六	-10391
和建议	-10392
剥削	-10393
询问	-10394
在这方面	-10395
▁humanity	-10396
两国	-10397
▁pages	-10398
▁availability	-10399
▁44	-10400
贵的	-10401
exp	-10402
▁comfortable	-10403
▁ancient	-10404
▁understood	-10405
商定	-10406
这两个	-10407
说道	-10408
▁thr	-10409
▁2015,	-10410
酌情	-10411
▁Chile	-10412
▁intern	-10413
elfare	-10414
▁sac	-10415
▁Koruna	-10416
▁sick	-10417
▁谢谢	-10418
因而	-10419
站在	-10420
▁简	-10421
▁platforms	-10422
▁Incre	-10423
▁像	-10424
icted	-10425
▁providers	-10426
▁restrictions	-10427
▁Mel	-10428
更高	-10429
亿美元的	-10430
lev	-10431
永远不会	-10432
▁Insp	-10433
▁houses	-10434
查询	-10435
▁31.	-10436
古老	-10437
▁执行	-10438
夫人	-10439
oviet	-10440
coh	-10441
▁incorpor	-10442
登录	-10443
▁Tal	-10444
▁AD	-10445
▁Christmas	-10446
雇主	-10447
▁就像	-10448
andon	-10449
▁nar	-10450
▁powers	-10451
OW	-10452
Tr	-10453
▁Hold	-10454
▁Introduction	-10455
▁Investment	-10456
家族	-10457
▁destroyed	-10458
人权委员会	-10459
▁standing	-10460
▁Moscow	-10461
▁obtained	-10462
▁village	-10463
▁prote	-10464
▁Word	-10465
健身	-10466
▁talks	-10467
anmar	-10468
Tube	-10469
▁Contin	-10470
下一个	-10471
ittees	-10472
110	-10473
很重要	-10474
死刑	-10475
症状	-10476
总裁	-10477
许可证	-10478
▁1980	-10479
▁vacc	-10480
任期	-10481
oma	-10482
ttp	-10483
/58/	-10484
国际合作	-10485
tics	-10486
word	-10487
▁reviews	-10488
▁semin	-10489
▁Sales	-10490
▁Music	-10491
▁stuff	-10492
ira	-10493
▁deliber	-10494
▁collected	-10495
滥用	-10496
unity	-10497
可再生	-10498
利坚合众国	-10499
利比里亚	-10500
▁urged	-10501
能够在	-10502
▁2018,	-10503
party	-10504
▁developers	-10505
▁district	-10506
EG	-10507
洛杉	-10508
▁reforms	-10509
空中	-10510
itionally	-10511
▁Eastern	-10512
uction	-10513
补救	-10514
▁Rooms	-10515
ani	-10516
▁Recogn	-10517
ado	-10518
▁intention	-10519
▁commod	-10520
▁participating	-10521
▁fulfil	-10522
包容	-10523
▁Venezuel	-10524
▁Supreme	-10525
人才	-10526
▁Hung	-10527
▁2017,	-10528
航天	-10529
不了	-10530
▁Id	-10531
饮料	-10532
acc	-10533
应在	-10534
▁Ethiop	-10535
以英语发言	-10536
坐在	-10537
的人们	-10538
▁treated	-10539
的核心	-10540
▁creative	-10541
▁properties	-10542
▁很多	-10543
▁owned	-10544
amin	-10545
▁format	-10546
抓住	-10547
▁targeted	-10548
▁workshop	-10549
▁Blue	-10550
▁Price	-10551
▁slight	-10552
▁History	-10553
次级	-10554
▁Nam	-10555
国际组织	-10556
颁布	-10557
和黑	-10558
▁Corporation	-10559
▁forever	-10560
▁expenditure	-10561
▁stopped	-10562
▁asset	-10563
/2000	-10564
含有	-10565
南斯拉夫	-10566
eds	-10567
▁evening	-10568
派遣	-10569
baijan	-10570
▁firms	-10571
▁Location	-10572
与联合国	-10573
▁Staff	-10574
▁prepar	-10575
anna	-10576
zerbaijan	-10577
生殖	-10578
osh	-10579
▁remove	-10580
原因是	-10581
kind	-10582
ateful	-10583
开车	-10584
▁Kosovo	-10585
▁acknowled	-10586
▁discover	-10587
▁Times	-10588
▁Ky	-10589
▁accident	-10590
衡量	-10591
削减	-10592
atur	-10593
▁大多数	-10594
▁有限	-10595
hors	-10596
▁blockchain	-10597
技巧	-10598
稳定的	-10599
acles	-10600
房地产	-10601
▁1994	-10602
▁parent	-10603
▁transmit	-10604
快的	-10605
▁tree	-10606
▁intens	-10607
▁examples	-10608
▁Kuwait	-10609
▁spot	-10610
▁分	-10611
你有	-10612
▁7,	-10613
巴布	-10614
▁aggress	-10615
AF	-10616
▁Cert	-10617
▁figures	-10618
生活中	-10619
▁Obama	-10620
开奖	-10621
ulating	-10622
▁190	-10623
证券	-10624
habilitation	-10625
数学	-10626
让人	-10627
▁serving	-10628
对我们	-10629
▁warning	-10630
▁pursue	-10631
行星	-10632
idiary	-10633
ificial	-10634
教科	-10635
VD	-10636
▁Experts	-10637
▁rising	-10638
▁contem	-10639
五个	-10640
▁contributed	-10641
塞拉利昂	-10642
东帝汶	-10643
赛季	-10644
▁universities	-10645
数目	-10646
▁Gal	-10647
轨道	-10648
▁Following	-10649
▁boost	-10650
▁UNEP	-10651
生态系统	-10652
▁市	-10653
▁equival	-10654
手册	-10655
加上	-10656
usalem	-10657
劳动力	-10658
▁capacities	-10659
▁deaths	-10660
▁mus	-10661
协调员	-10662
▁Jordan	-10663
▁summary	-10664
uties	-10665
物流	-10666
▁经济	-10667
▁回顾	-10668
▁losses	-10669
▁resulted	-10670
▁factory	-10671
对这些	-10672
▁Territory	-10673
之处	-10674
▁Son	-10675
▁ter	-10676
让他	-10677
▁内	-10678
健康的	-10679
▁Sometimes	-10680
倾向	-10681
▁stations	-10682
including	-10683
成人	-10684
▁Ta	-10685
照明	-10686
fs	-10687
丹麦	-10688
了他的	-10689
补充说	-10690
设计师	-10691
所谓的	-10692
架构	-10693
▁Check	-10694
尔夫	-10695
▁arrested	-10696
耶路	-10697
▁希望	-10698
▁Again	-10699
▁racial	-10700
和环境	-10701
otive	-10702
撒冷	-10703
/62/	-10704
▁Platform	-10705
的目的	-10706
行业的	-10707
▁residents	-10708
▁util	-10709
▁encourages	-10710
▁conclusions	-10711
组件	-10712
razy	-10713
▁carrying	-10714
▁cy	-10715
▁marine	-10716
才是	-10717
即可	-10718
▁controls	-10719
。”	-10720
▁heads	-10721
2]	-10722
▁(4	-10723
纪录	-10724
税收	-10725
▁有关	-10726
视觉	-10727
▁none	-10728
▁社会	-10729
▁documentation	-10730
室内	-10731
▁房间	-10732
▁Start	-10733
▁machinery	-10734
提请	-10735
▁bird	-10736
▁Nob	-10737
(200	-10738
编程	-10739
本报告	-10740
繁荣	-10741
首都	-10742
▁demands	-10743
▁entirely	-10744
▁Smart	-10745
帝国	-10746
真相	-10747
So	-10748
耶路撒冷	-10749
▁receiving	-10750
▁Province	-10751
洛杉矶	-10752
▁Digital	-10753
▁enhancing	-10754
▁Exhibition	-10755
▁Conn	-10756
融合	-10757
规划署	-10758
▁subsequent	-10759
▁struggle	-10760
▁Link	-10761
订单	-10762
United	-10763
工作队	-10764
见过	-10765
oung	-10766
▁Ham	-10767
dr	-10768
▁dispos	-10769
▁saved	-10770
我有	-10771
▁tourism	-10772
cle	-10773
▁Mic	-10774
▁Leone	-10775
反恐	-10776
▁法国	-10777
▁山	-10778
disc	-10779
▁band	-10780
人权和	-10781
▁Finance	-10782
▁Standard	-10783
声明中	-10784
产量	-10785
带来了	-10786
▁mit	-10787
住宿加	-10788
注重	-10789
▁Ap	-10790
▁mode	-10791
▁occupation	-10792
▁Soviet	-10793
▁ideal	-10794
修复	-10795
▁imposed	-10796
分为	-10797
▁我希望	-10798
肯尼亚	-10799
▁Academy	-10800
入侵	-10801
通用	-10802
▁spect	-10803
不应该	-10804
ugg	-10805
▁吉	-10806
anz	-10807
主要的	-10808
模拟	-10809
olars	-10810
审议了	-10811
▁continuous	-10812
▁Cloud	-10813
----	-10814
▁Anal	-10815
网址	-10816
▁organs	-10817
庇护	-10818
rison	-10819
annels	-10820
▁load	-10821
▁Myanmar	-10822
MB	-10823
▁Moroc	-10824
▁bought	-10825
uit	-10826
节省	-10827
孩子的	-10828
奥地利	-10829
▁Resources	-10830
布鲁	-10831
许多人	-10832
teen	-10833
编号	-10834
▁computers	-10835
▁supplies	-10836
▁Somalia	-10837
pper	-10838
▁combination	-10839
▁Finland	-10840
▁fost	-10841
iest	-10842
-7	-10843
牙利	-10844
▁每个	-10845
▁greatly	-10846
▁——	-10847
终止	-10848
erg	-10849
▁Sl	-10850
▁mm	-10851
▁Adop	-10852
Google	-10853
▁visits	-10854
▁Indeed	-10855
▁Cas	-10856
▁signal	-10857
匈牙利	-10858
著名的	-10859
▁persist	-10860
活跃	-10861
▁politics	-10862
历史上	-10863
示范	-10864
柬埔	-10865
▁Innov	-10866
▁shel	-10867
▁donors	-10868
▁football	-10869
柬埔寨	-10870
▁prove	-10871
▁嘿	-10872
ivation	-10873
agues	-10874
▁Elimination	-10875
▁male	-10876
玛丽	-10877
▁Jerusalem	-10878
▁League	-10879
lades	-10880
当你	-10881
江苏	-10882
▁都	-10883
发的	-10884
今晚	-10885
主动	-10886
▁LTD	-10887
住宿加早餐	-10888
排除	-10889
每月	-10890
▁Environmental	-10891
▁Initi	-10892
▁condem	-10893
少的	-10894
亚太	-10895
iversary	-10896
▁Proper	-10897
的做法	-10898
▁panel	-10899
▁AL	-10900
高等	-10901
▁Manufact	-10902
VC	-10903
深度	-10904
▁fill	-10905
▁explan	-10906
▁1:	-10907
特迪	-10908
▁Dev	-10909
called	-10910
▁Find	-10911
与会者	-10912
上帝的	-10913
▁那些	-10914
▁Spe	-10915
在国家	-10916
赞扬	-10917
▁Wall	-10918
▁Sever	-10919
▁pure	-10920
▁eating	-10921
面向	-10922
raud	-10923
▁Coordination	-10924
覺得	-10925
建设和平	-10926
▁Guest	-10927
ounder	-10928
▁latter	-10929
water	-10930
耶和	-10931
fol	-10932
▁package	-10933
供资	-10934
管理局	-10935
▁fucking	-10936
rible	-10937
▁conver	-10938
但他	-10939
▁transparent	-10940
得多	-10941
▁Should	-10942
▁议程项目	-10943
采取了	-10944
▁Transport	-10945
在第	-10946
制止	-10947
▁museum	-10948
利比亚	-10949
140	-10950
维尔	-10951
的那样	-10952
▁liquid	-10953
yo	-10954
将来	-10955
▁Azerbaijan	-10956
▁联系我们	-10957
190	-10958
政党	-10959
xy	-10960
这一切	-10961
▁Ambass	-10962
▁performed	-10963
▁Search	-10964
▁refugee	-10965
zen	-10966
▁你在	-10967
gov	-10968
TH	-10969
查明	-10970
人民的	-10971
▁Fifth	-10972
▁Palestine	-10973
▁decent	-10974
▁DNA	-10975
▁Field	-10976
转向	-10977
民主党	-10978
▁截至	-10979
惊讶	-10980
▁brings	-10981
▁prol	-10982
▁maintained	-10983
的标准	-10984
上涨	-10985
▁era	-10986
▁shopping	-10987
▁apartment	-10988
很有	-10989
▁`	-10990
马克	-10991
和平与安全	-10992
争端	-10993
并向	-10994
波斯	-10995
▁accused	-10996
▁Holy	-10997
共同体	-10998
▁Wood	-10999
▁accomp	-11000
▁特别	-11001
刑事司法	-11002
▁vess	-11003
几天	-11004
door	-11005
ias	-11006
Don	-11007
Con	-11008
82	-11009
已有	-11010
年后	-11011
▁parliament	-11012
的地	-11013
▁49	-11014
文字	-11015
▁declaration	-11016
刑法	-11017
▁harmon	-11018
的水	-11019
▁disappear	-11020
豪华	-11021
uster	-11022
打电话	-11023
▁burn	-11024
▁settle	-11025
3%	-11026
▁Everyone	-11027
▁vent	-11028
▁diet	-11029
企业的	-11030
▁automatically	-11031
▁supplement	-11032
/59/	-11033
anguage	-11034
▁exchang	-11035
完成了	-11036
▁Culture	-11037
圣经	-11038
▁Georgia	-11039
▁proportion	-11040
▁facts	-11041
▁visited	-11042
▁visitors	-11043
7%	-11044
实时	-11045
▁claimed	-11046
英里	-11047
▁中心	-11048
▁Hosp	-11049
oute	-11050
攸关	-11051
▁sympt	-11052
▁dress	-11053
▁maintaining	-11054
▁32.	-11055
和非	-11056
首席执行官	-11057
▁Gh	-11058
▁cook	-11059
▁atmosphere	-11060
威尔	-11061
举行了	-11062
清晰	-11063
使我们	-11064
我能	-11065
杰克	-11066
top	-11067
纳米	-11068
Pad	-11069
▁ownership	-11070
▁massive	-11071
▁defense	-11072
omas	-11073
▁EN	-11074
女童	-11075
itt	-11076
▁42	-11077
▁lessons	-11078
行政和	-11079
▁flexible	-11080
uay	-11081
▁drinking	-11082
亚马逊	-11083
▁precise	-11084
灭绝	-11085
▁settings	-11086
▁包括	-11087
▁Mean	-11088
▁来自	-11089
发言人	-11090
方案预算	-11091
我所	-11092
文学	-11093
▁distributed	-11094
演员	-11095
▁recruitment	-11096
▁copy	-11097
DR	-11098
▁sentence	-11099
生成	-11100
▁trouble	-11101
▁controlled	-11102
▁exhibition	-11103
上市	-11104
负责人	-11105
▁comply	-11106
月在	-11107
▁Among	-11108
▁bless	-11109
其在	-11110
▁fruit	-11111
▁Austria	-11112
▁Cast	-11113
▁enabling	-11114
概述	-11115
▁2014,	-11116
常驻联合国	-11117
打破	-11118
▁如今	-11119
失去了	-11120
拉圭	-11121
▁responses	-11122
ora	-11123
▁Cross	-11124
▁SP	-11125
IGH	-11126
▁ordinary	-11127
号决议第	-11128
▁regulation	-11129
▁toler	-11130
▁六	-11131
互相	-11132
uh	-11133
大学的	-11134
不太	-11135
▁departments	-11136
日起	-11137
发现了	-11138
缺陷	-11139
▁transaction	-11140
收藏	-11141
four	-11142
▁行	-11143
出版物	-11144
▁Without	-11145
行动的	-11146
考试	-11147
TER	-11148
▁fashion	-11149
▁letters	-11150
inator	-11151
原始	-11152
▁heaven	-11153
不用	-11154
资源的	-11155
Comm	-11156
同性	-11157
回报	-11158
oves	-11159
血液	-11160
rog	-11161
引入	-11162
一代	-11163
▁澳大利亚	-11164
基本上	-11165
废物	-11166
上面	-11167
马斯	-11168
▁limits	-11169
tegr	-11170
oughly	-11171
上文	-11172
塔尔	-11173
▁selling	-11174
▁Climate	-11175
▁决定	-11176
特迪瓦	-11177
▁cas	-11178
愿望	-11179
▁index	-11180
▁completion	-11181
事规则	-11182
吉亚	-11183
UL	-11184
▁Linux	-11185
佛罗	-11186
▁winter	-11187
▁charges	-11188
修正案	-11189
▁protecting	-11190
▁听	-11191
设计的	-11192
并与	-11193
更有	-11194
ache	-11195
不够	-11196
▁supposed	-11197
▁Pur	-11198
▁Excell	-11199
▁北	-11200
机的	-11201
▁Cre	-11202
▁empower	-11203
萨尔	-11204
▁classes	-11205
为期	-11206
时尚	-11207
▁必须	-11208
▁forgot	-11209
▁kitchen	-11210
▁但我	-11211
hotels	-11212
租赁	-11213
▁populations	-11214
▁pilot	-11215
▁75	-11216
isp	-11217
电信	-11218
的人员	-11219
▁33.	-11220
▁honest	-11221
我们要	-11222
▁Monitor	-11223
家具	-11224
▁productivity	-11225
▁你要	-11226
扫描	-11227
▁cle	-11228
小姐	-11229
▁reconc	-11230
▁publication	-11231
encing	-11232
英雄	-11233
的企业	-11234
▁facility	-11235
▁lock	-11236
将为	-11237
AB	-11238
MC	-11239
▁Colombia	-11240
icide	-11241
周年	-11242
▁beauty	-11243
▁updates	-11244
▁expanded	-11245
报表	-11246
这两	-11247
▁联	-11248
隐藏	-11249
92	-11250
的事件	-11251
有任何	-11252
标题	-11253
▁走	-11254
ifest	-11255
▁Camb	-11256
▁freedoms	-11257
▁applies	-11258
见到	-11259
和一个	-11260
国外	-11261
主导	-11262
幫助	-11263
94	-11264
边缘	-11265
ailed	-11266
▁managers	-11267
nty	-11268
▁福	-11269
去世	-11270
请秘书长	-11271
▁bright	-11272
▁导	-11273
逻辑	-11274
▁Tun	-11275
▁incident	-11276
▁Barb	-11277
▁catch	-11278
的最大	-11279
▁emphasis	-11280
宗旨	-11281
有害	-11282
解决办法	-11283
忽视	-11284
敌人	-11285
级别	-11286
itime	-11287
▁conform	-11288
安保	-11289
▁Tell	-11290
▁Chic	-11291
▁Several	-11292
▁Ah	-11293
▁Systems	-11294
所有这些	-11295
港口	-11296
它在	-11297
▁Local	-11298
▁Common	-11299
▁stronger	-11300
▁fort	-11301
人员和	-11302
▁symbol	-11303
社交媒体	-11304
▁shit	-11305
代价	-11306
失望	-11307
▁uns	-11308
ductive	-11309
ophy	-11310
议题	-11311
▁inn	-11312
▁stim	-11313
提前	-11314
lict	-11315
▁£	-11316
▁Was	-11317
创始人	-11318
▁Clin	-11319
▁grounds	-11320
▁diplomatic	-11321
问责	-11322
bsites	-11323
aching	-11324
就此	-11325
你们的	-11326
▁sensitive	-11327
为何	-11328
nce	-11329
▁resistance	-11330
▁assessments	-11331
找到了	-11332
▁Viol	-11333
将成为	-11334
▁telling	-11335
/61/	-11336
PU	-11337
抵达	-11338
共产	-11339
意愿	-11340
你需要	-11341
▁workshops	-11342
▁spoke	-11343
▁Intellig	-11344
,19	-11345
▁Lou	-11346
生育	-11347
所列	-11348
▁defence	-11349
azine	-11350
死的	-11351
theless	-11352
讲话	-11353
每周	-11354
▁pul	-11355
当中	-11356
Pl	-11357
▁一旦	-11358
▁Organ	-11359
▁undertake	-11360
▁文件	-11361
▁favorite	-11362
区域和	-11363
▁territories	-11364
▁familiar	-11365
agram	-11366
▁tons	-11367
▁阿尔	-11368
▁PRO	-11369
▁containing	-11370
过滤	-11371
奖励	-11372
aceut	-11373
经济和社会	-11374
teenth	-11375
ether	-11376
被认为是	-11377
liers	-11378
▁migrants	-11379
▁Sit	-11380
▁Ca	-11381
▁65	-11382
▁Quality	-11383
▁Games	-11384
着重	-11385
委员会在	-11386
赛车	-11387
▁chemicals	-11388
▁designated	-11389
法的	-11390
高达	-11391
▁error	-11392
▁Hy	-11393
▁grateful	-11394
▁reviewed	-11395
hour	-11396
号文件	-11397
兰卡	-11398
▁uncertain	-11399
ilet	-11400
巩固	-11401
▁Chamber	-11402
想知道	-11403
▁relax	-11404
▁replaced	-11405
相当于	-11406
▁broken	-11407
前景	-11408
一定要	-11409
数据的	-11410
岗位	-11411
▁guard	-11412
▁medicine	-11413
▁CLD	-11414
定居	-11415
▁simpl	-11416
临时议程	-11417
▁Country	-11418
▁carefully	-11419
ih	-11420
▁hy	-11421
解除	-11422
▁guest	-11423
▁spring	-11424
和他	-11425
▁dinner	-11426
▁Weapons	-11427
▁cable	-11428
▁satisfaction	-11429
ulf	-11430
▁Spec	-11431
ladesh	-11432
ignty	-11433
种植	-11434
函数	-11435
流量	-11436
观念	-11437
uj	-11438
奴隶	-11439
▁bond	-11440
的一般	-11441
成立于	-11442
的生产	-11443
▁thirty	-11444
▁scene	-11445
载于	-11446
rs	-11447
▁194	-11448
iPhone	-11449
▁Satur	-11450
使他们	-11451
▁adding	-11452
公务	-11453
给他	-11454
▁sweet	-11455
这种情况	-11456
克尔	-11457
▁click	-11458
卓越	-11459
▁removed	-11460
发动机	-11461
armaceut	-11462
▁haz	-11463
▁resolve	-11464
▁brands	-11465
▁Strateg	-11466
更容易	-11467
▁Cup	-11468
▁Fact	-11469
定位	-11470
71	-11471
▁estate	-11472
▁Enterprise	-11473
Sec	-11474
处罚	-11475
特定的	-11476
▁acquisition	-11477
▁Lake	-11478
▁他们的	-11479
十八	-11480
▁你們	-11481
▁Assistance	-11482
/0	-11483
▁improvements	-11484
起來	-11485
8%	-11486
▁Los	-11487
渴望	-11488
▁constantly	-11489
Le	-11490
▁Guide	-11491
▁newsp	-11492
的意见	-11493
lit	-11494
麻烦	-11495
▁mouth	-11496
常见	-11497
▁engagement	-11498
▁Nic	-11499
常设	-11500
1993	-11501
▁Tog	-11502
足以	-11503
▁namely	-11504
难道	-11505
第二个	-11506
合作的	-11507
▁Mrs	-11508
▁isol	-11509
▁bomb	-11510
▁overcome	-11511
在内	-11512
▁taught	-11513
这位	-11514
▁Electric	-11515
任意	-11516
每个人都	-11517
▁frequently	-11518
▁(4)	-11519
▁finished	-11520
海地	-11521
cour	-11522
输出	-11523
▁Ambassador	-11524
▁34.	-11525
▁representation	-11526
bel	-11527
▁exhib	-11528
but	-11529
▁walking	-11530
鲁吉亚	-11531
▁rely	-11532
开支	-11533
完整的	-11534
顾客	-11535
隔离	-11536
补贴	-11537
带有	-11538
▁secondary	-11539
海上	-11540
便宜	-11541
▁mining	-11542
▁antic	-11543
所有国家	-11544
Su	-11545
大小	-11546
如果您	-11547
阳光	-11548
向大会	-11549
文档	-11550
▁35.	-11551
▁Five	-11552
吁请	-11553
妇女地位	-11554
和犯罪	-11555
▁equivalent	-11556
▁config	-11557
上去	-11558
摧毁	-11559
▁authorized	-11560
在国际	-11561
典型	-11562
追踪	-11563
▁Phot	-11564
带着	-11565
联合国宪章	-11566
马尔	-11567
▁深圳	-11568
▁wonderful	-11569
预防犯罪	-11570
CAD	-11571
芯片	-11572
▁watching	-11573
▁pled	-11574
继承	-11575
尼克	-11576
armaceutical	-11577
▁deter	-11578
围绕	-11579
▁wed	-11580
埃塞俄比亚	-11581
▁2016,	-11582
▁反	-11583
你所	-11584
6%	-11585
▁pleased	-11586
▁Gall	-11587
▁prosecut	-11588
▁diss	-11589
摘要	-11590
/55/	-11591
fit	-11592
▁constitute	-11593
▁shares	-11594
hered	-11595
赞同	-11596
▁seconds	-11597
▁showing	-11598
前的	-11599
▁Travel	-11600
▁Pass	-11601
SAR	-11602
被迫	-11603
▁mountain	-11604
组成的	-11605
▁gross	-11606
▁维	-11607
▁重申	-11608
▁让我们	-11609
commun	-11610
▁hero	-11611
laim	-11612
新兴	-11613
教练	-11614
的未来	-11615
▁cutting	-11616
▁mandates	-11617
▁properly	-11618
▁(5	-11619
较低	-11620
▁expectations	-11621
▁tonight	-11622
Americ	-11623
▁Zone	-11624
▁gift	-11625
東西	-11626
比特币	-11627
▁attended	-11628
昨天	-11629
▁只要	-11630
核查	-11631
富有	-11632
▁Ent	-11633
▁Southern	-11634
▁女	-11635
▁ultimately	-11636
就要	-11637
bor	-11638
礼物	-11639
秘鲁	-11640
▁tariff	-11641
圣诞	-11642
rum	-11643
创意	-11644
特别会议	-11645
▁installed	-11646
▁grown	-11647
81	-11648
一樣	-11649
原子能机构	-11650
-18	-11651
航班	-11652
技术援助	-11653
▁breakfast	-11654
EV	-11655
▁happiness	-11656
标准的	-11657
▁authors	-11658
▁Ven	-11659
哈拉	-11660
披露	-11661
itals	-11662
eces	-11663
onial	-11664
▁inclusion	-11665
▁swim	-11666
can	-11667
▁Jose	-11668
rowd	-11669
是指	-11670
阁下	-11671
这场	-11672
▁****	-11673
利益攸关	-11674
▁CAD	-11675
▁subregional	-11676
▁transmission	-11677
▁entr	-11678
▁identification	-11679
▁Exchange	-11680
▁sustainability	-11681
▁thoughts	-11682
自杀	-11683
钻石	-11684
提供商	-11685
▁他还	-11686
▁热	-11687
扮演	-11688
▁选择	-11689
▁250	-11690
▁volunte	-11691
及利亚	-11692
▁Maur	-11693
▁strengthened	-11694
保护和	-11695
的设计	-11696
▁什么是	-11697
▁deeply	-11698
玻利	-11699
▁1999,	-11700
quiry	-11701
▁advertising	-11702
可再生能源	-11703
机遇	-11704
以期	-11705
▁novel	-11706
出现了	-11707
▁sky	-11708
class	-11709
zero	-11710
UM	-11711
▁Robert	-11712
语文	-11713
arus	-11714
尔多	-11715
▁1993	-11716
的市场	-11717
Tw	-11718
▁generate	-11719
顺利	-11720
要么	-11721
▁advantages	-11722
▁Professor	-11723
赞成	-11724
▁monthly	-11725
消除对妇女	-11726
ections	-11727
配件	-11728
how	-11729
▁Machinery	-11730
▁Serb	-11731
▁realized	-11732
授予	-11733
命运	-11734
联合会	-11735
▁CON	-11736
要素	-11737
▁preventing	-11738
▁Cambod	-11739
▁Vir	-11740
▁Greek	-11741
▁anywhere	-11742
谋杀	-11743
icate	-11744
▁chosen	-11745
▁rose	-11746
美利坚合众国	-11747
▁exists	-11748
服装	-11749
并对	-11750
达尔富	-11751
两名	-11752
▁roles	-11753
▁ocean	-11754
的责任	-11755
▁OK	-11756
▁Download	-11757
▁gradually	-11758
尼泊	-11759
iform	-11760
▁Rac	-11761
而已	-11762
慈善	-11763
了一份	-11764
▁biological	-11765
活着	-11766
的心	-11767
ae	-11768
▁dig	-11769
▁Based	-11770
比利时	-11771
▁SAR	-11772
▁amazing	-11773
的说明	-11774
▁extension	-11775
届会议上	-11776
英尺	-11777
▁acting	-11778
cies	-11779
日期间	-11780
▁2-	-11781
-2005	-11782
政策的	-11783
主义者	-11784
▁sad	-11785
但我们	-11786
▁universe	-11787
质疑	-11788
▁他是	-11789
▁suffered	-11790
标记	-11791
▁soft	-11792
你必须	-11793
世界银行	-11794
多么	-11795
利率	-11796
▁sovereignty	-11797
苏联	-11798
的计划	-11799
▁forty	-11800
与其	-11801
point	-11802
最重要的	-11803
UC	-11804
ville	-11805
▁coordinated	-11806
在那	-11807
▁43	-11808
电源	-11809
▁covers	-11810
弹药	-11811
▁Job	-11812
▁dign	-11813
PP	-11814
功率	-11815
红色	-11816
▁Kar	-11817
▁[...]	-11818
dam	-11819
▁HKD	-11820
▁imagine	-11821
being	-11822
推迟	-11823
▁以下	-11824
给我们	-11825
浪费	-11826
出来的	-11827
人民共和国	-11828
尤其是在	-11829
约旦	-11830
这不是	-11831
▁Jiang	-11832
ero	-11833
AV	-11834
的事实	-11835
突破	-11836
▁channels	-11837
▁interface	-11838
▁Letter	-11839
他会	-11840
详情	-11841
▁forecast	-11842
▁ICT	-11843
DI	-11844
▁Help	-11845
支援	-11846
远程	-11847
10.	-11848
我希望	-11849
的成员	-11850
▁Tib	-11851
学科	-11852
其他国家	-11853
框架内	-11854
和对	-11855
乘客	-11856
至今	-11857
cohol	-11858
iscal	-11859
自行车	-11860
▁herself	-11861
加密货币	-11862
提名	-11863
▁visual	-11864
▁everybody	-11865
这一问题	-11866
放松	-11867
ampions	-11868
▁只	-11869
▁Fourth	-11870
玩具	-11871
▁youn	-11872
并提供	-11873
▁Gender	-11874
▁sitting	-11875
▁accommodation	-11876
▁elabor	-11877
各类	-11878
asures	-11879
还会	-11880
可以帮助	-11881
rich	-11882
▁Croat	-11883
▁photo	-11884
每次	-11885
▁emphasized	-11886
夏天	-11887
-2007	-11888
▁Bible	-11889
喜欢的	-11890
额外的	-11891
遗传	-11892
▁occasion	-11893
▁scheduled	-11894
▁Girl	-11895
做得	-11896
rm	-11897
▁Venezuela	-11898
▁Creat	-11899
转化	-11900
rets	-11901
▁太	-11902
▁Card	-11903
abet	-11904
吸收	-11905
▁Garden	-11906
作业	-11907
(1	-11908
的变化	-11909
ESCO	-11910
▁万	-11911
▁push	-11912
家伙	-11913
▁1、	-11914
▁certification	-11915
Ind	-11916
▁friendly	-11917
▁prosper	-11918
意思是	-11919
这些问题	-11920
▁colleagues	-11921
▁Video	-11922
▁Ul	-11923
约会	-11924
▁beat	-11925
iments	-11926
▁preparing	-11927
itan	-11928
信托基金	-11929
▁Saturday	-11930
档案	-11931
出租	-11932
▁impacts	-11933
加斯	-11934
Net	-11935
繼續	-11936
▁长	-11937
▁UNID	-11938
▁wishes	-11939
工发	-11940
▁她的	-11941
▁Give	-11942
▁leads	-11943
▁expenses	-11944
▁happening	-11945
grading	-11946
监禁	-11947
gests	-11948
▁Luc	-11949
▁owner	-11950
激励	-11951
isdom	-11952
▁suggests	-11953
塞尔维亚	-11954
ario	-11955
▁entertain	-11956
▁detect	-11957
我们已经	-11958
6-	-11959
▁appointment	-11960
▁弗	-11961
美丽的	-11962
淋浴	-11963
詹姆斯	-11964
那是	-11965
成分	-11966
为其	-11967
ifies	-11968
quality	-11969
知名	-11970
TE	-11971
▁Kenya	-11972
▁36.	-11973
▁COP	-11974
▁suffer	-11975
▁resc	-11976
后勤	-11977
▁switch	-11978
▁shower	-11979
▁considerable	-11980
▁dispute	-11981
的可	-11982
十七	-11983
▁domain	-11984
意外	-11985
罗马尼亚	-11986
隆迪	-11987
▁blind	-11988
▁Belgium	-11989
▁Euro	-11990
▁pus	-11991
▁NGOs	-11992
订正	-11993
▁去年	-11994
化工	-11995
尊严	-11996
▁Would	-11997
uminum	-11998
ternoon	-11999
▁Ask	-12000
在他的	-12001
▁Bangladesh	-12002
现行	-12003
越来越多	-12004
引导	-12005
情感	-12006
▁incred	-12007
▁symptoms	-12008
▁Shop	-12009
▁permit	-12010
▁conventions	-12011
▁investigations	-12012
▁coup	-12013
共和党	-12014
urb	-12015
▁Ren	-12016
类似的	-12017
▁anymore	-12018
的同时	-12019
atar	-12020
▁poly	-12021
▁shift	-12022
航空公司	-12023
/63/	-12024
▁abandon	-12025
▁divided	-12026
我们所	-12027
改变了	-12028
▁pump	-12029
十九	-12030
▁Deputy	-12031
1991	-12032
▁flat	-12033
已成为	-12034
▁Journal	-12035
▁charged	-12036
▁farmers	-12037
▁interpretation	-12038
▁学生	-12039
是从	-12040
无需	-12041
].	-12042
重返	-12043
bal	-12044
看到的	-12045
▁embar	-12046
▁Friend	-12047
▁achievements	-12048
irming	-12049
▁clothes	-12050
epal	-12051
▁Impro	-12052
▁inequ	-12053
atible	-12054
全面的	-12055
纤维	-12056
ANG	-12057
的具体	-12058
/2	-12059
South	-12060
▁Kaz	-12061
▁以及	-12062
▁加强	-12063
物联网	-12064
▁Dam	-12065
▁精	-12066
一部分	-12067
▁1,000	-12068
ili	-12069
得出	-12070
频率	-12071
▁1970	-12072
数十	-12073
▁Restaurant	-12074
▁focusing	-12075
ups	-12076
▁fly	-12077
▁8,	-12078
▁星期	-12079
很高兴	-12080
▁installation	-12081
透露	-12082
▁trained	-12083
▁Hill	-12084
最新的	-12085
的工作人员	-12086
型号	-12087
inent	-12088
▁tow	-12089
突出	-12090
能在	-12091
附件一	-12092
▁47	-12093
▁rehabilitation	-12094
领导者	-12095
▁diverse	-12096
▁moon	-12097
-2009	-12098
▁presentation	-12099
芝加	-12100
有能力	-12101
复制	-12102
▁putting	-12103
▁HK	-12104
sen	-12105
目的地	-12106
▁recip	-12107
芝加哥	-12108
她在	-12109
▁Denmark	-12110
▁普	-12111
▁unlike	-12112
▁pal	-12113
▁grave	-12114
airo	-12115
uine	-12116
▁renewable	-12117
机构间	-12118
fn	-12119
▁SH	-12120
已在	-12121
单元	-12122
▁Ir	-12123
监察	-12124
工会	-12125
▁Particip	-12126
▁Scientific	-12127
仔细	-12128
▁grew	-12129
▁lighting	-12130
分离	-12131
他们会	-12132
ears	-12133
▁bottom	-12134
CL	-12135
暴力行为	-12136
特设	-12137
▁fans	-12138
思维	-12139
▁37.	-12140
herent	-12141
▁thereby	-12142
▁2、	-12143
eals	-12144
▁burden	-12145
破产	-12146
产生了	-12147
是不是	-12148
事务部	-12149
abitat	-12150
TML	-12151
rome	-12152
该地区	-12153
▁10,	-12154
emen	-12155
当我	-12156
▁Hello	-12157
不好	-12158
ocur	-12159
载有	-12160
暂停	-12161
▁Instead	-12162
▁specified	-12163
坐落	-12164
Our	-12165
天堂	-12166
▁2:	-12167
ographical	-12168
防治	-12169
▁Chicago	-12170
Re	-12171
科特迪瓦	-12172
conf	-12173
▁eld	-12174
▁Spirit	-12175
例外	-12176
ella	-12177
▁entity	-12178
▁主要	-12179
问题国际	-12180
▁decrease	-12181
▁organizational	-12182
摄像	-12183
▁Streng	-12184
▁exception	-12185
▁moral	-12186
▁Swiss	-12187
▁Rwanda	-12188
不良	-12189
▁下午	-12190
iented	-12191
▁Hi	-12192
(1)	-12193
▁Refuge	-12194
hent	-12195
》、《	-12196
武器和	-12197
阿塞拜疆	-12198
▁不管	-12199
▁killing	-12200
second	-12201
储备	-12202
▁allegations	-12203
earing	-12204
▁Ethiopia	-12205
▁southern	-12206
▁potentially	-12207
iously	-12208
▁filled	-12209
crib	-12210
赚钱	-12211
人物	-12212
实地	-12213
▁Peru	-12214
▁anticip	-12215
▁и	-12216
情形	-12217
▁Stop	-12218
▁municip	-12219
▁Software	-12220
licated	-12221
▁Internal	-12222
date	-12223
▁statistical	-12224
▁browser	-12225
▁highlighted	-12226
国集团	-12227
▁经	-12228
究竟	-12229
▁比如	-12230
iat	-12231
的选择	-12232
▁overseas	-12233
PM	-12234
91	-12235
▁crazy	-12236
▁apps	-12237
医疗保健	-12238
容量	-12239
▁combating	-12240
▁建议	-12241
▁Tru	-12242
▁bridge	-12243
▁Far	-12244
▁Apartment	-12245
▁introduce	-12246
▁graph	-12247
▁Initiative	-12248
SM	-12249
05	-12250
▁Chang	-12251
自主	-12252
我没有	-12253
▁apparent	-12254
▁Phone	-12255
和美国	-12256
了很多	-12257
的孩子	-12258
▁Comb	-12259
/2001/	-12260
▁Liberia	-12261
uter	-12262
名义	-12263
that	-12264
▁websites	-12265
▁assign	-12266
有组织	-12267
的执行	-12268
▁careful	-12269
▁convinc	-12270
难民署	-12271
anka	-12272
而非	-12273
▁papers	-12274
▁Medic	-12275
▁你会	-12276
▁Morocco	-12277
▁gar	-12278
▁officially	-12279
▁UNFPA	-12280
并确保	-12281
rie	-12282
rators	-12283
▁Application	-12284
艰难	-12285
关联	-12286
▁秘书处	-12287
蒙古	-12288
▁安全	-12289
▁caught	-12290
负面	-12291
▁covering	-12292
机和	-12293
毛里	-12294
▁Canc	-12295
▁encouraging	-12296
▁honor	-12297
豁免	-12298
▁drawn	-12299
9%	-12300
京都	-12301
▁Hostel	-12302
▁subsidiary	-12303
▁纽约	-12304
生意	-12305
是他	-12306
▁图	-12307
▁Financing	-12308
确立	-12309
▁邮	-12310
场景	-12311
加剧	-12312
CON	-12313
▁seat	-12314
▁传	-12315
ei	-12316
▁Respons	-12317
先进的	-12318
SI	-12319
life	-12320
▁urges	-12321
▁亚洲	-12322
▁opposition	-12323
摆脱	-12324
▁jump	-12325
达尔富尔	-12326
▁immigration	-12327
▁嗯	-12328
▁Ug	-12329
次区域	-12330
aya	-12331
ico	-12332
▁Type	-12333
▁definitely	-12334
▁工作组	-12335
▁Fair	-12336
▁40.	-12337
gor	-12338
祈祷	-12339
网站上	-12340
etime	-12341
▁tells	-12342
▁cards	-12343
▁数据	-12344
▁evolution	-12345
heast	-12346
▁virus	-12347
▁保	-12348
▁~	-12349
脂肪	-12350
tech	-12351
的战略	-12352
▁equipped	-12353
▁rul	-12354
▁doctors	-12355
▁700	-12356
数百	-12357
OU	-12358
1992	-12359
跟你	-12360
▁2008.	-12361
▁garden	-12362
干达	-12363
kg	-12364
▁messages	-12365
▁100%	-12366
▁Merc	-12367
教科文	-12368
abric	-12369
当选	-12370
▁Line	-12371
取得的进展	-12372
的一份	-12373
▁yesterday	-12374
强奸	-12375
▁38.	-12376
▁association	-12377
▁pra	-12378
死亡率	-12379
ndering	-12380
ylum	-12381
isk	-12382
了在	-12383
▁visa	-12384
因为他	-12385
inn	-12386
人是	-12387
尼泊尔	-12388
的增长	-12389
.7	-12390
▁donor	-12391
apping	-12392
对抗	-12393
时时彩	-12394
human	-12395
▁imper	-12396
▁Military	-12397
▁endors	-12398
▁ships	-12399
学者	-12400
▁norms	-12401
▁环境	-12402
01	-12403
▁Lit	-12404
▁fraud	-12405
▁possess	-12406
▁Kim	-12407
FP	-12408
合物	-12409
4%	-12410
▁46	-12411
▁10-	-12412
▁experiment	-12413
▁agents	-12414
▁buying	-12415
▁4-	-12416
▁absolutely	-12417
▁Tibet	-12418
▁Call	-12419
可以使用	-12420
▁Everything	-12421
创作	-12422
分散	-12423
家的	-12424
本组织	-12425
OME	-12426
▁topics	-12427
在哪里	-12428
妨碍	-12429
辐射	-12430
▁委员会还	-12431
forced	-12432
▁frag	-12433
那时	-12434
▁provider	-12435
▁Questions	-12436
疯狂	-12437
多元	-12438
▁SM	-12439
▁发布	-12440
▁上帝	-12441
乌干达	-12442
▁degrees	-12443
▁agent	-12444
怎么样	-12445
入住	-12446
▁Portugal	-12447
▁inclusive	-12448
▁centers	-12449
强化	-12450
▁Sand	-12451
▁veget	-12452
康复	-12453
▁其实	-12454
新技术	-12455
在联合国	-12456
▁immigr	-12457
▁只是	-12458
rencies	-12459
可能需要	-12460
▁intelligent	-12461
entle	-12462
▁bigger	-12463
▁CNY	-12464
▁Having	-12465
▁minority	-12466
▁法律	-12467
器的	-12468
▁legitimate	-12469
▁pictures	-12470
供应链	-12471
次级方案	-12472
并通过	-12473
▁Sri	-12474
▁analytical	-12475
爆发	-12476
omet	-12477
resolution	-12478
oler	-12479
职业生涯	-12480
▁实际上	-12481
北美	-12482
130	-12483
只需要	-12484
必需	-12485
▁过去	-12486
维修	-12487
时间的	-12488
非洲联盟	-12489
She	-12490
和区域	-12491
▁stood	-12492
▁discl	-12493
我对	-12494
经济体	-12495
▁Document	-12496
问题是	-12497
esides	-12498
▁faces	-12499
Bl	-12500
▁suddenly	-12501
▁rid	-12502
▁重	-12503
▁Imm	-12504
▁這是	-12505
▁Queen	-12506
▁reservation	-12507
收到的	-12508
▁9,	-12509
▁Inv	-12510
▁Spring	-12511
作出的	-12512
-16	-12513
▁Keep	-12514
▁fishing	-12515
也不会	-12516
▁Haiti	-12517
rea	-12518
Cor	-12519
▁Tax	-12520
在未来	-12521
▁advisory	-12522
▁Wait	-12523
▁因為	-12524
idency	-12525
erry	-12526
跟我	-12527
▁华	-12528
▁fees	-12529
/56/	-12530
six	-12531
▁schedule	-12532
的三	-12533
什么是	-12534
全体会议	-12535
ounded	-12536
▁Status	-12537
效力	-12538
▁Timor	-12539
▁rot	-12540
▁通常	-12541
▁globalization	-12542
委员会的报告	-12543
的管理	-12544
:+	-12545
不少	-12546
▁convention	-12547
erring	-12548
更快	-12549
▁1000	-12550
▁Similar	-12551
聪明	-12552
▁Di	-12553
▁Forest	-12554
oria	-12555
沙特阿拉伯	-12556
远远	-12557
tes	-12558
某一	-12559
距离酒店	-12560
▁客房	-12561
▁(200	-12562
cn	-12563
CHR	-12564
里兰卡	-12565
美国和	-12566
家公司	-12567
所做的	-12568
sk	-12569
▁divers	-12570
HP	-12571
▁duties	-12572
▁productive	-12573
主办	-12574
▁Rule	-12575
▁elev	-12576
杀害	-12577
签名	-12578
▁joy	-12579
▁第四	-12580
你想	-12581
▁frequency	-12582
\3	-12583
▁bot	-12584
个性	-12585
▁Perhaps	-12586
坚定	-12587
▁retire	-12588
人群	-12589
身边	-12590
▁proof	-12591
▁我可以	-12592
景点	-12593
▁ordered	-12594
布尔	-12595
哲学	-12596
毒品和犯罪	-12597
▁”““	-12598
▁artist	-12599
▁trees	-12600
装饰	-12601
▁library	-12602
iciary	-12603
▁dad	-12604
▁substances	-12605
▁register	-12606
▁feels	-12607
▁古	-12608
▁39.	-12609
吸烟	-12610
所作的	-12611
设法	-12612
ixt	-12613
▁refers	-12614
▁dynamic	-12615
金额	-12616
的经验	-12617
▁Nothing	-12618
RI	-12619
职务	-12620
精确	-12621
主张	-12622
走势	-12623
周末	-12624
▁Nepal	-12625
▁共	-12626
▁tack	-12627
▁functioning	-12628
▁managing	-12629
信息的	-12630
目前为止	-12631
On	-12632
▁murder	-12633
▁Pract	-12634
▁typically	-12635
’.	-12636
▁Valley	-12637
ML	-12638
osite	-12639
▁Mother	-12640
▁generated	-12641
▁Bosnia	-12642
▁GBP	-12643
设想	-12644
过度	-12645
孟加拉国	-12646
走向	-12647
▁Labor	-12648
▁pill	-12649
布拉	-12650
辅助	-12651
▁mac	-12652
啤酒	-12653
▁当时	-12654
▁accessible	-12655
儿童和	-12656
mits	-12657
年初	-12658
onomous	-12659
麦克	-12660
▁anniversary	-12661
▁发展	-12662
▁patterns	-12663
充电	-12664
▁Future	-12665
liminary	-12666
▁province	-12667
aked	-12668
這裡	-12669
otics	-12670
▁stores	-12671
▁penalty	-12672
应该是	-12673
▁savings	-12674
多尔	-12675
mary	-12676
指令	-12677
▁totally	-12678
的家庭	-12679
▁问	-12680
▁1992	-12681
sey	-12682
▁serves	-12683
▁venue	-12684
设定	-12685
▁Gaza	-12686
的城市	-12687
▁translation	-12688
da	-12689
▁Mong	-12690
尔顿	-12691
▁engineers	-12692
Gu	-12693
▁river	-12694
之内	-12695
apped	-12696
GC	-12697
▁她说	-12698
10%	-12699
▁meat	-12700
制造业	-12701
尽量	-12702
▁choices	-12703
pm	-12704
季节	-12705
▁healthcare	-12706
国务	-12707
▁hopes	-12708
▁react	-12709
▁raising	-12710
▁Young	-12711
安全理事会第	-12712
农场	-12713
年开始	-12714
▁Activ	-12715
▁begun	-12716
ench	-12717
▁overs	-12718
▁900	-12719
热情	-12720
效应	-12721
▁denied	-12722
一般性	-12723
在任何	-12724
▁sounds	-12725
(2	-12726
▁unemployment	-12727
英镑	-12728
EUR	-12729
▁UNM	-12730
▁enjoyment	-12731
▁Mom	-12732
appy	-12733
▁snow	-12734
▁sustained	-12735
▁***	-12736
▁Case	-12737
▁阿拉	-12738
▁subsc	-12739
监测和	-12740
▁Square	-12741
rator	-12742
▁这意味着	-12743
▁principal	-12744
▁audience	-12745
rypt	-12746
▁Say	-12747
▁necessarily	-12748
▁Partnership	-12749
▁UNIDO	-12750
不确定	-12751
贩卖	-12752
总结	-12753
▁pregnant	-12754
人类的	-12755
▁Jul	-12756
缓解	-12757
▁unto	-12758
签订	-12759
▁videos	-12760
补偿	-12761
▁意大利	-12762
ags	-12763
▁offences	-12764
▁Establ	-12765
TRY	-12766
▁speakers	-12767
utch	-12768
▁affecting	-12769
▁Burund	-12770
▁Annual	-12771
更高的	-12772
频道	-12773
sm	-12774
olec	-12775
▁suppliers	-12776
host	-12777
下来的	-12778
▁absor	-12779
GDP	-12780
他们是	-12781
▁Er	-12782
在你	-12783
的调查	-12784
问题上	-12785
反馈	-12786
恶化	-12787
▁Martin	-12788
在这些	-12789
空调	-12790
▁AUD	-12791
并于	-12792
人权理事会	-12793
▁Ce	-12794
篇文章	-12795
▁Tex	-12796
RA	-12797
aba	-12798
▁Select	-12799
完美的	-12800
回去	-12801
errorism	-12802
DNA	-12803
▁2005.	-12804
ml	-12805
欣赏	-12806
ss	-12807
斯达	-12808
毒品和犯罪问题	-12809
加尔	-12810
▁zero	-12811
DG	-12812
公告	-12813
▁expanding	-12814
▁Budd	-12815
個人	-12816
创造了	-12817
programme	-12818
▁County	-12819
▁newly	-12820
iating	-12821
▁transformation	-12822
▁Emer	-12823
aka	-12824
津贴	-12825
▁Cond	-12826
▁Full	-12827
▁Live	-12828
oa	-12829
▁describe	-12830
▁Assistant	-12831
有益	-12832
edia	-12833
▁prisoners	-12834
极为	-12835
▁真的	-12836
dep	-12837
首要	-12838
▁Peacekeeping	-12839
劳工组织	-12840
ighter	-12841
▁distinct	-12842
美食	-12843
▁Reaff	-12844
▁查	-12845
▁Relations	-12846
澄清	-12847
CM	-12848
▁considers	-12849
渔业	-12850
▁Sem	-12851
SO	-12852
utation	-12853
糖尿	-12854
▁license	-12855
是为	-12856
▁IBM	-12857
的和	-12858
▁理事会	-12859
▁ye	-12860
愤怒	-12861
▁Within	-12862
▁flexibility	-12863
▁rejected	-12864
▁是啊	-12865
▁Muslim	-12866
斯的	-12867
法律和	-12868
一道	-12869
ker	-12870
加州	-12871
别墅	-12872
▁Angeles	-12873
▁1991	-12874
开幕	-12875
议事规则	-12876
▁Alger	-12877
▁VI	-12878
接受的	-12879
条规定	-12880
▁鼓励	-12881
事物	-12882
的力量	-12883
▁laugh	-12884
▁Think	-12885
▁Cath	-12886
竞选	-12887
权威	-12888
2.5	-12889
▁Mass	-12890
▁plane	-12891
▁glad	-12892
囚犯	-12893
▁Store	-12894
以此	-12895
war	-12896
▁reward	-12897
▁adult	-12898
美尼亚	-12899
享用	-12900
▁constant	-12901
makers	-12902
▁Universal	-12903
讨论了	-12904
▁stages	-12905
权利的	-12906
▁territorial	-12907
▁教育	-12908
▁Hand	-12909
▁大家	-12910
▁examine	-12911
▁taxes	-12912
▁throw	-12913
▁flows	-12914
设备的	-12915
ifts	-12916
族裔	-12917
▁Hospital	-12918
▁Appro	-12919
定于	-12920
总数	-12921
tegration	-12922
▁demonstrated	-12923
▁beings	-12924
▁195	-12925
养恤	-12926
的名字	-12927
影片	-12928
▁七	-12929
▁clinical	-12930
物体	-12931
突尼斯	-12932
▁broader	-12933
▁corner	-12934
▁funded	-12935
基础上	-12936
一只	-12937
▁busy	-12938
引发	-12939
1.5	-12940
我们有	-12941
▁afternoon	-12942
▁sport	-12943
二十	-12944
发展援助	-12945
▁2007.	-12946
missions	-12947
▁fix	-12948
福音	-12949
▁publish	-12950
是通过	-12951
upid	-12952
自豪	-12953
▁王	-12954
目前正在	-12955
智能手机	-12956
携带	-12957
平方米	-12958
通信技术	-12959
▁genuine	-12960
空军	-12961
地面	-12962
endar	-12963
▁Server	-12964
itures	-12965
▁展	-12966
海关	-12967
小心	-12968
司机	-12969
研究和	-12970
▁crop	-12971
weapon	-12972
▁directed	-12973
▁profile	-12974
▁deposit	-12975
▁Order	-12976
另一种	-12977
▁tech	-12978
▁owing	-12979
▁communicate	-12980
环境中	-12981
人道主义法	-12982
州市	-12983
folio	-12984
▁segment	-12985
LTD	-12986
▁强调	-12987
的形式	-12988
▁resum	-12989
信贷	-12990
▁examination	-12991
叫做	-12992
▁Promotion	-12993
▁acquired	-12994
▁destination	-12995
库存	-12996
▁HD	-12997
生长	-12998
高质量	-12999
____	-13000
和支持	-13001
/2000/	-13002
运动员	-13003
明星	-13004
▁stands	-13005
船舶	-13006
▁chap	-13007
配合	-13008
仪式	-13009
spec	-13010
神秘	-13011
▁artists	-13012
▁inspection	-13013
▁finds	-13014
mination	-13015
ISO	-13016
iration	-13017
▁Territories	-13018
hejiang	-13019
也能	-13020
ais	-13021
det	-13022
▁Ic	-13023
▁Iss	-13024
前进	-13025
▁northern	-13026
而在	-13027
you	-13028
的数量	-13029
工程处	-13030
]。	-13031
▁相反	-13032
友好	-13033
▁indicates	-13034
作出了	-13035
卫生组织	-13036
投诉	-13037
▁tested	-13038
asp	-13039
▁globally	-13040
流离失所者	-13041
歌曲	-13042
那就是	-13043
调解	-13044
dong	-13045
迄今为止	-13046
▁awarded	-13047
靠近	-13048
▁genetic	-13049
▁structural	-13050
▁paras	-13051
▁dreams	-13052
间的	-13053
▁dignity	-13054
▁Smith	-13055
問題	-13056
这种情况下	-13057
布隆迪	-13058
了我的	-13059
▁Jim	-13060
▁analyst	-13061
▁wireless	-13062
报纸	-13063
的妇女	-13064
糖尿病	-13065
▁西班牙	-13066
▁可是	-13067
电子商务	-13068
客户提供	-13069
scape	-13070
全球化	-13071
Pr	-13072
是一位	-13073
口头	-13074
haust	-13075
erly	-13076
▁vit	-13077
wered	-13078
人为	-13079
▁..	-13080
▁Armen	-13081
▁define	-13082
lied	-13083
的美国	-13084
下面	-13085
acity	-13086
到来	-13087
合金	-13088
espread	-13089
危地	-13090
真是	-13091
▁hoped	-13092
生日	-13093
▁dram	-13094
▁feelings	-13095
▁ing	-13096
▁大学	-13097
▁strange	-13098
▁Ministers	-13099
▁starts	-13100
▁shoes	-13101
uts	-13102
▁milit	-13103
▁residence	-13104
▁Rock	-13105
ca	-13106
▁crowd	-13107
算法	-13108
斯基	-13109
列颠	-13110
fire	-13111
▁Mechan	-13112
acks	-13113
大战	-13114
筹措	-13115
▁lots	-13116
意志	-13117
每日	-13118
Ab	-13119
▁Sorry	-13120
层空间	-13121
▁weapon	-13122
site	-13123
ext	-13124
關於	-13125
arding	-13126
▁returns	-13127
iability	-13128
犹太人	-13129
▁Costa	-13130
家庭暴力	-13131
赞助	-13132
的有效	-13133
▁Anti	-13134
即便	-13135
▁enables	-13136
▁flood	-13137
▁adverse	-13138
▁intent	-13139
奥斯	-13140
▁2006.	-13141
的部分	-13142
▁artificial	-13143
owned	-13144
▁passion	-13145
▁Studies	-13146
运营商	-13147
▁Du	-13148
的费用	-13149
▁socio	-13150
和使用	-13151
备忘	-13152
▁channel	-13153
▁Students	-13154
▁height	-13155
交给	-13156
igor	-13157
危地马拉	-13158
奥巴马	-13159
的概念	-13160
▁diamond	-13161
▁competent	-13162
▁elig	-13163
▁employee	-13164
isted	-13165
▁Mu	-13166
▁Wal	-13167
▁OH	-13168
(19	-13169
▁Jewish	-13170
加沙	-13171
杀死	-13172
contin	-13173
▁certificate	-13174
▁beach	-13175
越来越多的	-13176
路上	-13177
收到了	-13178
分开	-13179
▁Manager	-13180
回事	-13181
▁Guang	-13182
▁minorities	-13183
创立	-13184
但这	-13185
▁1998,	-13186
成為	-13187
aped	-13188
▁Private	-13189
▁Lee	-13190
50%	-13191
▁Az	-13192
▁假	-13193
▁sight	-13194
▁41.	-13195
温室	-13196
▁determination	-13197
爱情	-13198
▁depr	-13199
▁contributing	-13200
ingly	-13201
▁incent	-13202
▁Way	-13203
▁driven	-13204
▁banking	-13205
格鲁吉亚	-13206
校园	-13207
▁historic	-13208
当代	-13209
加利	-13210
▁entrepreneurs	-13211
▁客户	-13212
▁DC	-13213
▁outer	-13214
发誓	-13215
adow	-13216
▁Johnson	-13217
火箭	-13218
▁JPY	-13219
▁Monitoring	-13220
一段时间	-13221
▁COM	-13222
▁observers	-13223
类的	-13224
▁180	-13225
zegov	-13226
▁transf	-13227
TV	-13228
陈述	-13229
▁consists	-13230
vironments	-13231
明年	-13232
▁里	-13233
▁dear	-13234
人权事务高级专员	-13235
▁Oil	-13236
??	-13237
▁非常	-13238
都知道	-13239
加利亚	-13240
▁reaching	-13241
细菌	-13242
▁Very	-13243
▁打	-13244
▁2015.	-13245
地铁	-13246
出发	-13247
愿景	-13248
信息技术	-13249
的条件	-13250
的需要	-13251
zegovina	-13252
▁Iraqi	-13253
▁cab	-13254
致命	-13255
▁Cambodia	-13256
姓名	-13257
▁(18	-13258
理事	-13259
ouses	-13260
▁Wil	-13261
▁Belarus	-13262
▁Website	-13263
▁illness	-13264
.1)	-13265
城市的	-13266
▁Tool	-13267
▁recyc	-13268
▁Population	-13269
控制器	-13270
任何其他	-13271
▁Low	-13272
redit	-13273
还需要	-13274
▁egg	-13275
icked	-13276
充足	-13277
之为	-13278
极其	-13279
▁Bulg	-13280
▁refused	-13281
ba	-13282
▁Resolution	-13283
伊斯兰共和国	-13284
审计委员会	-13285
不平等	-13286
他們的	-13287
▁apart	-13288
通道	-13289
路易	-13290
▁asylum	-13291
厂家	-13292
▁holds	-13293
多年来	-13294
反映了	-13295
▁Occ	-13296
▁empt	-13297
他对	-13298
饥饿	-13299
的资源	-13300
患有	-13301
▁escape	-13302
调动	-13303
间接	-13304
▁CHF	-13305
的好	-13306
▁见	-13307
萨斯	-13308
分裂	-13309
▁laid	-13310
▁42.	-13311
▁5-	-13312
是很	-13313
▁constrain	-13314
▁raw	-13315
天使	-13316
自然资源	-13317
iri	-13318
eries	-13319
▁possibly	-13320
笔记	-13321
▁第六	-13322
地下	-13323
▁filter	-13324
reets	-13325
剧院	-13326
多名	-13327
▁Jac	-13328
▁时间	-13329
审理	-13330
用了	-13331
积极的	-13332
商标	-13333
ownt	-13334
缺少	-13335
无限	-13336
▁comprom	-13337
▁accomplish	-13338
▁transferred	-13339
副主席	-13340
發生	-13341
有力的	-13342
],	-13343
伟大	-13344
竞争力	-13345
▁Croatia	-13346
▁我们在	-13347
侵犯人权	-13348
▁automatic	-13349
拟定	-13350
ôte	-13351
INE	-13352
▁Jin	-13353
▁terr	-13354
▁reflects	-13355
为你	-13356
To	-13357
,'	-13358
工作方案	-13359
重要作用	-13360
备忘录	-13361
的两	-13362
这份	-13363
ctor	-13364
▁Language	-13365
准备好	-13366
herence	-13367
▁everywhere	-13368
股东	-13369
过境	-13370
辩护	-13371
ilation	-13372
▁Festival	-13373
▁博	-13374
▁regret	-13375
▁Apart	-13376
我觉得	-13377
改造	-13378
-17	-13379
的义务	-13380
的资金	-13381
承受	-13382
▁disasters	-13383
rogen	-13384
SL	-13385
▁obstacles	-13386
▁behaviour	-13387
当今	-13388
▁Property	-13389
会议和	-13390
▁Sar	-13391
▁plays	-13392
▁Strategic	-13393
▁realization	-13394
▁transit	-13395
▁甚至	-13396
各种各	-13397
以及对	-13398
定为	-13399
▁Esp	-13400
▁Communications	-13401
▁Cho	-13402
urities	-13403
VR	-13404
▁沒	-13405
形势	-13406
的区域	-13407
聚集	-13408
John	-13409
▁Has	-13410
▁constitutional	-13411
写作	-13412
▁Near	-13413
▁widespread	-13414
个人的	-13415
▁depart	-13416
都很	-13417
澳门	-13418
proliferation	-13419
▁neighbour	-13420
ato	-13421
▁distingu	-13422
EST	-13423
一直是	-13424
▁shar	-13425
▁64	-13426
传递	-13427
▁paying	-13428
▁确保	-13429
兰克	-13430
▁welfare	-13431
▁Herzegovina	-13432
▁equally	-13433
formance	-13434
▁fool	-13435
蛋白质	-13436
阐述	-13437
▁begins	-13438
▁contrary	-13439
讨厌	-13440
▁它是	-13441
限度	-13442
▁subsid	-13443
▁preced	-13444
什么时候	-13445
edd	-13446
▁interaction	-13447
街道	-13448
raf	-13449
▁Dad	-13450
▁2009.	-13451
▁Week	-13452
▁WHO	-13453
我们就	-13454
▁Planning	-13455
▁assigned	-13456
斯顿	-13457
▁Personal	-13458
▁免费	-13459
▁Categ	-13460
▁foods	-13461
有组织犯罪	-13462
ioned	-13463
暂时	-13464
fif	-13465
厄瓜	-13466
Web	-13467
▁organis	-13468
象征	-13469
市场上	-13470
▁conscious	-13471
应用于	-13472
它将	-13473
▁periods	-13474
▁customs	-13475
▁Could	-13476
分之	-13477
▁illust	-13478
▁functional	-13479
emic	-13480
▁光	-13481
▁phenomenon	-13482
cHFF	-13483
▁elimination	-13484
社会的	-13485
▁liability	-13486
▁parking	-13487
aturally	-13488
提到的	-13489
▁scholars	-13490
▁Thomas	-13491
▁结果	-13492
著名	-13493
atri	-13494
动作	-13495
▁Given	-13496
▁RUB	-13497
▁网络	-13498
▁paint	-13499
把他	-13500
▁producing	-13501
▁促进	-13502
▁Revolution	-13503
事务厅	-13504
的有关	-13505
▁Meanwhile	-13506
▁investigate	-13507
▁我觉得	-13508
▁iOS	-13509
的投资	-13510
which	-13511
▁Lanka	-13512
▁好的	-13513
▁hearts	-13514
▁Van	-13515
ictions	-13516
▁tight	-13517
▁2018.	-13518
的相关	-13519
那种	-13520
voire	-13521
▁electrical	-13522
▁equity	-13523
▁AIDS	-13524
illance	-13525
的客房	-13526
塞哥	-13527
用水	-13528
第三次	-13529
武装部队	-13530
教科文组织	-13531
▁squ	-13532
rection	-13533
民国	-13534
或在	-13535
▁Remember	-13536
’,	-13537
新型	-13538
大众	-13539
矛盾	-13540
▁手	-13541
一切形式	-13542
▁Indigenous	-13543
▁Whether	-13544
证人	-13545
itative	-13546
▁次	-13547
倡导	-13548
窗口	-13549
▁alcohol	-13550
不论	-13551
▁generations	-13552
atem	-13553
hemat	-13554
CCC	-13555
erving	-13556
告知	-13557
▁turning	-13558
荒漠	-13559
▁mix	-13560
來的	-13561
我将	-13562
:13	-13563
▁counsel	-13564
和在	-13565
▁我们将	-13566
▁Prosecut	-13567
▁jointly	-13568
▁当你	-13569
,’	-13570
▁tra	-13571
▁describes	-13572
出现的	-13573
▁Swedish	-13574
▁demonstrate	-13575
▁deployed	-13576
我已经	-13577
对他	-13578
早些时候	-13579
政权	-13580
▁taste	-13581
▁conventional	-13582
大地	-13583
编码	-13584
▁Berlin	-13585
12.	-13586
▁API	-13587
▁Dong	-13588
▁已经	-13589
▁Salv	-13590
▁Sex	-13591
▁marg	-13592
▁manifest	-13593
▁Ve	-13594
约有	-13595
▁wider	-13596
▁defe	-13597
▁exposure	-13598
▁incidents	-13599
▁dance	-13600
▁reservations	-13601
▁yeah	-13602
▁wedding	-13603
牺牲	-13604
迫切	-13605
离婚	-13606
▁phones	-13607
后面	-13608
有许多	-13609
初级	-13610
▁injury	-13611
▁environments	-13612
▁Guid	-13613
▁43.	-13614
▁entering	-13615
▁reaction	-13616
▁contrast	-13617
主席团	-13618
▁concepts	-13619
主的	-13620
承包	-13621
的程序	-13622
模具	-13623
/3	-13624
▁Statement	-13625
健康和	-13626
应急	-13627
/4	-13628
▁disag	-13629
▁贝	-13630
▁contemporary	-13631
正规	-13632
▁SGD	-13633
一件	-13634
▁abst	-13635
▁wisdom	-13636
▁furniture	-13637
▁identifying	-13638
▁Suites	-13639
▁unknown	-13640
▁fiscal	-13641
塞哥维	-13642
一个新的	-13643
选民	-13644
king	-13645
的理由	-13646
紧密	-13647
管道	-13648
▁Burundi	-13649
▁可能	-13650
该项目	-13651
▁appreciate	-13652
观测	-13653
JPY	-13654
▁pieces	-13655
工发组织	-13656
都被	-13657
成的	-13658
▁Coll	-13659
回忆	-13660
▁当前位置	-13661
▁pace	-13662
▁儿童	-13663
▁Decides	-13664
-30	-13665
▁boat	-13666
▁3*	-13667
▁analys	-13668
▁Youth	-13669
外层空间	-13670
用作	-13671
曾在	-13672
秘书长关于	-13673
▁名	-13674
▁使	-13675
操作系统	-13676
▁Os	-13677
听取	-13678
只会	-13679
▁imprison	-13680
▁inflation	-13681
术语	-13682
▁disputes	-13683
▁aspect	-13684
▁Production	-13685
清除	-13686
表格	-13687
二氧化	-13688
马上	-13689
▁至于	-13690
▁Unfortunately	-13691
萨克斯坦	-13692
inder	-13693
▁heating	-13694
玫瑰	-13695
▁reven	-13696
pping	-13697
▁44.	-13698
▁instructions	-13699
▁divor	-13700
仪器	-13701
▁在线	-13702
意义的	-13703
▁41	-13704
克罗地亚	-13705
▁merely	-13706
扩张	-13707
HKD	-13708
▁Principles	-13709
▁1)	-13710
ione	-13711
▁Still	-13712
▁sand	-13713
▁3、	-13714
awa	-13715
▁Tar	-13716
▁matern	-13717
▁mortality	-13718
開始	-13719
远离	-13720
的确	-13721
▁Tunis	-13722
▁division	-13723
人生	-13724
eding	-13725
呈现	-13726
▁slightly	-13727
▁integrate	-13728
▁societies	-13729
▁Tre	-13730
▁Agriculture	-13731
▁hat	-13732
orse	-13733
妇女在	-13734
▁你有	-13735
▁exciting	-13736
▁dates	-13737
有一天	-13738
▁Hom	-13739
的想法	-13740
▁Sure	-13741
▁Prem	-13742
▁ratification	-13743
▁replied	-13744
▁Jews	-13745
▁liberal	-13746
▁wake	-13747
▁sequ	-13748
中國	-13749
几十年	-13750
Why	-13751
非常重要	-13752
撒哈拉	-13753
停车场	-13754
小说	-13755
iii	-13756
GA	-13757
ordinary	-13758
▁Mer	-13759
▁noise	-13760
oz	-13761
最近的	-13762
西非	-13763
ura	-13764
区域的	-13765
管理的	-13766
▁depending	-13767
urg	-13768
金融机构	-13769
▁Côte	-13770
OV	-13771
其余	-13772
▁45.	-13773
毕竟	-13774
ailing	-13775
inance	-13776
▁VR	-13777
▁我有	-13778
▁mobil	-13779
▁annually	-13780
cm	-13781
▁fee	-13782
相机	-13783
abil	-13784
创新的	-13785
电气	-13786
促请	-13787
▁Guatem	-13788
ucks	-13789
去做	-13790
col	-13791
不必	-13792
▁slowly	-13793
▁aged	-13794
born	-13795
▁strike	-13796
▁travell	-13797
▁Age	-13798
很多人	-13799
▁Ep	-13800
▁presidential	-13801
▁explanation	-13802
协同	-13803
暴露	-13804
不列颠	-13805
WG	-13806
性别平等	-13807
▁uniform	-13808
▁继续	-13809
▁UNESCO	-13810
找出	-13811
esty	-13812
swered	-13813
▁双	-13814
▁Palace	-13815
的价值	-13816
▁2)	-13817
哪个	-13818
是要	-13819
▁Summary	-13820
▁Bitcoin	-13821
committee	-13822
▁2012.	-13823
lets	-13824
硕士	-13825
▁internally	-13826
的一次	-13827
ette	-13828
▁shock	-13829
附近的	-13830
/2002/	-13831
ican	-13832
受访	-13833
▁Using	-13834
▁Flor	-13835
▁Kazakh	-13836
▁Plus	-13837
宾馆	-13838
omic	-13839
▁retur	-13840
塞哥维那	-13841
的手	-13842
强度	-13843
▁Movement	-13844
捐赠	-13845
睡觉	-13846
▁Electronic	-13847
▁stored	-13848
星球	-13849
▁marked	-13850
▁attached	-13851
舞台	-13852
▁50.	-13853
▁SEK	-13854
毫米	-13855
▁cheap	-13856
▁2010.	-13857
▁cryptocur	-13858
▁mistake	-13859
▁hosting	-13860
读者	-13861
uing	-13862
中非	-13863
irates	-13864
波斯尼亚	-13865
忘了	-13866
▁Developing	-13867
▁凯	-13868
▁arising	-13869
▁Customer	-13870
告诉我们	-13871
信的	-13872
▁该公司	-13873
都将	-13874
bum	-13875
密切合作	-13876
▁courage	-13877
骚扰	-13878
主义的	-13879
▁lawyer	-13880
▁Forces	-13881
既然	-13882
谅解	-13883
▁vary	-13884
导航	-13885
婚礼	-13886
交易所	-13887
▁losing	-13888
▁borders	-13889
汇率	-13890
现代化	-13891
这样一个	-13892
监视	-13893
国际贸易	-13894
inter	-13895
fifth	-13896
兼容	-13897
-09	-13898
同性恋	-13899
-2011	-13900
利斯	-13901
▁用户	-13902
▁Emp	-13903
ugh	-13904
onym	-13905
美好的	-13906
立特	-13907
▁放	-13908
部落	-13909
年间	-13910
自由的	-13911
▁Rub	-13912
▁conversation	-13913
▁IA	-13914
▁Barc	-13915
▁Natural	-13916
▁Texas	-13917
▁IoT	-13918
发放	-13919
▁talent	-13920
hr	-13921
▁安理会	-13922
也不是	-13923
和政府	-13924
器官	-13925
年中	-13926
▁Villa	-13927
▁14,	-13928
▁公共	-13929
▁loves	-13930
▁assume	-13931
:05	-13932
▁Guangzhou	-13933
One	-13934
▁capability	-13935
Mac	-13936
▁Map	-13937
▁(11	-13938
▁promised	-13939
terror	-13940
专业人员	-13941
At	-13942
暴力侵害	-13943
aurants	-13944
事先	-13945
▁USB	-13946
我不知道	-13947
成为了	-13948
▁drivers	-13949
▁weekend	-13950
▁直到	-13951
▁NZD	-13952
▁后来	-13953
技術	-13954
晚餐	-13955
urable	-13956
▁injured	-13957
▁survive	-13958
▁基于	-13959
▁answered	-13960
▁frameworks	-13961
▁innoc	-13962
黑人	-13963
减少了	-13964
▁12,	-13965
厄瓜多尔	-13966
2004)	-13967
▁Traff	-13968
itz	-13969
生命的	-13970
▁Hungary	-13971
约为	-13972
▁regardless	-13973
之旅	-13974
妈的	-13975
▁时	-13976
hand	-13977
谈到	-13978
ESS	-13979
尔特	-13980
AUD	-13981
▁Studio	-13982
fa	-13983
这件事	-13984
allel	-13985
▁Source	-13986
哥拉	-13987
下了	-13988
▁falling	-13989
▁storm	-13990
▁nationality	-13991
170	-13992
▁operated	-13993
▁在这个	-13994
也可能	-13995
▁systematic	-13996
▁employed	-13997
提示	-13998
▁movements	-13999
▁Moz	-14000
▁Humanitarian	-14001
影响到	-14002
uador	-14003
大概	-14004
书籍	-14005
▁label	-14006
▁起	-14007
▁wa	-14008
▁execution	-14009
▁ran	-14010
它們	-14011
▁racism	-14012
▁restric	-14013
▁UAH	-14014
CNY	-14015
但不	-14016
权利国际公约	-14017
och	-14018
获得的	-14019
执行局	-14020
▁Motor	-14021
iplinary	-14022
肿瘤	-14023
▁KRW	-14024
▁corpor	-14025
和工作	-14026
▁cease	-14027
美好	-14028
保守	-14029
恐怖分子	-14030
▁barriers	-14031
受理	-14032
▁Christians	-14033
abetes	-14034
沉默	-14035
▁Bon	-14036
何时	-14037
▁loans	-14038
▁台	-14039
成功地	-14040
state	-14041
▁crew	-14042
▁reconciliation	-14043
引渡	-14044
简化	-14045
▁Library	-14046
▁representing	-14047
更换	-14048
研究的	-14049
▁并且	-14050
為什麼	-14051
数百万	-14052
▁Awards	-14053
-13	-14054
生产的	-14055
▁ring	-14056
▁initiated	-14057
ocation	-14058
▁Double	-14059
▁scan	-14060
▁versions	-14061
▁TRY	-14062
-08	-14063
客观	-14064
称之为	-14065
▁微	-14066
▁Taking	-14067
▁route	-14068
是一名	-14069
▁ju	-14070
北爱尔兰	-14071
最高法院	-14072
Am	-14073
传染	-14074
▁帕	-14075
oured	-14076
▁horse	-14077
会被	-14078
▁preliminary	-14079
把我	-14080
▁Richard	-14081
任职	-14082
▁(5)	-14083
▁ZAR	-14084
▁Corporate	-14085
就有	-14086
▁subjects	-14087
一张	-14088
▁FR	-14089
▁trig	-14090
回归	-14091
▁Though	-14092
▁voting	-14093
段中	-14094
▁46.	-14095
▁Drugs	-14096
▁Currently	-14097
▁DKK	-14098
▁Strengthen	-14099
lie	-14100
▁Domin	-14101
本质	-14102
▁repair	-14103
里克	-14104
▁noting	-14105
高专	-14106
激烈	-14107
▁NOK	-14108
▁那是	-14109
今天的	-14110
▁assessed	-14111
▁Uganda	-14112
cks	-14113
Book	-14114
gorith	-14115
部长级	-14116
umer	-14117
▁answers	-14118
伐克	-14119
意图	-14120
應該	-14121
情况的	-14122
▁pregnancy	-14123
vak	-14124
▁warned	-14125
axy	-14126
厄立特	-14127
能否	-14128
ervice	-14129
▁milk	-14130
人体	-14131
PL	-14132
罪犯	-14133
头发	-14134
▁WTO	-14135
ultane	-14136
▁2004.	-14137
▁yield	-14138
▁root	-14139
▁66	-14140
▁Francisco	-14141
▁Records	-14142
占据	-14143
ems	-14144
/11	-14145
▁bacter	-14146
▁involves	-14147
行李	-14148
agen	-14149
注意力	-14150
▁11,	-14151
等级	-14152
▁CZK	-14153
厄立特里亚	-14154
部和	-14155
检验	-14156
▁Hard	-14157
▁originally	-14158
▁单	-14159
▁130	-14160
▁Session	-14161
国际人权	-14162
▁Charles	-14163
不多	-14164
对他们	-14165
▁invite	-14166
NT	-14167
▁Darfur	-14168
:15	-14169
▁thor	-14170
▁scheme	-14171
▁dropped	-14172
也要	-14173
▁57	-14174
fourth	-14175
▁amended	-14176
进来	-14177
raham	-14178
了一次	-14179
危险的	-14180
▁responded	-14181
事的	-14182
基准	-14183
▁Camer	-14184
▁worship	-14185
▁reproductive	-14186
▁harmful	-14187
歡迎	-14188
▁knowing	-14189
▁philosophy	-14190
▁Tokyo	-14191
而被	-14192
金山	-14193
ji	-14194
和加勒比	-14195
还能	-14196
NS	-14197
侵略	-14198
层次	-14199
没有什么	-14200
数千	-14201
RUB	-14202
重的	-14203
所做	-14204
好吧	-14205
顶级	-14206
▁attitude	-14207
耶和华	-14208
▁fewer	-14209
▁家庭	-14210
上使用	-14211
指责	-14212
▁Alliance	-14213
▁yours	-14214
FA	-14215
▁enorm	-14216
▁54	-14217
▁movies	-14218
▁admin	-14219
▁bearing	-14220
其他的	-14221
ket	-14222
▁Ba	-14223
和平进程	-14224
分析师	-14225
了一系列	-14226
干扰	-14227
.4/	-14228
rimin	-14229
.1,	-14230
回复	-14231
▁Virgin	-14232
▁appearance	-14233
incial	-14234
纳德	-14235
▁endorsed	-14236
▁info	-14237
GBP	-14238
忽略	-14239
▁expenditures	-14240
▁acceptance	-14241
▁Activities	-14242
▁Innovation	-14243
▁Romania	-14244
形状	-14245
▁citizen	-14246
▁你想	-14247
20%	-14248
▁yuan	-14249
▁我只是	-14250
▁Regulations	-14251
假期	-14252
旅程	-14253
谈话	-14254
▁Expert	-14255
▁Kyoto	-14256
▁patent	-14257
接口	-14258
吉尔	-14259
▁BRL	-14260
了关于	-14261
▁52	-14262
燃烧	-14263
cher	-14264
至于	-14265
CHF	-14266
▁Mur	-14267
▁intervention	-14268
百分比	-14269
▁河	-14270
卧室	-14271
▁campaigns	-14272
,3	-14273
▁Paragraph	-14274
▁(15	-14275
文化和	-14276
冰箱	-14277
outique	-14278
岁以下	-14279
之间的关系	-14280
▁amendment	-14281
▁exclud	-14282
xts	-14283
土壤	-14284
hetic	-14285
▁hidden	-14286
▁disability	-14287
/60/	-14288
对你	-14289
ZAR	-14290
▁给	-14291
Star	-14292
不安	-14293
eav	-14294
▁logistics	-14295
market	-14296
如果我们	-14297
▁examined	-14298
▁partial	-14299
▁governing	-14300
▁sees	-14301
IST	-14302
▁victory	-14303
细则	-14304
▁Arts	-14305
American	-14306
▁集团	-14307
▁soil	-14308
atre	-14309
练习	-14310
▁recover	-14311
▁Algeria	-14312
ulty	-14313
▁sugar	-14314
IX	-14315
绑架	-14316
▁normally	-14317
▁了	-14318
▁holiday	-14319
委员会和	-14320
▁excited	-14321
知识和	-14322
不仅仅是	-14323
▁drawing	-14324
▁exposed	-14325
先前	-14326
要求的	-14327
色彩	-14328
empts	-14329
员和	-14330
▁Breakfast	-14331
美元的	-14332
▁Wind	-14333
粮农	-14334
特殊的	-14335
chers	-14336
款项	-14337
慢慢	-14338
伊朗伊斯兰共和国	-14339
南方	-14340
icks	-14341
▁runs	-14342
▁oversight	-14343
订阅	-14344
不是一个	-14345
▁Erit	-14346
今日	-14347
▁streets	-14348
故障	-14349
合理的	-14350
▁exhaust	-14351
缓慢	-14352
错误的	-14353
-07	-14354
▁于是	-14355
▁53	-14356
08	-14357
▁Pu	-14358
高专办	-14359
估计数	-14360
▁conting	-14361
卡车	-14362
▁finish	-14363
▁geographical	-14364
丧失	-14365
西洋	-14366
▁本报告	-14367
▁NASA	-14368
De	-14369
防御	-14370
大多	-14371
惯例	-14372
销毁	-14373
angers	-14374
COP	-14375
、“	-14376
欺诈	-14377
使用了	-14378
▁Boliv	-14379
▁fisher	-14380
▁Really	-14381
形态	-14382
via	-14383
▁talked	-14384
▁Sn	-14385
▁gained	-14386
汇编	-14387
▁survival	-14388
免受	-14389
引起的	-14390
:10	-14391
igate	-14392
住宿加早餐旅馆	-14393
▁汽车	-14394
真的很	-14395
法语	-14396
gery	-14397
▁2003.	-14398
和黑塞哥维那	-14399
全力	-14400
城镇	-14401
▁表示	-14402
说什么	-14403
▁cerem	-14404
▁qualified	-14405
:3	-14406
严格的	-14407
▁Lith	-14408
▁swear	-14409
▁studying	-14410
▁Statistics	-14411
▁24-	-14412
▁rational	-14413
▁考虑到	-14414
▁47.	-14415
▁Independent	-14416
UAH	-14417
▁accelerate	-14418
▁description	-14419
▁Color	-14420
在所有	-14421
▁estimate	-14422
▁lawyers	-14423
家长	-14424
因为我们	-14425
可是	-14426
▁Terms	-14427
▁所有的	-14428
▁filed	-14429
uous	-14430
GE	-14431
▁Bob	-14432
▁Encour	-14433
负责任	-14434
▁offence	-14435
真实的	-14436
因为我	-14437
竞赛	-14438
NZD	-14439
▁电子	-14440
免费的	-14441
▁一切	-14442
▁spiritual	-14443
▁pleasure	-14444
探测	-14445
▁Lux	-14446
▁embr	-14447
▁(6	-14448
▁protein	-14449
▁工业	-14450
▁reputation	-14451
night	-14452
▁amendments	-14453
acking	-14454
▁salary	-14455
洗钱	-14456
fall	-14457
▁约翰	-14458
的唯一	-14459
BRL	-14460
▁WEB	-14461
权利和	-14462
▁telephone	-14463
是否有	-14464
▁從	-14465
▁Solutions	-14466
▁Python	-14467
的联合国	-14468
▁organic	-14469
▁surprise	-14470
法定	-14471
含量	-14472
韩民国	-14473
就业机会	-14474
▁看看	-14475
▁corresponding	-14476
SEK	-14477
ambia	-14478
▁dishes	-14479
▁Game	-14480
▁Study	-14481
ester	-14482
火星	-14483
▁系统	-14484
▁Construction	-14485
▁worried	-14486
了该	-14487
▁Lis	-14488
▁portfolio	-14489
招募	-14490
▁AS	-14491
][	-14492
obe	-14493
▁shouldn	-14494
技术合作	-14495
伴侣	-14496
膨胀	-14497
▁imports	-14498
▁56	-14499
▁onto	-14500
捍卫	-14501
▁Registration	-14502
▁clothing	-14503
▁Prince	-14504
愚蠢	-14505
▁initially	-14506
▁causing	-14507
的范围	-14508
▁shipping	-14509
▁Adoption	-14510
专用	-14511
▁remov	-14512
▁Notes	-14513
▁subsequently	-14514
近期	-14515
▁verification	-14516
Or	-14517
bar	-14518
幸的是	-14519
▁48.	-14520
car	-14521
市中心	-14522
using	-14523
ician	-14524
了其	-14525
▁calm	-14526
▁exped	-14527
tw	-14528
▁acid	-14529
▁saving	-14530
▁及	-14531
kin	-14532
▁2019,	-14533
▁Cru	-14534
黎加	-14535
bourg	-14536
SGD	-14537
▁narrow	-14538
▁lasting	-14539
▁萨	-14540
▁特别报告员	-14541
▁Inform	-14542
方面发挥	-14543
▁Rail	-14544
外国人	-14545
毫不	-14546
一开始	-14547
▁desert	-14548
olerance	-14549
▁Cab	-14550
的速度	-14551
冒险	-14552
拨款	-14553
▁publications	-14554
清理	-14555
▁Place	-14556
克拉	-14557
▁Unt	-14558
工作者	-14559
▁stocks	-14560
oriented	-14561
与我们	-14562
▁younger	-14563
黑色	-14564
after	-14565
▁deals	-14566
盈利	-14567
▁smooth	-14568
区分	-14569
的人数	-14570
▁trials	-14571
▁Contract	-14572
棋牌	-14573
▁broke	-14574
▁1960	-14575
和大	-14576
▁58	-14577
aired	-14578
KRW	-14579
将使	-14580
een	-14581
和加强	-14582
▁49.	-14583
▁說	-14584
break	-14585
▁authent	-14586
▁surely	-14587
送到	-14588
▁stone	-14589
▁未	-14590
gl	-14591
的非	-14592
绩效	-14593
▁Freed	-14594
威廉	-14595
之所以	-14596
▁fold	-14597
▁OS	-14598
已经被	-14599
ja	-14600
▁tradition	-14601
▁Forms	-14602
▁convinced	-14603
▁Daily	-14604
NOK	-14605
▁pip	-14606
▁Brown	-14607
▁ment	-14608
▁1988	-14609
▁sixth	-14610
▁rand	-14611
▁2017.	-14612
▁Ram	-14613
▁Haw	-14614
▁这次	-14615
▁我国	-14616
▁Scott	-14617
蓝色	-14618
▁violent	-14619
雇佣	-14620
着手	-14621
▁Kazakhstan	-14622
▁hospitals	-14623
Fr	-14624
全新的	-14625
▁nearby	-14626
▁waters	-14627
▁gentle	-14628
▁operators	-14629
▁10%	-14630
企图	-14631
▁computing	-14632
分摊	-14633
AY	-14634
地震	-14635
▁err	-14636
▁Fifty	-14637
还包括	-14638
式的	-14639
▁Yugoslavia	-14640
▁synt	-14641
▁Between	-14642
▁2011.	-14643
ORE	-14644
CZK	-14645
▁automation	-14646
▁impress	-14647
▁因	-14648
曼谷	-14649
▁empty	-14650
ecurity	-14651
▁Mongol	-14652
acters	-14653
问题和	-14654
▁print	-14655
-23	-14656
▁creates	-14657
▁bathroom	-14658
一无	-14659
▁ending	-14660
竞争对手	-14661
iao	-14662
▁Ecuador	-14663
想要的	-14664
DKK	-14665
▁Compet	-14666
热线	-14667
oston	-14668
潜在的	-14669
▁feedback	-14670
ermination	-14671
inf	-14672
▁nobody	-14673
除其他	-14674
带到	-14675
mad	-14676
ko	-14677
▁passengers	-14678
▁abol	-14679
▁研究人员	-14680
子里	-14681
抱怨	-14682
▁至少	-14683
ORD	-14684
GL	-14685
废除	-14686
mentioned	-14687
▁Jo	-14688
▁們	-14689
年轻的	-14690
▁brothers	-14691
开发者	-14692
▁Qatar	-14693
▁conservation	-14694
上有	-14695
▁stupid	-14696
营业	-14697
补助	-14698
▁toilet	-14699
混乱	-14700
一般事务	-14701
空缺	-14702
▁terrible	-14703
需要在	-14704
▁seats	-14705
立刻	-14706
但他们	-14707
gers	-14708
▁incorporated	-14709
▁button	-14710
▁focuses	-14711
jo	-14712
弱势	-14713
的挑战	-14714
切割	-14715
month	-14716
可能在	-14717
骄傲	-14718
生物多样性	-14719
要做	-14720
民事	-14721
IOS	-14722
▁curric	-14723
▁missed	-14724
▁broadcast	-14725
▁somebody	-14726
▁wanna	-14727
哥斯达	-14728
▁thinks	-14729
可行	-14730
不存在	-14731
▁binding	-14732
企业家	-14733
▁enact	-14734
▁cleaning	-14735
80%	-14736
英格兰	-14737
▁(13	-14738
▁recalled	-14739
seventh	-14740
委员会成员	-14741
▁托	-14742
▁每天	-14743
的方案	-14744
dney	-14745
▁summit	-14746
▁psychological	-14747
匹配	-14748
hat	-14749
▁Dream	-14750
▁explicit	-14751
▁我们必须	-14752
▁有时	-14753
债权	-14754
▁privile	-14755
▁ratio	-14756
▁Level	-14757
sequently	-14758
做出了	-14759
▁新的	-14760
▁convenient	-14761
金钱	-14762
▁equitable	-14763
FS	-14764
ART	-14765
▁indirect	-14766
▁Governing	-14767
的外	-14768
▁注册	-14769
anied	-14770
sixth	-14771
-2015	-14772
Can	-14773
东南亚	-14774
CB	-14775
样子	-14776
▁Assess	-14777
安静	-14778
▁公寓	-14779
强调了	-14780
▁Chairperson	-14781
哥斯达黎加	-14782
▁Guatemala	-14783
▁lowest	-14784
斯里兰卡	-14785
▁tough	-14786
▁AT	-14787
mo	-14788
毫无疑问	-14789
月底	-14790
领先的	-14791
ila	-14792
▁Major	-14793
规格	-14794
▁reply	-14795
▁Plaza	-14796
leep	-14797
都必须	-14798
字符	-14799
▁suicide	-14800
经济发展	-14801
▁elsewhere	-14802
▁accum	-14803
无关	-14804
一体化	-14805
▁Block	-14806
▁MP	-14807
安置	-14808
▁欧盟	-14809
老人	-14810
▁您现在	-14811
下文	-14812
-22	-14813
讲述	-14814
這麼	-14815
▁fol	-14816
消防	-14817
▁depth	-14818
▁extract	-14819
讨论会	-14820
ograp	-14821
的第一个	-14822
聊天	-14823
▁fellow	-14824
花了	-14825
▁Orig	-14826
的过程	-14827
▁Serbia	-14828
▁seeks	-14829
▁Nan	-14830
ali	-14831
是以	-14832
▁inhab	-14833
冲击	-14834
域名	-14835
▁ratified	-14836
▁leaves	-14837
仇恨	-14838
▁proved	-14839
ennial	-14840
▁Jam	-14841
▁sacr	-14842
▁missile	-14843
西部	-14844
▁inher	-14845
▁Modern	-14846
▁加入	-14847
▁Iranian	-14848
无线网络	-14849
留言	-14850
集中在	-14851
制定的	-14852
清洗	-14853
▁pig	-14854
震惊	-14855
zone	-14856
▁Things	-14857
▁endeav	-14858
发动	-14859
国家安全	-14860
月至	-14861
销商	-14862
▁neighbor	-14863
了你	-14864
制定了	-14865
酒精	-14866
▁pull	-14867
UP	-14868
捷克共和国	-14869
▁manual	-14870
设立了	-14871
感情	-14872
的海	-14873
病例	-14874
▁composition	-14875
▁ultimate	-14876
何种	-14877
▁Senate	-14878
▁Pap	-14879
▁Import	-14880
▁transmitted	-14881
▁surrounding	-14882
和中国	-14883
▁inev	-14884
明确的	-14885
瓦尔	-14886
such	-14887
▁breast	-14888
普及	-14889
▁阿拉伯	-14890
巴勒斯坦人民	-14891
演出	-14892
▁Moon	-14893
必須	-14894
▁lunch	-14895
▁2013.	-14896
阿尔及利亚	-14897
冰岛	-14898
bec	-14899
不清楚	-14900
VI	-14901
▁chose	-14902
!」	-14903
▁迪	-14904
▁borrow	-14905
▁ICP	-14906
我们认为	-14907
▁thou	-14908
必然	-14909
▁judgment	-14910
学金	-14911
income	-14912
▁Tian	-14913
▁Navy	-14914
产出	-14915
owder	-14916
▁城市	-14917
▁infection	-14918
的声音	-14919
和实施	-14920
tage	-14921
▁Refugees	-14922
谨慎	-14923
延迟	-14924
▁Avenue	-14925
▁Yemen	-14926
▁studied	-14927
ima	-14928
差别	-14929
这些国家	-14930
▁Pub	-14931
白色	-14932
乐观	-14933
分歧	-14934
减贫	-14935
▁makers	-14936
样本	-14937
和水	-14938
老板	-14939
este	-14940
本人	-14941
可用于	-14942
WS	-14943
接受了	-14944
迫使	-14945
▁hyp	-14946
以帮助	-14947
这些人	-14948
▁特朗普	-14949
这对	-14950
iates	-14951
▁surveillance	-14952
这么做	-14953
▁Bath	-14954
▁helpful	-14955
▁Gar	-14956
rat	-14957
利益攸关方	-14958
▁surprised	-14959
▁dissemination	-14960
存在着	-14961
常见的	-14962
▁handling	-14963
四年	-14964
▁witnesses	-14965
▁Sports	-14966
▁heritage	-14967
开心	-14968
▁boss	-14969
的关于	-14970
▁dust	-14971
▁dissemin	-14972
▁另一方面	-14973
teous	-14974
小岛屿	-14975
改變	-14976
▁union	-14977
面临着	-14978
▁OHCHR	-14979
▁Base	-14980
建筑物	-14981
▁aer	-14982
▁guarantees	-14983
-2003	-14984
提供了一个	-14985
▁Region	-14986
▁discip	-14987
RS	-14988
Android	-14989
udes	-14990
▁stip	-14991
▁reintegration	-14992
▁wave	-14993
无论是	-14994
emed	-14995
cookies	-14996
▁Circ	-14997
截止	-14998
▁Democr	-14999
所得	-15000
和多	-15001
▁anx	-15002
▁莫	-15003
▁条	-15004
▁usual	-15005
▁votes	-15006
▁$3	-15007
的朋友	-15008
▁somewhere	-15009
一套	-15010
▁reserve	-15011
▁substance	-15012
▁smoking	-15013
同时也	-15014
▁disabled	-15015
▁经过	-15016
▁journalists	-15017
你了	-15018
▁pension	-15019
交互	-15020
UCT	-15021
了我们	-15022
问题世界	-15023
WP	-15024
谈谈	-15025
▁最新	-15026
非洲国家	-15027
白俄罗斯	-15028
▁Marketing	-15029
▁Nov	-15030
卡拉	-15031
以促进	-15032
野生	-15033
▁妇女	-15034
人口的	-15035
▁Money	-15036
祝贺	-15037
▁challenging	-15038
▁Brand	-15039
至关重要的	-15040
▁平	-15041
▁luxury	-15042
的人道	-15043
个人信息	-15044
▁Additional	-15045
施加	-15046
▁allocation	-15047
▁Iceland	-15048
ouch	-15049
安德	-15050
▁hide	-15051
▁unilateral	-15052
inity	-15053
aundering	-15054
▁simultane	-15055
▁Tower	-15056
CS	-15057
旁边	-15058
▁Ten	-15059
▁algorith	-15060
▁legally	-15061
incess	-15062
我们希望	-15063
▁meaningful	-15064
▁alarm	-15065
▁Moh	-15066
▁來	-15067
格林	-15068
周五	-15069
▁2002.	-15070
▁51	-15071
▁candidate	-15072
▁east	-15073
代表的	-15074
▁electoral	-15075
工作中	-15076
设在	-15077
eighth	-15078
▁reportedly	-15079
地上	-15080
收费	-15081
▁讓	-15082
▁formulation	-15083
▁tracking	-15084
说服	-15085
▁2000.	-15086
城堡	-15087
▁sending	-15088
▁十	-15089
▁extr	-15090
orney	-15091
实力	-15092
特色	-15093
▁gains	-15094
▁lights	-15095
作战	-15096
▁prohibited	-15097
少数群体	-15098
巴巴	-15099
▁promoted	-15100
▁posted	-15101
▁Stay	-15102
我现在	-15103
▁attempts	-15104
▁文	-15105
▁exchanges	-15106
▁evaluate	-15107
起源	-15108
亚美尼亚	-15109
好吗	-15110
▁coordinate	-15111
ilty	-15112
▁最终	-15113
各位	-15114
的中心	-15115
世贸	-15116
▁balanced	-15117
▁plus	-15118
的地区	-15119
▁radiation	-15120
护照	-15121
isting	-15122
lights	-15123
则是	-15124
▁Bre	-15125
▁emotional	-15126
▁Comprehensive	-15127
▁complaint	-15128
船只	-15129
将对	-15130
些什么	-15131
▁2014.	-15132
很大程度上	-15133
▁Prosecutor	-15134
def	-15135
▁assembly	-15136
手中	-15137
我们正在	-15138
▁Beaut	-15139
space	-15140
▁59	-15141
▁科学	-15142
▁Little	-15143
charge	-15144
▁51.	-15145
▁tired	-15146
▁manufacture	-15147
起了	-15148
▁Integrated	-15149
▁Il	-15150
▁prayer	-15151
人人	-15152
▁reserves	-15153
▁obviously	-15154
现状	-15155
▁swe	-15156
直升	-15157
的存在	-15158
uates	-15159
▁addresses	-15160
▁Phys	-15161
▁Cookies	-15162
▁thematic	-15163
▁harass	-15164
▁detection	-15165
职权	-15166
二氧化碳	-15167
▁Proced	-15168
提取	-15169
里程	-15170
▁ride	-15171
▁Operation	-15172
▁Calls	-15173
的必要	-15174
同一个	-15175
坦桑	-15176
▁你能	-15177
▁capture	-15178
浪漫	-15179
的组织	-15180
认知	-15181
幼儿	-15182
ught	-15183
▁李	-15184
▁Decade	-15185
为我们	-15186
對於	-15187
▁$1	-15188
▁organisations	-15189
重大的	-15190
宏观	-15191
是美国	-15192
▁110	-15193
ports	-15194
RP	-15195
▁guaranteed	-15196
此外	-15197
▁alt	-15198
▁Lebanese	-15199
旅舍	-15200
村庄	-15201
或有	-15202
▁entertainment	-15203
▁vend	-15204
▁composed	-15205
取得进展	-15206
▁Weather	-15207
积极参与	-15208
不对	-15209
▁八	-15210
疼痛	-15211
▁birthday	-15212
▁complicated	-15213
▁interact	-15214
▁组织	-15215
▁sections	-15216
福尼亚	-15217
▁kiss	-15218
▁ends	-15219
引用	-15220
▁Joseph	-15221
斯塔	-15222
100%	-15223
▁Ib	-15224
▁camps	-15225
▁Task	-15226
终端	-15227
ogen	-15228
米尼	-15229
脱离	-15230
的质量	-15231
队伍	-15232
▁maxim	-15233
规约	-15234
▁Cla	-15235
EDAW	-15236
多人	-15237
▁connections	-15238
▁Jun	-15239
comp	-15240
安全理事会主席	-15241
▁科技	-15242
▁dogs	-15243
午餐	-15244
实在	-15245
HRC	-15246
旧金山	-15247
在这一	-15248
▁Supplement	-15249
公务员	-15250
在哪	-15251
▁Deep	-15252
▁invitation	-15253
士顿	-15254
▁4*	-15255
hester	-15256
▁hunger	-15257
信用卡	-15258
数字化	-15259
侧重	-15260
调节	-15261
▁85	-15262
哥哥	-15263
▁cart	-15264
宝宝	-15265
▁hazard	-15266
▁Wang	-15267
▁Henry	-15268
成千	-15269
▁marry	-15270
▁audio	-15271
hol	-15272
▁Sydney	-15273
量子	-15274
坚决	-15275
交谈	-15276
▁Consid	-15277
▁Olympic	-15278
▁好了	-15279
:《	-15280
建议的	-15281
▁adaptation	-15282
HD	-15283
paragraph	-15284
▁flying	-15285
▁Night	-15286
ennis	-15287
可怕的	-15288
▁Occup	-15289
纺织	-15290
▁Box	-15291
advant	-15292
-14	-15293
第九	-15294
和教育	-15295
flix	-15296
ninth	-15297
家园	-15298
沿海	-15299
▁continent	-15300
▁fre	-15301
▁每个人	-15302
▁commissions	-15303
▁prime	-15304
iano	-15305
xide	-15306
表现出	-15307
被捕	-15308
语音	-15309
已经开始	-15310
有些人	-15311
Co	-15312
▁YouTube	-15313
塞罗	-15314
机器学习	-15315
RE	-15316
夏季	-15317
▁characters	-15318
Wi	-15319
的人民	-15320
叙利亚共和国	-15321
▁Learn	-15322
▁western	-15323
不喜欢	-15324
▁GM	-15325
高中	-15326
stone	-15327
cons	-15328
纠正	-15329
直播	-15330
▁professor	-15331
字母	-15332
▁grade	-15333
▁lady	-15334
违反了	-15335
▁presents	-15336
▁reconstruction	-15337
▁tail	-15338
总值	-15339
▁(14	-15340
定了	-15341
▁Tanz	-15342
▁Defense	-15343
受到了	-15344
()	-15345
生活方式	-15346
ecute	-15347
▁Louis	-15348
▁signature	-15349
微笑	-15350
▁interactive	-15351
▁facilitating	-15352
▁Mand	-15353
▁acknowledged	-15354
▁做	-15355
电缆	-15356
▁roads	-15357
施工	-15358
旅客	-15359
大力	-15360
填写	-15361
提高了	-15362
specific	-15363
▁attractive	-15364
少数民族	-15365
积累	-15366
▁therapy	-15367
▁Spa	-15368
设立一个	-15369
保密	-15370
▁fert	-15371
▁Rica	-15372
inals	-15373
▁Prior	-15374
MW	-15375
提供援助	-15376
athered	-15377
奥运	-15378
▁下载	-15379
▁Nevertheless	-15380
▁Village	-15381
东道	-15382
▁weakness	-15383
▁Golden	-15384
▁concluding	-15385
开设	-15386
遭遇	-15387
kh	-15388
▁anyway	-15389
▁withdrawal	-15390
▁Sciences	-15391
Cont	-15392
▁什麼	-15393
达到了	-15394
▁situated	-15395
▁Harry	-15396
▁publicly	-15397
赢得了	-15398
▁constraints	-15399
▁vulnerability	-15400
无核武器	-15401
坦桑尼亚	-15402
三分之一	-15403
▁perce	-15404
▁conformity	-15405
▁Econom	-15406
球场	-15407
▁restore	-15408
节能	-15409
▁comparison	-15410
▁雅	-15411
应付	-15412
elect	-15413
的威胁	-15414
的讨论	-15415
▁tariffs	-15416
故意	-15417
▁产品中心	-15418
▁15,	-15419
asant	-15420
west	-15421
诞生	-15422
小孩	-15423
教徒	-15424
ophob	-15425
度假村	-15426
中海	-15427
其中的	-15428
Car	-15429
率为	-15430
ilton	-15431
分钟的步行	-15432
▁prosecution	-15433
地带	-15434
场比赛	-15435
▁Alban	-15436
他们将	-15437
"。	-15438
提供支持	-15439
联合国各	-15440
地球上	-15441
实现了	-15442
▁motion	-15443
和方案	-15444
过于	-15445
或不	-15446
塞内	-15447
▁50%	-15448
走势图	-15449
很可能	-15450
抑制	-15451
政府在	-15452
▁1.5	-15453
在我的	-15454
she	-15455
▁Noting	-15456
enders	-15457
▁argument	-15458
/1	-15459
enger	-15460
▁applying	-15461
外面	-15462
▁enormous	-15463
Well	-15464
世界各地的	-15465
Mar	-15466
▁listening	-15467
剩余	-15468
▁SD	-15469
中小	-15470
听起来	-15471
ighteous	-15472
削弱	-15473
▁Try	-15474
▁Boston	-15475
价值的	-15476
核可	-15477
/2003/	-15478
▁Grow	-15479
▁gotta	-15480
raising	-15481
▁editor	-15482
▁eradication	-15483
也不能	-15484
▁explains	-15485
得很	-15486
明显的	-15487
职等	-15488
▁vice	-15489
▁Nature	-15490
水和	-15491
▁2001.	-15492
▁threatened	-15493
宣称	-15494
米尔	-15495
▁Bot	-15496
乐队	-15497
連絡	-15498
▁loan	-15499
▁prev	-15500
立陶	-15501
▁Fig	-15502
▁NOT	-15503
▁plate	-15504
他们对	-15505
抵抗	-15506
处的	-15507
▁Carl	-15508
▁memor	-15509
▁3:	-15510
▁dependent	-15511
▁52.	-15512
▁我相信	-15513
肌肉	-15514
▁浏览	-15515
▁10,000	-15516
asy	-15517
都需要	-15518
▁cultures	-15519
▁另一个	-15520
▁carrier	-15521
Yes	-15522
▁摩	-15523
▁detained	-15524
漏洞	-15525
立陶宛	-15526
'.	-15527
▁producers	-15528
经济的	-15529
through	-15530
▁bab	-15531
此前	-15532
月球	-15533
面包	-15534
大道	-15535
白宫	-15536
▁决议草案	-15537
也被	-15538
付出	-15539
▁emerg	-15540
澳洲	-15541
▁tum	-15542
▁mankind	-15543
成千上	-15544
▁后	-15545
這是	-15546
Secret	-15547
▁laboratory	-15548
90%	-15549
▁recru	-15550
作物	-15551
▁allocated	-15552
▁terrorists	-15553
▁Less	-15554
▁wearing	-15555
一點	-15556
▁2019.	-15557
▁adjustment	-15558
此次	-15559
▁Ol	-15560
▁我们认为	-15561
波动	-15562
▁accuracy	-15563
鼓舞	-15564
权和	-15565
xi	-15566
認為	-15567
CI	-15568
大气	-15569
stant	-15570
▁bench	-15571
▁上午	-15572
半年	-15573
前南斯拉夫	-15574
揭示	-15575
东部	-15576
:+86	-15577
▁licens	-15578
见了	-15579
薪金	-15580
电梯	-15581
一周	-15582
属性	-15583
结束后	-15584
在纽约	-15585
奖项	-15586
强劲	-15587
▁robot	-15588
合适的	-15589
悉尼	-15590
▁constructive	-15591
古老的	-15592
▁giant	-15593
▁inject	-15594
▁interim	-15595
izon	-15596
long	-15597
▁NEW	-15598
有用	-15599
▁monetary	-15600
德拉	-15601
oked	-15602
界面	-15603
選擇	-15604
▁点击	-15605
ivate	-15606
死于	-15607
尔摩	-15608
權利	-15609
最为	-15610
统计数据	-15611
背景下	-15612
▁ca	-15613
▁duration	-15614
▁hung	-15615
与合作	-15616
▁frame	-15617
所述期间	-15618
▁swimming	-15619
了这个	-15620
屠杀	-15621
▁Run	-15622
和分析	-15623
▁Analysis	-15624
戏剧	-15625
▁liberty	-15626
拉丁美洲和加勒比	-15627
▁devoted	-15628
受访者	-15629
▁還	-15630
支撑	-15631
▁servers	-15632
简要	-15633
直至	-15634
幸存	-15635
▁proven	-15636
ui	-15637
▁restaurants	-15638
.8	-15639
▁fan	-15640
▁typical	-15641
的教育	-15642
▁Hun	-15643
▁Coast	-15644
▁insuff	-15645
发现的	-15646
▁红	-15647
▁automotive	-15648
周一	-15649
有多少	-15650
关系的	-15651
▁requiring	-15652
▁Due	-15653
影响力	-15654
rations	-15655
预防犯罪和	-15656
▁profits	-15657
▁unw	-15658
▁泰	-15659
▁roughly	-15660
▁在这里	-15661
adequ	-15662
▁navigation	-15663
hus	-15664
你自己	-15665
oting	-15666
▁grat	-15667
▁parameters	-15668
老年人	-15669
▁Steel	-15670
▁隐私	-15671
▁households	-15672
▁cyber	-15673
锈钢	-15674
▁53.	-15675
(2)	-15676
生产和	-15677
▁墨西哥	-15678
税务	-15679
我相信	-15680
▁Bag	-15681
采取的措施	-15682
▁信息	-15683
▁Pres	-15684
▁protest	-15685
▁Abd	-15686
inces	-15687
elona	-15688
▁Basic	-15689
根源	-15690
osm	-15691
▁委员会建议	-15692
▁replacement	-15693
克里斯	-15694
▁everyday	-15695
ela	-15696
▁Dutch	-15697
▁Bulgaria	-15698
造成了	-15699
▁99	-15700
determination	-15701
AND	-15702
▁visiting	-15703
▁Dubai	-15704
增长的	-15705
▁heavily	-15706
▁wage	-15707
中使用	-15708
:"	-15709
▁索	-15710
▁turns	-15711
萨尔瓦	-15712
▁regarded	-15713
/10	-15714
3]	-15715
▁AG	-15716
▁declined	-15717
今年的	-15718
▁van	-15719
▁lists	-15720
认定	-15721
可靠的	-15722
对方	-15723
提起	-15724
▁liked	-15725
系统和	-15726
▁affordable	-15727
▁mines	-15728
▁associations	-15729
下跌	-15730
▁writer	-15731
这方面的	-15732
▁Turn	-15733
▁newspaper	-15734
很好的位置	-15735
▁Senior	-15736
灵活性	-15737
▁联合	-15738
▁copies	-15739
▁(9	-15740
▁Walk	-15741
▁现	-15742
炸弹	-15743
run	-15744
osa	-15745
▁建立	-15746
▁measurement	-15747
▁fault	-15748
▁出	-15749
▁affects	-15750
▁rape	-15751
最高的	-15752
温室气体	-15753
▁inventory	-15754
▁Prize	-15755
▁Treatment	-15756
▁limitations	-15757
的一天	-15758
分辨	-15759
owed	-15760
提供一个	-15761
▁extraordinary	-15762
水平的	-15763
休闲	-15764
计划在	-15765
from	-15766
▁likes	-15767
▁laser	-15768
▁childhood	-15769
文尼亚	-15770
时报	-15771
holder	-15772
▁cust	-15773
▁commonly	-15774
采取的行动	-15775
▁Click	-15776
本来	-15777
▁autonomous	-15778
专辑	-15779
粮农组织	-15780
怎么办	-15781
▁Madrid	-15782
vin	-15783
电机	-15784
edy	-15785
神圣	-15786
▁films	-15787
人居	-15788
▁mechanical	-15789
▁exploration	-15790
lims	-15791
崇拜	-15792
cut	-15793
参议院	-15794
▁这不是	-15795
▁Guard	-15796
经济和	-15797
0)	-15798
万美元的	-15799
筹集	-15800
++	-15801
巴尼亚	-15802
▁PDF	-15803
▁Core	-15804
▁希	-15805
anged	-15806
uros	-15807
▁rental	-15808
▁naturally	-15809
并将其	-15810
▁visible	-15811
转移到	-15812
▁discovery	-15813
▁basically	-15814
很高	-15815
▁robots	-15816
▁Question	-15817
▁先生	-15818
东京	-15819
▁till	-15820
Twitter	-15821
困境	-15822
你应该	-15823
▁Chen	-15824
救援	-15825
dis	-15826
▁repeatedly	-15827
Qu	-15828
gage	-15829
',	-15830
▁underlying	-15831
▁18,	-15832
van	-15833
▁Xin	-15834
mine	-15835
▁sensors	-15836
bul	-15837
告诉他	-15838
示威	-15839
在某些	-15840
▁council	-15841
▁Wu	-15842
▁花	-15843
是如此	-15844
reced	-15845
年起	-15846
现在的	-15847
iah	-15848
▁Adam	-15849
organiz	-15850
钢铁	-15851
它可以	-15852
-25	-15853
▁importantly	-15854
▁ast	-15855
terrorism	-15856
▁Trad	-15857
▁Bridge	-15858
▁PM	-15859
▁小组	-15860
▁truck	-15861
▁那个	-15862
麻醉	-15863
崩溃	-15864
▁profound	-15865
▁Solar	-15866
变量	-15867
▁urge	-15868
▁recognizes	-15869
女子	-15870
适用的	-15871
元首	-15872
▁Palestinians	-15873
▁IAEA	-15874
召集	-15875
人道主义援助	-15876
残忍	-15877
种子	-15878
▁angry	-15879
舞蹈	-15880
自决	-15881
▁acceptable	-15882
▁formation	-15883
峰会	-15884
,000.	-15885
拿马	-15886
▁区域	-15887
▁特别是	-15888
▁雷	-15889
▁54.	-15890
酒店在	-15891
▁Zhejiang	-15892
年度报告	-15893
▁Views	-15894
LS	-15895
外交部长	-15896
ocide	-15897
rovers	-15898
可持续性	-15899
消灭	-15900
iterr	-15901
放射	-15902
▁opposed	-15903
▁hall	-15904
收取	-15905
实用	-15906
森堡	-15907
rov	-15908
成效	-15909
▁freely	-15910
▁TEL	-15911
▁Self	-15912
的最高	-15913
▁Subcommittee	-15914
▁fabric	-15915
者在	-15916
一段	-15917
▁Stan	-15918
邻国	-15919
▁signing	-15920
▁hab	-15921
的总	-15922
这是一	-15923
时间和	-15924
ATO	-15925
▁跟	-15926
行政和预算	-15927
經濟	-15928
游泳池	-15929
原理	-15930
▁permission	-15931
▁photograph	-15932
▁ru	-15933
▁您现在的位置	-15934
▁organize	-15935
OPS	-15936
ONG	-15937
无疑	-15938
年到	-15939
recedented	-15940
▁tank	-15941
核裁军	-15942
当我们	-15943
蔬菜	-15944
▁foster	-15945
▁(7	-15946
确定的	-15947
▁winning	-15948
zing	-15949
改为	-15950
▁magic	-15951
一人	-15952
▁investing	-15953
▁Alp	-15954
将有	-15955
cription	-15956
oup	-15957
▁prospects	-15958
▁campus	-15959
▁55.	-15960
▁phr	-15961
结束了	-15962
天空	-15963
合成	-15964
itiveness	-15965
报告说	-15966
年内	-15967
▁Sav	-15968
▁Materials	-15969
,,	-15970
▁Counter	-15971
一定会	-15972
▁九	-15973
acco	-15974
▁Mir	-15975
▁thy	-15976
5000	-15977
奇迹	-15978
kes	-15979
erver	-15980
一支	-15981
乡村	-15982
异常	-15983
设计和	-15984
我和	-15985
进展情况	-15986
个小时	-15987
▁epid	-15988
enegal	-15989
▁immune	-15990
长度	-15991
▁除非	-15992
07	-15993
Oh	-15994
grat	-15995
outheast	-15996
新鲜	-15997
维生素	-15998
您同意	-15999
▁$2	-16000
▁利	-16001
您在	-16002
▁专家	-16003
疗法	-16004
▁一位	-16005
riminatory	-16006
▁Learning	-16007
▁eligible	-16008
▁confidential	-16009
并使	-16010
ami	-16011
入学	-16012
违背	-16013
urrent	-16014
apse	-16015
cul	-16016
▁drafting	-16017
▁enjoyed	-16018
的人道主义	-16019
清楚地	-16020
解释说	-16021
▁(16	-16022
橡胶	-16023
伯格	-16024
负债	-16025
eller	-16026
▁plenty	-16027
▁layer	-16028
对外	-16029
王子	-16030
入境	-16031
▁换	-16032
▁prejud	-16033
▁sample	-16034
自然灾害	-16035
▁1986	-16036
▁settlements	-16037
-24	-16038
▁zones	-16039
列为	-16040
power	-16041
社会和文化	-16042
▁doors	-16043
衰退	-16044
卖淫	-16045
rolled	-16046
plan	-16047
▁Mold	-16048
Eng	-16049
更多地	-16050
▁fant	-16051
▁Want	-16052
▁Radio	-16053
▁branch	-16054
▁Boutique	-16055
迁移	-16056
▁suit	-16057
aco	-16058
▁Final	-16059
定期报告	-16060
▁Gallery	-16061
感激	-16062
▁west	-16063
06	-16064
▁保护	-16065
抑郁	-16066
▁hole	-16067
iterrane	-16068
才会	-16069
▁gathered	-16070
名额	-16071
igare	-16072
▁mistakes	-16073
邻居	-16074
▁conducting	-16075
德斯	-16076
的不同	-16077
将由	-16078
波斯尼亚和黑塞哥维那	-16079
El	-16080
迷你	-16081
给他们	-16082
▁lamp	-16083
特别委员会	-16084
▁arrive	-16085
▁mineral	-16086
复合	-16087
artial	-16088
AA	-16089
履行其	-16090
addy	-16091
▁mixed	-16092
进去	-16093
▁stick	-16094
ht	-16095
▁occas	-16096
和中	-16097
▁bread	-16098
邪恶	-16099
▁Ident	-16100
▁Tes	-16101
▁smile	-16102
▁如果我们	-16103
体重	-16104
商定的	-16105
医药	-16106
损坏	-16107
塞内加尔	-16108
▁meals	-16109
化合物	-16110
▁bottle	-16111
print	-16112
迈克尔	-16113
▁guilty	-16114
货币基金	-16115
▁usage	-16116
债券	-16117
这方面	-16118
被拘留	-16119
的用户	-16120
预防和	-16121
▁Florida	-16122
▁disadvant	-16123
以满足	-16124
▁score	-16125
aH	-16126
▁magazine	-16127
ussels	-16128
▁thick	-16129
▁Clean	-16130
陌生	-16131
Man	-16132
▁Tanzania	-16133
▁Communication	-16134
▁Lithuan	-16135
ership	-16136
玻利维亚	-16137
财务报表	-16138
尸体	-16139
雷斯	-16140
▁wise	-16141
备选	-16142
多项	-16143
CONF	-16144
温暖	-16145
看不	-16146
浴缸	-16147
排放量	-16148
发言者	-16149
▁注	-16150
inem	-16151
活动和	-16152
」,	-16153
封信	-16154
各种各样的	-16155
的成功	-16156
▁20,	-16157
▁各国	-16158
▁Mid	-16159
了许多	-16160
酋长	-16161
Me	-16162
勇气	-16163
▁Hope	-16164
▁Santa	-16165
处境	-16166
▁我喜欢	-16167
▁预计	-16168
是一個	-16169
▁sanitation	-16170
▁Share	-16171
▁ages	-16172
非正式协商	-16173
长达	-16174
▁\	-16175
同情	-16176
也门	-16177
▁opinions	-16178
利尔	-16179
▁suggestions	-16180
▁gaps	-16181
▁dies	-16182
▁我们还	-16183
▁(12	-16184
上文第	-16185
uum	-16186
▁Catholic	-16187
正当	-16188
Pe	-16189
▁尼	-16190
▁commodity	-16191
雇用	-16192
▁超	-16193
该区域	-16194
▁purchased	-16195
▁Ult	-16196
▁violated	-16197
▁nationals	-16198
开源	-16199
rix	-16200
ho	-16201
提供服务	-16202
▁Mah	-16203
处决	-16204
▁drinks	-16205
复活	-16206
公司在	-16207
bet	-16208
ERS	-16209
的会议	-16210
▁edge	-16211
▁FAO	-16212
审评	-16213
追溯	-16214
列出	-16215
卡尔	-16216
▁Salvador	-16217
▁游戏	-16218
性武器	-16219
我不能	-16220
延伸	-16221
见证	-16222
▁我们可以	-16223
ivated	-16224
▁Angola	-16225
种类	-16226
它会	-16227
保加利亚	-16228
▁Death	-16229
▁supervision	-16230
▁prosperity	-16231
AX	-16232
开发的	-16233
▁早	-16234
毕业生	-16235
瀏覽	-16236
无线电	-16237
这座	-16238
乌拉圭	-16239
环境署	-16240
▁Eritrea	-16241
echnology	-16242
捐助者	-16243
▁88	-16244
印发	-16245
▁Analy	-16246
▁Prepar	-16247
指定的	-16248
被占领	-16249
看待	-16250
▁flights	-16251
”;	-16252
大西洋	-16253
DCs	-16254
▁opposite	-16255
第八	-16256
姐妹	-16257
▁Tech	-16258
含义	-16259
涉及到	-16260
容器	-16261
▁voc	-16262
偿还	-16263
ECD	-16264
培训和	-16265
是根据	-16266
▁reiterated	-16267
▁价格	-16268
30%	-16269
▁mountains	-16270
倾向于	-16271
ocket	-16272
bound	-16273
roph	-16274
监督厅	-16275
别的	-16276
ulous	-16277
▁Join	-16278
增加到	-16279
有罪	-16280
▁insufficient	-16281
▁(17	-16282
▁inspired	-16283
▁significance	-16284
的业务	-16285
-2013	-16286
路径	-16287
kok	-16288
▁enabled	-16289
▁difficulty	-16290
▁anybody	-16291
变得更加	-16292
erate	-16293
▁1997,	-16294
:2	-16295
委托	-16296
分析和	-16297
社会主义	-16298
▁Flo	-16299
目标的	-16300
▁remem	-16301
▁disrupt	-16302
Dec	-16303
▁colors	-16304
ctic	-16305
▁string	-16306
成员的	-16307
▁arrival	-16308
▁vessels	-16309
粉丝	-16310
已经成为	-16311
▁committees	-16312
风景	-16313
▁coach	-16314
哈萨克斯坦	-16315
工作和	-16316
▁regards	-16317
uis	-16318
▁scr	-16319
诚实	-16320
eras	-16321
,5	-16322
开始了	-16323
明智	-16324
otyp	-16325
▁congrat	-16326
克力	-16327
之路	-16328
iodiversity	-16329
▁Rom	-16330
▁Tob	-16331
▁extrad	-16332
idity	-16333
的定义	-16334
▁¥	-16335
▁Sky	-16336
缩小	-16337
▁mad	-16338
commerce	-16339
▁当我	-16340
▁acquire	-16341
▁disposal	-16342
日举行	-16343
▁satisfied	-16344
开发人员	-16345
▁iPad	-16346
FO	-16347
▁derived	-16348
勇敢	-16349
UV	-16350
▁lucky	-16351
▁sponsors	-16352
▁respected	-16353
▁Until	-16354
front	-16355
所未	-16356
/2004/	-16357
uters	-16358
▁flowers	-16359
effective	-16360
350	-16361
3000	-16362
▁Need	-16363
▁沃	-16364
▁工程	-16365
▁Bh	-16366
▁hasn	-16367
我们应该	-16368
▁Norm	-16369
更具	-16370
Every	-16371
▁admitted	-16372
▁troop	-16373
spoke	-16374
▁HTML	-16375
▁smoke	-16376
▁梅	-16377
征聘	-16378
▁toxic	-16379
▁eastern	-16380
▁Bush	-16381
干净	-16382
奖学金	-16383
作為	-16384
▁HT	-16385
程序的	-16386
▁dele	-16387
压缩	-16388
▁awards	-16389
从中	-16390
▁diabetes	-16391
/2006/	-16392
▁Insurance	-16393
执行主任	-16394
的马	-16395
▁outlined	-16396
提案国	-16397
卡塔尔	-16398
▁mainstreaming	-16399
▁parallel	-16400
lements	-16401
在你的	-16402
▁subprogramme	-16403
▁nutrition	-16404
▁advocacy	-16405
▁auto	-16406
[1]	-16407
▁module	-16408
数以	-16409
▁Reports	-16410
▁视频	-16411
ati	-16412
▁portion	-16413
proof	-16414
发生了什么	-16415
taining	-16416
▁了解	-16417
禁令	-16418
平面	-16419
kins	-16420
萨尔瓦多	-16421
凭借	-16422
副秘书长	-16423
40%	-16424
▁User	-16425
▁它还	-16426
ologist	-16427
▁Similarly	-16428
的自由	-16429
▁aluminum	-16430
绝大多数	-16431
部电影	-16432
▁painting	-16433
there	-16434
03	-16435
▁Scot	-16436
▁signals	-16437
▁dating	-16438
报道称	-16439
把你	-16440
里达	-16441
▁56.	-16442
iterranean	-16443
▁Size	-16444
安哥拉	-16445
▁funny	-16446
旋转	-16447
牙买	-16448
穿着	-16449
大厦	-16450
bek	-16451
▁Xi	-16452
干旱	-16453
吹风	-16454
cor	-16455
成千上万	-16456
▁Additionally	-16457
▁degrad	-16458
▁fired	-16459
▁pending	-16460
并鼓励	-16461
▁celebrate	-16462
了这些	-16463
专业的	-16464
?’	-16465
▁达	-16466
▁Sloven	-16467
▁我就	-16468
資訊	-16469
▁mail	-16470
问题特别报告员	-16471
:4	-16472
玩笑	-16473
uct	-16474
▁Ban	-16475
▁teen	-16476
进化	-16477
▁shooting	-16478
▁ath	-16479
以支持	-16480
来自于	-16481
强的	-16482
▁wal	-16483
▁Slovak	-16484
研究中心	-16485
▁cup	-16486
▁forgotten	-16487
▁FOR	-16488
▁设计	-16489
▁20%	-16490
冬季	-16491
▁》	-16492
卢森堡	-16493
设立的	-16494
ulum	-16495
▁Manufacturing	-16496
▁vib	-16497
▁fiber	-16498
▁upgrade	-16499
科研	-16500
▁Gab	-16501
▁feas	-16502
▁Index	-16503
经常预算	-16504
▁$10	-16505
▁Dj	-16506
▁employers	-16507
菜单	-16508
▁MIN	-16509
▁我们希望	-16510
▁unprecedented	-16511
纪律	-16512
▁史	-16513
:5	-16514
爱好	-16515
▁Brother	-16516
户外	-16517
牙买加	-16518
▁审查	-16519
▁unus	-16520
▁Factory	-16521
▁360	-16522
▁Barcelona	-16523
▁Commerce	-16524
亨利	-16525
continued	-16526
▁Armenia	-16527
oints	-16528
▁solidarity	-16529
got	-16530
除其他外	-16531
色情	-16532
▁我说	-16533
▁Marine	-16534
▁closing	-16535
▁dealt	-16536
▁Atlantic	-16537
耶穌	-16538
以来的	-16539
一座	-16540
▁innocent	-16541
为什么要	-16542
▁spokes	-16543
干燥	-16544
▁concentration	-16545
一些人	-16546
暗示	-16547
内陆	-16548
name	-16549
▁Intelligence	-16550
azz	-16551
错了	-16552
▁forests	-16553
配偶	-16554
▁smell	-16555
▁complainant	-16556
耳他	-16557
▁您可以	-16558
代替	-16559
双重	-16560
加大	-16561
▁continuously	-16562
▁Defence	-16563
▁migrant	-16564
▁Mike	-16565
unes	-16566
▁advances	-16567
▁Dur	-16568
具体的	-16569
之一是	-16570
▁islands	-16571
▁fate	-16572
item	-16573
美的	-16574
▁Medicine	-16575
规定了	-16576
制药	-16577
▁Film	-16578
不知	-16579
两者	-16580
▁elderly	-16581
▁immigrants	-16582
水果	-16583
▁Pot	-16584
为您提供	-16585
我们也	-16586
ERY	-16587
▁21,	-16588
Pacific	-16589
▁2016.	-16590
▁observer	-16591
▁batteries	-16592
他被	-16593
▁adds	-16594
并不意味着	-16595
itudes	-16596
▁returning	-16597
,(	-16598
罗毕	-16599
▁noticed	-16600
塞罗那	-16601
ologists	-16602
一切都	-16603
▁hoc	-16604
向你	-16605
冻结	-16606
▁1989	-16607
DE	-16608
▁没有人	-16609
embourg	-16610
▁Hit	-16611
▁Listen	-16612
123	-16613
outs	-16614
联合国的	-16615
urt	-16616
道歉	-16617
比率	-16618
▁Email	-16619
▁therm	-16620
并且在	-16621
将与	-16622
精彩	-16623
▁conj	-16624
吸引力	-16625
掉了	-16626
ceans	-16627
锻炼	-16628
有责任	-16629
上周	-16630
和相关	-16631
ycle	-16632
reach	-16633
▁empowerment	-16634
国际机场	-16635
▁先	-16636
▁coastal	-16637
祝福	-16638
weg	-16639
我们是	-16640
▁resolved	-16641
▁塔	-16642
军备	-16643
点的	-16644
▁欧	-16645
▁deny	-16646
两项	-16647
▁EX	-16648
▁spaces	-16649
和新	-16650
和促进	-16651
湿度	-16652
olly	-16653
.9/	-16654
FL	-16655
▁occurs	-16656
▁album	-16657
▁UNO	-16658
▁2.0	-16659
支持的	-16660
权限	-16661
sing	-16662
▁inadequ	-16663
结束时	-16664
▁°	-16665
之上	-16666
爱你	-16667
音频	-16668
▁NO	-16669
▁Freedom	-16670
信息和通信技术	-16671
▁interpre	-16672
▁molec	-16673
rac	-16674
▁Representatives	-16675
▁robust	-16676
▁marginal	-16677
▁沙	-16678
▁safeguards	-16679
爵士	-16680
▁正在	-16681
他就	-16682
▁wars	-16683
ruguay	-16684
白人	-16685
來說	-16686
黑客	-16687
資料	-16688
aso	-16689
和有	-16690
能力的	-16691
▁assisting	-16692
▁walked	-16693
干什么	-16694
千万	-16695
公认	-16696
另有	-16697
uda	-16698
▁Maced	-16699
▁permitted	-16700
▁16,	-16701
克林	-16702
▁请秘书长	-16703
▁86	-16704
填补	-16705
不列颠及	-16706
等于	-16707
六个	-16708
iev	-16709
依赖于	-16710
urd	-16711
申诉人	-16712
Part	-16713
▁earthqu	-16714
所说	-16715
▁mathemat	-16716
控制的	-16717
置于	-16718
社会发展	-16719
基本自由	-16720
向委员会	-16721
andong	-16722
1(	-16723
09	-16724
▁3.5	-16725
▁Rio	-16726
风暴	-16727
▁Tunisia	-16728
conn	-16729
也可	-16730
的全	-16731
▁仅	-16732
年里	-16733
▁应该	-16734
onto	-16735
pers	-16736
夜晚	-16737
▁outdoor	-16738
盟友	-16739
▁Chall	-16740
生产线	-16741
▁announcement	-16742
▁Les	-16743
有趣的	-16744
ollar	-16745
▁调查	-16746
▁remedies	-16747
▁syn	-16748
▁Living	-16749
▁maritime	-16750
▁Early	-16751
拖延	-16752
▁globe	-16753
其顿	-16754
折扣	-16755
▁Glass	-16756
以便在	-16757
▁fu	-16758
▁weren	-16759
▁contacts	-16760
Press	-16761
▁Urban	-16762
展现	-16763
公共部门	-16764
▁求	-16765
Secretary	-16766
的保护	-16767
付费	-16768
经委会	-16769
▁conclude	-16770
的大部分	-16771
▁Steve	-16772
实例	-16773
▁Daniel	-16774
▁Hoc	-16775
ruck	-16776
▁preserve	-16777
▁Donald	-16778
ivery	-16779
合约	-16780
Script	-16781
护士	-16782
将有助于	-16783
▁Emergency	-16784
▁Ford	-16785
消极	-16786
▁integral	-16787
▁Related	-16788
▁essentially	-16789
会谈	-16790
▁Han	-16791
▁Senegal	-16792
不列颠及北爱尔兰	-16793
▁modified	-16794
▁教	-16795
[...]
