<unk>	0
<s>	0
</s>	0
▁the	-2.88931
,	-3.20224
.	-3.21614
▁of	-3.59254
▁and	-3.6518
▁to	-3.66766
▁in	-4.05642
▁a	-4.07361
s	-4.52036
▁is	-4.60185
▁for	-4.72349
▁that	-4.7265
'	-4.74909
▁you	-4.88011
-	-4.92535
▁on	-5.07653
▁with	-5.17097
▁it	-5.17468
▁be	-5.18909
▁	-5.19392
▁are	-5.26821
▁i	-5.28716
▁as	-5.31049
▁this	-5.41266
▁or	-5.49618
▁by	-5.5371
▁have	-5.62012
▁not	-5.65565
▁can	-5.66131
▁from	-5.73949
▁an	-5.77962
▁we	-5.78511
▁your	-5.79951
▁will	-5.81902
▁was	-5.82105
▁at	-5.8243
?	-5.86032
▁(	-5.91352
▁has	-5.94875
▁all	-6.05266
:	-6.07032
t	-6.1227
▁if	-6.15281
▁he	-6.16896
▁but	-6.19013
)	-6.20259
▁"	-6.20474
▁which	-6.21123
▁their	-6.2148
▁they	-6.25356
▁more	-6.26475
▁also	-6.32393
▁one	-6.35671
▁its	-6.3807
▁other	-6.39976
▁been	-6.45474
▁our	-6.46079
▁there	-6.48909
▁new	-6.49003
▁do	-6.49248
▁when	-6.5064
▁so	-6.55083
▁time	-6.56834
▁what	-6.57032
▁my	-6.63718
▁had	-6.65329
▁were	-6.65518
▁would	-6.65844
▁should	-6.65871
▁about	-6.6912
▁his	-6.70982
▁use	-6.71299
▁such	-6.71753
▁these	-6.7257
▁may	-6.73091
▁no	-6.73482
▁any	-6.75488
▁people	-6.7643
▁up	-6.76467
▁some	-6.76657
▁information	-6.79105
▁international	-6.81764
▁development	-6.82246
"	-6.82361
▁only	-6.83932
▁out	-6.868
▁than	-6.87372
▁me	-6.87483
▁system	-6.88018
▁how	-6.88977
▁work	-6.92289
▁who	-6.92649
▁into	-6.92807
▁data	-6.95922
m	-6.98849
▁world	-7.00958
;	-7.01686
▁well	-7.02042
▁like	-7.03273
▁most	-7.03639
▁two	-7.03832
▁united	-7.04554
▁need	-7.04599
▁-	-7.08149
▁many	-7.08564
▁make	-7.08656
▁she	-7.08871
d	-7.09296
▁government	-7.09727
▁countries	-7.09974
▁them	-7.1012
▁first	-7.12587
▁must	-7.14018
▁over	-7.14943
▁now	-7.19621
▁security	-7.19699
▁through	-7.19849
▁could	-7.1996
re	-7.21023
▁between	-7.2106
▁her	-7.21434
!	-7.22756
▁us	-7.2284
▁after	-7.23254
▁know	-7.24015
▁china	-7.24204
▁support	-7.24872
▁said	-7.25587
▁used	-7.26067
▁number	-7.26572
▁just	-7.26938
▁very	-7.27028
▁those	-7.27797
▁years	-7.28164
▁high	-7.28475
▁because	-7.28687
▁want	-7.32068
▁states	-7.32177
▁take	-7.322
▁where	-7.32946
▁each	-7.3341
▁under	-7.34179
▁don	-7.34473
/	-7.34998
▁including	-7.35828
▁see	-7.35955
▁business	-7.36171
▁human	-7.36428
▁process	-7.36496
▁rights	-7.36667
▁women	-7.37115
▁get	-7.37567
▁services	-7.3777
▁national	-7.38238
▁service	-7.38576
▁made	-7.39076
▁then	-7.39544
▁nations	-7.40636
ing	-7.41135
▁year	-7.41174
▁good	-7.42642
▁right	-7.44312
▁way	-7.467
▁while	-7.47206
▁help	-7.47496
▁state	-7.47535
▁provide	-7.48076
▁important	-7.4824
▁country	-7.49643
▁management	-7.50107
▁per	-7.5087
▁before	-7.50911
▁same	-7.50926
▁order	-7.51373
▁during	-7.52864
▁even	-7.52945
▁law	-7.54012
▁company	-7.54296
▁different	-7.56005
▁life	-7.56103
▁set	-7.57094
▁him	-7.57105
▁both	-7.57393
ed	-7.58024
▁public	-7.58298
▁economic	-7.58483
▁group	-7.58535
▁being	-7.59311
▁go	-7.59518
▁however	-7.59638
▁access	-7.59881
▁part	-7.6046
▁children	-7.60826
▁health	-7.61695
▁long	-7.62633
a	-7.6432
▁control	-7.65847
▁here	-7.65911
▁day	-7.6594
▁market	-7.66223
▁social	-7.67915
ll	-7.68192
▁change	-7.68532
▁available	-7.69666
▁does	-7.70443
▁using	-7.70482
▁much	-7.71498
▁think	-7.71612
▁within	-7.72015
▁three	-7.72424
▁since	-7.73085
▁against	-7.7345
▁report	-7.7424
▁still	-7.75393
▁did	-7.75437
▁products	-7.75447
▁example	-7.75992
▁financial	-7.76256
▁level	-7.77878
▁.	-7.78252
▁back	-7.78616
▁mr	-7.78681
i	-7.79477
▁last	-7.7953
▁without	-7.79648
▁non	-7.7989
▁water	-7.79948
▁own	-7.80138
▁global	-7.81081
▁committee	-7.81664
▁resources	-7.81711
▁technology	-7.8219
▁best	-7.8262
e	-7.83102
▁every	-7.83736
▁power	-7.83851
▁special	-7.83863
▁activities	-7.84144
▁find	-7.84252
▁policy	-7.84421
).	-7.85124
▁application	-7.85405
▁education	-7.85586
▁council	-7.85648
▁general	-7.86433
▁place	-7.8709
▁ensure	-7.87468
▁end	-7.87759
▁local	-7.88556
▁going	-7.886
▁working	-7.8903
ve	-7.89256
▁area	-7.89665
▁view	-7.90968
▁quality	-7.91656
▁another	-7.92129
▁1	-7.92346
▁user	-7.93684
▁based	-7.93941
▁project	-7.9404
▁value	-7.94185
▁areas	-7.9492
▁case	-7.95108
▁product	-7.95378
▁might	-7.96379
▁members	-7.96448
▁create	-7.96676
▁design	-7.97112
▁possible	-7.97308
▁great	-7.97406
▁issues	-7.97471
▁following	-7.9812
▁further	-7.98146
▁better	-7.9833
▁3	-7.98938
▁cent	-7.98951
."	-7.99229
▁needs	-7.99259
▁network	-7.9929
▁why	-7.99552
▁chinese	-7.99857
▁come	-7.99974
▁down	-8.0032
▁community	-8.00563
▁too	-8.01062
▁next	-8.01575
▁current	-8.02445
▁please	-8.02556
▁say	-8.03121
▁organization	-8.03252
▁full	-8.03454
▁2	-8.03734
▁large	-8.03752
▁office	-8.04126
▁free	-8.04194
▁let	-8.04745
▁training	-8.05443
▁environment	-8.05507
▁performance	-8.05525
▁look	-8.05649
▁trade	-8.05683
▁political	-8.05762
▁home	-8.05932
▁always	-8.05955
▁systems	-8.06034
▁include	-8.06126
▁measures	-8.06889
▁action	-8.06988
▁efforts	-8.07684
▁future	-8.0772
▁small	-8.08102
▁give	-8.0818
in	-8.08667
▁research	-8.08718
▁production	-8.09079
▁problem	-8.09409
▁whether	-8.09471
▁industry	-8.09716
),	-8.09783
▁account	-8.09938
▁experience	-8.10011
▁protection	-8.10719
▁provided	-8.10875
▁key	-8.11429
▁family	-8.11878
▁food	-8.11932
▁required	-8.12029
▁am	-8.12386
▁love	-8.12563
▁today	-8.13017
▁legal	-8.13786
▁plan	-8.14188
▁10	-8.14279
▁open	-8.14291
▁school	-8.1437
▁around	-8.14748
▁cooperation	-8.1488
▁increase	-8.1506
▁become	-8.15171
▁never	-8.15701
the	-8.15912
▁users	-8.16123
▁specific	-8.16455
▁cost	-8.1665
▁period	-8.16791
▁city	-8.17528
▁software	-8.17694
▁among	-8.17739
▁name	-8.17834
ly	-8.18244
▁able	-8.18335
▁results	-8.18591
▁means	-8.18673
▁energy	-8.19118
▁meeting	-8.19136
▁peace	-8.19174
▁several	-8.19624
▁result	-8.19636
▁off	-8.20101
▁often	-8.20223
▁point	-8.20254
▁developing	-8.20324
▁second	-8.20365
▁organizations	-8.20496
▁code	-8.2058
▁continue	-8.20668
▁role	-8.20788
▁risk	-8.20957
▁team	-8.21032
...	-8.21069
▁particular	-8.21726
▁computer	-8.22017
▁found	-8.22021
▁programme	-8.22175
▁member	-8.2229
▁person	-8.2242
▁million	-8.22567
▁necessary	-8.2337
▁already	-8.23607
▁problems	-8.23641
▁situation	-8.23783
▁man	-8.24215
▁growth	-8.24549
▁put	-8.24634
▁companies	-8.25136
▁implementation	-8.25141
▁various	-8.25227
▁private	-8.25432
▁staff	-8.2568
c	-8.25755
▁foreign	-8.26022
▁real	-8.26194
▁article	-8.2622
▁cases	-8.26695
▁issue	-8.27107
▁address	-8.2755
▁low	-8.27809
▁list	-8.28157
▁given	-8.28322
▁changes	-8.28539
▁money	-8.28688
▁really	-8.2871
▁few	-8.28834
▁party	-8.29185
▁cannot	-8.29431
▁start	-8.29703
▁major	-8.29734
▁once	-8.30273
▁region	-8.3047
▁space	-8.3055
▁regional	-8.30657
▁shall	-8.30827
▁customers	-8.31182
▁addition	-8.31328
▁child	-8.31443
▁taken	-8.31614
▁main	-8.31722
▁total	-8.31777
▁according	-8.31967
▁again	-8.32049
▁provides	-8.322
▁therefore	-8.32303
▁little	-8.32643
▁commission	-8.32675
▁type	-8.32678
▁keep	-8.32705
▁'	-8.32751
▁conditions	-8.32764
▁less	-8.33056
▁e	-8.33467
▁assistance	-8.33955
▁president	-8.34063
g	-8.34302
▁improve	-8.34309
▁room	-8.34524
▁investment	-8.34599
▁form	-8.34654
▁applications	-8.35069
▁days	-8.35301
▁customer	-8.35457
▁effective	-8.35459
▁additional	-8.35621
▁care	-8.35621
▁line	-8.35891
▁site	-8.36055
▁5	-8.36062
▁technical	-8.365
▁bank	-8.36521
▁parties	-8.36527
▁together	-8.36555
▁study	-8.36796
▁air	-8.36851
▁field	-8.36959
▁content	-8.36971
▁requirements	-8.37371
▁review	-8.37601
▁device	-8.38045
▁call	-8.38205
▁rate	-8.38219
▁society	-8.3857
or	-8.38846
▁file	-8.39109
▁price	-8.39246
▁range	-8.39297
▁things	-8.39384
▁common	-8.39425
▁groups	-8.39588
▁court	-8.39871
▁meet	-8.39953
▁related	-8.40729
▁model	-8.4117
▁test	-8.41457
▁economy	-8.41537
▁students	-8.41689
er	-8.42308
to	-8.42482
▁tell	-8.42611
▁got	-8.4293
▁hotel	-8.43174
▁course	-8.43355
▁building	-8.43424
▁capacity	-8.43701
▁re	-8.44217
▁present	-8.4424
▁four	-8.44257
▁making	-8.44482
▁equipment	-8.44689
▁sure	-8.44813
▁show	-8.44908
▁kong	-8.4576
▁hong	-8.4579
2	-8.45937
▁decision	-8.46127
▁light	-8.46144
▁due	-8.46357
▁property	-8.46414
▁old	-8.46515
▁past	-8.46751
r	-8.46955
▁until	-8.47005
▁operations	-8.47268
▁south	-8.47509
▁impact	-8.47688
▁republic	-8.47861
▁fact	-8.47925
▁web	-8.48243
▁job	-8.48477
▁times	-8.48548
▁basis	-8.48626
▁single	-8.48876
▁note	-8.48879
▁far	-8.48879
▁costs	-8.4892
▁certain	-8.48926
▁analysis	-8.49034
▁u	-8.49298
▁something	-8.49401
th	-8.49423
▁believe	-8.49486
n	-8.49553
▁4	-8.49774
▁play	-8.49938
▁progress	-8.49968
▁developed	-8.50024
▁least	-8.50088
▁run	-8.5051
▁five	-8.50946
▁share	-8.51064
▁police	-8.51085
▁relevant	-8.51099
▁personal	-8.51329
▁safety	-8.51437
▁says	-8.51573
▁department	-8.51645
▁act	-8.5168
▁policies	-8.51858
▁agreement	-8.52419
▁although	-8.52602
▁held	-8.53089
▁respect	-8.5309
▁third	-8.53167
▁features	-8.53359
▁levels	-8.53583
▁especially	-8.5359
▁european	-8.53681
▁question	-8.53733
▁existing	-8.53771
▁terms	-8.53843
▁20	-8.53908
▁persons	-8.53981
▁recent	-8.54022
▁higher	-8.54063
▁yet	-8.54074
▁car	-8.54076
▁approach	-8.54433
▁contact	-8.55261
▁add	-8.55266
▁above	-8.55357
▁program	-8.55361
▁away	-8.55656
▁central	-8.5568
▁others	-8.55798
▁appropriate	-8.55968
▁projects	-8.56105
▁population	-8.56152
▁position	-8.56349
▁check	-8.56481
▁page	-8.56865
▁un	-8.5704
▁university	-8.57236
▁feel	-8.57239
▁body	-8.57319
▁top	-8.57474
▁called	-8.57584
y	-8.57617
▁conference	-8.57654
▁military	-8.57801
▁individual	-8.58062
▁operation	-8.58093
▁basic	-8.58259
▁solution	-8.58492
▁sector	-8.58988
▁interest	-8.59138
▁force	-8.59194
▁pay	-8.59243
▁big	-8.59313
▁men	-8.59326
▁complete	-8.59349
b	-8.5951
▁left	-8.59622
▁lot	-8.59793
▁established	-8.59805
▁amount	-8.6011
▁having	-8.60378
▁live	-8.60431
▁standard	-8.60869
▁media	-8.60901
▁understand	-8.60975
▁house	-8.61096
▁done	-8.61108
▁english	-8.61148
▁needed	-8.61364
▁increased	-8.61473
▁date	-8.61664
▁particularly	-8.61725
▁hours	-8.62165
▁offer	-8.62342
amp	-8.62395
▁knowledge	-8.62578
▁learn	-8.62653
▁status	-8.62921
▁assembly	-8.63023
▁africa	-8.63037
based	-8.6316
▁early	-8.63186
▁allow	-8.63236
▁effect	-8.63268
▁months	-8.63372
▁clear	-8.63436
▁standards	-8.63621
▁sales	-8.63673
▁method	-8.63839
▁language	-8.63996
▁30	-8.6406
▁hope	-8.6409
▁hand	-8.6422
▁programmes	-8.64342
▁oil	-8.64552
▁war	-8.64606
▁try	-8.64635
▁living	-8.64674
▁secretary	-8.64904
▁across	-8.64937
▁nuclear	-8.65029
▁violence	-8.65218
▁upon	-8.6523
▁server	-8.655
▁hard	-8.6577
▁natural	-8.65926
▁america	-8.66152
▁source	-8.66166
▁capital	-8.66377
▁reduce	-8.66541
▁easy	-8.66569
▁solutions	-8.66588
▁develop	-8.66744
▁environmental	-8.66746
▁strong	-8.66876
▁message	-8.66927
▁rules	-8.6735
▁short	-8.67463
▁internet	-8.67631
▁potential	-8.67642
▁reports	-8.67752
▁institutions	-8.67874
▁material	-8.67941
▁request	-8.68008
▁close	-8.68095
▁side	-8.68257
▁face	-8.68326
▁significant	-8.68768
▁board	-8.68825
▁focus	-8.69118
▁whole	-8.6913
▁young	-8.69341
▁video	-8.69372
▁strategy	-8.69483
o	-8.69515
▁didn	-8.6955
▁center	-8.69591
▁land	-8.70116
▁civil	-8.70284
▁fully	-8.70543
▁--	-8.70642
▁kind	-8.70678
▁attention	-8.70684
▁age	-8.71014
▁matter	-8.71148
▁convention	-8.71275
▁size	-8.713
▁week	-8.71509
▁self	-8.71568
▁choose	-8.71585
▁domestic	-8.71596
▁phone	-8.71977
▁read	-8.7213
▁taking	-8.72138
▁medical	-8.72155
▁ever	-8.72181
▁either	-8.72248
▁subject	-8.7244
▁response	-8.72499
▁includes	-8.72548
▁regard	-8.72785
▁table	-8.7283
▁build	-8.72832
▁cause	-8.72883
▁providing	-8.7318
▁history	-8.73293
▁created	-8.73663
▁event	-8.73668
▁files	-8.73695
▁practice	-8.74404
▁move	-8.74442
▁conflict	-8.74825
▁doing	-8.74906
▁return	-8.74936
▁devices	-8.75438
▁search	-8.75613
1	-8.75618
▁materials	-8.75639
▁enough	-8.75865
▁online	-8.75939
▁text	-8.76049
▁mobile	-8.76091
▁culture	-8.76248
▁treatment	-8.76468
▁thing	-8.76568
▁considered	-8.76602
▁function	-8.76944
▁makes	-8.76953
▁6	-8.77154
▁fund	-8.77182
▁limited	-8.77231
▁american	-8.77506
▁document	-8.77701
▁step	-8.77715
▁authorities	-8.78009
▁centre	-8.78043
▁co	-8.78273
▁consider	-8.78352
▁planning	-8.7836
▁promote	-8.78415
▁later	-8.78529
▁difficult	-8.78644
▁designed	-8.78665
▁types	-8.78811
▁paper	-8.7894
▁15	-8.78957
▁received	-8.79031
general	-8.79183
▁resolution	-8.79218
▁bring	-8.79249
▁exchange	-8.79352
▁below	-8.79567
▁section	-8.79599
▁rather	-8.79634
▁thus	-8.79918
▁demand	-8.80251
term	-8.80348
▁construction	-8.80406
▁japan	-8.80582
▁ability	-8.80806
▁image	-8.8083
▁supply	-8.81047
▁monitoring	-8.81096
▁union	-8.81112
▁tools	-8.81149
▁require	-8.81697
▁prevent	-8.81803
▁longer	-8.81886
▁friends	-8.81902
▁responsibility	-8.81947
up	-8.82094
▁thought	-8.82097
▁markets	-8.82267
▁parts	-8.82578
▁structure	-8.8271
▁greater	-8.82725
▁12	-8.82744
▁c	-8.82845
▁receive	-8.82914
▁concerned	-8.82923
▁events	-8.83013
▁lead	-8.83042
▁currently	-8.83067
▁framework	-8.83232
▁night	-8.83246
▁sustainable	-8.83398
▁outside	-8.83465
▁offers	-8.83535
▁multiple	-8.83565
▁unit	-8.83665
▁along	-8.83705
▁heart	-8.83763
▁storage	-8.83812
▁location	-8.83864
▁machine	-8.83886
▁protect	-8.83906
▁directly	-8.84019
▁asia	-8.84211
▁questions	-8.84451
▁game	-8.84568
▁select	-8.84611
▁forward	-8.84633
▁expected	-8.84723
▁seen	-8.84726
▁looking	-8.84802
on	-8.84823
▁included	-8.8485
▁professional	-8.84885
▁europe	-8.85012
▁achieve	-8.85018
▁activity	-8.85289
▁simple	-8.85455
▁importance	-8.85553
▁travel	-8.85587
▁operating	-8.85617
▁facilities	-8.85619
▁class	-8.85672
▁modern	-8.85695
▁mission	-8.85758
▁leave	-8.85879
▁north	-8.86058
▁nature	-8.86212
▁challenges	-8.86213
▁took	-8.86281
▁turn	-8.86284
▁book	-8.86514
▁communication	-8.86542
▁database	-8.86551
▁towards	-8.86557
▁responsible	-8.86661
▁though	-8.8667
▁lower	-8.86708
▁mean	-8.86714
▁employees	-8.86921
▁traditional	-8.87029
▁enjoy	-8.87069
▁items	-8.87107
▁points	-8.87307
▁opportunity	-8.87633
▁credit	-8.87974
▁ask	-8.87981
▁minutes	-8.88051
▁ways	-8.88216
▁benefits	-8.88508
▁b	-8.88566
▁known	-8.88637
▁comprehensive	-8.8874
▁criminal	-8.88813
▁direct	-8.88952
▁east	-8.89054
▁post	-8.89118
▁half	-8.89249
es	-8.89311
▁cultural	-8.89365
▁won	-8.89366
▁follow	-8.89547
▁apply	-8.89593
▁humanitarian	-8.89774
▁internal	-8.89879
▁gender	-8.89942
▁serious	-8.90076
▁app	-8.90167
▁workers	-8.90184
▁processes	-8.9037
▁tax	-8.90502
▁opportunities	-8.90566
▁prices	-8.90673
▁connection	-8.90741
▁options	-8.90744
▁added	-8.90874
▁infrastructure	-8.90876
▁allows	-8.9101
▁stop	-8.91067
▁similar	-8.91335
▁yes	-8.91802
▁reform	-8.91825
▁involved	-8.91885
▁7	-8.9213
▁came	-8.92293
▁task	-8.92316
▁told	-8.92332
▁steps	-8.92333
▁month	-8.92352
▁likely	-8.92419
▁session	-8.92643
▁justice	-8.92677
▁values	-8.92683
▁success	-8.92835
▁8	-8.92867
▁visit	-8.92898
▁active	-8.93218
▁understanding	-8.93805
▁mind	-8.93847
▁itself	-8.94018
▁crisis	-8.94082
▁concern	-8.94197
▁six	-8.94267
▁methods	-8.94275
▁poverty	-8.94298
▁governments	-8.94321
▁forces	-8.94418
▁weapons	-8.94441
▁head	-8.94513
▁reason	-8.94515
▁series	-8.94773
▁card	-8.94855
▁deal	-8.94865
▁lack	-8.94908
▁reported	-8.95005
p	-8.95261
▁partners	-8.95439
▁soon	-8.95602
▁pressure	-8.95685
▁overall	-8.95959
▁etc	-8.96112
and	-8.96149
▁administration	-8.96177
▁context	-8.96391
▁continued	-8.96489
▁documents	-8.96556
▁click	-8.96622
▁noted	-8.96925
▁drive	-8.9699
▁tool	-8.97083
▁doesn	-8.97278
▁rule	-8.97414
▁physical	-8.97637
▁version	-8.97736
▁website	-8.97945
▁percent	-8.9808
▁june	-8.98155
3	-8.98174
▁object	-8.9825
▁increasing	-8.98277
▁speed	-8.98564
▁almost	-8.9879
▁income	-8.98823
▁science	-8.98907
▁average	-8.99172
▁industrial	-8.99578
▁asked	-8.99588
▁display	-8.99609
▁budget	-8.99852
▁option	-8.9991
▁actions	-8.99912
▁draft	-8.99976
▁goals	-9.00216
▁stay	-9.0026
▁white	-9.00434
▁learning	-9.00461
▁guests	-9.00499
▁sea	-9.00504
▁everything	-9.00592
▁laws	-9.00617
▁funds	-9.01071
▁de	-9.01099
▁pre	-9.01106
▁relationship	-9.01107
▁send	-9.01211
▁red	-9.01376
▁components	-9.01449
▁effects	-9.01492
▁purpose	-9.01608
▁avoid	-9.01842
▁mother	-9.01984
▁march	-9.01987
▁african	-9.02077
▁usually	-9.02138
▁middle	-9.02259
▁previous	-9.02279
▁rates	-9.02313
▁employment	-9.02363
▁enterprise	-9.02648
▁ago	-9.02777
▁located	-9.02848
▁plans	-9.0285
▁climate	-9.02916
,"	-9.02926
▁s	-9.02931
x	-9.03063
▁shows	-9.03221
k	-9.03309
▁authority	-9.03326
▁unique	-9.03519
▁functions	-9.03577
▁details	-9.03613
▁resource	-9.03618
▁buy	-9.03636
▁wide	-9.03779
▁true	-9.04149
▁went	-9.04169
▁goods	-9.04281
▁anti	-9.04306
▁anything	-9.04377
▁idea	-9.04421
▁18	-9.04502
▁d	-9.04503
▁/	-9.04514
▁essential	-9.0468
▁determine	-9.04813
▁representative	-9.04976
▁transfer	-9.05109
▁practices	-9.05133
▁primary	-9.05149
▁participation	-9.05164
▁remain	-9.05168
▁loss	-9.05231
▁commercial	-9.05253
▁poor	-9.05273
▁target	-9.05299
▁email	-9.05426
▁complex	-9.05432
▁billion	-9.05449
▁quickly	-9.05453
▁principles	-9.05577
▁words	-9.0561
▁associated	-9.05643
▁instead	-9.05717
▁processing	-9.06005
▁benefit	-9.06121
▁independent	-9.0623
▁wish	-9.063
▁factors	-9.06338
▁father	-9.06345
▁technologies	-9.06472
▁throughout	-9.06483
▁september	-9.06602
▁feature	-9.06734
▁efficiency	-9.06787
▁critical	-9.0682
▁running	-9.06959
▁works	-9.07075
▁music	-9.0715
▁record	-9.07379
▁talk	-9.07397
▁positive	-9.07493
▁safe	-9.07495
▁final	-9.07533
▁road	-9.07711
▁july	-9.07792
▁personnel	-9.08003
▁procedures	-9.08236
▁actually	-9.08271
▁elements	-9.08315
▁december	-9.08653
▁recommendations	-9.08808
▁joint	-9.08961
▁evidence	-9.08967
▁enable	-9.0897
".	-9.09063
▁ministry	-9.09288
▁client	-9.09374
▁death	-9.09451
▁nothing	-9.09499
▁beijing	-9.09617
▁views	-9.09649
▁leading	-9.097
▁themselves	-9.0972
▁identify	-9.09758
▁agencies	-9.09895
▁hold	-9.09996
▁mode	-9.10026
▁entire	-9.10102
▁statement	-9.10183
▁requires	-9.10201
▁assets	-9.10252
▁color	-9.10357
▁news	-9.10468
▁officials	-9.10794
▁experts	-9.10794
▁external	-9.108
▁multi	-9.10857
it	-9.10878
▁someone	-9.10902
▁started	-9.11055
▁front	-9.11131
▁transport	-9.11306
▁contract	-9.11331
▁art	-9.11345
▁screen	-9.11554
▁maintain	-9.11576
▁goal	-9.11634
▁term	-9.11725
▁sometimes	-9.11735
▁update	-9.11807
▁x	-9.11846
▁agreed	-9.11926
▁applied	-9.12001
▁built	-9.12088
▁digital	-9.12166
▁official	-9.12337
▁commitment	-9.12384
▁sent	-9.12441
▁advanced	-9.12563
▁parents	-9.1258
▁maintenance	-9.12646
al	-9.12875
▁store	-9.13032
▁ready	-9.13054
▁50	-9.13062
▁successful	-9.13071
▁executive	-9.13106
▁reporting	-9.13379
▁crime	-9.13462
▁january	-9.13611
▁skills	-9.13736
▁lost	-9.13768
year	-9.13862
▁proposed	-9.14016
▁original	-9.14075
▁bad	-9.14111
▁base	-9.14147
▁easily	-9.14231
▁growing	-9.14271
▁automatically	-9.14603
▁settings	-9.14703
▁minister	-9.14757
▁regarding	-9.14768
▁affected	-9.14923
▁provisions	-9.15
▁integrated	-9.15127
▁m	-9.15215
▁gas	-9.15259
▁led	-9.15355
▁legislation	-9.15397
f	-9.15772
▁adopted	-9.15843
▁god	-9.159
▁11	-9.16096
▁green	-9.16238
▁affairs	-9.16264
▁remains	-9.16335
▁happy	-9.16452
▁save	-9.16501
▁everyone	-9.1656
▁labour	-9.16675
▁setting	-9.16764
▁link	-9.16917
▁bar	-9.16973
▁creating	-9.17077
▁friend	-9.17223
▁sound	-9.17244
▁assessment	-9.17253
▁october	-9.1727
▁administrative	-9.17414
▁april	-9.17428
▁9	-9.17577
▁committed	-9.17706
▁distribution	-9.1771
▁implement	-9.17717
▁p	-9.17864
▁useful	-9.17971
▁trust	-9.17982
▁fast	-9.18045
able	-9.18091
▁remember	-9.18096
▁beautiful	-9.18186
▁establish	-9.18199
▁decisions	-9.18295
▁payment	-9.18323
▁comes	-9.18384
time	-9.18403
▁variety	-9.18457
▁reach	-9.18468
▁reference	-9.18486
▁democratic	-9.185
▁rooms	-9.18588
▁annual	-9.18669
▁manage	-9.1872
▁black	-9.18721
▁accordance	-9.18803
▁ground	-9.1899
▁near	-9.19051
▁daily	-9.19089
▁memory	-9.19094
▁forms	-9.19131
▁testing	-9.192
▁provision	-9.19422
▁coming	-9.19423
▁meetings	-9.19425
▁oh	-9.19493
▁finally	-9.19498
▁platform	-9.19603
▁core	-9.19701
▁traffic	-9.20005
▁strategic	-9.20052
▁enter	-9.20069
▁delivery	-9.20143
▁studies	-9.2031
▁choice	-9.20357
▁selected	-9.2039
▁leaders	-9.204
▁india	-9.20493
▁effort	-9.2073
▁takes	-9.20766
▁recently	-9.21275
▁answer	-9.21555
▁damage	-9.21865
▁secretariat	-9.21873
▁armed	-9.21975
▁schools	-9.22077
▁panel	-9.22097
▁palestinian	-9.22232
▁100	-9.22261
▁supported	-9.22312
▁trying	-9.22323
▁item	-9.22353
▁contains	-9.22375
▁banks	-9.22513
▁establishment	-9.22575
▁getting	-9.22673
▁generally	-9.22792
▁highly	-9.22824
▁principle	-9.22961
▁balance	-9.23018
▁relations	-9.23044
▁regulations	-9.23044
▁delegation	-9.2316
▁temperature	-9.23535
▁sense	-9.23738
▁trading	-9.2378
▁corporate	-9.2384
l	-9.23934
▁regular	-9.23939
▁lives	-9.23983
▁israel	-9.23994
▁largest	-9.24121
▁insurance	-9.24282
▁saw	-9.24341
▁stage	-9.24359
▁mechanism	-9.2436
▁strengthen	-9.24529
▁carried	-9.24555
▁despite	-9.24567
ers	-9.24672
▁error	-9.24795
▁conduct	-9.24829
▁expressed	-9.2522
▁engine	-9.25309
▁drug	-9.25326
▁november	-9.25331
▁interests	-9.25399
▁individuals	-9.25408
▁cross	-9.25418
▁cloud	-9.25654
▁separate	-9.25937
▁woman	-9.26002
▁manager	-9.26077
▁rural	-9.2611
▁collection	-9.26242
▁iraq	-9.26278
▁earth	-9.26353
▁improved	-9.26619
▁shown	-9.26722
▁objects	-9.26813
▁competition	-9.26936
▁changed	-9.26948
▁agency	-9.27043
▁maximum	-9.27061
▁latest	-9.27071
▁priority	-9.27071
▁sites	-9.27196
▁simply	-9.27428
▁tv	-9.27476
▁secure	-9.27615
▁communities	-9.27714
▁enterprises	-9.27809
▁debt	-9.27846
▁west	-9.27936
▁map	-9.27966
▁representatives	-9.28028
▁cover	-9.2809
▁failure	-9.28109
▁reasons	-9.2815
▁enhance	-9.2816
▁late	-9.28212
▁messages	-9.28323
▁victims	-9.28458
▁electronic	-9.2858
▁quite	-9.28587
▁caused	-9.28626
▁stock	-9.28811
▁remove	-9.28941
▁concerns	-9.29012
▁director	-9.29029
▁flow	-9.29099
▁shared	-9.29124
▁exercise	-9.29144
▁clients	-9.2916
▁met	-9.29183
▁freedom	-9.29225
▁completed	-9.29296
▁sources	-9.29421
▁integration	-9.29441
▁prevention	-9.29497
▁fire	-9.29498
▁disease	-9.29546
▁brought	-9.29648
▁equal	-9.29868
▁families	-9.30026
▁regions	-9.30072
▁terrorism	-9.30147
▁challenge	-9.30158
▁yourself	-9.30203
4	-9.30215
▁former	-9.30299
▁clean	-9.30466
▁marketing	-9.30589
▁inside	-9.30639
▁paid	-9.30658
▁units	-9.30692
▁charge	-9.30765
▁stability	-9.30913
▁default	-9.31022
▁pool	-9.3103
▁manufacturing	-9.3108
▁scale	-9.31154
▁normal	-9.31196
▁innovation	-9.31217
▁york	-9.31526
▁beginning	-9.31626
▁write	-9.31679
▁hear	-9.31695
▁scientific	-9.31714
▁recovery	-9.31802
▁carry	-9.31876
▁rest	-9.3193
▁wanted	-9.31941
we	-9.31944
▁compliance	-9.32008
▁urban	-9.3211
▁movement	-9.32177
▁appear	-9.32209
▁operational	-9.32245
▁release	-9.32306
▁girls	-9.32366
▁korea	-9.32534
▁girl	-9.32576
▁16	-9.32682
▁efficient	-9.32979
▁surface	-9.33035
▁finance	-9.33048
▁g	-9.33075
▁uses	-9.33134
▁reduction	-9.33348
▁thank	-9.33525
▁housing	-9.33571
▁isn	-9.33607
▁beyond	-9.33652
▁morning	-9.33675
▁allowed	-9.33738
▁concept	-9.33762
▁engineering	-9.33945
▁august	-9.33982
▁guide	-9.34014
▁sign	-9.34115
▁monitor	-9.34301
▁25	-9.34312
▁watch	-9.34333
▁fuel	-9.34354
▁airport	-9.34422
▁cut	-9.34584
▁perform	-9.35089
▁14	-9.35101
▁federal	-9.35379
▁hiv	-9.35452
▁strategies	-9.35513
▁association	-9.35518
▁24	-9.35522
▁whose	-9.35755
▁cash	-9.35809
▁box	-9.35879
▁dialogue	-9.35987
▁condition	-9.36016
▁word	-9.36026
h	-9.36149
▁tasks	-9.36191
▁recommended	-9.36286
▁window	-9.36298
▁advantage	-9.3632
▁effectively	-9.36334
▁began	-9.3648
▁inter	-9.36481
▁decided	-9.36486
▁hot	-9.36516
▁aspects	-9.36517
▁behind	-9.36555
▁discrimination	-9.3658
for	-9.36602
▁purchase	-9.36677
▁procedure	-9.36938
▁partner	-9.37022
▁bodies	-9.37135
▁limit	-9.37165
▁manner	-9.37177
▁implemented	-9.37362
level	-9.37366
▁prior	-9.37401
▁plant	-9.37478
▁lines	-9.37494
▁games	-9.37515
▁discussion	-9.37532
▁sexual	-9.37608
▁consideration	-9.37633
▁immediately	-9.37743
▁wrong	-9.37783
▁improving	-9.37908
▁calls	-9.37912
▁western	-9.38024
▁cities	-9.38081
▁produce	-9.38133
▁purposes	-9.38191
▁communications	-9.38249
▁actual	-9.38398
▁compared	-9.38434
▁century	-9.38501
▁affect	-9.38586
▁export	-9.38835
▁programs	-9.38866
▁vehicle	-9.38878
▁correct	-9.39139
▁evaluation	-9.39158
▁maybe	-9.39227
▁emergency	-9.3942
▁brand	-9.39482
▁blood	-9.39523
▁press	-9.39561
▁numbers	-9.3961
▁track	-9.39699
as	-9.39942
▁risks	-9.40044
▁acts	-9.40088
▁heard	-9.40154
▁rise	-9.4048
▁welcome	-9.40767
▁minimum	-9.4086
▁component	-9.41072
▁host	-9.41123
▁measure	-9.41278
▁remote	-9.4128
▁accounts	-9.4128
▁else	-9.4136
▁street	-9.41362
▁highest	-9.41615
▁via	-9.41642
▁clearly	-9.41686
▁circumstances	-9.41712
▁story	-9.41748
▁consumption	-9.41844
▁park	-9.41884
▁volume	-9.41904
▁station	-9.42142
▁indigenous	-9.42359
▁connected	-9.4238
▁earlier	-9.42769
▁germany	-9.42778
▁output	-9.42852
▁funding	-9.4289
▁canada	-9.42919
▁perfect	-9.42953
▁popular	-9.43221
▁initiatives	-9.43384
▁coordination	-9.4353
▁l	-9.43597
an	-9.43602
▁models	-9.4363
▁mechanisms	-9.4369
▁scope	-9.43865
5	-9.43914
▁ensuring	-9.44214
▁hardware	-9.44356
▁windows	-9.44379
▁defined	-9.44384
▁survey	-9.44538
▁participants	-9.44671
▁mainly	-9.44744
▁initiative	-9.44759
▁agreements	-9.44794
▁records	-9.44891
▁weeks	-9.44953
▁objective	-9.45062
▁arms	-9.45066
▁consumer	-9.45173
▁interface	-9.45261
▁treaty	-9.45296
▁places	-9.45305
▁sub	-9.45338
▁fields	-9.45377
▁paragraph	-9.45429
▁style	-9.45499
▁issued	-9.455
▁february	-9.45502
▁weight	-9.45508
▁jobs	-9.45528
▁reached	-9.45553
▁awareness	-9.45557
▁influence	-9.45569
v	-9.45582
▁controls	-9.45978
▁fall	-9.45982
▁depending	-9.45985
▁accept	-9.4599
▁teaching	-9.46165
▁button	-9.46182
of	-9.46189
▁letter	-9.46295
▁aid	-9.46337
▁practical	-9.46376
▁creation	-9.46379
▁deep	-9.46489
▁direction	-9.46489
▁territory	-9.46515
▁eyes	-9.46596
▁thinking	-9.4664
▁achieved	-9.46665
▁island	-9.46775
▁changing	-9.47029
▁difference	-9.47048
▁initial	-9.47251
▁door	-9.47257
▁rich	-9.47287
▁walk	-9.47317
▁degree	-9.47464
▁package	-9.47521
▁promotion	-9.47584
▁configuration	-9.4764
▁detailed	-9.47796
▁investors	-9.4781
▁objectives	-9.47846
▁instance	-9.47853
▁13	-9.47942
▁fundamental	-9.47996
▁conducted	-9.48001
▁continues	-9.4804
▁requests	-9.48093
▁probably	-9.48132
▁theory	-9.48164
▁advice	-9.48197
▁contain	-9.48299
▁written	-9.48339
▁assist	-9.48445
▁serve	-9.48531
▁gave	-9.48561
▁identified	-9.48713
▁offices	-9.48786
▁senior	-9.48819
▁unless	-9.49124
▁threat	-9.49143
▁moment	-9.49157
▁40	-9.49175
▁reduced	-9.4919
▁images	-9.49219
▁phase	-9.49395
▁institute	-9.49487
▁contribute	-9.49488
▁path	-9.49503
▁floor	-9.4954
▁begin	-9.49703
▁teacher	-9.49772
▁leadership	-9.49899
▁author	-9.49961
▁properties	-9.49964
▁became	-9.50005
▁french	-9.50008
▁stated	-9.50045
▁ideas	-9.50047
▁town	-9.50139
related	-9.50147
▁17	-9.50199
▁equality	-9.50283
▁blue	-9.50555
▁promoting	-9.50574
▁bit	-9.50632
▁encourage	-9.50634
ness	-9.50719
▁selection	-9.50767
▁port	-9.5082
▁library	-9.50847
▁recognized	-9.51047
▁download	-9.51178
▁majority	-9.51186
▁seems	-9.51204
▁improvement	-9.51309
▁copy	-9.51403
▁virtual	-9.51599
▁specified	-9.51622
▁organized	-9.51631
▁australia	-9.51647
▁helps	-9.51704
▁wall	-9.51841
▁ms	-9.52048
▁student	-9.52095
▁shanghai	-9.52215
▁chief	-9.52342
▁educational	-9.5238
▁currency	-9.52524
▁matters	-9.52554
▁confidence	-9.52596
▁forum	-9.52675
▁published	-9.52701
▁picture	-9.52725
▁obligations	-9.52741
▁relating	-9.52781
▁switch	-9.5282
▁fight	-9.52821
▁speak	-9.53053
▁increasingly	-9.53195
▁russian	-9.53362
▁fine	-9.53374
▁bill	-9.53474
▁sun	-9.53477
▁france	-9.53495
▁writing	-9.5354
▁hands	-9.53549
▁starting	-9.53583
▁camera	-9.53658
▁agree	-9.53666
▁submitted	-9.53679
▁stand	-9.53679
▁investigation	-9.53777
mail	-9.53798
▁wait	-9.53799
▁proposal	-9.53826
▁sports	-9.53938
▁moving	-9.54003
▁anyone	-9.54131
▁japanese	-9.54158
▁eat	-9.5421
▁reading	-9.54227
▁negative	-9.54333
▁alone	-9.54429
▁firm	-9.54473
▁gives	-9.54529
▁completely	-9.54539
▁networks	-9.54542
▁baby	-9.54545
▁weather	-9.54554
▁notes	-9.54608
▁installed	-9.54619
▁aimed	-9.54789
▁t	-9.54918
▁concerning	-9.54996
▁agenda	-9.55209
▁installation	-9.55236
▁waste	-9.55322
▁capabilities	-9.55356
▁deliver	-9.55366
▁21	-9.55557
▁approved	-9.55589
▁guidelines	-9.5561
▁negotiations	-9.55662
▁chemical	-9.55698
▁cold	-9.55719
▁situations	-9.55855
▁nearly	-9.5593
▁figure	-9.5612
▁v	-9.56196
▁refugees	-9.56245
▁prepared	-9.5627
▁causes	-9.56343
▁r	-9.56415
▁foundation	-9.5642
▁otherwise	-9.5642
▁hospital	-9.56532
▁bus	-9.56579
▁claim	-9.56582
▁join	-9.56618
▁claims	-9.56681
▁citizens	-9.56834
▁chance	-9.56918
▁kingdom	-9.56919
▁seek	-9.57011
▁restaurant	-9.57016
▁background	-9.57239
▁ten	-9.57288
▁college	-9.57428
▁entry	-9.57622
▁behavior	-9.57661
▁attack	-9.57695
▁al	-9.57779
▁rapid	-9.57789
▁password	-9.57846
▁film	-9.57851
▁opening	-9.57854
▁mass	-9.57871
▁extent	-9.57882
▁presented	-9.57964
▁reducing	-9.57978
▁fair	-9.57993
▁permanent	-9.58009
▁master	-9.58047
▁60	-9.58101
▁intended	-9.58352
▁summer	-9.58353
if	-9.58378
▁worldwide	-9.58384
▁statistics	-9.58436
▁perhaps	-9.58485
▁aware	-9.58511
▁notice	-9.58547
▁element	-9.58618
▁cell	-9.58684
man	-9.58763
▁input	-9.58857
▁businesses	-9.5892
▁arab	-9.58953
▁financing	-9.58979
▁strengthening	-9.5901
▁voice	-9.5908
▁worked	-9.59099
▁transaction	-9.59178
▁names	-9.59192
▁train	-9.59272
▁asian	-9.59292
▁partnership	-9.59331
▁participate	-9.59342
▁grow	-9.59408
▁saying	-9.59505
▁round	-9.59525
▁wife	-9.59607
▁requested	-9.5976
▁attacks	-9.59825
▁river	-9.59961
▁books	-9.59984
▁sectors	-9.60004
▁expert	-9.6003
▁contribution	-9.60218
▁sorry	-9.60232
▁fixed	-9.60237
▁hour	-9.60274
▁violations	-9.60306
▁powerful	-9.60509
▁expect	-9.60553
▁index	-9.60648
▁zone	-9.60804
▁seven	-9.60819
▁listed	-9.60853
▁presence	-9.6092
▁declaration	-9.60942
▁larger	-9.60956
▁applicable	-9.60974
▁break	-9.60987
▁occur	-9.60987
u	-9.61026
▁placed	-9.61109
you	-9.61188
▁registration	-9.61193
▁crimes	-9.61284
▁london	-9.61421
▁extra	-9.6149
▁governance	-9.61656
▁sleep	-9.61779
▁net	-9.6179
▁signal	-9.61797
▁pass	-9.61803
▁guarantee	-9.61816
▁domain	-9.61914
▁giving	-9.61941
▁described	-9.61995
▁facilitate	-9.62185
▁match	-9.62257
▁peacekeeping	-9.623
▁campaign	-9.62514
▁indeed	-9.62618
▁teachers	-9.6264
▁raise	-9.62722
▁nor	-9.62751
▁industries	-9.62821
▁connect	-9.6286
no	-9.62886
▁israeli	-9.62917
▁transactions	-9.62934
▁enforcement	-9.62978
▁disarmament	-9.63006
▁vehicles	-9.63091
▁interested	-9.63106
▁thanks	-9.63326
▁steel	-9.63464
▁updated	-9.63524
▁patients	-9.63621
▁battery	-9.637
▁generation	-9.63703
▁custom	-9.63748
▁border	-9.63813
▁strength	-9.63819
▁doctor	-9.64179
▁spirit	-9.64182
▁audio	-9.6424
▁adequate	-9.64254
▁obtain	-9.64268
▁discuss	-9.64455
▁boy	-9.64495
▁produced	-9.64588
▁trial	-9.64857
▁advance	-9.64931
▁f	-9.6498
▁distance	-9.65081
▁statements	-9.65098
▁son	-9.65109
▁contributions	-9.65142
▁opinion	-9.65287
▁introduced	-9.65308
▁employee	-9.65352
▁links	-9.65395
governmental	-9.65519
▁agricultural	-9.65589
▁supporting	-9.65602
▁offered	-9.65616
▁broad	-9.65618
▁innovative	-9.65692
▁double	-9.65727
▁gold	-9.65825
▁factor	-9.65956
▁command	-9.65978
▁british	-9.66035
▁pages	-9.66072
▁determined	-9.66202
▁skin	-9.66377
▁respond	-9.6655
▁gain	-9.66567
▁looks	-9.66597
▁heavy	-9.66598
▁exist	-9.66603
▁excellent	-9.66665
▁trafficking	-9.66702
▁estimated	-9.66785
▁collaboration	-9.66785
▁easier	-9.6696
▁appears	-9.67001
▁closed	-9.6701
▁failed	-9.67048
▁followed	-9.67131
▁deployment	-9.67163
▁constitution	-9.67208
▁felt	-9.67287
▁approximately	-9.67349
▁ongoing	-9.67455
▁eight	-9.67476
▁division	-9.67541
▁ip	-9.67558
▁load	-9.6758
▁trend	-9.6771
▁characteristics	-9.67782
▁truth	-9.6783
▁goes	-9.6786
▁updates	-9.68102
▁religious	-9.68153
▁signed	-9.68189
▁competitive	-9.68194
▁19	-9.68201
▁suitable	-9.68243
▁counter	-9.68285
▁mandate	-9.68356
▁aim	-9.68431
▁tests	-9.6853
▁illegal	-9.68533
▁arrangements	-9.68598
▁hotels	-9.68629
▁consistent	-9.68749
▁focused	-9.68814
▁spend	-9.68828
▁cycle	-9.68891
▁radio	-9.6894
▁implementing	-9.69143
▁typically	-9.69145
▁killed	-9.69156
▁medium	-9.69353
▁sex	-9.69358
▁resulting	-9.69436
▁furthermore	-9.69457
▁availability	-9.69606
▁officers	-9.69672
▁instruments	-9.69698
▁female	-9.69734
▁yesterday	-9.6975
▁wants	-9.6996
▁youth	-9.69962
▁alternative	-9.69968
▁raised	-9.70011
▁faster	-9.70144
▁profile	-9.70152
▁knew	-9.70164
▁log	-9.70224
▁nation	-9.70302
▁decide	-9.70566
▁sharing	-9.70574
▁elections	-9.70584
▁win	-9.70625
▁displayed	-9.70641
▁reliable	-9.70654
▁expertise	-9.70759
▁character	-9.70832
▁guidance	-9.70958
▁chain	-9.70986
▁touch	-9.71021
▁huge	-9.71053
▁computers	-9.71084
▁moreover	-9.71134
▁transition	-9.71179
▁addressed	-9.71217
▁healthy	-9.7124
▁smart	-9.71327
▁tomorrow	-9.71379
▁happened	-9.71419
▁afghanistan	-9.7143
▁criteria	-9.71457
▁closely	-9.71497
▁tried	-9.71554
▁covered	-9.7157
▁2008	-9.7164
▁2010	-9.71755
▁teams	-9.71842
▁quick	-9.71874
▁definition	-9.71924
w	-9.71963
▁handle	-9.72078
▁turned	-9.72183
▁judicial	-9.72194
▁informed	-9.72212
▁sufficient	-9.72218
▁driver	-9.72235
▁talking	-9.72251
day	-9.72345
▁sell	-9.72417
▁approval	-9.72426
making	-9.72571
▁peoples	-9.72586
▁becomes	-9.72593
▁heat	-9.72716
▁abuse	-9.72752
▁managers	-9.7294
▁ideal	-9.72977
▁economies	-9.73017
▁fish	-9.7315
▁leader	-9.73195
▁bed	-9.73288
responsibilities	-9.73296
▁privacy	-9.73298
▁himself	-9.73359
▁accounting	-9.73367
▁proposals	-9.73427
▁centres	-9.73428
▁playing	-9.73452
▁compensation	-9.73544
▁okay	-9.73715
▁widely	-9.73748
▁significantly	-9.73798
▁flight	-9.73847
▁2000	-9.73873
▁extremely	-9.7394
▁dr	-9.73997
▁identity	-9.7408
▁express	-9.74105
▁combination	-9.74204
▁drugs	-9.74496
▁dead	-9.74514
▁differences	-9.74525
▁released	-9.74534
▁pattern	-9.74937
▁reflect	-9.74978
▁square	-9.75051
▁discussions	-9.75131
▁kinds	-9.75134
▁seem	-9.7517
▁beach	-9.75245
▁discussed	-9.75309
▁proper	-9.75348
▁indicated	-9.75526
▁stored	-9.75566
▁photo	-9.75621
▁migration	-9.75672
▁opened	-9.75694
▁languages	-9.75754
▁requirement	-9.7579
▁thousands	-9.75853
co	-9.75935
▁dynamic	-9.76043
6	-9.76079
▁format	-9.76098
▁length	-9.76122
▁prime	-9.76147
▁valid	-9.76261
▁cancer	-9.76408
▁h	-9.76637
▁sample	-9.76739
▁positions	-9.7675
▁myself	-9.76764
▁productivity	-9.76771
▁channel	-9.76925
▁protocol	-9.76957
▁agriculture	-9.76968
▁block	-9.77033
▁eu	-9.77041
▁managed	-9.77076
▁registered	-9.77259
▁emerging	-9.77281
▁coffee	-9.77325
▁forest	-9.77335
us	-9.77457
▁n	-9.77463
▁happen	-9.77467
▁adoption	-9.77537
▁consumers	-9.77605
▁relatively	-9.77642
rs	-9.77772
▁launched	-9.77785
▁worth	-9.77894
▁bottom	-9.77964
▁spread	-9.77977
▁vulnerable	-9.78003
7	-9.78092
▁terrorist	-9.78108
▁listen	-9.78137
▁dream	-9.78143
▁transportation	-9.78173
▁german	-9.7824
ity	-9.78244
▁install	-9.78308
▁ahead	-9.78343
▁asset	-9.78474
▁continuing	-9.7853
▁universal	-9.78579
▁mentioned	-9.7868
▁comments	-9.78683
▁conflicts	-9.78856
▁category	-9.78879
▁enables	-9.78905
▁offering	-9.78937
▁reasonable	-9.78969
▁passed	-9.79058
▁electric	-9.79067
▁tree	-9.79132
▁architecture	-9.79202
▁becoming	-9.79241
8	-9.7927
▁indicate	-9.79285
▁glass	-9.79392
▁removed	-9.79424
▁gone	-9.79475
▁recognition	-9.79484
▁career	-9.79513
▁revenue	-9.79513
▁immediate	-9.79684
▁increases	-9.79724
▁cells	-9.7976
▁examples	-9.79884
▁russia	-9.79998
▁operate	-9.80028
▁servers	-9.80134
▁biggest	-9.8016
▁breakfast	-9.80169
▁driving	-9.80175
▁summit	-9.80192
▁helping	-9.80339
▁relation	-9.80351
▁sale	-9.804
▁audit	-9.80527
▁except	-9.80662
en	-9.80717
▁effectiveness	-9.80781
▁vision	-9.80827
te	-9.80892
▁obama	-9.80954
▁spent	-9.81016
▁articles	-9.81054
▁resolve	-9.81056
▁previously	-9.81174
▁garden	-9.81256
▁shape	-9.81319
▁define	-9.81319
▁expansion	-9.81333
out	-9.8135
▁lose	-9.81379
▁appeal	-9.81449
▁31	-9.81469
▁expand	-9.8148
▁pain	-9.81567
▁army	-9.81579
▁provider	-9.81661
▁suggested	-9.81691
▁duty	-9.81793
▁rapporteur	-9.81829
▁smaller	-9.81882
▁layer	-9.81979
st	-9.82027
▁locations	-9.82101
▁successfully	-9.82161
▁specifically	-9.82214
▁flexible	-9.82226
▁fear	-9.82271
▁filter	-9.82292
▁debate	-9.82322
▁planned	-9.82356
▁print	-9.82391
▁behalf	-9.82415
see	-9.82458
▁explore	-9.82464
▁apps	-9.82504
▁fit	-9.82545
▁q	-9.82645
▁fun	-9.82662
▁learned	-9.82699
▁advisory	-9.82723
▁properly	-9.82789
▁legislative	-9.82802
▁schedule	-9.83105
▁feeling	-9.83108
▁reality	-9.8315
▁accepted	-9.83161
▁hit	-9.83161
▁difficulties	-9.83187
▁nice	-9.83248
▁tour	-9.83312
▁returned	-9.83344
▁protected	-9.83382
▁combined	-9.83392
▁2009	-9.83472
▁consequences	-9.8348
▁2005	-9.83519
▁prepare	-9.83529
▁entities	-9.83535
▁referred	-9.83824
▁province	-9.83862
▁announced	-9.83911
▁accurate	-9.83956
is	-9.83958
▁fresh	-9.84194
▁forget	-9.84209
▁solve	-9.8431
▁district	-9.84319
▁$	-9.84402
▁expression	-9.84687
▁allowing	-9.84714
▁interesting	-9.84768
▁moved	-9.84882
▁disaster	-9.8489
▁settlement	-9.84921
▁diseases	-9.84934
▁tribunal	-9.84979
▁linked	-9.85033
▁looked	-9.85067
▁shopping	-9.85072
▁possibility	-9.85214
▁techniques	-9.85239
▁quarter	-9.8531
▁extended	-9.85316
▁hair	-9.85341
▁chairman	-9.85448
▁kept	-9.8546
▁tea	-9.85465
▁mine	-9.85522
▁drop	-9.85526
▁certificate	-9.8557
▁peaceful	-9.85598
▁metal	-9.85646
▁wireless	-9.8566
▁buildings	-9.85719
▁performed	-9.85732
▁2007	-9.85786
▁federation	-9.8592
▁famous	-9.85931
▁represent	-9.85962
▁contained	-9.8602
▁forced	-9.86023
▁marriage	-9.86038
▁democracy	-9.86055
▁attempt	-9.8627
▁southern	-9.86293
▁parameters	-9.86369
▁eye	-9.86413
end	-9.86421
▁stress	-9.86462
ization	-9.86481
▁election	-9.86575
▁spending	-9.86647
▁dinner	-9.86754
▁explain	-9.86797
▁recognize	-9.8688
▁extensive	-9.869
▁2012	-9.87013
▁television	-9.87024
▁remained	-9.87027
▁older	-9.87103
▁mid	-9.87124
▁1,	-9.87148
▁supports	-9.87175
▁regulatory	-9.87179
▁collect	-9.87226
▁plants	-9.87244
▁22	-9.87282
▁ethnic	-9.87285
▁meaning	-9.87334
▁integrity	-9.87388
▁aircraft	-9.87437
free	-9.8749
▁combat	-9.87557
▁secondary	-9.87592
▁experiences	-9.87626
▁entered	-9.87704
▁helped	-9.8775
▁kitchen	-9.8786
▁tourism	-9.87872
▁scheme	-9.87878
▁valuable	-9.87986
▁factory	-9.88056
▁courses	-9.88111
▁ship	-9.88128
▁slow	-9.88134
▁john	-9.88138
▁license	-9.88154
▁institutional	-9.88163
▁stable	-9.88236
▁singapore	-9.88257
▁warning	-9.8826
but	-9.88347
▁headquarters	-9.88425
▁missions	-9.88509
▁2006	-9.88679
▁agent	-9.88771
▁draw	-9.88778
▁frame	-9.88812
▁facing	-9.88829
▁exactly	-9.88839
▁trends	-9.889
▁formal	-9.88936
▁preparation	-9.88946
▁holding	-9.88949
▁threats	-9.88952
▁waiting	-9.89073
ic	-9.89113
▁undertaken	-9.89124
▁depends	-9.89188
▁unable	-9.89197
▁percentage	-9.89282
▁intelligence	-9.89344
▁showed	-9.89377
▁courts	-9.89398
▁remaining	-9.8941
▁uk	-9.89411
▁machines	-9.89418
▁played	-9.89537
▁pacific	-9.89584
▁flexibility	-9.89588
▁o	-9.89696
▁firms	-9.89717
aids	-9.89877
▁establishing	-9.89916
▁0	-9.89922
▁photos	-9.89943
▁haven	-9.89972
▁automatic	-9.90001
▁documentation	-9.90208
▁instrument	-9.90299
▁drink	-9.9032
▁banking	-9.9037
▁description	-9.90396
▁upgrade	-9.90437
▁cable	-9.90465
▁google	-9.90507
▁historical	-9.90558
▁civilian	-9.90575
▁concrete	-9.90654
▁taiwan	-9.90678
▁solid	-9.90695
▁experienced	-9.90725
▁born	-9.90726
▁conclusion	-9.90819
?"	-9.90842
▁launch	-9.90866
by	-9.90914
▁islands	-9.9095
▁noise	-9.91166
▁spring	-9.91205
▁perspective	-9.91317
▁instructions	-9.91357
▁adding	-9.91377
▁regime	-9.91467
▁crucial	-9.91556
▁membership	-9.91572
▁mark	-9.91581
▁telephone	-9.91625
▁investments	-9.91643
▁wind	-9.9165
▁28	-9.91662
▁sensitive	-9.91663
▁represents	-9.91719
▁kids	-9.91731
▁sets	-9.91755
▁proceedings	-9.91763
0	-9.91807
▁specify	-9.9181
▁cars	-9.91846
▁northern	-9.91874
▁profit	-9.91944
▁recommend	-9.92069
▁module	-9.92078
▁detail	-9.92144
▁dark	-9.92145
▁achieving	-9.92186
▁contracts	-9.92188
▁defence	-9.92195
▁temporary	-9.92255
▁detention	-9.92262
▁delete	-9.92265
▁carbon	-9.92288
▁miss	-9.92318
▁2017	-9.92683
j	-9.92755
at	-9.92761
▁indicators	-9.92844
▁san	-9.9292
▁sensor	-9.92992
▁animals	-9.93013
▁ad	-9.93026
▁mutual	-9.93037
ism	-9.93051
▁club	-9.93194
▁topic	-9.93247
▁restaurants	-9.93365
▁structures	-9.93373
▁trip	-9.93478
▁relationships	-9.93488
▁auto	-9.93511
▁hey	-9.93637
▁sold	-9.93643
▁brother	-9.93649
▁usage	-9.93652
▁numerous	-9.93669
▁orders	-9.93688
z	-9.93695
▁generate	-9.9372
▁dedicated	-9.93739
▁star	-9.93794
▁browser	-9.93815
▁destruction	-9.93824
one	-9.93854
▁manual	-9.93869
▁officer	-9.93902
▁import	-9.93925
▁emissions	-9.9394
▁medicine	-9.93967
▁continuous	-9.93969
▁charges	-9.94059
un	-9.94123
▁certainly	-9.94128
▁entity	-9.94128
▁submit	-9.94267
▁involving	-9.94393
▁estate	-9.94418
▁realize	-9.94433
▁keeping	-9.94475
▁backup	-9.94557
▁generated	-9.94561
▁facility	-9.94599
▁whom	-9.94617
building	-9.94673
▁functionality	-9.9472
▁categories	-9.94736
▁brain	-9.94797
▁engaged	-9.94858
▁demands	-9.94901
▁consensus	-9.9505
▁managing	-9.95093
▁charter	-9.9511
▁replace	-9.9512
▁indicates	-9.95149
▁village	-9.95219
▁died	-9.95442
▁speech	-9.9551
▁fees	-9.95552
▁mexico	-9.95594
▁menu	-9.95613
▁transmission	-9.95772
▁whatever	-9.95824
he	-9.95845
▁player	-9.95856
▁st	-9.95895
▁fell	-9.96037
▁introduction	-9.96037
▁assigned	-9.96089
▁pick	-9.96131
▁brazil	-9.96139
▁sides	-9.96167
▁commitments	-9.96187
▁identification	-9.96216
▁cards	-9.96254
old	-9.96264
▁museum	-9.96335
▁feedback	-9.96339
▁enhanced	-9.9636
▁husband	-9.96378
▁?	-9.96396
▁classes	-9.96476
▁players	-9.96479
▁decade	-9.96603
▁king	-9.96616
▁abroad	-9.96729
▁actively	-9.96739
▁payments	-9.9688
▁23	-9.96899
▁labor	-9.96908
▁equipped	-9.96966
▁dealing	-9.96977
▁addressing	-9.96989
line	-9.97103
▁targets	-9.97122
▁shop	-9.97198
▁2011	-9.97231
▁pretty	-9.97335
▁movie	-9.97336
▁pollution	-9.97361
▁independence	-9.97388
▁supplies	-9.97397
▁restrictions	-9.97407
▁served	-9.97524
▁departments	-9.9773
▁relief	-9.9776
▁carefully	-9.97763
▁race	-9.97793
▁pc	-9.97849
▁scientists	-9.98001
▁regulation	-9.98024
▁resolutions	-9.98183
▁origin	-9.98207
▁dollars	-9.98299
▁inspection	-9.98327
▁severe	-9.98362
▁transparency	-9.98374
▁rising	-9.98553
▁suppliers	-9.98594
▁multilateral	-9.98659
▁customs	-9.98689
▁italy	-9.98694
▁iran	-9.9874
▁measurement	-9.98753
▁finding	-9.9876
▁pro	-9.98895
am	-9.99034
▁eastern	-9.99056
▁wear	-9.99194
▁vital	-9.99199
▁26	-9.99203
▁patterns	-9.99414
▁27	-9.99422
▁pm	-9.99446
▁researchers	-9.99545
▁coverage	-9.99546
▁edge	-9.9957
▁electrical	-9.99608
▁patient	-9.99619
▁dangerous	-9.99647
▁id	-9.99781
▁exports	-9.99832
▁intellectual	-9.99859
do	-9.99961
▁speaking	-9.99977
▁congress	-9.99983
▁li	-9.99996
▁limits	-10.0004
fi	-10.0005
▁delay	-10.0015
▁adopt	-10.002
▁winter	-10.002
▁couple	-10.0023
▁2004	-10.0036
▁award	-10.0036
▁unicef	-10.0047
▁birth	-10.0048
▁equity	-10.0051
▁receiving	-10.0064
▁maintaining	-10.0068
▁channels	-10.0075
▁register	-10.0097
▁die	-10.012
▁sanctions	-10.0123
▁season	-10.0129
▁approaches	-10.0144
▁microsoft	-10.0148
▁extend	-10.0155
▁millennium	-10.0157
▁delegations	-10.016
▁200	-10.0162
▁losses	-10.0173
▁rapidly	-10.0173
▁apartment	-10.0187
▁frequently	-10.0193
▁seconds	-10.0193
▁overseas	-10.0206
▁mental	-10.0207
▁piece	-10.0208
▁savings	-10.022
▁visitors	-10.0233
▁providers	-10.0234
▁outcome	-10.0252
▁academic	-10.0253
▁missing	-10.0266
▁monday	-10.027
▁refer	-10.0272
▁k	-10.0276
▁ice	-10.0282
▁apple	-10.0284
▁80	-10.0287
▁comfortable	-10.0298
▁procurement	-10.0307
▁delivered	-10.0313
▁chapter	-10.0324
▁feet	-10.0327
off	-10.0333
▁prison	-10.0337
▁corruption	-10.0338
▁frequency	-10.034
▁bilateral	-10.0343
▁handling	-10.0344
▁obtained	-10.035
▁outstanding	-10.0352
▁fourth	-10.0353
▁motor	-10.0361
▁2015	-10.0364
▁occurs	-10.0372
▁wine	-10.0372
▁shares	-10.0377
▁marine	-10.0379
▁parking	-10.0383
▁technological	-10.0386
▁developers	-10.0401
▁extension	-10.0404
▁errors	-10.0408
▁leaving	-10.042
▁priorities	-10.0423
▁figures	-10.0427
▁fee	-10.043
▁kill	-10.0433
▁visual	-10.0436
▁stakeholders	-10.0439
▁spain	-10.044
▁plus	-10.0448
▁friday	-10.046
scale	-10.0461
▁decades	-10.0464
▁washington	-10.0468
▁urgent	-10.0472
▁mail	-10.0481
▁occurred	-10.0483
▁ones	-10.0485
▁ocean	-10.0486
▁w	-10.0513
9	-10.0522
▁fail	-10.0523
▁vote	-10.0532
▁warm	-10.0534
▁dollar	-10.0542
▁greatest	-10.0546
▁seeking	-10.0548
▁trouble	-10.0549
▁pakistan	-10.0554
le	-10.0563
▁gap	-10.0568
ation	-10.0578
▁judge	-10.0579
▁encouraged	-10.0579
▁2013	-10.0588
▁2.	-10.0588
▁developments	-10.0588
▁relative	-10.0591
▁aren	-10.0596
▁secret	-10.0596
▁fill	-10.0601
▁collective	-10.0603
▁inflation	-10.0624
▁couldn	-10.0626
▁manufacturers	-10.0633
▁zero	-10.0639
▁miles	-10.0644
▁2003	-10.0644
▁rose	-10.0649
▁assess	-10.0652
▁flat	-10.0659
▁2002	-10.0662
▁willing	-10.0665
ling	-10.0672
▁timely	-10.0691
▁standing	-10.0701
▁1990	-10.0711
▁improvements	-10.0712
▁wasn	-10.0712
▁considering	-10.0719
▁fashion	-10.0723
▁regardless	-10.0728
▁consultation	-10.0729
▁engage	-10.0738
▁dry	-10.074
▁obligation	-10.0741
▁animal	-10.0749
▁faced	-10.075
▁unemployment	-10.0761
▁outdoor	-10.0762
▁wealth	-10.0763
▁swimming	-10.0787
▁detection	-10.0791
▁advertising	-10.0817
▁repair	-10.0822
▁consultations	-10.083
▁chart	-10.0833
▁doubt	-10.0839
▁presentation	-10.0841
▁enabling	-10.0849
▁owner	-10.0867
▁branch	-10.0867
▁greatly	-10.0868
▁agents	-10.0874
▁bathroom	-10.0885
▁push	-10.0898
▁substantial	-10.0899
▁afraid	-10.0908
▁expensive	-10.0909
▁capability	-10.092
▁ownership	-10.0925
▁violation	-10.093
▁pictures	-10.0931
▁commissioner	-10.0932
▁existence	-10.0933
▁90	-10.0935
less	-10.0943
▁500	-10.0943
▁evening	-10.0946
▁resistance	-10.0971
▁distributed	-10.0976
$	-10.0981
▁fiscal	-10.0983
▁bridge	-10.0984
▁britain	-10.0985
▁follows	-10.0993
bn	-10.0994
▁strongly	-10.1004
▁duration	-10.1005
▁creative	-10.1011
▁execution	-10.1012
▁title	-10.1017
▁sudan	-10.1018
▁guy	-10.1023
▁talks	-10.1023
▁reflected	-10.1026
▁controlled	-10.1027
▁parliament	-10.1028
▁scheduled	-10.1028
▁finished	-10.103
▁happens	-10.1032
▁discover	-10.1038
▁route	-10.1042
▁translation	-10.1054
ma	-10.1054
▁soft	-10.1068
▁granted	-10.1069
▁vice	-10.1074
▁civilians	-10.1077
▁mm	-10.1087
▁church	-10.1089
▁zealand	-10.1089
▁specialized	-10.1091
▁toward	-10.1093
▁suggest	-10.1109
▁environments	-10.1109
▁recorded	-10.1116
▁2001	-10.1119
▁operator	-10.1123
▁satellite	-10.1124
▁bear	-10.1126
▁institution	-10.1131
▁dog	-10.1132
▁professionals	-10.1143
▁1.	-10.1153
▁motion	-10.1156
▁retail	-10.116
▁worry	-10.1166
▁inventory	-10.117
▁entitled	-10.1177
▁sky	-10.1181
▁plastic	-10.1183
▁adjust	-10.1184
▁solar	-10.1188
▁securities	-10.1188
▁undp	-10.1189
▁knows	-10.1192
▁sir	-10.1196
▁rain	-10.1197
▁destination	-10.1197
▁dad	-10.1201
▁wood	-10.1207
▁displaced	-10.1223
▁absence	-10.1247
▁70	-10.1251
▁electricity	-10.1252
▁ratio	-10.1255
▁drawing	-10.1263
▁addresses	-10.1277
▁completion	-10.1286
na	-10.1286
▁welfare	-10.1286
▁constant	-10.1291
ist	-10.1293
▁sort	-10.13
▁characters	-10.13
▁gets	-10.1303
▁recommendation	-10.1308
▁connections	-10.1318
▁jurisdiction	-10.1329
led	-10.1336
▁mountain	-10.1352
▁micro	-10.1358
▁married	-10.1362
▁hundreds	-10.1368
▁summary	-10.1372
▁territories	-10.1385
ion	-10.1387
▁daughter	-10.139
▁amounts	-10.1391
▁maintained	-10.1393
▁29	-10.1401
▁scene	-10.1405
▁super	-10.1409
▁latin	-10.1409
▁constitutional	-10.1421
including	-10.1424
▁milk	-10.1425
▁versions	-10.1438
▁seat	-10.144
▁enabled	-10.145
▁advantages	-10.145
▁wouldn	-10.1451
▁monetary	-10.1452
▁km	-10.1453
▁...	-10.1468
▁species	-10.147
▁nine	-10.1471
▁suffering	-10.1475
▁reliability	-10.1476
▁confirmed	-10.1479
▁desktop	-10.1483
▁considerable	-10.1486
▁neither	-10.1491
de	-10.1511
▁faith	-10.1518
▁sessions	-10.1523
▁paris	-10.1527
▁holiday	-10.1531
▁eliminate	-10.1531
▁reforms	-10.1532
▁guest	-10.1536
▁accident	-10.1548
▁disk	-10.1549
▁decline	-10.155
▁reserve	-10.1556
▁calling	-10.1562
▁minute	-10.1563
▁sister	-10.1568
quality	-10.1569
▁protecting	-10.1581
▁favorite	-10.1583
▁targeted	-10.1584
▁expectations	-10.1597
▁introduce	-10.16
▁believed	-10.1608
▁atmosphere	-10.1624
▁attached	-10.1644
▁observed	-10.1665
▁ok	-10.1671
▁portfolio	-10.1681
▁globalization	-10.1683
▁extreme	-10.169
▁bringing	-10.1693
▁ancient	-10.17
▁scenario	-10.1701
▁clothes	-10.1702
▁shift	-10.1706
▁typical	-10.1709
▁disabilities	-10.1709
▁selling	-10.1712
▁lock	-10.1716
▁comply	-10.1719
▁expenses	-10.1726
▁carrying	-10.1727
▁loans	-10.1727
▁shipping	-10.1733
▁edit	-10.1742
▁friendly	-10.1742
▁examination	-10.1742
▁raw	-10.1742
▁communicate	-10.1744
▁busy	-10.1779
▁beauty	-10.1779
▁truly	-10.1785
▁saved	-10.1797
▁collected	-10.1813
▁euro	-10.1815
▁finish	-10.1824
▁resulted	-10.1843
ar	-10.1844
▁cool	-10.1849
▁pointed	-10.185
▁exists	-10.1856
▁returns	-10.1857
▁normally	-10.186
▁roles	-10.1868
▁applies	-10.1869
▁convenient	-10.1874
▁contents	-10.1878
▁seriously	-10.1888
▁residents	-10.1894
▁flows	-10.191
▁capable	-10.1912
▁represented	-10.1913
so	-10.1915
▁sit	-10.1928
this	-10.193
▁parent	-10.1933
▁mining	-10.1934
▁charged	-10.1935
▁gift	-10.1946
▁tracking	-10.1951
▁respective	-10.1956
▁judges	-10.1971
▁primarily	-10.1977
▁partnerships	-10.1984
▁none	-10.1987
▁displays	-10.1988
▁administrator	-10.1991
▁regularly	-10.1991
▁candidates	-10.1996
▁informal	-10.2006
▁eventually	-10.2011
▁monthly	-10.2014
▁containing	-10.2021
com	-10.2024
▁liability	-10.2024
▁formed	-10.2032
▁column	-10.2037
▁concluded	-10.2038
▁torture	-10.2043
▁consent	-10.2044
▁indonesia	-10.2044
▁posts	-10.2044
▁stations	-10.2046
use	-10.2051
▁cutting	-10.2056
▁exception	-10.2057
▁exposure	-10.2061
▁congo	-10.2062
▁stressed	-10.2064
ment	-10.2067
▁adjustment	-10.2068
▁virus	-10.2072
▁resort	-10.2078
▁theme	-10.2083
▁kosovo	-10.2086
▁largely	-10.2101
▁packaging	-10.2108
▁restore	-10.211
▁voluntary	-10.2114
▁contacts	-10.2115
▁emphasis	-10.2116
▁accessible	-10.2117
▁bureau	-10.2118
▁believes	-10.2121
▁expenditure	-10.2127
class	-10.2127
▁fruit	-10.2133
▁accuracy	-10.215
▁sunday	-10.2157
▁occupied	-10.2159
▁findings	-10.216
▁ii	-10.2164
ized	-10.2165
▁root	-10.2175
▁treated	-10.2175
▁trees	-10.2176
▁visible	-10.2178
▁involvement	-10.2179
▁programming	-10.2179
▁colors	-10.2182
▁count	-10.2184
▁diversity	-10.2195
▁folder	-10.2204
▁millions	-10.221
▁cluster	-10.2211
▁familiar	-10.2224
▁el	-10.2227
▁000	-10.2229
▁dining	-10.224
▁exploitation	-10.2247
▁happiness	-10.2257
▁corresponding	-10.2258
▁desk	-10.226
▁religion	-10.2261
▁weak	-10.2262
▁functional	-10.2264
da	-10.2271
▁impossible	-10.2274
▁actors	-10.2276
▁verification	-10.2294
▁bought	-10.2295
▁lunch	-10.2296
▁fault	-10.2297
▁lessons	-10.23
▁signs	-10.23
▁professor	-10.2301
▁male	-10.2315
▁printing	-10.2319
▁hurt	-10.2334
▁universities	-10.2337
▁estimates	-10.2337
▁spanish	-10.2348
▁mom	-10.2352
▁ticket	-10.2356
▁burden	-10.2365
▁supplier	-10.237
▁lists	-10.2375
▁cup	-10.2378
▁structural	-10.2394
▁subsequent	-10.2396
▁boys	-10.2415
▁starts	-10.2416
▁farmers	-10.2422
▁describe	-10.2422
▁capture	-10.2427
▁accountability	-10.2428
▁certification	-10.2428
▁entertainment	-10.2429
▁interaction	-10.2435
▁turkey	-10.2445
▁gradually	-10.2452
▁depend	-10.2453
▁journey	-10.2458
▁calendar	-10.246
la	-10.247
▁troops	-10.2492
▁invited	-10.2502
▁la	-10.2504
▁refugee	-10.2505
▁aspect	-10.251
▁aims	-10.2511
▁decrease	-10.2513
▁korean	-10.2514
▁correctly	-10.252
▁logistics	-10.2528
▁lake	-10.2536
▁principal	-10.254
▁seemed	-10.2541
▁transparent	-10.2555
▁showing	-10.256
▁websites	-10.2579
▁careful	-10.2581
▁spot	-10.2583
▁interview	-10.2583
▁runs	-10.2586
▁2016	-10.2586
▁topics	-10.2588
▁accordingly	-10.2593
▁vary	-10.2594
▁fighting	-10.2601
▁satisfaction	-10.2601
▁ill	-10.2607
▁occupation	-10.261
▁expanded	-10.2612
▁template	-10.2616
▁afternoon	-10.2619
(	-10.2621
▁verify	-10.2623
▁instances	-10.2624
▁unhcr	-10.263
▁hall	-10.2644
▁contrast	-10.2646
▁attend	-10.2651
▁achievement	-10.2662
▁song	-10.2667
▁iron	-10.2669
▁fix	-10.2674
per	-10.2674
▁authorized	-10.2674
▁vast	-10.2676
▁notification	-10.2676
▁cleaning	-10.2678
▁walking	-10.2686
▁comment	-10.2693
▁inform	-10.2693
▁nevertheless	-10.2694
▁saving	-10.2698
▁soldiers	-10.2701
▁apart	-10.2705
▁welcomed	-10.2707
▁aids	-10.2715
▁ministers	-10.2731
▁taxes	-10.2732
▁homes	-10.2741
▁indian	-10.2741
▁pilot	-10.2745
▁representation	-10.2752
▁manufacturer	-10.2762
▁asking	-10.2767
▁household	-10.2768
▁consists	-10.2773
▁elected	-10.2788
▁creates	-10.2791
▁named	-10.2796
▁lighting	-10.28
▁plane	-10.2802
▁incident	-10.2807
▁bag	-10.2814
▁loan	-10.282
▁americans	-10.2821
▁deleted	-10.2827
▁reviewed	-10.2827
▁tables	-10.2831
▁meant	-10.2833
▁j	-10.2836
▁mostly	-10.2847
▁permission	-10.2852
▁sought	-10.2856
▁prove	-10.2857
▁broken	-10.286
▁appointed	-10.2873
▁thereby	-10.2874
▁corporation	-10.2885
▁thailand	-10.2896
ia	-10.2898
▁danger	-10.2899
▁stopped	-10.2901
▁defense	-10.2902
▁football	-10.2906
q	-10.2907
▁transformation	-10.2909
▁query	-10.2924
▁tend	-10.2925
▁chair	-10.2927
▁dispute	-10.2932
party	-10.2934
▁harm	-10.2935
▁bright	-10.2935
▁35	-10.2949
▁cat	-10.295
):	-10.2954
▁stores	-10.2971
▁drivers	-10.2975
▁facts	-10.2987
▁hearing	-10.299
▁grant	-10.2996
▁soil	-10.2996
▁involve	-10.3004
▁implications	-10.3009
▁geneva	-10.3016
▁script	-10.3021
▁disabled	-10.3025
▁invest	-10.3026
▁newly	-10.3027
▁visa	-10.3027
▁lots	-10.3028
▁desire	-10.3036
▁leads	-10.3046
▁acquisition	-10.3056
such	-10.3057
▁overcome	-10.3059
▁constantly	-10.3062
▁deployed	-10.3062
▁underlying	-10.3065
▁victim	-10.3069
▁promise	-10.3076
▁covers	-10.3084
▁respectively	-10.3089
▁switzerland	-10.3093
▁treat	-10.3102
▁closer	-10.3105
▁diplomatic	-10.3106
▁mainland	-10.3109
▁participating	-10.3113
▁letters	-10.3114
▁cisco	-10.3114
▁upper	-10.3116
▁worse	-10.3119
▁chosen	-10.3122
▁egypt	-10.3128
▁everybody	-10.3129
▁colleagues	-10.3137
▁operators	-10.3142
▁twenty	-10.3143
▁container	-10.3149
▁seeing	-10.3151
▁$1	-10.3152
▁feed	-10.3154
▁yellow	-10.3156
▁heads	-10.3159
▁contributed	-10.316
▁coast	-10.3161
▁videos	-10.3171
▁anywhere	-10.3175
▁technique	-10.3175
▁rehabilitation	-10.3175
▁achievements	-10.3176
▁proportion	-10.3178
▁circuit	-10.318
▁cuba	-10.3185
▁sending	-10.3188
▁marked	-10.319
▁buying	-10.319
▁comfort	-10.3192
▁organic	-10.3196
▁italian	-10.3196
▁stories	-10.3206
▁meanwhile	-10.3218
▁duties	-10.3219
▁engagement	-10.3222
▁farm	-10.3227
▁reconciliation	-10.3235
▁preventing	-10.324
▁unfortunately	-10.3246
▁audience	-10.3247
▁fishing	-10.3248
▁rely	-10.3261
▁whenever	-10.3269
▁corner	-10.3269
▁trained	-10.3274
▁1999	-10.3285
▁lies	-10.3287
▁replaced	-10.3294
▁logic	-10.3295
▁concepts	-10.3295
▁workshop	-10.3298
▁latter	-10.3303
▁legitimate	-10.3308
▁coal	-10.331
▁imposed	-10.3319
▁lived	-10.3327
▁)	-10.3329
▁engineers	-10.3336
▁owners	-10.334
▁ball	-10.3346
▁evaluate	-10.3354
▁plays	-10.3354
▁patent	-10.3355
10	-10.336
▁profits	-10.3361
ons	-10.3362
▁complaints	-10.3363
▁islamic	-10.3365
▁involves	-10.3368
▁raising	-10.3368
▁gaza	-10.337
▁bedroom	-10.3374
▁reputation	-10.3397
ting	-10.3397
▁tested	-10.3402
▁liquid	-10.3404
▁comparison	-10.3407
▁guess	-10.3408
▁donors	-10.341
▁filled	-10.3411
▁height	-10.3416
▁responses	-10.3423
▁conventional	-10.3426
▁productive	-10.3437
▁prefer	-10.3444
▁pace	-10.3445
▁2014	-10.3446
▁grounds	-10.3449
▁immigration	-10.3454
▁3.	-10.3454
▁meters	-10.3469
▁statistical	-10.3469
▁parallel	-10.3471
▁enhancing	-10.3473
▁owing	-10.3478
▁encouraging	-10.3479
▁investigations	-10.3484
▁watching	-10.3485
ton	-10.3487
▁california	-10.3489
▁obvious	-10.3493
▁powers	-10.3499
▁drawn	-10.3502
▁determination	-10.3504
▁deeply	-10.3508
▁houses	-10.3509
▁arrived	-10.3518
▁ban	-10.3522
▁indicator	-10.353
▁recruitment	-10.353
▁empty	-10.3539
▁1998	-10.3541
that	-10.3546
▁array	-10.3547
▁serves	-10.3548
▁boat	-10.355
▁modify	-10.3551
▁explained	-10.3552
▁flights	-10.3552
▁rock	-10.3553
specific	-10.3563
▁tuesday	-10.357
▁christmas	-10.357
▁putting	-10.3572
▁onto	-10.3572
▁gross	-10.3577
▁replacement	-10.3579
▁ourselves	-10.3586
▁pursue	-10.3589
▁biological	-10.3592
▁era	-10.3595
▁confirm	-10.3596
▁complexity	-10.3599
▁qualified	-10.36
▁wi	-10.3606
▁stronger	-10.3609
▁incidents	-10.3612
▁permit	-10.362
▁joined	-10.3624
▁sustainability	-10.3633
▁appearance	-10.3634
▁luxury	-10.3646
▁controller	-10.3648
▁applying	-10.3648
▁publication	-10.3654
ra	-10.3654
▁visited	-10.366
▁recording	-10.3665
▁examine	-10.3666
▁300	-10.3671
▁sequence	-10.3671
▁clinical	-10.3675
▁interior	-10.3678
▁catch	-10.3686
▁gdp	-10.3687
▁equivalent	-10.3699
▁demonstrate	-10.3714
▁slightly	-10.3719
▁yuan	-10.372
▁computing	-10.3722
▁boss	-10.3725
▁mechanical	-10.3726
▁wrote	-10.3729
▁snow	-10.3739
▁phenomenon	-10.3744
▁symptoms	-10.3746
▁guys	-10.3746
▁ex	-10.3746
▁behaviour	-10.3754
▁moral	-10.3754
▁fat	-10.3758
▁authentication	-10.3762
▁adults	-10.3766
izing	-10.3768
▁divided	-10.3768
▁smooth	-10.3779
▁stages	-10.378
▁45	-10.3789
▁2008,	-10.3799
▁brings	-10.3801
▁lebanon	-10.3812
▁heritage	-10.3815
▁arm	-10.3817
▁politics	-10.3818
▁constitute	-10.3818
▁appointment	-10.3834
ian	-10.3838
▁besides	-10.3843
▁attitude	-10.3859
▁revolution	-10.3865
▁assume	-10.3872
▁stone	-10.3873
▁turning	-10.3879
▁accommodation	-10.3883
▁nearby	-10.3886
▁2005,	-10.389
▁quantity	-10.39
▁highlighted	-10.3903
▁declared	-10.3907
▁tap	-10.3908
▁sections	-10.3909
▁opposition	-10.3914
▁constraints	-10.3923
▁row	-10.3924
▁populations	-10.3925
▁transferred	-10.3937
▁ngos	-10.3939
▁strict	-10.3941
▁fly	-10.3947
▁arts	-10.395
▁attempts	-10.3961
▁serving	-10.3964
▁causing	-10.3967
▁4.	-10.3968
▁straight	-10.3972
▁identifying	-10.398
▁refers	-10.398
▁potentially	-10.3984
▁sheet	-10.3987
▁periods	-10.399
▁planet	-10.3992
▁discovered	-10.4
▁hundred	-10.4001
▁pull	-10.4005
▁pieces	-10.4009
▁reviews	-10.4021
▁interactive	-10.4024
▁navigation	-10.4027
▁proof	-10.4028
▁twice	-10.403
▁variable	-10.4035
▁carrier	-10.4043
oriented	-10.4049
▁desired	-10.4059
▁imagine	-10.4064
▁performing	-10.4066
▁visits	-10.4066
▁ireland	-10.4072
▁electoral	-10.4072
▁foot	-10.4076
▁dance	-10.408
mm	-10.4084
▁chamber	-10.4084
▁surrounding	-10.4086
▁supreme	-10.4086
▁deploy	-10.4086
▁ordinary	-10.4088
▁thursday	-10.4089
▁measured	-10.4094
di	-10.4103
▁dependent	-10.4105
▁birthday	-10.4107
▁revised	-10.4108
▁experiment	-10.4108
▁label	-10.4112
▁designated	-10.4114
▁iraqi	-10.4119
▁sounds	-10.4123
▁diverse	-10.4123
▁ring	-10.413
▁understood	-10.4137
▁entering	-10.414
▁drinking	-10.4141
▁alert	-10.4142
▁dimensions	-10.4143
▁arrival	-10.4144
▁machinery	-10.4153
▁adult	-10.4158
▁conversion	-10.4166
▁quiet	-10.4173
▁processed	-10.4175
▁rare	-10.4177
▁additionally	-10.4186
nd	-10.4187
▁emc	-10.4187
▁spa	-10.4193
▁ease	-10.4193
▁wednesday	-10.4194
▁expanding	-10.4194
▁suggestions	-10.4195
▁furniture	-10.42
▁plug	-10.4209
▁participated	-10.4214
▁cooperate	-10.4214
▁automation	-10.4215
▁substantive	-10.4225
▁sitting	-10.4226
▁journal	-10.4234
▁helpful	-10.4237
▁choices	-10.424
▁minority	-10.424
▁calculated	-10.4246
▁centers	-10.4252
ad	-10.4272
▁nobody	-10.4272
▁accused	-10.4273
▁appreciate	-10.4277
▁shoes	-10.4282
▁fewer	-10.4283
▁injury	-10.429
▁stream	-10.4305
▁preparing	-10.4306
▁organizational	-10.4313
▁estimate	-10.4316
▁tonight	-10.4319
▁chemicals	-10.4319
▁suggests	-10.432
▁1997	-10.4324
▁optional	-10.4332
be	-10.4333
▁suffered	-10.4333
▁sentence	-10.434
▁signals	-10.4342
▁sport	-10.4346
▁usa	-10.4346
▁entirely	-10.4346
▁significance	-10.4348
▁intervention	-10.4352
▁mouse	-10.4356
▁infection	-10.4361
▁eating	-10.4363
▁exhibition	-10.4364
▁exclusive	-10.4369
▁undertake	-10.4369
▁allocation	-10.4374
▁historic	-10.4379
▁stocks	-10.4381
el	-10.4382
▁taste	-10.4386
▁humanity	-10.4393
▁supervision	-10.4395
▁founded	-10.4404
▁affecting	-10.4406
▁automotive	-10.4408
▁binding	-10.4412
▁jesus	-10.4414
▁shot	-10.4416
▁similarly	-10.4417
like	-10.4424
▁deputy	-10.4427
▁keys	-10.4429
▁2006,	-10.4432
▁sustained	-10.4434
▁acceptable	-10.4435
▁modules	-10.4435
▁caribbean	-10.4436
▁z	-10.444
▁automated	-10.4446
▁malaysia	-10.4447
▁layout	-10.4451
▁2007,	-10.4453
pm	-10.4454
▁netherlands	-10.4463
▁loved	-10.4471
▁commerce	-10.448
▁literature	-10.4481
▁appeared	-10.4485
▁strengthened	-10.4486
▁holds	-10.449
▁england	-10.4509
▁worst	-10.4512
▁answers	-10.4513
▁pricing	-10.4516
▁treaties	-10.4519
▁modified	-10.4519
▁saturday	-10.4528
▁sensors	-10.4528
▁reaction	-10.4529
▁wonderful	-10.453
▁configured	-10.4549
not	-10.4555
▁emphasized	-10.4559
▁sick	-10.456
▁hoped	-10.4564
▁composition	-10.4565
▁subscription	-10.4571
▁namely	-10.4571
▁laboratory	-10.4575
ch	-10.4576
▁psychological	-10.4584
▁camp	-10.4584
▁overview	-10.4586
go	-10.4588
▁philosophy	-10.4588
▁telling	-10.4592
▁ultimately	-10.4596
▁samples	-10.46
▁detect	-10.4603
▁speakers	-10.4609
▁pump	-10.4609
▁requiring	-10.4613
▁equally	-10.462
▁realized	-10.4627
▁bio	-10.4627
▁hidden	-10.4627
▁voltage	-10.464
▁boost	-10.4642
▁contemporary	-10.4643
▁brief	-10.465
site	-10.467
▁reflects	-10.4671
▁scan	-10.4674
▁bush	-10.4677
▁designs	-10.4679
▁compare	-10.4685
▁compact	-10.4693
▁demonstrated	-10.4695
▁depth	-10.4695
▁lay	-10.4696
▁soul	-10.4698
▁complicated	-10.4706
▁acting	-10.4716
▁platforms	-10.4717
▁falling	-10.472
▁doctors	-10.4721
▁pension	-10.4722
▁diet	-10.4729
what	-10.4731
ta	-10.4732
called	-10.4739
▁massive	-10.4739
▁somalia	-10.474
▁fan	-10.4744
▁paying	-10.4748
▁ensures	-10.4748
pa	-10.4749
▁dress	-10.4756
▁dates	-10.4757
▁necessarily	-10.4758
▁broader	-10.4759
▁symbol	-10.476
wide	-10.4767
▁en	-10.4773
▁smile	-10.4776
▁focusing	-10.4779
▁covering	-10.478
▁scenarios	-10.4783
▁packages	-10.4787
▁producing	-10.4788
▁pleased	-10.4789
▁brown	-10.479
▁leaves	-10.48
▁governing	-10.4801
);	-10.4802
▁moon	-10.4806
▁resolved	-10.4807
▁olympic	-10.4808
▁fraud	-10.481
▁exposed	-10.4816
▁booking	-10.4816
with	-10.482
▁donor	-10.482
▁telecommunicati	-10.4821
▁grand	-10.4823
▁lie	-10.4834
▁difficulty	-10.4838
▁employers	-10.484
▁deaths	-10.4841
▁wider	-10.4844
▁rice	-10.4846
▁commodity	-10.485
▁ads	-10.485
▁shops	-10.4854
▁native	-10.4861
ize	-10.4862
▁adapt	-10.4869
▁arrested	-10.4875
▁residence	-10.4877
▁formation	-10.488
▁teach	-10.4884
▁deposit	-10.4884
▁portion	-10.489
▁investigate	-10.4897
▁bosnia	-10.4902
▁battle	-10.4908
▁disputes	-10.4909
▁analyze	-10.4912
▁2004,	-10.4915
▁passengers	-10.4916
▁capacities	-10.4926
▁studying	-10.4936
▁terminal	-10.4939
▁describes	-10.4942
▁talent	-10.4942
▁degrees	-10.4943
▁interpretation	-10.4944
▁2,	-10.4945
my	-10.4949
▁bars	-10.4955
▁brands	-10.4959
▁reserves	-10.4959
▁widespread	-10.4962
▁graphics	-10.4962
▁forecast	-10.4964
▁formula	-10.4964
▁cm	-10.4966
▁damaged	-10.4969
▁intention	-10.4969
me	-10.497
os	-10.4972
▁conservation	-10.4976
▁mix	-10.4987
▁dropped	-10.4992
▁disasters	-10.4994
hour	-10.4997
▁hopes	-10.5
▁slowly	-10.5001
▁greece	-10.5001
▁struggle	-10.5021
▁removal	-10.5023
ca	-10.5026
▁reconstruction	-10.5037
▁wedding	-10.504
ie	-10.5063
▁restricted	-10.5063
▁proved	-10.5066
▁sovereignty	-10.507
▁mortality	-10.5075
▁urged	-10.5079
house	-10.5086
▁deals	-10.5086
id	-10.5088
▁clothing	-10.5092
▁suite	-10.5094
▁recover	-10.5095
▁copyright	-10.5104
▁bigger	-10.5107
▁electronics	-10.5108
▁lets	-10.5109
▁begun	-10.5121
▁employed	-10.5122
▁false	-10.5127
▁relax	-10.5133
▁belief	-10.5143
▁grown	-10.5147
▁flowers	-10.5151
▁impacts	-10.5152
▁offences	-10.5161
▁supposed	-10.5162
men	-10.5165
▁ports	-10.5167
▁directors	-10.517
▁thousand	-10.5173
▁manually	-10.5177
▁mouth	-10.5179
▁determining	-10.5181
▁stuff	-10.5183
▁faces	-10.5184
▁appreciation	-10.5187
▁shut	-10.5187
▁jack	-10.5198
▁2009,	-10.52
▁efficiently	-10.5202
ted	-10.5203
▁wonder	-10.5206
▁blocks	-10.5213
▁colour	-10.5213
▁driven	-10.5213
▁alleged	-10.5214
▁continuously	-10.5217
▁movies	-10.5219
▁fifth	-10.522
way	-10.5222
which	-10.5231
▁limitations	-10.5232
▁flash	-10.5236
▁outer	-10.5238
▁suddenly	-10.5242
▁balanced	-10.5242
▁argument	-10.5242
rd	-10.5244
▁reservation	-10.5248
▁commonly	-10.5248
▁cd	-10.5252
▁wheel	-10.5261
▁suffer	-10.5263
▁ambassador	-10.5263
age	-10.5265
▁systematic	-10.5269
▁rent	-10.5269
her	-10.527
ally	-10.5271
▁intelligent	-10.5282
▁meat	-10.5282
▁proven	-10.5282
▁lights	-10.5289
▁signature	-10.5291
▁destroyed	-10.5296
economic	-10.5297
▁workshops	-10.5299
▁printer	-10.5299
▁intel	-10.5303
▁proud	-10.5304
▁ran	-10.531
20	-10.5316
▁2003,	-10.5326
▁organisation	-10.533
▁landscape	-10.534
art	-10.5351
▁radiation	-10.5351
▁kuwait	-10.5361
▁y	-10.5374
▁attended	-10.5375
▁feelings	-10.5379
▁ma	-10.538
▁golf	-10.5381
▁begins	-10.5381
▁sugar	-10.5393
▁guaranteed	-10.5393
▁arrest	-10.5395
▁festival	-10.5396
▁transit	-10.5399
▁setup	-10.54
▁sat	-10.54
▁phones	-10.5406
▁arrangement	-10.5407
▁processor	-10.5408
▁buyer	-10.541
▁dear	-10.5412
▁gains	-10.5412
owned	-10.5416
▁keyboard	-10.5422
▁mixed	-10.5428
▁permitted	-10.5429
▁conversation	-10.5431
▁initiated	-10.5436
▁!	-10.5437
ty	-10.544
▁gun	-10.544
all	-10.5449
▁timor	-10.546
▁possibly	-10.5462
▁32	-10.5462
▁smoking	-10.5464
▁integrate	-10.5466
▁inclusion	-10.5467
▁zones	-10.5474
▁illicit	-10.5475
▁drives	-10.5479
▁measuring	-10.5479
▁hospitals	-10.5485
▁dis	-10.5486
▁enemy	-10.5486
▁syrian	-10.5487
▁sum	-10.5492
▁exact	-10.5496
▁tickets	-10.5502
▁obstacles	-10.5504
▁dimension	-10.5509
▁wave	-10.5516
▁assessments	-10.5517
▁assistant	-10.5519
▁suit	-10.5526
▁bay	-10.5536
▁allocated	-10.5536
▁2000,	-10.5537
▁conferences	-10.5539
▁2001,	-10.5545
▁campaigns	-10.5545
▁sweden	-10.5545
▁angle	-10.5553
▁robust	-10.5553
▁grade	-10.5558
▁rear	-10.5559
▁cooling	-10.5562
▁wake	-10.5566
▁maps	-10.5569
▁commit	-10.5571
▁presidential	-10.5575
▁royal	-10.5578
▁guinea	-10.5581
▁mistake	-10.5582
▁precision	-10.5586
▁grid	-10.5589
▁societies	-10.559
▁listening	-10.5594
▁reduces	-10.5595
▁smoke	-10.5602
▁worker	-10.5611
▁functioning	-10.5612
▁succeed	-10.5617
how	-10.5618
▁passenger	-10.562
▁fitness	-10.5624
▁organize	-10.5625
ac	-10.5625
▁reaching	-10.5632
▁speaker	-10.5635
▁disability	-10.5636
▁purchased	-10.5639
▁movements	-10.5645
▁amendment	-10.5645
▁2002,	-10.5649
▁peak	-10.5649
▁copies	-10.5649
▁clock	-10.565
▁barriers	-10.5654
▁reply	-10.5654
▁hate	-10.5655
▁associations	-10.5661
▁offence	-10.5661
▁bonds	-10.5661
▁vendor	-10.5662
▁dust	-10.5663
▁arrive	-10.5674
▁satisfied	-10.5676
▁superior	-10.5676
▁score	-10.5677
▁specifications	-10.5686
▁salary	-10.5702
▁drinks	-10.5709
▁norms	-10.5717
▁attributes	-10.5723
▁lawyers	-10.5724
▁node	-10.5729
▁mention	-10.5729
▁punishment	-10.5729
▁weekend	-10.5733
▁ended	-10.5739
▁pair	-10.574
ies	-10.574
▁developer	-10.5746
▁wishes	-10.575
▁analysts	-10.5764
▁preferred	-10.5774
▁prosecution	-10.5776
▁lowest	-10.5776
▁skill	-10.5776
▁guarantees	-10.578
▁aged	-10.5782
▁plate	-10.5784
▁(1)	-10.5785
▁uh	-10.5789
▁sierra	-10.5793
land	-10.5806
▁dreams	-10.5808
▁norway	-10.5813
▁minorities	-10.5815
▁wild	-10.582
▁attractive	-10.5823
▁algorithm	-10.5825
▁laser	-10.5835
▁alcohol	-10.5839
▁greek	-10.584
▁6.	-10.5841
▁excessive	-10.5844
▁5.	-10.5846
▁prosecutor	-10.5857
▁protein	-10.5859
▁internally	-10.586
▁ltd	-10.586
▁coordinated	-10.5868
▁roads	-10.5871
▁directed	-10.5877
▁newspaper	-10.5879
▁australian	-10.5879
▁databases	-10.588
▁proceed	-10.5882
▁amazing	-10.5889
▁earthquake	-10.5891
con	-10.5898
▁seats	-10.5902
▁networking	-10.5909
▁sweet	-10.5917
▁hu	-10.5918
▁%	-10.5923
ful	-10.5926
▁exceed	-10.5935
▁elsewhere	-10.5943
▁segment	-10.5944
▁optical	-10.5946
▁moves	-10.5948
▁checks	-10.5948
▁pure	-10.5958
being	-10.5961
▁lift	-10.5965
▁prisoners	-10.5966
▁affects	-10.5967
▁tourist	-10.597
▁favour	-10.5972
▁reproductive	-10.5981
▁contrary	-10.5985
▁lab	-10.5992
▁unlike	-10.5994
▁penalty	-10.5996
ry	-10.6003
▁alliance	-10.6004
▁vulnerability	-10.6016
▁borders	-10.6019
▁rating	-10.6021
▁printed	-10.6021
▁afford	-10.6023
▁rental	-10.6026
▁papers	-10.6029
▁combine	-10.6051
▁spare	-10.6065
ps	-10.6068
▁sharp	-10.6071
ive	-10.6072
▁caught	-10.6074
▁outcomes	-10.6078
▁attract	-10.6078
▁tokyo	-10.608
▁minor	-10.6081
▁absolute	-10.6082
▁stars	-10.6084
▁precise	-10.6085
▁nationality	-10.6089
▁pop	-10.6091
▁dual	-10.6095
▁eligible	-10.61
▁lasting	-10.6104
▁substances	-10.6109
▁railway	-10.6114
▁pin	-10.6114
▁candidate	-10.6115
▁utilization	-10.6115
▁challenging	-10.6116
▁string	-10.612
▁venture	-10.6122
▁pen	-10.6123
▁arbitration	-10.6123
▁internationally	-10.6128
▁imports	-10.6134
▁laid	-10.6139
▁closing	-10.614
▁prize	-10.6144
▁bound	-10.6146
▁submission	-10.615
▁tired	-10.6154
▁retain	-10.6156
▁nutrition	-10.6161
▁owned	-10.6166
▁reverse	-10.6168
▁codes	-10.6171
▁ultimate	-10.6181
▁invite	-10.6192
▁representing	-10.6193
▁minimize	-10.6197
▁acquire	-10.62
▁acceptance	-10.6207
▁subsequently	-10.6208
▁ordered	-10.6212
▁confident	-10.6214
▁thermal	-10.6214
▁evolution	-10.6215
▁forever	-10.6216
▁thoughts	-10.6218
▁alarm	-10.622
▁inner	-10.6222
▁elimination	-10.6222
▁expense	-10.6223
▁renewable	-10.6229
▁simulation	-10.6233
▁checked	-10.624
▁:	-10.6243
▁prohibited	-10.6244
▁sand	-10.6259
▁grew	-10.6261
▁silver	-10.6269
▁subjects	-10.6274
▁bond	-10.6275
▁alive	-10.6277
▁ethics	-10.6278
▁employer	-10.6279
▁150	-10.628
▁socio	-10.6285
▁plenty	-10.6287
▁tab	-10.6298
▁aviation	-10.6306
▁chat	-10.6308
▁obviously	-10.6315
▁spoke	-10.6319
▁optimize	-10.6319
▁prospects	-10.6319
▁split	-10.6321
▁strange	-10.6321
▁delivering	-10.6322
▁salt	-10.6325
▁lawyer	-10.6327
▁disposal	-10.6329
▁visiting	-10.633
▁purchasing	-10.6335
▁conventions	-10.6335
▁hence	-10.6338
▁pan	-10.6343
▁pregnant	-10.6345
▁david	-10.6356
▁league	-10.6361
tech	-10.6362
▁usb	-10.6364
▁2010,	-10.6365
▁surveillance	-10.6368
▁calculation	-10.6369
▁migrants	-10.6379
▁absolutely	-10.6386
▁premium	-10.6387
there	-10.6392
▁preliminary	-10.6399
▁coordinate	-10.6401
▁detected	-10.6404
▁pending	-10.6405
▁orientation	-10.6406
▁convinced	-10.6408
down	-10.6417
▁regarded	-10.6417
state	-10.6417
▁tag	-10.6418
▁glad	-10.6419
minute	-10.6419
ability	-10.6431
▁totally	-10.6433
▁tank	-10.6436
▁elderly	-10.6449
▁combating	-10.6449
▁denied	-10.645
▁municipal	-10.645
▁meal	-10.6452
▁herzegovina	-10.6453
▁mobility	-10.6456
▁wage	-10.6458
▁frequent	-10.6459
▁unity	-10.646
ro	-10.6482
▁economics	-10.6485
▁wire	-10.6489
▁portal	-10.6492
▁connectivity	-10.65
▁escape	-10.6504
▁tips	-10.6507
▁authors	-10.6507
▁darfur	-10.6515
▁optimal	-10.6516
▁harmful	-10.6516
▁imported	-10.6518
▁thin	-10.6521
▁tape	-10.6521
▁sad	-10.6531
▁allegations	-10.6534
▁considers	-10.6537
▁manufacture	-10.6539
▁rail	-10.6539
proliferation	-10.6546
▁tons	-10.655
▁discovery	-10.6568
▁separation	-10.6572
bit	-10.6575
▁thread	-10.6577
▁territorial	-10.6578
▁competent	-10.6579
ne	-10.6582
▁oversight	-10.6584
▁fails	-10.6586
▁1996	-10.6586
▁usual	-10.6594
▁merely	-10.6594
▁repeat	-10.6594
▁layers	-10.6601
▁exciting	-10.6607
▁explanation	-10.6608
▁classic	-10.6609
▁afghan	-10.661
▁mrs	-10.6619
▁lesson	-10.6623
▁recommends	-10.6628
▁initially	-10.6632
▁genetic	-10.6632
▁forth	-10.6646
▁heating	-10.665
▁gained	-10.6651
▁leone	-10.6652
▁earn	-10.6654
▁acid	-10.6661
▁directory	-10.6663
▁tower	-10.6663
▁di	-10.6664
▁conducting	-10.6665
▁philippines	-10.6669
▁icon	-10.6672
▁survival	-10.6673
▁claimed	-10.6677
▁streets	-10.6685
▁cast	-10.6686
▁utility	-10.6687
▁rejected	-10.6688
▁fed	-10.6688
▁1980	-10.6688
son	-10.6698
▁studied	-10.6703
▁counsel	-10.6709
12	-10.671
▁acquired	-10.671
▁sizes	-10.6715
▁geographical	-10.6718
▁adds	-10.672
▁enormous	-10.6725
▁therapy	-10.6731
▁paint	-10.6732
▁classification	-10.6734
▁tolerance	-10.6736
▁band	-10.6743
income	-10.6761
▁valve	-10.6765
▁permissions	-10.6767
▁cooking	-10.6768
▁viewed	-10.6771
▁unknown	-10.6776
▁stood	-10.6779
▁preserve	-10.678
▁competitiveness	-10.6784
▁earnings	-10.6784
▁prosperity	-10.6789
▁steam	-10.679
▁substance	-10.6791
▁cultures	-10.6796
▁violent	-10.6801
▁vertical	-10.6803
▁balcony	-10.6805
▁rwanda	-10.6807
▁da	-10.6808
▁recession	-10.681
se	-10.6814
▁consult	-10.6821
▁ride	-10.6823
tergovernmental	-10.6824
▁meals	-10.6825
▁roll	-10.6826
▁posted	-10.6829
▁discount	-10.683
▁argentina	-10.6832
▁contributing	-10.6837
▁bid	-10.684
▁(1	-10.6854
▁sophisticated	-10.6855
▁os	-10.6857
▁authorization	-10.6868
▁asylum	-10.6879
▁arising	-10.6886
▁rescue	-10.6888
▁compatible	-10.6891
▁residential	-10.6891
▁painting	-10.6905
▁committees	-10.6907
▁classroom	-10.6916
▁losing	-10.6918
▁registry	-10.6919
▁palestinians	-10.6922
▁mines	-10.6924
▁hole	-10.6925
▁killing	-10.6929
▁foods	-10.6931
▁meaningful	-10.6934
▁truck	-10.6936
▁trusted	-10.6936
▁engines	-10.694
▁whereas	-10.6943
▁amendments	-10.6946
▁cheap	-10.6948
▁bottle	-10.6951
▁fax	-10.6954
▁connecting	-10.6956
▁bearing	-10.6956
▁transitional	-10.6957
▁lady	-10.6958
▁households	-10.6966
▁narrow	-10.697
▁cap	-10.6972
▁workplace	-10.6974
▁schemes	-10.6976
▁consequently	-10.6979
▁strike	-10.6981
▁accommodate	-10.6982
▁happening	-10.6984
▁filters	-10.6996
▁1995	-10.7003
▁saudi	-10.7009
▁promoted	-10.7012
▁sight	-10.7012
speed	-10.7012
▁highlight	-10.7014
est	-10.7019
▁dignity	-10.702
▁grave	-10.7023
ex	-10.7023
li	-10.7028
▁opposite	-10.703
▁diamond	-10.705
▁sanitation	-10.7051
▁separately	-10.7058
▁bird	-10.7059
▁enjoyed	-10.7062
▁awards	-10.707
screen	-10.707
▁globally	-10.7073
▁stands	-10.7074
▁everyday	-10.7081
▁turns	-10.7084
▁witness	-10.7088
▁paul	-10.7089
▁simultaneously	-10.7095
▁birds	-10.7105
▁flag	-10.7107
new	-10.7108
▁ha	-10.7114
▁exchanges	-10.7115
ga	-10.7119
▁variables	-10.712
▁foster	-10.7127
▁lounge	-10.7128
care	-10.7131
▁solidarity	-10.7132
▁trigger	-10.7134
▁academy	-10.7137
▁adverse	-10.714
mo	-10.7141
▁bike	-10.7143
▁negotiation	-10.7144
▁outlook	-10.7145
▁worried	-10.7146
▁commodities	-10.7147
il	-10.7154
▁slide	-10.716
▁disclosure	-10.7165
▁48	-10.7169
▁mac	-10.7169
▁racial	-10.717
▁insufficient	-10.7174
▁exploration	-10.7175
net	-10.718
▁cyprus	-10.7186
▁accompanied	-10.7189
▁considerations	-10.719
service	-10.7194
▁conclusions	-10.7195
▁focuses	-10.72
ba	-10.7201
▁consulting	-10.7202
▁transfers	-10.7204
▁width	-10.7207
▁strip	-10.721
▁signing	-10.7212
▁pregnancy	-10.7218
▁refused	-10.7222
ha	-10.7225
▁shower	-10.7229
▁cameras	-10.7232
terrorism	-10.7235
▁mountains	-10.7236
im	-10.7242
▁indoor	-10.7245
known	-10.7246
▁hide	-10.7252
▁cache	-10.7253
▁embedded	-10.7264
▁canadian	-10.7275
▁county	-10.7275
▁appeals	-10.7278
▁pursuit	-10.7279
▁urge	-10.7285
▁walls	-10.7285
friendly	-10.7286
▁heavily	-10.7287
▁spaces	-10.729
▁tradition	-10.729
▁exam	-10.7292
▁gaps	-10.7295
▁wages	-10.7301
▁hub	-10.7302
▁anniversary	-10.7306
▁opinions	-10.7308
▁everywhere	-10.7309
▁pleasure	-10.731
▁crises	-10.731
▁repeated	-10.7313
ating	-10.7321
▁departure	-10.7322
▁fulfil	-10.7324
▁marks	-10.7325
▁constructive	-10.7326
▁wto	-10.7328
▁bath	-10.733
▁guard	-10.7336
▁spacious	-10.7338
▁maritime	-10.734
▁circle	-10.7345
▁400	-10.735
over	-10.7351
▁preventive	-10.7354
▁interim	-10.7357
▁convenience	-10.7361
▁injured	-10.7363
▁tough	-10.7365
▁organs	-10.7371
ise	-10.7371
▁mistakes	-10.7371
▁ukraine	-10.7373
ary	-10.7373
▁configure	-10.738
▁blog	-10.7382
▁citizen	-10.7387
▁genuine	-10.7389
▁yield	-10.7389
▁knowing	-10.74
▁fluid	-10.74
▁temperatures	-10.7408
▁curriculum	-10.7417
▁broke	-10.7419
▁certificates	-10.7422
▁accelerate	-10.7426
▁wearing	-10.7432
▁somebody	-10.7438
▁surgery	-10.7439
▁healthcare	-10.7445
▁mini	-10.7449
▁surprise	-10.7451
▁calm	-10.7458
▁observation	-10.7463
▁pack	-10.7477
▁mary	-10.7478
▁cabinet	-10.7478
▁publish	-10.7484
▁checking	-10.7485
▁shareholders	-10.7489
ter	-10.749
▁terrace	-10.7493
▁commands	-10.7495
▁occasion	-10.7497
▁concentration	-10.75
▁pipe	-10.7504
▁valley	-10.7507
▁consistently	-10.7515
▁analytics	-10.7515
▁witnesses	-10.7518
▁certified	-10.7525
▁liberia	-10.7526
▁revealed	-10.754
▁designing	-10.7547
▁hydraulic	-10.7553
▁falls	-10.7555
▁controlling	-10.7557
▁continent	-10.756
▁cargo	-10.7562
▁selecting	-10.757
▁honest	-10.7577
▁adjustments	-10.7582
▁libraries	-10.7583
▁george	-10.7588
▁definitely	-10.7594
▁illness	-10.7597
▁cancel	-10.76
▁choosing	-10.7601
▁methodology	-10.7613
▁workflow	-10.7614
▁transmitted	-10.7616
▁tennis	-10.7621
ent	-10.7621
▁cooperative	-10.7625
▁adjusted	-10.7627
▁presents	-10.7634
▁exit	-10.7636
▁excess	-10.7638
▁surveys	-10.7642
▁friendship	-10.7642
▁invitation	-10.7645
▁beneficial	-10.7645
▁lord	-10.7647
▁bandwidth	-10.7648
▁ships	-10.7649
▁governor	-10.7659
▁arise	-10.766
▁angry	-10.7666
▁investor	-10.7668
▁camps	-10.7671
▁notifications	-10.7679
ley	-10.7688
▁czech	-10.7692
back	-10.7697
▁supplied	-10.7699
▁originally	-10.7705
▁ceremony	-10.7705
▁vocational	-10.7706
▁reservations	-10.7707
▁removing	-10.771
▁wang	-10.7714
▁queue	-10.7719
et	-10.7722
▁coastal	-10.7723
▁incentives	-10.7723
▁viewing	-10.7725
▁rape	-10.7727
▁taught	-10.7727
▁editing	-10.7728
▁interact	-10.7729
ge	-10.773
▁kenya	-10.7733
bo	-10.7739
▁forests	-10.774
▁threshold	-10.7744
▁flying	-10.775
▁declined	-10.7751
▁derived	-10.7754
▁mandatory	-10.7756
▁random	-10.7757
▁cuts	-10.7757
▁realistic	-10.7766
▁logical	-10.7768
▁withdrawal	-10.7768
▁composed	-10.7777
▁strive	-10.7779
11	-10.7783
▁ends	-10.7783
▁receipt	-10.7784
▁myanmar	-10.779
▁roof	-10.7791
ists	-10.7798
▁provinces	-10.78
ke	-10.7803
▁unesco	-10.7803
▁deficit	-10.7804
▁noting	-10.7805
▁administrators	-10.7809
▁rome	-10.781
▁8.	-10.7811
▁references	-10.7812
▁ethical	-10.7814
")	-10.7827
▁satisfy	-10.7829
▁fairly	-10.7831
▁(2)	-10.7832
▁arrange	-10.7833
▁colombia	-10.7834
▁joy	-10.7835
▁info	-10.784
▁usd	-10.7854
▁36	-10.7859
▁strictly	-10.7861
▁confirmation	-10.7866
▁observe	-10.7869
▁parameter	-10.787
▁younger	-10.7871
effective	-10.7883
▁leverage	-10.7888
▁routes	-10.7891
▁operated	-10.7892
▁sciences	-10.7892
▁stick	-10.7901
▁holidays	-10.7905
▁vendors	-10.7908
▁mirror	-10.7912
▁static	-10.7913
▁keeps	-10.7914
▁inclusive	-10.7927
▁measurements	-10.793
▁insert	-10.7932
▁confidential	-10.7935
▁turkish	-10.794
▁trials	-10.794
▁convert	-10.7946
▁exceptional	-10.7952
▁preview	-10.7955
▁instruction	-10.796
▁tobacco	-10.7962
▁recognizing	-10.7965
▁jointly	-10.7966
▁hire	-10.7967
▁poland	-10.7968
▁examined	-10.7969
hand	-10.7974
▁console	-10.7978
▁publications	-10.798
▁governmental	-10.798
▁magazine	-10.7982
▁metres	-10.7986
▁produces	-10.7992
▁kid	-10.7993
▁maximize	-10.7995
▁advances	-10.7997
from	-10.8003
▁tells	-10.8004
▁executed	-10.8011
▁crazy	-10.8015
▁licensing	-10.8015
▁fiber	-10.8018
▁belong	-10.8019
▁hi	-10.8022
▁instant	-10.8023
date	-10.8023
▁makers	-10.8023
▁semi	-10.8027
▁drag	-10.8029
▁cook	-10.8034
▁hybrid	-10.8039
▁storm	-10.8041
▁density	-10.8044
▁reception	-10.8046
▁url	-10.8047
ka	-10.8048
▁naturally	-10.8049
▁virtually	-10.8049
▁passport	-10.805
▁judiciary	-10.8061
▁revenues	-10.8061
▁2018	-10.8064
▁lending	-10.8066
▁weapon	-10.8066
▁determines	-10.8069
▁sovereign	-10.8074
▁editor	-10.8077
▁vietnam	-10.8078
▁fans	-10.8079
▁boxes	-10.8081
▁nigeria	-10.8086
▁personally	-10.8091
▁inadequate	-10.8091
side	-10.8093
▁unlikely	-10.8094
▁offset	-10.8094
▁seller	-10.8095
month	-10.8102
▁legally	-10.8112
▁suspected	-10.8112
▁vienna	-10.8114
▁lu	-10.8119
▁dealt	-10.8122
▁treasury	-10.8134
▁ending	-10.8135
▁complaint	-10.8135
ko	-10.8137
when	-10.8151
▁listing	-10.8155
▁possibilities	-10.8157
▁airlines	-10.8157
▁magic	-10.8158
▁emotional	-10.816
china	-10.8162
▁encryption	-10.8162
▁delays	-10.8163
▁publishing	-10.8167
▁loop	-10.8167
▁producers	-10.8168
▁resident	-10.8172
▁2008.	-10.8173
▁engineer	-10.8178
▁columns	-10.8181
▁assign	-10.8182
▁provincial	-10.8209
▁interventions	-10.8214
▁blind	-10.8218
▁queries	-10.8219
▁organisations	-10.8222
▁broadcast	-10.8225
▁resume	-10.8227
▁vacation	-10.8227
▁affordable	-10.8228
▁interference	-10.8228
▁mis	-10.8229
▁premises	-10.8229
▁investing	-10.8229
▁spokesman	-10.8229
▁min	-10.8232
▁meets	-10.8233
▁locked	-10.8235
▁100%	-10.8241
▁campus	-10.8244
▁optimization	-10.8245
▁anyway	-10.8246
▁buttons	-10.8246
▁integral	-10.8246
▁incorporated	-10.8249
▁1994	-10.825
▁retention	-10.8253
▁bi	-10.8256
▁1999,	-10.8256
▁mar	-10.826
▁shouldn	-10.827
▁batteries	-10.8271
▁transform	-10.828
▁murder	-10.8281
▁settlements	-10.8283
sized	-10.8284
▁seminar	-10.8284
▁7.	-10.8285
▁regards	-10.83
▁75	-10.8308
▁pursuant	-10.831
▁villa	-10.8319
▁horse	-10.8324
▁jump	-10.8325
▁protective	-10.833
▁visibility	-10.8335
▁herself	-10.8336
▁haiti	-10.8336
▁secured	-10.8337
ine	-10.8343
▁ecological	-10.8351
▁pet	-10.8353
▁terrorists	-10.8355
▁chronic	-10.8362
▁alia	-10.8363
▁accessories	-10.837
ol	-10.8372
▁childhood	-10.8375
▁steady	-10.838
style	-10.8383
▁calculate	-10.8384
▁lifetime	-10.8386
▁oxygen	-10.8387
▁mapping	-10.8387
▁assurance	-10.839
star	-10.8392
▁corporations	-10.8393
made	-10.8393
▁till	-10.84
▁hardly	-10.8407
18	-10.8408
▁vegetables	-10.8416
▁breach	-10.8417
▁aside	-10.8417
▁uganda	-10.8422
▁searching	-10.843
▁innocent	-10.843
they	-10.8434
▁attractions	-10.8435
▁welcomes	-10.8436
▁entrance	-10.844
▁responding	-10.8441
▁promised	-10.8443
▁routine	-10.8443
▁villages	-10.8444
▁basically	-10.8446
▁acknowledged	-10.8448
▁swiss	-10.8449
▁passing	-10.845
▁unified	-10.8452
▁dishes	-10.8455
▁palace	-10.8466
▁austria	-10.8471
▁diabetes	-10.8479
▁margin	-10.848
▁tip	-10.8482
▁compromise	-10.8486
▁finland	-10.8489
po	-10.849
▁gather	-10.8497
▁gear	-10.85
▁novel	-10.8502
▁modes	-10.8505
▁reset	-10.851
▁globe	-10.8512
▁specialist	-10.8512
▁apartments	-10.8523
▁queen	-10.8525
▁mothers	-10.8526
▁doors	-10.8533
▁prompt	-10.8534
▁highlights	-10.8539
▁2005.	-10.8546
▁christ	-10.855
ci	-10.855
▁awarded	-10.8553
ant	-10.8554
▁hill	-10.8555
▁magnetic	-10.8562
▁personality	-10.8564
▁ingredients	-10.8564
▁wherever	-10.8564
ish	-10.8566
▁georgia	-10.8566
▁recipient	-10.8572
▁destroy	-10.8582
-1	-10.8584
▁proliferation	-10.8584
▁burundi	-10.8586
▁gifts	-10.8591
ur	-10.8595
▁timing	-10.8598
▁artists	-10.8598
▁freely	-10.8601
▁65	-10.8603
▁hunger	-10.8609
ner	-10.8612
our	-10.8614
▁talked	-10.8615
▁distinct	-10.862
▁observers	-10.8623
▁luck	-10.8625
▁designers	-10.8629
▁designer	-10.8632
▁leisure	-10.8636
▁winning	-10.8638
▁imprisonment	-10.8645
▁buyers	-10.865
▁ict	-10.8654
em	-10.8658
▁decreased	-10.8658
▁accurately	-10.8666
▁explains	-10.8669
▁palestine	-10.8669
▁unprecedented	-10.8671
▁2012,	-10.8673
ate	-10.8679
▁warranty	-10.8686
▁ties	-10.8692
▁infected	-10.8692
ated	-10.8693
▁survive	-10.8693
▁consolidation	-10.8695
fa	-10.8698
▁funded	-10.87
▁hell	-10.8707
▁executives	-10.8708
▁retirement	-10.8718
▁gate	-10.8725
▁harder	-10.873
depth	-10.8732
▁publicly	-10.8733
▁targeting	-10.8733
▁beat	-10.8734
▁cuisine	-10.8753
ised	-10.8757
▁tropical	-10.8757
▁ethiopia	-10.8758
▁freedoms	-10.8765
▁locally	-10.8765
▁characteristic	-10.8768
▁purchases	-10.8769
south	-10.8771
▁33	-10.8777
▁breast	-10.8778
▁equitable	-10.878
▁depression	-10.878
▁inputs	-10.8781
▁expenditures	-10.8788
▁readers	-10.8791
▁detained	-10.8796
▁branches	-10.8801
19	-10.8803
▁jerusalem	-10.8806
▁offline	-10.8807
▁travelling	-10.8807
▁competence	-10.8811
point	-10.8811
▁malaria	-10.8813
▁ca	-10.8816
▁competitors	-10.8817
▁throw	-10.8828
▁copper	-10.883
▁diagnosis	-10.8837
▁anymore	-10.8837
▁monitored	-10.8838
▁operates	-10.8844
▁partial	-10.8844
▁advised	-10.8845
▁ecosystem	-10.8848
▁essentially	-10.8851
▁firmly	-10.8855
▁christian	-10.8861
▁ranging	-10.8865
▁mood	-10.8874
▁vessels	-10.8875
work	-10.8881
▁execute	-10.8883
▁9.	-10.8885
▁coalition	-10.8899
▁peter	-10.8901
▁journalists	-10.8902
▁seeks	-10.8904
ri	-10.8908
▁entries	-10.8911
!"	-10.8913
▁observations	-10.8914
▁feels	-10.8919
▁precious	-10.892
▁cry	-10.8921
▁steering	-10.8931
▁grass	-10.8931
▁ultra	-10.8934
▁bread	-10.8937
▁fallen	-10.8944
▁assessed	-10.8946
▁crops	-10.895
▁graduate	-10.8951
▁hat	-10.8952
▁physics	-10.8959
long	-10.8962
ce	-10.8963
she	-10.8966
▁hd	-10.897
▁powder	-10.8972
▁animation	-10.8982
▁returning	-10.8983
▁1,000	-10.8984
▁chile	-10.8986
▁2011,	-10.8988
▁tube	-10.8991
▁preferences	-10.8992
▁consultants	-10.8996
▁golden	-10.8999
▁rubber	-10.9001
▁segments	-10.9004
▁::	-10.9011
▁opposed	-10.9013
▁recall	-10.9014
▁injuries	-10.9017
▁threatened	-10.9017
▁perfectly	-10.9017
ec	-10.9018
▁2010.	-10.9024
min	-10.9025
▁aggression	-10.9026
▁34	-10.903
▁kit	-10.9039
▁realization	-10.904
▁workforce	-10.904
▁mineral	-10.9045
▁formulation	-10.9051
▁finds	-10.9057
▁belgium	-10.9063
▁voting	-10.9065
▁weekly	-10.9074
▁unctad	-10.9084
▁credibility	-10.9085
east	-10.909
▁minimal	-10.9091
▁volumes	-10.9093
▁directions	-10.9094
▁upload	-10.9104
▁ages	-10.9105
▁grants	-10.911
▁subjected	-10.9112
▁partly	-10.9115
first	-10.9122
▁suspect	-10.9123
▁tackle	-10.9125
▁seminars	-10.9125
▁2007.	-10.9126
▁honour	-10.913
▁obtaining	-10.914
▁matching	-10.9142
▁staying	-10.9145
▁forums	-10.9148
▁arabia	-10.915
▁tight	-10.9152
▁factories	-10.9157
▁hosted	-10.916
▁introducing	-10.9164
board	-10.9165
▁mandates	-10.9171
▁restructuring	-10.9172
▁shenzhen	-10.918
▁safeguard	-10.9181
▁1998,	-10.9184
▁separated	-10.919
▁uncertainty	-10.9191
ap	-10.9193
car	-10.9193
▁facilitating	-10.9194
▁enforce	-10.9194
▁assignment	-10.9194
▁extraordinary	-10.9201
▁denmark	-10.9201
▁exceptions	-10.9203
▁profiles	-10.9207
▁sole	-10.9209
▁specification	-10.9209
▁artist	-10.9214
▁unusual	-10.9215
▁uniform	-10.9216
▁secondly	-10.9217
▁artificial	-10.9219
▁handled	-10.9221
▁maternal	-10.9222
▁2009.	-10.9223
▁inquiry	-10.9228
▁traders	-10.9233
▁attach	-10.9236
▁independently	-10.9237
▁mortgage	-10.9238
▁advancement	-10.9243
▁giant	-10.9246
▁attribute	-10.9247
▁api	-10.9259
▁surprised	-10.926
▁discharge	-10.9271
▁peer	-10.9273
▁washing	-10.9274
▁leg	-10.9281
▁harassment	-10.9286
▁adaptation	-10.9287
ul	-10.9288
▁trace	-10.9288
▁120	-10.9295
▁recognizes	-10.9297
▁momentum	-10.9301
▁guided	-10.9305
▁generations	-10.9312
▁bags	-10.9314
▁advise	-10.9316
▁switches	-10.9318
▁styles	-10.9319
tic	-10.932
▁nodes	-10.9322
▁walked	-10.9324
▁devoted	-10.9325
▁honor	-10.9329
▁filed	-10.933
ir	-10.9336
▁curve	-10.9336
▁receives	-10.9337
▁repeatedly	-10.9345
▁assumed	-10.9346
▁consolidated	-10.9351
▁pose	-10.9351
▁analyses	-10.9354
▁tension	-10.9356
▁leather	-10.9357
▁theoretical	-10.9366
▁flower	-10.9368
▁diagnostic	-10.9368
▁accidents	-10.937
▁fabric	-10.937
▁crowd	-10.9371
▁outlined	-10.9371
▁jordan	-10.9372
▁biodiversity	-10.9374
▁drafting	-10.9375
▁periodic	-10.9376
▁suppose	-10.9382
bar	-10.9383
▁posed	-10.9389
▁2006.	-10.9398
▁lucky	-10.9404
▁judgment	-10.9406
▁sing	-10.9407
▁indicating	-10.9409
▁passion	-10.9419
▁respected	-10.9419
▁migrant	-10.9425
▁batch	-10.9427
▁ignore	-10.9428
▁allowance	-10.9434
▁cream	-10.9435
▁metadata	-10.9439
▁annex	-10.9442
▁sri	-10.9442
▁courage	-10.9443
▁universe	-10.9447
▁relate	-10.9451
▁pressing	-10.9453
▁azure	-10.9464
▁spiritual	-10.9472
▁10%	-10.9473
type	-10.9477
▁citizenship	-10.9479
▁failures	-10.948
▁basketball	-10.948
▁mount	-10.948
▁taxi	-10.9483
▁edition	-10.9484
▁arguments	-10.9487
▁sam	-10.9488
▁bulk	-10.9488
▁associate	-10.9494
▁defining	-10.9495
▁fa	-10.9495
▁cambodia	-10.9496
▁alternatives	-10.9498
▁missile	-10.9498
▁civilization	-10.9503
▁encourages	-10.9505
▁songs	-10.9507
▁labels	-10.9509
cost	-10.951
▁unnecessary	-10.9513
▁consistency	-10.9514
▁adopting	-10.9519
▁spectrum	-10.9522
▁consequence	-10.9523
▁unfpa	-10.9523
run	-10.953
▁lebanese	-10.9532
▁ministries	-10.9533
▁insights	-10.9543
▁50%	-10.9544
▁hp	-10.9546
▁reader	-10.9547
▁renewed	-10.9548
16	-10.9549
▁michael	-10.9557
▁subsidies	-10.9557
▁gathered	-10.9558
▁writer	-10.956
30	-10.956
▁profound	-10.9562
▁smith	-10.9563
▁opens	-10.9564
▁annually	-10.9565
▁portugal	-10.9568
▁suicide	-10.9569
▁ear	-10.9575
▁collapse	-10.9576
▁clause	-10.9576
▁projected	-10.9578
▁propose	-10.958
ti	-10.9593
▁bin	-10.9597
▁undertaking	-10.9599
▁suggestion	-10.9601
▁boundaries	-10.9605
▁differ	-10.9606
▁explicitly	-10.9607
▁deemed	-10.9609
▁displacement	-10.9616
ni	-10.9621
▁perpetrators	-10.9625
▁accessed	-10.9625
▁brothers	-10.9626
▁loaded	-10.9627
market	-10.9628
▁emerged	-10.9633
ee	-10.9642
ho	-10.9642
▁ordinance	-10.9643
ah	-10.9649
▁11.	-10.9654
▁wisdom	-10.9655
▁damages	-10.9656
ip	-10.9657
▁warehouse	-10.9658
▁impressive	-10.9659
▁ni	-10.9661
▁alerts	-10.9663
▁isolated	-10.9663
▁eco	-10.9665
▁shapes	-10.9665
▁collecting	-10.9666
▁rmb	-10.9669
▁somewhere	-10.967
▁greenhouse	-10.9671
▁durable	-10.9678
▁reflection	-10.9687
▁missed	-10.9687
▁defines	-10.9688
only	-10.9691
▁suspended	-10.9695
▁discipline	-10.9696
▁rarely	-10.9696
▁kg	-10.9696
▁prince	-10.9696
▁currencies	-10.9697
▁films	-10.9699
▁restrict	-10.97
▁shooting	-10.9702
▁imperative	-10.9708
▁vacuum	-10.9709
▁blocked	-10.9711
▁essence	-10.9712
▁humans	-10.9714
au	-10.9716
▁oral	-10.9723
▁morocco	-10.9725
▁experimental	-10.9728
▁regret	-10.9736
▁charging	-10.9738
▁breaking	-10.9745
▁pharmaceutical	-10.9746
▁sleeping	-10.9747
▁sydney	-10.975
▁announcement	-10.9752
red	-10.9754
▁interfaces	-10.9757
▁customized	-10.9759
▁protocols	-10.9761
▁na	-10.9768
▁constitutes	-10.977
▁soviet	-10.9771
▁foreigners	-10.9775
▁mature	-10.9776
▁boundary	-10.978
▁loading	-10.978
▁invention	-10.9783
▁intent	-10.9784
▁amended	-10.9785
▁1993	-10.9788
▁waters	-10.9792
▁gathering	-10.9794
▁underground	-10.9795
▁teeth	-10.98
▁revision	-10.9803
▁compete	-10.9805
▁shadow	-10.9805
▁reportedly	-10.9806
▁ignored	-10.9809
▁yugoslavia	-10.9811
▁("	-10.9813
▁bills	-10.9814
▁advocacy	-10.982
▁connector	-10.9821
well	-10.9822
50	-10.9826
▁homework	-10.9827
▁impression	-10.9829
▁delayed	-10.9832
▁hang	-10.9834
▁neighbouring	-10.9836
▁shock	-10.9836
▁identical	-10.9839
▁elegant	-10.9839
▁thorough	-10.9839
▁impose	-10.9841
▁robot	-10.9845
▁fellow	-10.9851
▁indirect	-10.9857
▁ruling	-10.9857
▁thinks	-10.9858
▁exercises	-10.9859
▁terrible	-10.9867
▁lee	-10.9869
▁intend	-10.987
▁browse	-10.9875
▁safely	-10.9884
▁ministerial	-10.9887
▁55	-10.9891
▁crop	-10.9892
▁distinction	-10.9893
▁brake	-10.9894
▁chose	-10.9895
▁analytical	-10.9898
▁arbitrary	-10.9903
▁baggage	-10.9905
▁stack	-10.9907
▁malicious	-10.9908
▁gene	-10.9909
▁towns	-10.9911
▁peru	-10.9915
▁matches	-10.9915
▁funny	-10.9919
▁victory	-10.9919
▁workload	-10.9924
▁vi	-10.9925
▁deeper	-10.9926
▁catalog	-10.9933
▁croatia	-10.9936
▁coordinator	-10.9938
▁defend	-10.9939
99	-10.994
▁dell	-10.994
▁somewhat	-10.9948
14	-10.9953
▁warned	-10.996
▁chocolate	-10.9965
▁router	-10.9966
▁holy	-10.9967
▁vitamin	-10.997
▁eliminating	-10.9972
▁substantially	-10.9972
▁dc	-10.9973
▁geographic	-10.9974
op	-10.9975
▁gallery	-10.9975
▁evil	-10.9977
▁reviewing	-10.9979
▁characterized	-10.998
▁tourists	-10.998
▁insight	-10.9987
▁statute	-10.9987
▁logs	-10.999
▁emphasize	-10.9996
▁metals	-11.0007
▁studio	-11.0007
▁$5	-11.0008
▁fisheries	-11.0009
▁persistent	-11.0016
▁beer	-11.0019
▁solely	-11.0028
▁validation	-11.003
▁permits	-11.003
rate	-11.0038
▁conclude	-11.0045
▁delivers	-11.0053
▁arranged	-11.0053
▁apparent	-11.0055
▁cotton	-11.0056
▁converted	-11.0059
▁predict	-11.006
▁medicines	-11.0062
▁isolation	-11.0063
▁hazardous	-11.0063
▁joining	-11.0064
▁generating	-11.0065
▁wash	-11.0068
▁marry	-11.0073
▁criticism	-11.0078
▁buffer	-11.0078
▁clicking	-11.0078
▁macro	-11.0078
room	-11.0081
▁los	-11.0082
▁laptop	-11.0082
ous	-11.0083
▁eggs	-11.0084
▁creativity	-11.0086
▁blame	-11.0092
▁ibm	-11.0097
▁pipeline	-11.0099
va	-11.0105
▁anybody	-11.0107
▁$2	-11.0116
▁precisely	-11.0119
▁engaging	-11.0119
▁acknowledge	-11.0121
▁blank	-11.0122
▁relevance	-11.0124
▁parliamentary	-11.0131
▁2004.	-11.0132
▁coordinating	-11.0132
▁safeguards	-11.0134
▁sync	-11.0134
▁lifestyle	-11.0138
▁ho	-11.0139
▁impunity	-11.014
▁captain	-11.0141
▁specialists	-11.0147
15	-11.0147
▁particles	-11.0148
▁portable	-11.0156
▁admitted	-11.0156
▁iaea	-11.0158
▁clip	-11.016
cs	-11.016
▁experiments	-11.0166
▁adequately	-11.0168
▁imf	-11.0169
▁incorporate	-11.0169
▁occasions	-11.0173
▁limitation	-11.0173
▁airline	-11.0174
▁tracks	-11.0185
▁communist	-11.0186
ya	-11.0186
▁attitudes	-11.0187
ping	-11.0189
▁lens	-11.0192
▁tablet	-11.0193
▁refuse	-11.0194
▁frameworks	-11.0195
▁prevented	-11.0198
▁classified	-11.0198
▁hasn	-11.0203
▁shell	-11.0212
▁login	-11.0214
▁38	-11.0219
▁applicant	-11.022
▁intensity	-11.0222
▁dissemination	-11.0222
operation	-11.0227
▁unions	-11.0227
▁syria	-11.0236
▁solving	-11.0237
▁degradation	-11.0242
▁fleet	-11.0243
▁monitors	-11.0243
▁combining	-11.0243
▁liver	-11.0245
▁finger	-11.0261
▁updating	-11.0264
ii	-11.0266
▁burn	-11.0266
▁activated	-11.0266
100	-11.0271
▁demanding	-11.0271
▁unexpected	-11.0273
▁nepal	-11.0274
▁$4	-11.0275
▁screening	-11.0278
▁trans	-11.0279
▁negotiating	-11.028
▁12.	-11.0282
▁crash	-11.0289
▁archive	-11.0289
▁restart	-11.0289
▁acute	-11.0293
american	-11.0295
▁skilled	-11.0297
▁stops	-11.0302
▁switching	-11.0303
▁ra	-11.0308
▁credentials	-11.031
ray	-11.0311
▁captured	-11.0313
sp	-11.0314
▁excellence	-11.0315
▁necessity	-11.0315
▁noticed	-11.0316
▁sudden	-11.0317
▁reveal	-11.0325
▁harmony	-11.0327
▁panels	-11.0328
▁42	-11.033
▁chances	-11.0331
▁spite	-11.0331
▁du	-11.0336
▁surfaces	-11.0338
can	-11.0341
▁answered	-11.0341
▁responded	-11.0342
▁organ	-11.0346
▁taliban	-11.0353
▁placing	-11.0364
▁assisting	-11.0369
▁belt	-11.0371
▁deposits	-11.0373
▁possession	-11.0373
▁politicians	-11.0377
▁dial	-11.038
▁dogs	-11.0384
▁ka	-11.0384
▁nose	-11.0385
▁desert	-11.0389
government	-11.039
▁indication	-11.0397
▁2002.	-11.0405
▁metrics	-11.0414
driven	-11.0419
▁romantic	-11.0422
▁southeast	-11.0423
▁appliance	-11.0425
world	-11.0427
▁muslim	-11.0428
▁boards	-11.0428
▁bomb	-11.0432
▁passwords	-11.0437
▁newspapers	-11.0438
▁excluded	-11.0438
45	-11.0439
▁boot	-11.0445
▁accountable	-11.0451
step	-11.0452
▁fastest	-11.0456
▁frames	-11.0457
▁covenant	-11.0471
▁rational	-11.0473
▁cables	-11.0475
▁habits	-11.0477
▁grateful	-11.0481
▁intense	-11.0483
isation	-11.0483
▁caf	-11.0484
▁horizontal	-11.0486
▁containers	-11.0487
▁gulf	-11.0489
▁nervous	-11.0495
▁bangladesh	-11.0496
▁serial	-11.05
▁shelter	-11.0501
▁13.	-11.0509
▁conjunction	-11.0511
▁locate	-11.0512
▁formats	-11.0519
▁releases	-11.0522
▁custody	-11.0522
▁shortly	-11.0522
▁hr	-11.0527
▁pa	-11.0533
▁invoice	-11.0535
▁rio	-11.0538
▁intensive	-11.0545
▁aluminum	-11.055
▁hk	-11.0551
▁se	-11.0552
▁floors	-11.0552
▁compatibility	-11.0553
▁translated	-11.0565
▁silence	-11.0565
▁individually	-11.0568
▁tags	-11.0569
▁assessing	-11.0573
▁lovely	-11.0574
▁earned	-11.0576
▁upgrading	-11.0576
▁organizing	-11.0581
▁notify	-11.0584
▁applicants	-11.0584
▁sustain	-11.0585
▁tech	-11.0597
▁sensitivity	-11.06
lin	-11.0602
▁graphic	-11.0609
▁chip	-11.0611
24	-11.0615
border	-11.0621
▁attorney	-11.0641
▁dramatic	-11.0651
▁accessing	-11.0654
▁penal	-11.0661
▁liberty	-11.0666
▁chemistry	-11.0671
▁remarkable	-11.0673
▁exclusion	-11.0677
▁travellers	-11.0678
▁temple	-11.0682
▁licenses	-11.0683
▁moscow	-11.0696
▁wished	-11.0702
life	-11.0702
▁waves	-11.0703
▁temporarily	-11.0703
▁tiny	-11.0708
▁burning	-11.0709
▁beings	-11.0712
▁messaging	-11.0713
▁situated	-11.0715
▁infections	-11.0718
40	-11.0727
▁volunteers	-11.0729
▁premier	-11.0734
▁legacy	-11.0735
▁ft	-11.0735
▁votes	-11.0736
▁2003.	-11.0739
▁liable	-11.0739
▁settle	-11.0748
▁notably	-11.0753
▁themes	-11.0757
▁600	-11.0757
▁surplus	-11.0757
air	-11.0759
▁toys	-11.076
▁unilateral	-11.0762
der	-11.0763
▁artistic	-11.0764
▁exported	-11.0767
▁bo	-11.0767
▁frank	-11.0768
44	-11.0769
um	-11.077
▁perceived	-11.0771
ber	-11.0771
▁incurred	-11.0772
▁fate	-11.0772
▁preparatory	-11.0777
13	-11.0777
▁neutral	-11.0781
lo	-11.0784
▁remind	-11.0785
▁37	-11.0789
▁puts	-11.079
▁contractors	-11.0795
▁ought	-11.0797
▁tier	-11.0799
▁excited	-11.08
▁embargo	-11.0801
▁invested	-11.0801
▁exploring	-11.0802
▁autonomous	-11.0803
▁vessel	-11.0807
86	-11.0809
▁templates	-11.0812
▁para	-11.0812
▁interactions	-11.0815
▁initiate	-11.0819
▁restored	-11.0824
ance	-11.0828
▁liquidity	-11.083
vi	-11.0831
▁$3	-11.0831
▁argue	-11.0832
united	-11.0833
▁diagram	-11.0838
▁flood	-11.0841
▁imaging	-11.0842
▁tall	-11.0846
ier	-11.085
oc	-11.0851
▁anticipated	-11.0854
▁crystal	-11.0855
▁linear	-11.0857
▁thai	-11.0859
▁budgets	-11.0866
▁dna	-11.087
▁considerably	-11.0871
▁featuring	-11.0872
▁guilty	-11.0872
ence	-11.088
▁seal	-11.088
▁customize	-11.0887
▁bacteria	-11.089
▁traveling	-11.0891
▁cake	-11.0892
▁immune	-11.0896
▁chi	-11.09
▁250	-11.09
▁blow	-11.0903
▁stake	-11.0907
▁celebrate	-11.0907
▁20%	-11.0908
▁zhang	-11.0908
▁cookies	-11.091
▁bedrooms	-11.091
▁shortage	-11.091
▁adventure	-11.0911
▁wooden	-11.0913
▁emission	-11.0921
▁extract	-11.0924
▁diamonds	-11.0928
▁incorrect	-11.0929
▁folders	-11.0932
▁officially	-11.0933
▁optimized	-11.0935
▁downloaded	-11.0936
▁serbia	-11.0937
▁baseline	-11.0946
▁accomplish	-11.0948
▁reserved	-11.095
▁pride	-11.0951
▁divorce	-11.0952
▁14.	-11.0953
▁fears	-11.0957
▁backed	-11.096
▁gardens	-11.0961
▁racism	-11.0962
▁assure	-11.0962
▁hosting	-11.0965
▁mc	-11.0968
▁delegates	-11.0971
▁2001.	-11.0975
▁max	-11.0975
▁tears	-11.0985
▁installing	-11.0993
▁apparently	-11.1
▁rows	-11.1
▁prominent	-11.1006
▁mitigate	-11.1008
▁le	-11.101
▁lanka	-11.1011
▁abilities	-11.1011
▁licence	-11.1011
▁dramatically	-11.1013
▁assured	-11.1015
▁consciousness	-11.1019
▁2000.	-11.1019
let	-11.1021
▁amazon	-11.1024
▁orange	-11.1027
▁surrounded	-11.1028
▁accounted	-11.1036
▁unauthorized	-11.104
▁cope	-11.1041
field	-11.1043
▁settled	-11.1043
▁innovations	-11.1047
49	-11.1048
▁maintains	-11.1049
▁discussing	-11.105
▁definitions	-11.1051
▁collaborative	-11.1053
▁conditioning	-11.1058
▁socialist	-11.1062
▁barrier	-11.1064
▁cpu	-11.1065
determination	-11.1066
▁retained	-11.1067
▁gym	-11.1075
▁toxic	-11.1075
▁demonstration	-11.1075
▁reward	-11.1078
▁pocket	-11.1079
▁reiterated	-11.1079
▁evaluated	-11.108
▁distribute	-11.1082
▁flu	-11.1084
▁architectural	-11.1085
66	-11.1094
▁argued	-11.1097
▁clearance	-11.1098
▁suspension	-11.1099
▁spoken	-11.1101
▁offshore	-11.1103
▁belonging	-11.1109
▁smell	-11.1109
▁restoration	-11.111
▁bonus	-11.1112
▁gm	-11.1117
▁adapter	-11.1117
▁injection	-11.1118
▁tensions	-11.1118
▁2013,	-11.112
▁transnational	-11.1122
▁1.5	-11.1122
▁1992	-11.1123
▁prevents	-11.1126
▁configurations	-11.1126
▁iii	-11.1128
▁yen	-11.1128
▁logo	-11.1128
▁24-	-11.113
▁relatives	-11.1135
▁boom	-11.1139
▁admit	-11.1139
▁1997,	-11.1139
▁bone	-11.1144
▁graph	-11.1147
ab	-11.1153
▁buses	-11.1153
▁encountered	-11.1156
▁pursuing	-11.1158
▁penalties	-11.1164
▁psychology	-11.1166
▁manufactured	-11.1168
▁breath	-11.1172
▁disable	-11.1175
▁preference	-11.1181
▁fruits	-11.1185
▁inequality	-11.1196
▁urges	-11.1197
▁contractual	-11.1201
▁picked	-11.1203
▁creditors	-11.1205
▁symbols	-11.1206
▁generic	-11.1206
▁procedural	-11.1208
pe	-11.1208
▁honey	-11.1209
▁quantities	-11.1217
▁filling	-11.1217
▁exclusively	-11.1218
▁james	-11.1223
▁appliances	-11.1237
wa	-11.124
▁dubai	-11.1247
▁assisted	-11.1247
▁gateway	-11.1248
▁autumn	-11.1249
▁(19	-11.1253
▁crew	-11.1257
▁warming	-11.1259
▁diesel	-11.1259
▁su	-11.1263
▁compulsory	-11.1265
▁extending	-11.1273
▁angeles	-11.1276
▁render	-11.1278
▁thick	-11.1281
▁disclose	-11.1284
▁con	-11.1286
▁suites	-11.1287
-5	-11.1287
top	-11.1289
▁remedy	-11.1289
▁statutory	-11.1291
▁tone	-11.1292
▁viable	-11.1293
▁importantly	-11.1294
ship	-11.1298
▁empowerment	-11.1299
▁analyzed	-11.1301
▁sends	-11.1302
war	-11.1304
200	-11.1309
▁avoided	-11.1309
▁abstract	-11.1312
▁sp	-11.1312
▁freight	-11.1312
▁likes	-11.1313
ster	-11.1314
▁hello	-11.1314
▁gases	-11.1315
▁rough	-11.1317
2)	-11.132
▁calculations	-11.132
▁attempted	-11.1323
▁retrieve	-11.1325
▁servants	-11.1326
▁existed	-11.1329
▁composite	-11.1329
▁termination	-11.1334
▁parks	-11.1337
▁reaches	-11.1338
performance	-11.1339
▁excuse	-11.134
▁approve	-11.1342
▁petroleum	-11.1342
▁passage	-11.1343
▁invasion	-11.1346
▁treatments	-11.1348
▁rotation	-11.1351
▁entrepreneurs	-11.1354
▁dialog	-11.1357
▁influenced	-11.1358
▁legs	-11.136
▁compound	-11.1361
iv	-11.1362
▁improves	-11.1366
▁senate	-11.1371
▁neck	-11.1376
▁explosion	-11.1379
▁relates	-11.1382
▁recalled	-11.1385
▁placement	-11.1386
▁referring	-11.1386
▁modeling	-11.1386
▁explicit	-11.1389
▁aggressive	-11.1392
▁environmentally	-11.1397
right	-11.1397
▁plenary	-11.14
▁castle	-11.1402
▁observer	-11.1402
▁shorter	-11.1408
clock	-11.1411
▁mad	-11.1413
▁fired	-11.1417
▁infant	-11.1417
▁brush	-11.1419
▁insolvency	-11.1419
▁fao	-11.1419
▁embassy	-11.1419
▁regulated	-11.1427
▁outline	-11.1431
▁shoulder	-11.1435
▁interval	-11.1438
▁unep	-11.1439
▁memories	-11.1439
ji	-11.1441
▁drought	-11.1443
▁viruses	-11.145
▁mankind	-11.1451
▁39	-11.1453
▁angola	-11.1456
pc	-11.1462
set	-11.1462
▁incentive	-11.1463
▁occupational	-11.1468
▁genocide	-11.1468
▁interviews	-11.1469
▁habit	-11.1469
▁1970	-11.1474
▁shoot	-11.1474
▁paths	-11.1477
▁mediterranean	-11.1477
▁severely	-11.1479
▁concert	-11.148
▁positioning	-11.1485
▁translate	-11.1488
▁recycling	-11.1488
▁sixth	-11.1491
▁axis	-11.1496
▁bluetooth	-11.1497
▁failing	-11.15
▁16.	-11.1504
▁theatre	-11.1507
▁phases	-11.1511
que	-11.1512
▁liked	-11.1512
light	-11.1513
▁vaccine	-11.1516
▁inherent	-11.1516
▁ram	-11.1516
▁lamp	-11.1521
▁deadline	-11.1522
▁wars	-11.1526
▁clarify	-11.1528
▁tremendous	-11.1531
▁renewal	-11.1532
▁willingness	-11.1532
▁tries	-11.1533
▁44	-11.1536
▁hoping	-11.1538
▁gray	-11.1542
▁girlfriend	-11.1555
▁documented	-11.1557
▁belongs	-11.1557
commerce	-11.1559
▁experiencing	-11.1561
▁dashboard	-11.1562
▁activate	-11.1567
▁hoc	-11.1567
▁10-	-11.1571
▁supplement	-11.1578
▁economists	-11.1579
▁thirty	-11.1582
▁sentences	-11.1583
▁struck	-11.1585
▁inspired	-11.1587
▁azerbaijan	-11.159
▁provisional	-11.1592
▁babies	-11.1592
▁coach	-11.1596
▁zoom	-11.1604
▁avoiding	-11.1606
▁satisfactory	-11.1606
▁structured	-11.1609
▁huh	-11.1612
▁costly	-11.1612
▁shipment	-11.1614
▁unlimited	-11.1616
bi	-11.1617
▁token	-11.1619
▁beds	-11.162
▁consultative	-11.1623
cc	-11.1624
value	-11.1624
▁allegedly	-11.1625
▁pushed	-11.1625
cm	-11.1625
who	-11.1627
▁incoming	-11.1628
▁consolidate	-11.1631
▁surely	-11.1632
▁fever	-11.1634
▁roughly	-11.1637
pacific	-11.1638
▁adviser	-11.1641
▁traditionally	-11.1645
▁mu	-11.1652
▁solved	-11.1656
▁stem	-11.1662
▁desirable	-11.1663
water	-11.1664
▁cycles	-11.1667
▁chicago	-11.1671
▁prostitution	-11.1673
▁reflecting	-11.1673
▁encounter	-11.1676
▁completing	-11.1676
▁scanning	-11.1677
▁muscle	-11.1677
book	-11.1679
▁modernization	-11.1685
table	-11.1689
▁berlin	-11.1689
▁liberal	-11.169
▁progressive	-11.169
▁consultant	-11.1692
▁diameter	-11.1695
▁emirates	-11.1697
▁guiding	-11.1697
▁lo	-11.1697
▁feasible	-11.1701
▁deny	-11.1702
▁instability	-11.1702
34	-11.1705
▁2011.	-11.1707
▁um	-11.1707
▁stolen	-11.1709
▁hierarchy	-11.1713
ns	-11.1714
▁1991	-11.1717
▁remarks	-11.1719
17	-11.1722
▁requesting	-11.1728
▁matrix	-11.1737
▁pursued	-11.1738
▁paragraphs	-11.1739
▁800	-11.1743
▁incidence	-11.1743
▁concentrated	-11.1746
▁ngo	-11.1747
▁prospect	-11.1747
▁enforced	-11.1748
▁concentrate	-11.1753
▁complement	-11.176
▁varies	-11.1762
▁van	-11.1764
▁presidency	-11.1764
▁suited	-11.1767
▁coating	-11.177
32	-11.1773
▁prohibition	-11.1783
▁mediation	-11.1783
▁caution	-11.1785
▁drew	-11.1786
▁aws	-11.1792
▁epidemic	-11.1794
▁possess	-11.1795
▁farming	-11.1795
▁detainees	-11.1798
ming	-11.18
▁gay	-11.18
▁undermine	-11.18
▁voters	-11.1803
▁rewards	-11.1805
▁districts	-11.1807
▁seed	-11.1811
▁recovered	-11.1813
mp	-11.1814
▁mutually	-11.1814
▁literacy	-11.1816
▁integrating	-11.1818
▁2012.	-11.1819
▁encrypted	-11.1823
▁macroeconomic	-11.1825
▁lands	-11.1829
▁utilize	-11.1832
den	-11.1834
▁shuttle	-11.1836
km	-11.1838
▁atomic	-11.184
▁hero	-11.1842
500	-11.1842
▁profession	-11.1847
▁ah	-11.1849
▁withdraw	-11.1852
▁wise	-11.1853
▁evident	-11.1854
▁navigate	-11.1855
▁sheets	-11.1857
▁(3)	-11.1857
▁adhere	-11.1863
▁math	-11.1867
▁stimulus	-11.1868
▁quote	-11.187
▁inches	-11.187
▁tours	-11.1871
▁ceiling	-11.1871
▁ui	-11.1875
▁yu	-11.1877
▁tunnel	-11.1883
▁conducive	-11.1885
▁forming	-11.1892
▁1000	-11.1899
▁guangzhou	-11.19
▁dutch	-11.1901
▁proceeds	-11.1903
75	-11.1905
▁passes	-11.1905
dis	-11.1906
▁emails	-11.1907
▁rid	-11.1913
▁iranian	-11.1922
▁grain	-11.1927
▁ga	-11.1927
▁regulators	-11.1931
io	-11.1933
▁preparations	-11.1939
▁liberation	-11.1939
▁comprises	-11.1939
▁likewise	-11.1942
▁circulation	-11.1946
▁loves	-11.1947
▁par	-11.1949
▁identifies	-11.1957
▁tailored	-11.196
▁17.	-11.1961
ov	-11.1963
▁theories	-11.1963
▁contest	-11.1966
▁launching	-11.1969
▁construct	-11.197
▁admission	-11.1971
▁spatial	-11.1972
▁physically	-11.1973
▁roman	-11.1975
▁remedies	-11.198
▁et	-11.1983
ities	-11.1986
▁recipients	-11.2001
▁verified	-11.2001
▁disc	-11.2001
ak	-11.2001
hi	-11.2001
▁specially	-11.2003
▁fulfill	-11.2004
▁sofa	-11.2006
ana	-11.2006
▁rendering	-11.2009
▁pressures	-11.2015
▁highway	-11.2015
▁focal	-11.2017
▁stupid	-11.2021
▁belarus	-11.2022
power	-11.2024
▁participant	-11.2025
sharing	-11.2028
▁liabilities	-11.2031
▁collections	-11.2041
▁immigrants	-11.2043
▁subsidiary	-11.2046
▁judgement	-11.205
▁jim	-11.205
▁silent	-11.2052
▁dynamics	-11.2053
▁speeds	-11.2053
▁salaries	-11.2054
▁resolving	-11.2064
ring	-11.2071
▁proxy	-11.2079
▁alter	-11.2082
▁microwave	-11.2083
▁guides	-11.2084
▁chicken	-11.2085
▁bold	-11.209
▁outreach	-11.2093
▁centuries	-11.2095
▁logging	-11.21
▁hosts	-11.2102
▁corn	-11.2107
▁complainant	-11.2108
pro	-11.2109
▁attempting	-11.2114
▁algorithms	-11.2115
▁18.	-11.2116
▁41	-11.2117
▁swim	-11.2118
▁jet	-11.212
▁attracted	-11.2121
65	-11.2124
▁mounted	-11.2129
▁sauna	-11.2132
▁holder	-11.2132
▁eradication	-11.2141
▁budgetary	-11.2143
▁destinations	-11.2147
▁plain	-11.2148
▁autonomy	-11.2149
▁expressions	-11.2149
▁comparative	-11.215
▁watched	-11.2154
▁upcoming	-11.2155
▁hungary	-11.2159
▁opt	-11.2159
▁refund	-11.216
▁saint	-11.2162
▁negotiate	-11.2167
▁discriminatory	-11.2169
▁analyzing	-11.2174
▁mitigation	-11.2174
mi	-11.2175
▁limiting	-11.2175
▁producer	-11.2176
▁font	-11.2179
▁clinton	-11.218
▁restriction	-11.2186
▁spots	-11.2189
▁thoroughly	-11.2193
▁claimant	-11.2193
mer	-11.22
▁differently	-11.22
▁liu	-11.2201
▁conviction	-11.2201
▁phrase	-11.2207
▁activation	-11.221
▁sincere	-11.2215
33	-11.2217
▁nationals	-11.2218
▁traditions	-11.222
▁adapted	-11.2223
▁explosive	-11.2232
▁firewall	-11.2233
ology	-11.2234
▁invalid	-11.2234
▁carries	-11.2238
▁credible	-11.224
▁violated	-11.2242
ivoire	-11.2246
yes	-11.2247
▁lying	-11.2248
▁3-	-11.2252
don	-11.2257
▁intermediate	-11.226
▁tangible	-11.2262
▁presentations	-11.2265
saving	-11.2267
conflict	-11.2269
▁attachment	-11.2269
95	-11.227
▁moderate	-11.2274
lu	-11.2277
▁francisco	-11.2286
▁libya	-11.229
high	-11.2292
▁43	-11.2292
▁forgotten	-11.2295
▁safer	-11.2296
▁15.	-11.2298
▁boyfriend	-11.2306
▁rendered	-11.2308
▁perception	-11.231
48	-11.2311
▁meter	-11.2314
▁pulled	-11.2314
▁mathematics	-11.2317
▁liberalization	-11.2321
▁laugh	-11.2322
raising	-11.2323
00	-11.2326
▁collaborate	-11.233
▁cuban	-11.2332
▁evolving	-11.2332
▁tutorial	-11.2333
▁formulated	-11.2335
▁broadcasting	-11.2337
▁defects	-11.2341
▁landing	-11.2342
▁regulate	-11.2342
▁notion	-11.2343
▁talents	-11.2344
▁securing	-11.2344
▁terror	-11.2348
▁varied	-11.2349
▁olympics	-11.2351
▁endorsed	-11.2363
▁evaluating	-11.2366
▁feeding	-11.2368
▁validity	-11.237
▁lonely	-11.237
▁automobile	-11.2374
96	-11.2374
-3	-11.2374
▁anger	-11.2377
▁seeds	-11.2378
▁notified	-11.2384
▁guatemala	-11.2384
▁contractor	-11.2385
▁enjoyment	-11.2386
▁lease	-11.2387
▁hygiene	-11.2396
▁reintegration	-11.2398
▁mask	-11.2407
▁motors	-11.2409
▁kazakhstan	-11.241
▁vibration	-11.2417
-2	-11.2421
▁delicious	-11.2423
▁chen	-11.2425
▁dictionary	-11.2429
▁hedge	-11.243
▁juice	-11.2431
▁scripts	-11.2432
▁costa	-11.2432
▁analyse	-11.2438
▁frozen	-11.2445
▁occurring	-11.2448
▁consist	-11.245
ja	-11.2454
▁geo	-11.2458
▁divide	-11.246
▁vs	-11.2462
▁abandoned	-11.2463
▁mo	-11.2465
▁constructed	-11.2466
▁(2	-11.2468
▁romania	-11.247
▁tissue	-11.2471
▁atlantic	-11.2472
▁holes	-11.2475
du	-11.2476
▁ed	-11.2479
▁tied	-11.2481
▁ph	-11.2481
▁attacked	-11.2482
▁mainstream	-11.2484
ger	-11.2484
▁palm	-11.2486
▁ceo	-11.2489
▁cease	-11.2491
▁probability	-11.2491
▁airports	-11.2492
▁generator	-11.2493
▁85	-11.2495
▁repository	-11.2501
▁sar	-11.2502
▁heaven	-11.2502
▁shirt	-11.2503
▁lakes	-11.2503
▁privileges	-11.2504
▁variations	-11.2506
core	-11.2511
▁multinational	-11.2513
▁ink	-11.2513
46	-11.2514
▁auction	-11.2519
▁secrets	-11.252
ham	-11.252
▁rank	-11.2521
▁enhancement	-11.2522
▁foundations	-11.2524
▁appropriately	-11.2524
▁tendency	-11.2525
▁ke	-11.2529
▁qualifications	-11.253
▁favourite	-11.2532
▁harmonious	-11.2533
▁investigating	-11.2537
▁partially	-11.2539
▁theft	-11.2542
▁employ	-11.2543
▁formally	-11.2545
▁taxation	-11.2546
▁fitted	-11.2552
▁promising	-11.2553
▁dated	-11.2564
▁graduates	-11.2565
▁oios	-11.257
▁spray	-11.2571
▁loyalty	-11.2574
▁installations	-11.2574
▁pe	-11.2575
za	-11.2579
▁ambitious	-11.2582
▁texas	-11.2582
▁expects	-11.2584
▁ce	-11.2584
dy	-11.2587
sen	-11.2589
▁pushing	-11.2601
▁fu	-11.2601
▁bubble	-11.2604
47	-11.2605
▁pink	-11.2606
▁beliefs	-11.2607
▁lend	-11.2611
▁classical	-11.2613
▁decree	-11.2618
▁attending	-11.2618
▁inhabitants	-11.262
▁trips	-11.2623
▁declare	-11.2624
89	-11.2627
▁fragile	-11.2628
▁risen	-11.2634
▁memorandum	-11.2637
more	-11.2642
▁dvd	-11.2644
▁accomplished	-11.2648
▁preservation	-11.2649
▁uncle	-11.2654
▁protests	-11.2654
▁pounds	-11.2656
weapon	-11.2659
▁(3	-11.2668
▁cruise	-11.267
▁investigated	-11.2671
5,000	-11.2671
▁martin	-11.2672
▁oldest	-11.2679
▁reductions	-11.2679
▁dirty	-11.268
▁db	-11.268
▁motivation	-11.2685
▁empire	-11.2687
ium	-11.2691
▁varying	-11.2691
▁promptly	-11.2692
▁cloth	-11.2692
▁modification	-11.2698
▁prompted	-11.2701
▁consisting	-11.2702
user	-11.2702
ins	-11.2705
▁ammunition	-11.2706
pp	-11.2708
agency	-11.2709
▁crude	-11.2721
▁promotes	-11.2726
▁anxiety	-11.2727
▁patch	-11.2728
▁1996,	-11.2736
▁tie	-11.2739
▁florida	-11.2751
▁variation	-11.2752
▁demonstrates	-11.2755
▁ski	-11.2756
▁clouds	-11.2757
▁triggered	-11.2758
▁las	-11.2758
41	-11.2758
▁favor	-11.2758
▁nursing	-11.2759
▁trillion	-11.2765
▁ferry	-11.277
▁beaches	-11.2772
▁scores	-11.2776
▁capita	-11.278
▁fifty	-11.2782
stop	-11.2786
▁64	-11.2788
▁sentenced	-11.2789
▁pools	-11.2789
60	-11.2789
▁musical	-11.2791
▁prescribed	-11.2795
▁trademark	-11.2795
▁19.	-11.2795
▁witnessed	-11.2797
▁aggregate	-11.2797
▁proactive	-11.2798
▁robert	-11.2801
▁46	-11.2801
▁favourable	-11.2802
▁comparable	-11.2804
▁nowadays	-11.2806
les	-11.281
▁breaks	-11.2812
rc	-11.2813
▁ben	-11.2813
▁weren	-11.2816
▁harry	-11.2817
▁fi	-11.282
hr	-11.2822
▁stimulate	-11.2825
▁ceasefire	-11.2825
▁lin	-11.2826
▁10,000	-11.283
▁complementary	-11.2832
▁sa	-11.2834
39	-11.2834
▁replication	-11.2842
▁exceeded	-11.2843
▁tanks	-11.2843
▁enjoying	-11.2844
low	-11.2844
▁kim	-11.2844
▁climb	-11.2845
▁stayed	-11.2845
▁harsh	-11.2846
are	-11.285
▁transmit	-11.2864
▁drilling	-11.2868
▁envisaged	-11.2868
▁stainless	-11.2871
▁stuck	-11.2871
▁charts	-11.2872
▁smartphone	-11.2873
▁countryside	-11.2874
▁2.5	-11.2874
▁stroke	-11.2879
▁colleges	-11.2879
▁95	-11.2882
▁clarity	-11.2883
▁inevitable	-11.2883
▁chains	-11.2885
▁promises	-11.2886
▁cleaner	-11.2888
▁amenities	-11.2889
▁quit	-11.289
▁venezuela	-11.289
▁ec	-11.2893
▁economically	-11.2894
▁holders	-11.2894
▁combines	-11.2895
▁asks	-11.2904
▁cited	-11.2906
▁proprietary	-11.2909
▁deserve	-11.2909
ten	-11.291
▁ratings	-11.2911
▁decisive	-11.2914
▁cognitive	-11.2917
▁cheaper	-11.2921
▁outbreak	-11.2921
ki	-11.2922
▁trains	-11.2922
▁routing	-11.2929
▁convicted	-11.293
▁expressing	-11.2934
▁yang	-11.2936
▁ko	-11.2937
some	-11.2942
▁contracting	-11.2946
▁silk	-11.2948
▁mercury	-11.295
risk	-11.2954
▁indispensable	-11.2961
▁insecurity	-11.2964
▁lastly	-11.2967
▁wheat	-11.2971
▁alongside	-11.2971
▁simplify	-11.2971
▁crossing	-11.2973
▁sufficiently	-11.2976
national	-11.2977
▁liaison	-11.2977
▁keen	-11.2978
▁counselling	-11.298
▁opera	-11.2982
▁briefing	-11.2988
▁reject	-11.2991
ler	-11.2992
▁magnitude	-11.2992
▁ge	-11.2993
▁reasonably	-11.2999
▁pleasant	-11.3
▁abuses	-11.3001
▁dioxide	-11.3003
▁radar	-11.3005
▁nato	-11.3005
▁occasionally	-11.3007
▁alignment	-11.3009
▁moments	-11.301
▁nonetheless	-11.3011
▁demo	-11.3012
▁suspicious	-11.3022
part	-11.3024
▁offerings	-11.3025
▁conformity	-11.3032
▁corrosion	-11.3036
▁poorest	-11.3041
▁unacceptable	-11.3043
▁modest	-11.3043
▁unemployed	-11.3043
▁poll	-11.3043
law	-11.3045
▁chest	-11.3047
▁toilet	-11.3053
▁headed	-11.3059
▁troop	-11.3063
25	-11.3068
▁gates	-11.3072
▁distinguish	-11.3073
▁multimedia	-11.3075
▁tail	-11.3076
win	-11.3078
▁marketplace	-11.3079
eu	-11.308
▁po	-11.3081
▁commander	-11.3083
▁winner	-11.3089
oh	-11.3091
▁pixels	-11.3091
▁loose	-11.3091
▁compression	-11.3092
▁mp	-11.3093
▁faculty	-11.3096
▁reinforce	-11.3097
▁santa	-11.3099
▁singing	-11.31
▁bathrooms	-11.3103
▁freeze	-11.3107
▁glasses	-11.3109
ong	-11.311
▁utilities	-11.3111
▁ratification	-11.3113
300	-11.312
▁consume	-11.3122
▁madrid	-11.3126
64	-11.3127
▁fantastic	-11.313
▁xi	-11.3142
▁protest	-11.3142
▁laundry	-11.3143
▁sap	-11.3151
sensitive	-11.3156
▁convey	-11.3157
▁licensed	-11.3158
▁formulate	-11.316
▁sin	-11.3165
box	-11.3172
▁agile	-11.3173
▁fortune	-11.3179
▁incredible	-11.3181
▁census	-11.3188
▁confusion	-11.319
▁hiring	-11.319
▁java	-11.3193
▁overhead	-11.3193
▁issuance	-11.3194
▁html	-11.3199
▁customary	-11.32
▁album	-11.32
▁weakness	-11.3201
▁wu	-11.3203
▁accessibility	-11.3207
▁conservative	-11.3207
gb	-11.3209
▁feasibility	-11.3211
▁alternatively	-11.3212
▁gravity	-11.3213
▁edges	-11.3214
▁sphere	-11.322
▁outputs	-11.322
▁seized	-11.3229
▁logged	-11.323
▁snapshot	-11.323
▁thematic	-11.3231
▁replacing	-11.3235
▁interfere	-11.3244
▁nearest	-11.3245
▁quantitative	-11.3247
▁questionnaire	-11.3252
▁adolescents	-11.3253
▁52	-11.3254
▁jewelry	-11.3257
▁dose	-11.3258
▁accelerated	-11.3258
1)	-11.326
▁bug	-11.3263
▁badly	-11.3264
▁hungry	-11.3265
▁scroll	-11.3268
head	-11.327
▁photographs	-11.3271
ning	-11.3273
▁ne	-11.3273
▁joke	-11.3273
▁comprising	-11.3274
▁moisture	-11.3276
▁2015.	-11.3276
▁mg	-11.3277
▁regimes	-11.3278
000	-11.328
▁cheese	-11.328
vis	-11.3282
▁utmost	-11.3283
▁granting	-11.3288
pre	-11.3289
▁grows	-11.3294
▁navy	-11.3294
▁negotiated	-11.3294
▁confidentiality	-11.3296
▁occupying	-11.3297
▁cure	-11.3297
▁emotions	-11.3298
▁succeeded	-11.33
▁plot	-11.3302
▁unfair	-11.3302
▁continuity	-11.3302
▁buffet	-11.331
ile	-11.3311
▁sensing	-11.3312
▁rolling	-11.3318
▁violate	-11.3321
▁receiver	-11.3322
▁biology	-11.3326
▁circular	-11.3327
▁ecuador	-11.3328
▁preceding	-11.3328
▁zoo	-11.3332
▁30%	-11.3332
▁ba	-11.3334
▁readily	-11.3342
▁closure	-11.3342
▁domains	-11.3346
▁scenes	-11.3349
▁synthetic	-11.3349
▁lifting	-11.3349
▁supervisor	-11.3357
▁broadband	-11.3359
▁cancellation	-11.336
▁responsive	-11.3363
▁strengths	-11.3364
▁discretion	-11.3367
▁iso	-11.3368
▁harvest	-11.337
400	-11.3371
▁introduces	-11.3373
▁beam	-11.3377
67	-11.3378
▁cinema	-11.3378
▁peninsula	-11.3378
▁intends	-11.3379
▁wheels	-11.3379
▁patents	-11.338
▁emergencies	-11.3381
▁algeria	-11.3386
▁carriers	-11.3391
▁adjacent	-11.3391
▁handed	-11.3393
▁dare	-11.3396
▁floating	-11.3398
su	-11.3401
▁respondents	-11.3402
▁prevalence	-11.3402
▁beneficiaries	-11.3402
▁sake	-11.3408
▁ki	-11.3408
▁venue	-11.3408
▁egg	-11.3409
▁mi	-11.341
▁forgot	-11.3413
▁deck	-11.3413
size	-11.3417
▁demographic	-11.3418
▁profitable	-11.342
▁exploit	-11.3421
▁enemies	-11.3422
▁unlawful	-11.3432
▁sampling	-11.3433
▁emergence	-11.3436
chi	-11.3437
▁searches	-11.3439
▁futures	-11.3439
mar	-11.3442
▁imagination	-11.3444
▁defeat	-11.3444
▁obliged	-11.3446
▁disorders	-11.3447
▁drill	-11.345
▁threaten	-11.345
▁exhaust	-11.3452
▁grey	-11.3455
▁retailers	-11.3455
▁180	-11.3461
▁hydrogen	-11.3463
▁bulgaria	-11.3465
ph	-11.3466
▁inspections	-11.3476
▁asean	-11.3476
▁proceeding	-11.3477
▁tel	-11.348
▁mess	-11.348
▁permanently	-11.348
▁billing	-11.3482
▁malware	-11.3482
▁tanzania	-11.3483
▁continually	-11.3487
▁commissions	-11.3489
▁broker	-11.349
▁ldcs	-11.3495
▁contamination	-11.3496
▁motivated	-11.3497
▁twin	-11.3502
▁streaming	-11.3503
▁prosecutors	-11.3503
▁mali	-11.3504
▁metric	-11.3508
▁reiterate	-11.3509
▁coherent	-11.3517
▁pumps	-11.3517
▁lobby	-11.352
▁rica	-11.352
▁coupled	-11.3521
▁4,	-11.3526
▁tu	-11.3526
▁expresses	-11.3531
▁exclude	-11.3535
▁disappeared	-11.3537
▁benchmark	-11.3538
▁rocket	-11.3538
▁deterioration	-11.3539
▁accumulated	-11.3541
▁johnson	-11.3543
wi	-11.3543
▁examining	-11.3545
▁deliberations	-11.3546
generation	-11.3547
▁tri	-11.3552
view	-11.3553
▁dominant	-11.3558
▁inspiration	-11.3558
▁com	-11.3558
▁personalized	-11.3559
▁eritrea	-11.3562
business	-11.3564
▁shelf	-11.3567
▁republican	-11.3571
▁span	-11.3572
▁textile	-11.3573
ite	-11.3575
▁indirectly	-11.3577
▁contributes	-11.3579
fe	-11.3579
▁excel	-11.3584
▁jewish	-11.3586
▁ghana	-11.3588
non	-11.3589
▁bob	-11.3592
▁perspectives	-11.3593
▁heading	-11.3597
▁princess	-11.3602
▁clubs	-11.3603
▁gaining	-11.3603
▁arabic	-11.3603
▁mongolia	-11.3605
▁referendum	-11.3608
inch	-11.3612
▁concerted	-11.3612
▁dancing	-11.3613
▁couples	-11.3617
▁51	-11.3617
▁obstacle	-11.3624
▁assumption	-11.3624
▁te	-11.3625
▁poly	-11.3626
▁49	-11.3632
▁praise	-11.3632
▁gaming	-11.3633
▁alike	-11.3641
▁photography	-11.3642
▁occurrence	-11.3642
▁asleep	-11.3647
▁fool	-11.3648
▁deciding	-11.3651
cor	-11.3655
▁governed	-11.3657
port	-11.3658
ron	-11.3668
▁reactions	-11.3673
▁trucks	-11.3674
▁nurse	-11.3676
profit	-11.3677
ial	-11.3677
▁swedish	-11.368
▁portuguese	-11.3684
▁quota	-11.3684
▁probe	-11.3689
▁1999.	-11.3689
▁wet	-11.3691
▁clearing	-11.3691
▁validate	-11.3691
▁cultivation	-11.3695
▁threads	-11.3697
▁qualities	-11.3698
▁steadily	-11.3701
▁minerals	-11.3701
▁advocate	-11.3704
▁scholars	-11.3705
▁inserted	-11.3707
▁47	-11.3709
▁minds	-11.371
▁ecosystems	-11.3721
▁fingers	-11.3723
▁substitute	-11.3727
▁tonnes	-11.3727
▁jurisdictions	-11.3727
dr	-11.3728
▁accepting	-11.373
▁benefited	-11.3736
▁analog	-11.3738
▁missiles	-11.3739
ung	-11.3741
▁brilliant	-11.3744
▁breakdown	-11.3745
▁alternate	-11.3746
▁spouse	-11.3747
ups	-11.3748
▁mounting	-11.3753
king	-11.3754
▁kilometres	-11.3754
▁farms	-11.3755
▁intake	-11.3763
▁immunity	-11.3766
▁extends	-11.3767
▁em	-11.3768
uk	-11.3773
▁briefly	-11.3773
▁painful	-11.3775
▁constituted	-11.3775
▁luggage	-11.3776
▁dealer	-11.3776
▁predicted	-11.3776
▁daddy	-11.3776
▁litigation	-11.378
▁mixture	-11.3782
▁competing	-11.3782
▁decent	-11.3783
▁scheduling	-11.3785
▁loads	-11.3787
▁harbour	-11.3787
▁binary	-11.3787
▁yields	-11.3794
▁bases	-11.3795
range	-11.3795
▁texts	-11.3798
▁slot	-11.3799
▁facilitated	-11.3801
▁dozens	-11.3803
▁discusses	-11.3804
80	-11.3806
▁passive	-11.381
▁correction	-11.3811
▁si	-11.3811
pi	-11.3812
▁72	-11.382
▁dec	-11.382
▁neighbours	-11.3822
▁compounds	-11.3822
▁unrwa	-11.3823
▁volunteer	-11.3827
▁disorder	-11.3827
▁pdf	-11.383
▁heated	-11.3832
▁cyber	-11.3835
dc	-11.3837
▁texture	-11.3843
▁museums	-11.3852
▁utilized	-11.3854
▁establishes	-11.3854
▁extradition	-11.3858
▁assumptions	-11.3858
▁storing	-11.3869
▁consecutive	-11.3871
▁react	-11.3874
▁stunning	-11.3874
▁lcd	-11.3875
▁anonymous	-11.3876
94	-11.3877
▁modifications	-11.3878
38	-11.3882
ze	-11.3884
ai	-11.3884
▁mailbox	-11.3887
▁strain	-11.3889
▁specifies	-11.389
▁sharply	-11.3892
af	-11.3898
▁counterparts	-11.3902
▁valued	-11.3903
▁fossil	-11.3903
▁2015,	-11.3906
▁gps	-11.391
▁dan	-11.3911
▁filtering	-11.3912
▁generates	-11.3916
▁screens	-11.3919
36	-11.3919
▁exceeds	-11.392
country	-11.3922
▁eliminated	-11.3925
▁rated	-11.3927
treatment	-11.393
▁prevailing	-11.3933
▁standardized	-11.3935
▁molecular	-11.3936
▁economist	-11.3938
▁jail	-11.3944
▁ranges	-11.3945
▁inappropriate	-11.3953
▁behaviors	-11.3954
▁treasure	-11.3958
▁cancelled	-11.3962
▁appreciated	-11.3963
▁unlock	-11.3963
▁optimum	-11.3966
▁mobilization	-11.3966
▁qatar	-11.3971
▁spam	-11.3978
▁rack	-11.3979
▁fuels	-11.3984
school	-11.3986
▁sd	-11.3989
▁iceland	-11.3991
▁issuing	-11.3992
▁pot	-11.3995
▁legitimacy	-11.3999
▁readiness	-11.4002
▁copied	-11.4004
▁aspirations	-11.4005
▁intuitive	-11.4005
▁decorated	-11.4008
▁upgrades	-11.4008
▁mike	-11.4013
▁thickness	-11.4014
▁reaffirmed	-11.4015
▁align	-11.4017
▁refresh	-11.4023
▁wifi	-11.4024
control	-11.4025
▁mere	-11.4028
▁gratitude	-11.4029
▁linking	-11.403
▁arc	-11.4035
▁harvard	-11.4043
▁allocate	-11.4044
▁hearts	-11.4047
▁ohchr	-11.4048
▁generous	-11.4052
▁nights	-11.4053
▁weaknesses	-11.4054
▁calibration	-11.4054
▁23.	-11.4055
saharan	-11.4056
zi	-11.4057
▁brazilian	-11.4058
▁urgently	-11.4061
▁scared	-11.4062
▁filing	-11.4064
▁53	-11.4064
▁wildlife	-11.4069
▁jo	-11.407
27	-11.4071
▁upgraded	-11.4071
▁1960	-11.4074
01	-11.4074
▁guangdong	-11.4076
▁snacks	-11.4077
▁acted	-11.4085
▁han	-11.4085
▁pupils	-11.4095
▁slight	-11.4096
▁dental	-11.41
▁denial	-11.4102
▁handles	-11.4103
▁politically	-11.4104
▁bicycle	-11.4104
▁payable	-11.4105
leste	-11.4113
▁whereby	-11.4115
▁maker	-11.4117
▁justified	-11.4118
▁justify	-11.4123
▁prejudice	-11.4133
▁slower	-11.4134
week	-11.4134
57	-11.414
▁roma	-11.4143
▁visitor	-11.4149
▁staffing	-11.4149
mentioned	-11.415
▁actor	-11.4154
▁ju	-11.4154
▁merge	-11.4155
▁seating	-11.4158
▁mild	-11.4159
▁2013.	-11.416
▁powered	-11.4161
:30	-11.4164
▁kick	-11.4164
▁sees	-11.4165
▁revolutionary	-11.4166
▁henry	-11.417
▁modular	-11.4173
▁wounded	-11.4176
▁attendance	-11.4178
▁arrow	-11.4179
▁assuming	-11.4182
▁oecd	-11.4183
▁pearl	-11.4187
▁welding	-11.4189
▁divisions	-11.4194
▁100,000	-11.4195
▁forestry	-11.4198
▁forecasts	-11.42
▁urgency	-11.4201
▁fdi	-11.4209
▁borrowing	-11.4212
tro	-11.4214
▁geometry	-11.4218
mb	-11.4218
▁bottles	-11.422
▁spreading	-11.422
▁bangkok	-11.4223
standing	-11.4223
▁profitability	-11.4224
▁influences	-11.4224
▁subregional	-11.4225
▁medication	-11.4226
▁dangers	-11.4227
▁processors	-11.4227
grade	-11.423
▁prisons	-11.4232
▁defenders	-11.4238
▁tablets	-11.4241
where	-11.4243
▁aging	-11.4243
▁somali	-11.4246
case	-11.4249
▁(4	-11.4249
discrimination	-11.4253
▁21.	-11.4255
▁correlation	-11.4261
vo	-11.4261
▁stresses	-11.4263
▁meantime	-11.4267
▁alien	-11.4273
▁realities	-11.4278
▁optimistic	-11.428
▁22.	-11.428
▁acceleration	-11.4289
▁54	-11.4293
▁titles	-11.4294
23	-11.4295
▁repatriation	-11.4297
▁interpret	-11.4297
▁tunisia	-11.4299
▁helicopter	-11.4299
▁consumed	-11.4301
▁clever	-11.4309
▁borrow	-11.4309
▁refrain	-11.4311
▁wizard	-11.4311
▁barack	-11.4311
▁appointments	-11.4312
▁cleared	-11.4319
42	-11.432
▁mathematical	-11.432
▁kilometers	-11.4322
▁gradual	-11.4323
▁clinic	-11.4329
▁tsunami	-11.4333
▁interpreted	-11.4333
▁letting	-11.4333
▁continuation	-11.4337
▁trades	-11.4341
▁armenia	-11.4341
▁directive	-11.4341
▁protects	-11.4344
▁supporters	-11.4347
▁graduated	-11.4349
▁coordinates	-11.435
▁ios	-11.4352
wood	-11.4352
▁drain	-11.4353
▁kiss	-11.4355
▁transformed	-11.4356
▁analyst	-11.4357
▁crown	-11.4357
▁distinguished	-11.4358
▁craft	-11.4365
▁sim	-11.4366
▁radioactive	-11.4376
▁shipped	-11.4382
▁(5	-11.4382
ped	-11.4382
▁hazards	-11.4386
cl	-11.4387
▁56	-11.4387
▁hyper	-11.4388
▁replied	-11.4388
▁xiao	-11.4389
▁renew	-11.4389
▁broadly	-11.439
▁assault	-11.4394
▁sponsors	-11.4397
▁tragedy	-11.4398
ep	-11.4398
▁debris	-11.4403
▁junior	-11.4405
▁amongst	-11.4406
▁declining	-11.4408
▁intervals	-11.4408
▁enthusiasm	-11.441
▁fake	-11.4415
▁develops	-11.4416
▁resist	-11.4416
▁laboratories	-11.4417
lan	-11.4419
▁volatility	-11.4427
▁loud	-11.4434
▁chairs	-11.4437
▁genes	-11.444
▁noble	-11.4441
▁valves	-11.4441
▁ro	-11.4441
▁implies	-11.4442
▁5-	-11.4443
▁stadium	-11.4444
ide	-11.4446
▁pr	-11.4447
▁simplified	-11.4449
▁grasp	-11.445
▁timeline	-11.445
▁trick	-11.4452
▁periodically	-11.4453
▁insist	-11.4459
▁polish	-11.4461
▁promotional	-11.4461
22	-11.4463
▁plates	-11.4465
▁dying	-11.4469
▁juvenile	-11.447
▁hired	-11.4472
▁qualification	-11.4473
ru	-11.4475
▁lung	-11.4479
▁streams	-11.4479
▁offensive	-11.4483
▁relaxing	-11.4483
ag	-11.4484
▁wen	-11.4489
people	-11.4489
▁quarterly	-11.4492
ard	-11.4495
61	-11.4498
▁radical	-11.4502
▁charles	-11.4503
▁sha	-11.4503
looking	-11.4505
▁microphone	-11.4515
▁packing	-11.4516
▁hazard	-11.4523
▁yemen	-11.4531
▁carriage	-11.4534
▁soldier	-11.4536
▁blocking	-11.4537
▁halt	-11.4537
rich	-11.4539
gen	-11.454
▁seasonal	-11.4541
▁mobilize	-11.4541
ding	-11.4541
▁mandated	-11.4553
▁hiding	-11.4554
▁piano	-11.4554
▁warnings	-11.4556
▁throughput	-11.4558
▁salvador	-11.4559
-19	-11.4561
▁pledged	-11.4566
▁incomplete	-11.4568
▁lifecycle	-11.4569
▁grab	-11.4575
▁reuse	-11.4575
▁rebuild	-11.4578
▁attributed	-11.4581
▁elaborate	-11.4583
90	-11.4583
▁1989	-11.4584
▁silicon	-11.4584
▁breathing	-11.4585
▁ears	-11.4585
qui	-11.4592
▁aesthetic	-11.4595
▁forgive	-11.4598
▁whilst	-11.4599
▁threatening	-11.4609
▁supportive	-11.461
54	-11.4611
▁chad	-11.4612
ina	-11.4614
▁maternity	-11.4616
▁warrant	-11.4616
▁voted	-11.4618
▁advancing	-11.4618
▁scientist	-11.4619
▁disclosed	-11.462
▁emerge	-11.4621
▁alleviate	-11.4623
▁partition	-11.4628
▁assignments	-11.4629
▁absorb	-11.4632
defined	-11.4632
▁1994,	-11.4633
▁duplicate	-11.4633
▁dairy	-11.4636
▁vector	-11.4637
▁differential	-11.4639
800	-11.4653
▁sender	-11.4654
▁shi	-11.4654
▁admin	-11.4654
▁tens	-11.4655
▁practitioners	-11.4656
▁charity	-11.4658
▁surge	-11.4658
▁aligned	-11.4665
▁demonstrations	-11.4666
▁antenna	-11.4669
ville	-11.4674
▁pitch	-11.4674
▁centralized	-11.4675
▁condemned	-11.4684
▁vulnerabilities	-11.4685
▁sql	-11.4687
▁cab	-11.4688
ative	-11.469
▁smes	-11.4691
▁catholic	-11.4692
▁tragic	-11.4695
▁earliest	-11.4695
▁spectacular	-11.4698
▁stones	-11.4699
ani	-11.4701
▁garage	-11.4701
▁darkness	-11.4701
▁richard	-11.4703
▁footprint	-11.4705
▁embrace	-11.4709
▁surprising	-11.471
▁rivers	-11.471
▁ageing	-11.4712
▁performs	-11.4714
▁expectation	-11.4717
▁workspace	-11.4718
▁athletes	-11.472
▁evolved	-11.4721
▁cement	-11.4726
▁fits	-11.4727
▁delegate	-11.4727
▁volatile	-11.473
ot	-11.4732
▁predictable	-11.4732
▁william	-11.4734
▁tear	-11.4735
▁versus	-11.4735
▁abortion	-11.4737
▁5%	-11.474
▁uv	-11.474
68	-11.4741
▁brave	-11.4745
▁tub	-11.4748
▁conscious	-11.4749
han	-11.4752
▁angel	-11.4754
▁80%	-11.476
app	-11.4762
▁argues	-11.4762
▁clips	-11.4763
▁1995,	-11.4764
▁phenomena	-11.4765
ising	-11.4767
bed	-11.4769
▁basket	-11.477
▁rush	-11.4771
▁cu	-11.4773
▁soccer	-11.4773
▁rebel	-11.4775
▁nationwide	-11.4777
▁comparing	-11.4781
▁iphone	-11.4783
▁counts	-11.4784
98	-11.4787
▁stretch	-11.4787
▁submitting	-11.4787
▁jones	-11.4796
▁1998.	-11.48
▁tender	-11.4803
▁jan	-11.4805
▁icons	-11.4808
▁enacted	-11.4808
▁financed	-11.4812
1,	-11.4814
▁ranks	-11.4816
▁theater	-11.482
ut	-11.4821
▁packet	-11.4824
▁municipalities	-11.4829
▁pray	-11.4831
▁supplementary	-11.4834
▁islam	-11.4837
▁$10	-11.4838
▁guns	-11.4841
▁terminals	-11.4843
▁livestock	-11.485
▁ti	-11.4851
▁debts	-11.4853
69	-11.4856
▁continental	-11.4857
▁ac	-11.4858
▁chassis	-11.4859
form	-11.4861
▁colonial	-11.4866
▁accord	-11.4867
▁tribunals	-11.4868
second	-11.4869
▁presenting	-11.4872
▁99	-11.4875
▁notwithstanding	-11.4877
▁disappear	-11.4877
79	-11.4878
▁soap	-11.4879
▁ruled	-11.488
▁critics	-11.4881
-8	-11.4881
▁lightweight	-11.4883
▁urbanization	-11.4884
82	-11.4885
▁remuneration	-11.4887
▁ya	-11.4887
▁instantly	-11.489
▁corrupt	-11.4894
▁sunlight	-11.4898
▁convened	-11.49
▁ch	-11.4901
▁stays	-11.4904
21	-11.4905
▁hills	-11.4906
▁fatigue	-11.4907
▁smoothly	-11.4911
▁wondered	-11.4913
▁advisers	-11.4915
97	-11.4917
▁bali	-11.4917
ny	-11.4922
▁struggling	-11.4923
▁umbrella	-11.4923
▁aerospace	-11.4928
▁luxurious	-11.493
istic	-11.4934
▁positioned	-11.4935
dimensional	-11.4941
▁za	-11.4942
▁unavailable	-11.4946
▁stomach	-11.4948
▁satellites	-11.4949
▁conversations	-11.4949
▁literary	-11.4951
43	-11.4952
▁raises	-11.4954
kin	-11.4961
▁leap	-11.4963
president	-11.4966
▁sq	-11.4966
:00	-11.4968
▁complain	-11.4972
▁prohibit	-11.4974
ala	-11.4975
▁amounted	-11.4976
▁forthcoming	-11.4979
▁$6	-11.4983
▁grace	-11.4986
ez	-11.4986
▁browsing	-11.4994
▁featured	-11.4994
▁subscribe	-11.4995
▁writers	-11.4996
▁pixel	-11.4997
▁allies	-11.4999
▁ratified	-11.5
▁(4)	-11.5001
▁deprived	-11.5004
▁religions	-11.5008
▁vegas	-11.501
600	-11.5015
▁garbage	-11.502
▁bachelor	-11.5023
▁disappointed	-11.5024
▁inspectors	-11.5025
ible	-11.5025
▁ensured	-11.5026
▁infrared	-11.5027
▁ray	-11.503
▁diversification	-11.503
▁expiration	-11.5041
3)	-11.5042
▁fertility	-11.5044
▁reporters	-11.5044
▁inc	-11.5045
▁evolve	-11.5046
▁clarification	-11.5046
▁bits	-11.5049
▁virtue	-11.5052
ft	-11.5052
▁thereof	-11.5055
▁mesh	-11.5066
▁disciplinary	-11.5072
▁panama	-11.5072
▁delta	-11.5072
▁brussels	-11.5081
▁crying	-11.5083
▁op	-11.5084
▁blade	-11.5086
▁discounts	-11.509
▁dealers	-11.5091
▁celebration	-11.5093
▁treating	-11.5097
▁undoubtedly	-11.51
▁infectious	-11.5105
▁schedules	-11.5105
▁welcoming	-11.5108
cp	-11.5108
proof	-11.5112
▁acquisitions	-11.5112
▁bible	-11.5118
▁qualify	-11.5118
▁malta	-11.5119
▁touched	-11.512
▁neighbors	-11.5121
most	-11.5122
▁debtor	-11.5123
▁archives	-11.5128
▁scaling	-11.5128
wing	-11.5132
▁cruel	-11.5135
tu	-11.5136
▁twelve	-11.5142
▁semiconductor	-11.5146
▁cord	-11.5147
▁orbit	-11.5149
-20	-11.5153
tor	-11.5155
▁beside	-11.5157
56	-11.5165
▁facebook	-11.5165
▁communicating	-11.5168
▁extensions	-11.517
▁attain	-11.5173
▁torque	-11.5173
▁policymakers	-11.5177
▁coat	-11.5178
▁dragon	-11.5179
▁relay	-11.5184
▁grades	-11.5185
▁mayor	-11.5189
ang	-11.519
▁40%	-11.5193
▁habitat	-11.5194
▁supermarket	-11.5194
▁365	-11.5197
▁buried	-11.5197
▁1:	-11.5199
▁tends	-11.5201
▁hydro	-11.5205
▁adjusting	-11.5208
▁submissions	-11.5212
▁accumulation	-11.5213
▁commonwealth	-11.5216
▁mt	-11.5217
▁lacking	-11.5222
▁terminate	-11.5223
▁sms	-11.5229
▁sooner	-11.5231
▁skip	-11.5234
▁npt	-11.5243
▁26.	-11.5243
▁graduation	-11.5244
▁holistic	-11.5244
▁1.2	-11.5244
▁diplomacy	-11.5247
▁publicity	-11.5252
▁delicate	-11.5252
▁dns	-11.5254
59	-11.5255
87	-11.5257
▁360	-11.5257
▁expo	-11.5259
▁emotion	-11.5261
▁systematically	-11.5264
▁prediction	-11.5264
▁unclear	-11.5264
▁particle	-11.5265
▁deploying	-11.5265
▁wa	-11.527
▁loving	-11.5272
through	-11.5273
▁testimony	-11.5273
▁mall	-11.5274
▁stamp	-11.5274
▁oceans	-11.5276
▁fulfilling	-11.528
good	-11.5283
standard	-11.5286
ries	-11.5287
▁printers	-11.5289
▁rigorous	-11.5289
▁tribute	-11.5292
▁unwanted	-11.5292
▁roots	-11.5293
▁evaluations	-11.5298
▁punished	-11.5299
▁62	-11.53
▁blend	-11.5302
▁modalities	-11.5303
makers	-11.5306
▁ranking	-11.5306
▁ci	-11.5307
▁amid	-11.531
▁attacker	-11.531
▁compressed	-11.5312
▁refusal	-11.5313
nt	-11.5314
%	-11.5323
▁justification	-11.5323
▁conceptual	-11.5324
page	-11.5329
▁bones	-11.533
▁euros	-11.5334
▁mexican	-11.5334
▁indonesian	-11.5337
▁charm	-11.5339
▁firmware	-11.534
▁privilege	-11.5345
▁lecture	-11.5346
ification	-11.5347
▁technicians	-11.5349
▁zimbabwe	-11.5351
▁repairs	-11.5354
▁pandemic	-11.5361
▁patience	-11.5361
▁700	-11.5364
55	-11.5364
▁lion	-11.5365
▁maturity	-11.5365
▁drama	-11.5367
▁unchanged	-11.5374
▁credits	-11.5377
▁stabilization	-11.5377
▁displaying	-11.5378
▁complimentary	-11.538
▁overlap	-11.5383
▁founding	-11.5386
▁margins	-11.5387
▁cabin	-11.5388
▁sexually	-11.539
▁cop	-11.5391
▁hollywood	-11.5396
▁uphold	-11.54
▁27.	-11.5401
▁logistical	-11.5403
▁marking	-11.5403
▁diligence	-11.5404
▁pi	-11.5406
▁dependence	-11.5407
▁ozone	-11.541
laundering	-11.541
▁lean	-11.5413
▁geography	-11.5415
ig	-11.5415
▁preserved	-11.5416
▁copenhagen	-11.5417
▁circles	-11.5418
▁riding	-11.5418
▁quest	-11.5418
▁holdings	-11.5418
▁barcelona	-11.5421
▁fostering	-11.5423
▁vegetable	-11.5424
▁knife	-11.5425
▁complications	-11.5425
▁steal	-11.543
▁malnutrition	-11.5431
▁economical	-11.5433
▁arena	-11.5436
▁worship	-11.5439
▁boats	-11.5442
▁guards	-11.5443
▁uruguay	-11.5443
▁matched	-11.5443
key	-11.5444
▁crack	-11.5444
▁downturn	-11.5447
▁nutritional	-11.5449
▁wikipedia	-11.5449
▁switched	-11.545
ble	-11.5451
▁legislature	-11.5452
▁disadvantaged	-11.5453
26	-11.5454
▁kyoto	-11.5458
▁casualties	-11.5458
▁seoul	-11.5458
▁fulfilled	-11.546
77	-11.5462
▁compensate	-11.5468
▁playback	-11.5473
▁uncertain	-11.5474
▁lan	-11.5478
▁drawings	-11.5479
▁pause	-11.548
tz	-11.5481
▁friction	-11.5482
ff	-11.5484
▁leak	-11.5487
▁democrats	-11.5491
▁idle	-11.5494
▁puerto	-11.5495
▁bail	-11.5496
▁slovakia	-11.5496
▁fare	-11.5497
▁coding	-11.5498
▁abundant	-11.5498
hu	-11.5502
▁keywords	-11.5502
▁hsbc	-11.5503
▁lit	-11.5507
your	-11.5508
▁lithuania	-11.551
▁senegal	-11.5512
▁decides	-11.5513
▁pertaining	-11.5513
▁2-	-11.5513
▁appraisal	-11.5517
▁builds	-11.552
▁remotely	-11.5522
▁distant	-11.5522
▁peers	-11.5525
▁dozen	-11.5525
▁ml	-11.5525
▁disruption	-11.5528
▁photograph	-11.5529
▁elite	-11.553
▁prolonged	-11.553
gi	-11.5531
▁57	-11.5531
▁announce	-11.5533
▁beverage	-11.5534
▁closest	-11.5542
▁compiled	-11.5543
▁snap	-11.5548
-4	-11.555
▁robots	-11.5551
▁audits	-11.5554
corruption	-11.5554
▁expose	-11.5556
pl	-11.5561
▁ombudsman	-11.5562
▁inch	-11.5565
▁slovenia	-11.5571
▁minors	-11.5573
test	-11.5574
round	-11.5575
▁latvia	-11.5577
conditioned	-11.5577
▁underlined	-11.5577
▁emphasizes	-11.5578
ker	-11.5579
▁balances	-11.5586
▁popularity	-11.559
▁colours	-11.5591
▁respiratory	-11.5593
▁humidity	-11.5593
▁playground	-11.5594
▁macedonia	-11.5598
▁eager	-11.5601
▁firstly	-11.5603
▁illustrate	-11.5605
▁egyptian	-11.5606
▁cylinder	-11.5607
▁valuation	-11.5607
▁strikes	-11.562
▁ja	-11.5624
▁pointing	-11.5624
▁spin	-11.5628
▁descriptions	-11.5629
▁virtualization	-11.563
▁stipulated	-11.5631
two	-11.5636
▁describing	-11.5637
now	-11.5638
▁gb	-11.5639
▁arriving	-11.564
▁wallet	-11.5641
▁ku	-11.5645
cent	-11.5649
▁wing	-11.5651
▁zambia	-11.5652
▁parental	-11.5654
▁institutes	-11.5655
▁overlooking	-11.5656
▁educated	-11.5657
▁reinforced	-11.5659
▁folk	-11.5661
▁2.0	-11.5663
▁suspend	-11.5664
even	-11.5665
▁hospitality	-11.5666
▁beverages	-11.5667
▁slavery	-11.5667
▁architect	-11.567
▁amend	-11.5671
article	-11.5672
ably	-11.5673
▁tin	-11.5677
▁conform	-11.5684
▁shake	-11.5684
▁consultancy	-11.5692
berg	-11.5698
▁relies	-11.5698
▁stringent	-11.5701
▁er	-11.5703
700	-11.5704
▁walks	-11.5705
▁recruited	-11.571
▁poses	-11.5711
▁woods	-11.5712
▁elevator	-11.5714
▁specialty	-11.5714
▁doha	-11.5714
▁packed	-11.5715
▁sincerely	-11.5715
▁58	-11.5716
▁devastating	-11.5719
ow	-11.572
▁oven	-11.5723
▁dating	-11.5723
▁likelihood	-11.5725
▁relaxed	-11.5726
▁retired	-11.5728
▁circuits	-11.5728
▁purely	-11.5732
▁enrolment	-11.5733
▁appoint	-11.5736
▁gauge	-11.5737
▁bridges	-11.574
▁cam	-11.5742
▁stylish	-11.5744
▁casino	-11.5744
edge	-11.5745
▁wines	-11.5746
secretary	-11.5747
▁streamline	-11.5747
▁controversial	-11.5755
▁stating	-11.5755
▁managerial	-11.5757
▁convince	-11.5761
▁endeavour	-11.5761
▁mold	-11.5763
ml	-11.5767
▁dam	-11.5767
▁turnover	-11.5775
▁ideally	-11.5776
▁abide	-11.578
▁posting	-11.5781
▁bankers	-11.5782
▁smallest	-11.5782
83	-11.5785
▁objection	-11.5785
▁metro	-11.5787
▁shortcomings	-11.5791
▁vibrant	-11.5792
▁$7	-11.5795
just	-11.5796
▁exceeding	-11.5796
▁dirt	-11.5798
▁iv	-11.5801
▁criterion	-11.5803
▁boston	-11.5803
▁afterwards	-11.5806
▁combinations	-11.5812
▁fortunately	-11.5812
81	-11.5815
▁clusters	-11.5823
ou	-11.5825
▁forty	-11.5825
▁offenders	-11.5827
▁confused	-11.5828
▁hatred	-11.5828
▁pad	-11.5828
▁ethernet	-11.5834
▁expired	-11.5836
▁incomes	-11.5842
other	-11.5844
▁magazines	-11.5844
▁shore	-11.5847
▁inevitably	-11.585
▁downloading	-11.585
▁31,	-11.5852
▁mono	-11.5857
▁muscles	-11.586
▁doubled	-11.5868
▁proximity	-11.587
▁extraction	-11.5871
▁1997.	-11.5872
▁proteins	-11.5878
▁sc	-11.5879
▁banned	-11.5879
▁burned	-11.5882
▁decoration	-11.5883
▁survivors	-11.5883
▁th	-11.5884
▁cellular	-11.5884
intensive	-11.5885
▁massage	-11.5885
▁livelihood	-11.5885
▁sorts	-11.589
▁drops	-11.5892
▁striking	-11.5895
▁cr	-11.5898
▁pat	-11.59
▁dedication	-11.5901
▁upset	-11.5906
▁activists	-11.5906
▁shoe	-11.5906
▁2,000	-11.5909
▁nam	-11.5911
▁overnight	-11.5911
personnel	-11.5913
▁rocks	-11.5915
▁educate	-11.5915
▁positively	-11.5916
▁endless	-11.5917
▁troubleshooting	-11.5919
88	-11.5921
▁traded	-11.5921
▁gen	-11.5923
▁hadn	-11.5923
▁publisher	-11.5924
▁pulse	-11.5925
▁merit	-11.5925
▁contingent	-11.5931
▁coral	-11.5933
▁reaffirm	-11.5934
▁sec	-11.5934
▁connectors	-11.5936
▁sunset	-11.5937
▁utilizing	-11.5938
▁inconsistent	-11.5938
▁boarding	-11.5944
▁downtime	-11.5952
▁paintings	-11.5956
▁exhibit	-11.5957
▁montenegro	-11.596
because	-11.5962
▁scanner	-11.5969
▁browsers	-11.597
▁agrees	-11.5971
▁sunshine	-11.5974
▁rejection	-11.5975
▁android	-11.5977
▁severity	-11.5977
name	-11.5978
▁hostilities	-11.5983
▁swift	-11.5986
▁cute	-11.5989
▁singer	-11.5993
▁elementary	-11.6002
▁realizing	-11.6003
▁wipo	-11.6003
▁($	-11.6007
▁overwhelming	-11.6012
▁excluding	-11.6012
▁shield	-11.6013
▁syndrome	-11.6014
burg	-11.6015
▁auditing	-11.6022
▁questioned	-11.6022
ned	-11.6024
28	-11.6025
▁firearms	-11.603
▁prerequisite	-11.6032
efficient	-11.6032
▁nairobi	-11.6037
▁inability	-11.6039
▁enjoys	-11.6042
▁bankruptcy	-11.6043
kg	-11.605
▁restoring	-11.6054
▁reveals	-11.6054
▁debates	-11.6055
▁strongest	-11.6055
▁doubts	-11.6057
▁dependency	-11.6058
click	-11.6059
che	-11.6061
▁ri	-11.6062
▁distinctive	-11.6063
▁champion	-11.6063
▁notebook	-11.6064
why	-11.6071
▁rises	-11.6073
▁advisor	-11.6074
▁voices	-11.6074
▁backups	-11.6079
▁stopping	-11.608
▁insisted	-11.608
▁weird	-11.6081
eg	-11.6081
▁sealed	-11.6085
▁demanded	-11.6086
▁burst	-11.6086
▁invisible	-11.609
▁breakthrough	-11.609
▁consuming	-11.6091
▁shipments	-11.6095
▁attracting	-11.6096
ok	-11.6099
▁influential	-11.61
▁declarations	-11.6102
▁challenged	-11.6106
▁thomas	-11.6106
5%	-11.6112
▁luxembourg	-11.6113
▁residual	-11.6114
controlled	-11.6118
▁eur	-11.6118
▁curb	-11.6119
▁110	-11.6122
▁simpler	-11.6124
▁saves	-11.6128
ld	-11.613
▁sch	-11.6131
▁thesis	-11.6132
▁77	-11.6135
▁pairs	-11.614
▁administered	-11.6143
▁96	-11.6143
▁varieties	-11.6143
▁audiences	-11.6144
▁suspects	-11.6145
▁clinics	-11.6149
▁chairperson	-11.615
▁sponsored	-11.6153
▁mozambique	-11.6153
▁sino	-11.6156
▁fridge	-11.6161
▁explored	-11.6161
▁uzbekistan	-11.6163
▁90%	-11.6164
▁preserving	-11.6166
▁controllers	-11.6173
▁pointer	-11.6175
green	-11.6176
▁nurses	-11.6181
▁attributable	-11.6181
▁1)	-11.6184
▁forensic	-11.6184
▁smuggling	-11.6184
▁wholesale	-11.6185
▁transferring	-11.6188
▁slip	-11.619
▁subcommittee	-11.6198
▁counting	-11.6199
▁downtown	-11.6203
▁seamless	-11.6205
▁resistant	-11.6205
▁reminded	-11.6206
▁scenery	-11.6208
▁postal	-11.6209
▁140	-11.6209
▁advertisements	-11.621
▁midnight	-11.6213
▁manages	-11.6213
added	-11.6216
▁criminals	-11.6216
▁ordering	-11.622
▁gentle	-11.622
▁infants	-11.6228
ura	-11.6229
▁forcing	-11.6229
▁88	-11.6231
▁synchronization	-11.6233
▁dismissed	-11.6235
mes	-11.6236
▁auditors	-11.6238
ini	-11.6244
▁hunting	-11.6244
west	-11.6245
▁hostile	-11.6246
about	-11.6247
▁hanging	-11.6247
▁biennium	-11.6248
▁bolivia	-11.6248
▁coherence	-11.625
dp	-11.6254
▁inspect	-11.6254
▁jury	-11.6257
ious	-11.6258
▁persist	-11.626
space	-11.626
▁steep	-11.6262
▁dressed	-11.6263
▁worthy	-11.627
▁collectively	-11.6277
▁pledge	-11.6277
▁ilo	-11.6277
▁slowdown	-11.6278
▁merger	-11.628
▁wondering	-11.6283
▁relying	-11.6285
▁61	-11.6286
▁directorate	-11.6287
-10	-11.6288
▁furnished	-11.6288
70	-11.6291
▁aiming	-11.6292
▁scalable	-11.6294
▁plastics	-11.6301
▁expulsion	-11.6308
▁1988	-11.6308
▁colorful	-11.6311
▁compelling	-11.6312
▁boring	-11.6315
▁downloads	-11.6317
▁drafted	-11.632
▁writes	-11.6321
▁cape	-11.6322
keeping	-11.6323
▁2014,	-11.6326
▁vaccines	-11.6328
84	-11.6329
▁ghost	-11.6338
▁expecting	-11.6339
▁invoices	-11.6341
▁travelers	-11.635
▁proposes	-11.6351
▁66	-11.6351
▁ranked	-11.6351
fu	-11.6353
▁wan	-11.6356
▁gu	-11.6368
public	-11.6369
▁abandon	-11.6371
▁racing	-11.6372
▁tibet	-11.6376
▁fairness	-11.6377
▁exercised	-11.6377
link	-11.6381
bu	-11.6384
▁steve	-11.6384
▁backing	-11.6386
▁joe	-11.6388
▁seize	-11.6395
▁tuberculosis	-11.6396
92	-11.6396
▁obesity	-11.6397
▁stairs	-11.6402
▁winners	-11.6403
▁danish	-11.6403
▁relaxation	-11.6405
▁velocity	-11.6406
fold	-11.6406
▁draws	-11.6407
▁fox	-11.6409
▁jumped	-11.6409
▁ta	-11.6409
▁farmer	-11.641
▁mixing	-11.6413
▁rival	-11.6413
▁leaf	-11.6415
▁decreasing	-11.6415
▁irrespective	-11.6415
▁nobel	-11.6419
▁dawn	-11.6422
▁defect	-11.6422
▁securely	-11.6424
▁atmospheric	-11.6424
▁chips	-11.6426
▁bra	-11.6426
▁cumulative	-11.6429
▁analysed	-11.643
mon	-11.6431
▁reporter	-11.6432
▁anytime	-11.6436
▁altogether	-11.6436
▁pig	-11.6436
▁2)	-11.6436
▁investigators	-11.644
▁milan	-11.644
ama	-11.6445
▁servicing	-11.6446
▁acquiring	-11.6448
▁facilitation	-11.6448
▁bull	-11.6449
demand	-11.6449
▁marginal	-11.646
▁refined	-11.6463
aa	-11.6464
▁notable	-11.6464
▁jane	-11.6465
▁developmental	-11.6466
▁86	-11.6466
52	-11.6467
▁pays	-11.6467
▁odd	-11.6471
▁punish	-11.6471
▁deliberate	-11.6475
▁estonia	-11.6475
▁trail	-11.6475
▁screw	-11.6476
after	-11.6477
▁enters	-11.6482
▁libyan	-11.6482
▁confined	-11.6486
trade	-11.6487
▁trap	-11.6489
▁cypriot	-11.649
▁shifting	-11.6492
▁worries	-11.6492
▁ar	-11.6495
▁tactics	-11.6496
▁yoga	-11.6497
▁influenza	-11.6498
open	-11.6498
▁suggesting	-11.6499
▁coin	-11.65
▁technically	-11.6504
▁slave	-11.6508
▁ming	-11.6513
▁1993,	-11.6516
▁republicans	-11.6516
31	-11.6517
cr	-11.6519
▁ladies	-11.6519
pped	-11.652
▁29.	-11.6521
▁sony	-11.6522
▁marble	-11.6523
▁28.	-11.6524
▁promotions	-11.6532
▁recognised	-11.6534
▁scrap	-11.6537
▁worrying	-11.6547
▁empower	-11.6547
▁govern	-11.6552
ware	-11.6553
▁quarters	-11.6555
▁des	-11.6557
▁terminated	-11.6559
▁tb	-11.656
▁impartial	-11.6561
35	-11.6561
▁borne	-11.6562
▁visas	-11.6562
pr	-11.6562
▁packets	-11.6568
▁clicks	-11.6568
▁advertisement	-11.657
▁aluminium	-11.657
▁1950	-11.6571
▁wealthy	-11.6573
▁barely	-11.6575
five	-11.6576
start	-11.6577
63	-11.6579
▁redress	-11.658
ek	-11.658
▁gambling	-11.6582
▁poetry	-11.6583
▁sketch	-11.6587
▁exercising	-11.6588
▁incorporating	-11.6588
▁es	-11.659
▁breathe	-11.659
▁reliance	-11.6591
▁160	-11.6591
▁59	-11.6591
▁colleague	-11.6593
▁casting	-11.6595
▁linkages	-11.6596
05	-11.6598
under	-11.6598
▁anticipate	-11.6598
▁shifts	-11.66
▁picking	-11.66
▁bell	-11.66
▁absent	-11.6604
▁0.5	-11.6604
▁prosperous	-11.6607
third	-11.6607
▁rings	-11.6607
▁muslims	-11.6608
▁sheep	-11.6609
▁hook	-11.6616
▁ru	-11.6617
▁lips	-11.6622
▁7,	-11.6625
▁billions	-11.6628
▁methodologies	-11.6631
85	-11.6631
▁incremental	-11.6632
▁tiger	-11.6632
▁inheritance	-11.6637
▁25.	-11.6639
▁reminder	-11.6639
▁lamps	-11.664
▁adversely	-11.6641
76	-11.6643
card	-11.6644
▁stepped	-11.6645
▁mystery	-11.6649
▁connects	-11.665
▁expressly	-11.6653
also	-11.6653
▁vis	-11.6653
▁sal	-11.6653
▁uranium	-11.6655
▁prototype	-11.6656
▁civic	-11.6658
bank	-11.6659
▁fraction	-11.666
02	-11.6662
▁sponsor	-11.6663
entrepreneurship	-11.6664
▁baghdad	-11.6664
58	-11.6666
▁floods	-11.6666
▁panic	-11.6679
▁cameroon	-11.668
▁supplements	-11.6683
▁01	-11.669
▁albania	-11.6691
▁tele	-11.6691
▁accelerating	-11.6692
▁emperor	-11.6695
▁caring	-11.6696
may	-11.6697
▁attachments	-11.6698
▁drove	-11.6699
▁tailor	-11.6699
face	-11.67
▁fought	-11.6707
▁devote	-11.6708
▁neighborhood	-11.6709
▁calcium	-11.671
▁newer	-11.6713
▁meta	-11.6714
▁absorption	-11.6725
▁rf	-11.6726
▁dominated	-11.6727
▁subscriptions	-11.673
▁altitude	-11.6734
▁subtle	-11.6735
▁livelihoods	-11.6736
▁wipe	-11.6738
▁irish	-11.6739
▁startup	-11.6743
▁eternal	-11.6743
▁$100	-11.675
▁guardian	-11.6751
food	-11.6752
▁confront	-11.6754
▁130	-11.6755
▁merits	-11.6757
▁exporting	-11.6762
▁eradicate	-11.6763
▁balancing	-11.6765
▁accession	-11.6765
▁nicaragua	-11.6766
note	-11.6767
▁scales	-11.6767
▁sisters	-11.6768
val	-11.6769
▁admire	-11.6769
▁plasma	-11.6771
ib	-11.6776
▁jackson	-11.6778
▁laundering	-11.678
▁swing	-11.6784
▁unido	-11.6784
▁standby	-11.6785
gu	-11.6787
29	-11.6791
▁civilizations	-11.6795
▁tongue	-11.6796
09	-11.6796
4)	-11.6799
▁6,	-11.68
▁comprised	-11.6807
▁wishing	-11.6809
93	-11.6811
▁subsidiaries	-11.6811
growing	-11.6812
▁irregular	-11.6814
▁improper	-11.6818
▁del	-11.6818
▁loyal	-11.6821
tel	-11.6824
▁cleaned	-11.6825
▁pressed	-11.6826
management	-11.6826
▁appetite	-11.6827
▁regulating	-11.6828
▁98	-11.6832
▁pu	-11.6833
▁sacrifice	-11.6833
▁churches	-11.6833
▁tariffs	-11.6834
▁vaccination	-11.6836
ward	-11.6836
▁intra	-11.6838
▁rotate	-11.684
▁defendant	-11.6842
▁hiking	-11.6842
▁bahrain	-11.6846
▁seasons	-11.6846
ob	-11.6847
▁ideological	-11.6848
▁tariff	-11.6849
▁catalyst	-11.685
▁durability	-11.6851
▁pie	-11.6852
▁horn	-11.6852
▁tile	-11.6856
▁beef	-11.6856
▁bend	-11.6856
▁rod	-11.6866
▁naval	-11.6868
▁cursor	-11.687
▁pipes	-11.6871
▁combustion	-11.6872
91	-11.6876
▁commended	-11.6881
ological	-11.6882
▁oriented	-11.6883
▁63	-11.6883
▁3.5	-11.6884
▁magnificent	-11.6889
▁manipulation	-11.6889
▁username	-11.6889
▁architects	-11.6893
▁tai	-11.6894
▁kernel	-11.6898
▁facto	-11.69
▁mysterious	-11.6901
je	-11.6906
▁speaks	-11.6907
▁huawei	-11.6907
▁mill	-11.6908
compliance	-11.6911
▁recruit	-11.6911
▁lowering	-11.6912
▁bowl	-11.6915
jo	-11.6915
▁tide	-11.6917
▁infringement	-11.692
▁planes	-11.6922
▁shareholder	-11.6924
▁rigid	-11.6925
▁quietly	-11.6926
▁longest	-11.6927
▁impressed	-11.6931
▁nitrogen	-11.6932
ade	-11.6933
▁assemblies	-11.6935
▁marginalized	-11.6939
ud	-11.694
▁basin	-11.6941
fo	-11.6943
▁senator	-11.6943
ara	-11.6946
▁intensify	-11.6951
▁nuts	-11.6954
▁eve	-11.6955
▁equation	-11.6955
▁jacket	-11.6956
▁simplicity	-11.6957
group	-11.6961
▁executing	-11.6963
▁evacuation	-11.6963
▁2014.	-11.6964
▁socially	-11.6964
bra	-11.6966
ator	-11.6971
▁organised	-11.6971
▁pcs	-11.6971
▁projection	-11.6972
▁bears	-11.6974
sector	-11.6975
▁cart	-11.6975
▁comprise	-11.6975
▁foam	-11.6976
▁24.	-11.6979
▁fierce	-11.6979
▁brightness	-11.6982
▁pensions	-11.6983
▁unodc	-11.6987
sea	-11.6988
▁rolled	-11.699
▁alloy	-11.6991
▁strings	-11.6992
▁contaminated	-11.6994
▁killings	-11.6996
▁talented	-11.6996
▁favorable	-11.6996
▁projections	-11.6997
▁linguistic	-11.6997
▁lighter	-11.6999
▁simulate	-11.6999
▁runtime	-11.7001
▁trademarks	-11.7002
▁faso	-11.7003
▁gar	-11.7003
▁ali	-11.7007
▁approaching	-11.7008
▁mauritius	-11.7009
▁precautions	-11.7012
▁derivatives	-11.7014
▁imp	-11.7015
▁disciplines	-11.7015
ica	-11.7019
▁administer	-11.7022
▁tajikistan	-11.7023
▁surroundings	-11.7023
▁mars	-11.7036
▁edward	-11.7036
▁latency	-11.7036
▁illustration	-11.7041
▁doctrine	-11.7041
▁mud	-11.7043
bound	-11.7044
▁inquiries	-11.7045
▁damaging	-11.7045
▁suits	-11.7046
▁thrown	-11.7047
▁booked	-11.7049
▁destiny	-11.7051
▁altered	-11.7054
▁zhejiang	-11.7055
▁fatal	-11.7058
▁crowded	-11.7059
order	-11.706
▁seafood	-11.7069
▁subway	-11.7069
▁resumption	-11.7074
rated	-11.7074
▁assumes	-11.7076
▁neglect	-11.7078
▁columbia	-11.708
▁aliens	-11.708
▁eligibility	-11.7083
▁openness	-11.7084
▁ps	-11.7085
▁cycling	-11.7097
▁outlets	-11.7098
▁nominal	-11.7099
▁pillars	-11.71
▁poorly	-11.71
ric	-11.7101
sh	-11.7102
▁diving	-11.7104
▁cafes	-11.7106
▁conscience	-11.7112
▁compliant	-11.7115
▁bp	-11.7116
▁4-	-11.7117
▁compromised	-11.7119
sales	-11.7119
▁flame	-11.712
08	-11.712
iii	-11.7122
ku	-11.7123
▁systemic	-11.7123
cause	-11.7124
74	-11.7124
dd	-11.7128
▁renowned	-11.713
▁finalized	-11.7131
▁sewage	-11.7134
▁succession	-11.7143
▁auspices	-11.7143
tion	-11.7146
▁enrolled	-11.7146
").	-11.7147
▁pets	-11.7148
international	-11.7149
▁fluctuations	-11.7149
source	-11.7149
▁explaining	-11.7149
▁scratch	-11.7156
ct	-11.7156
▁compile	-11.7157
▁hurry	-11.716
%)	-11.7162
▁curious	-11.7163
▁hague	-11.7172
phone	-11.7173
▁quoted	-11.7174
▁seventh	-11.7178
▁founder	-11.7179
▁timber	-11.7179
▁distributors	-11.718
▁haitian	-11.7188
▁wings	-11.719
▁mon	-11.7197
51	-11.7198
▁intensified	-11.7198
▁illustrated	-11.7198
▁bugs	-11.72
▁historically	-11.72
tin	-11.7203
piece	-11.7206
▁envoy	-11.7208
▁highlighting	-11.7214
▁deadly	-11.7215
▁committing	-11.7215
▁bias	-11.7216
▁jam	-11.7216
hua	-11.7219
▁flavor	-11.7224
ao	-11.7228
▁landmines	-11.7229
▁diagnostics	-11.7229
▁grip	-11.7229
▁cairo	-11.723
▁timer	-11.7234
▁bat	-11.7235
▁boasts	-11.7238
▁sichuan	-11.724
▁respects	-11.724
▁1.3	-11.7241
▁somehow	-11.7244
▁advocates	-11.7246
uring	-11.7249
▁tenure	-11.725
private	-11.7252
▁frustration	-11.7252
▁fur	-11.7254
▁burkina	-11.7255
▁$8	-11.7256
▁faults	-11.7256
▁peacebuilding	-11.7256
▁deficits	-11.7257
▁tang	-11.7259
code	-11.7259
▁diversified	-11.7259
meter	-11.7261
▁exemption	-11.7261
▁cosmetics	-11.7261
ey	-11.7263
▁reads	-11.7263
▁memorial	-11.7265
▁remembered	-11.7268
▁outsourcing	-11.7271
▁compute	-11.7275
lic	-11.7275
▁lifted	-11.7278
▁threw	-11.7282
▁calculating	-11.7282
▁cad	-11.7282
▁jamaica	-11.7282
▁importing	-11.7288
▁virgin	-11.7288
▁ver	-11.7289
▁accompanying	-11.729
▁duplication	-11.7295
▁goodbye	-11.7296
▁milestone	-11.7297
▁waited	-11.7297
▁beneath	-11.7298
▁intentions	-11.7299
shan	-11.7301
▁destructive	-11.7302
▁pledges	-11.7307
▁casual	-11.7314
▁resilience	-11.7317
▁straightforward	-11.7321
▁legend	-11.7321
▁examinations	-11.7324
▁cave	-11.7326
▁osce	-11.733
▁funeral	-11.733
cut	-11.7331
▁fo	-11.7332
▁forex	-11.7332
▁mdgs	-11.7333
development	-11.7338
log	-11.7339
▁claiming	-11.734
please	-11.7341
▁toyota	-11.7343
▁exchanged	-11.7345
▁gloves	-11.7345
▁signatures	-11.7347
ball	-11.7347
cha	-11.7349
▁2:	-11.735
▁surgical	-11.7354
resolution	-11.7354
list	-11.7356
▁immunization	-11.7359
▁dynasty	-11.7363
cap	-11.7366
nes	-11.7369
▁dive	-11.7372
data	-11.7375
pu	-11.7377
▁header	-11.7384
tri	-11.7388
critical	-11.7389
▁forecasting	-11.739
fire	-11.7394
▁gently	-11.7395
72	-11.7398
▁25%	-11.7399
▁resumed	-11.74
▁gang	-11.74
▁concluding	-11.7402
▁menus	-11.7402
▁chambers	-11.7402
rp	-11.7403
▁authentic	-11.7403
▁industrialized	-11.7404
▁simultaneous	-11.7404
▁exams	-11.7409
▁risky	-11.741
child	-11.7411
▁exporters	-11.7411
▁intolerance	-11.7415
▁70%	-11.742
▁encouragement	-11.7422
▁upward	-11.7424
▁mile	-11.7424
century	-11.7425
▁5,000	-11.7425
uff	-11.7426
▁spy	-11.7427
▁acids	-11.7427
▁freezing	-11.7428
▁synthesis	-11.7428
▁unhappy	-11.7428
▁selective	-11.743
▁correspondence	-11.7431
-12	-11.7434
▁refrigerator	-11.7435
▁ea	-11.7435
ino	-11.7436
get	-11.7438
▁daniel	-11.7438
▁molecules	-11.7441
▁creditor	-11.7443
▁registrar	-11.7444
▁qualitative	-11.7445
▁edited	-11.7446
▁behave	-11.7447
▁yugoslav	-11.7448
speaking	-11.7448
▁deepen	-11.745
▁victoria	-11.745
▁adherence	-11.7451
▁commentary	-11.7452
▁clauses	-11.7452
▁tune	-11.7453
▁68	-11.7456
▁explosives	-11.7456
▁exhibitions	-11.7456
▁norwegian	-11.7461
▁quantum	-11.7464
▁hopefully	-11.7467
▁investigative	-11.7467
▁breeding	-11.7468
▁migrate	-11.7469
▁irrigation	-11.7471
03	-11.7473
▁bidding	-11.7474
para	-11.7476
bin	-11.7481
▁tenth	-11.7483
▁bow	-11.7484
▁renminbi	-11.7484
▁reproduction	-11.7486
▁wfp	-11.7487
▁inception	-11.7487
▁telecom	-11.7487
▁prayer	-11.7488
▁modem	-11.7492
▁foremost	-11.7494
▁tackling	-11.7497
▁wiring	-11.7498
▁rope	-11.7503
900	-11.7507
▁ventilation	-11.7507
▁unrest	-11.7509
▁dump	-11.751
▁swap	-11.7512
ls	-11.7515
nic	-11.7517
▁retreat	-11.7517
▁insulation	-11.7518
▁abu	-11.752
▁ambient	-11.7527
▁collateral	-11.7527
▁identifier	-11.7532
▁merchandise	-11.7534
▁timetable	-11.7534
▁worn	-11.7535
▁olive	-11.7536
▁iot	-11.7537
▁schema	-11.7537
▁decreases	-11.7538
▁flowing	-11.754
07	-11.7542
▁cor	-11.755
▁samsung	-11.755
ging	-11.7551
▁ping	-11.7551
▁illegally	-11.7552
▁bunch	-11.7553
▁goldman	-11.7553
▁thereafter	-11.7554
▁persuade	-11.7555
▁facial	-11.7557
▁practically	-11.7558
▁joseph	-11.756
▁polar	-11.756
▁warn	-11.7561
▁shortages	-11.7565
▁deprivation	-11.7567
▁donations	-11.757
▁adaptive	-11.7571
▁tray	-11.7572
▁wires	-11.7572
▁galaxy	-11.7573
▁pragmatic	-11.7573
▁gotta	-11.7574
▁medications	-11.7578
▁relieve	-11.7589
▁gasoline	-11.759
▁hunt	-11.7591
▁wins	-11.7591
▁killer	-11.7593
▁inspire	-11.7594
▁reluctant	-11.7594
▁patrol	-11.7595
▁painted	-11.7595
▁glance	-11.7595
▁disks	-11.7596
▁endpoint	-11.7601
▁reimbursement	-11.7607
▁supervisory	-11.761
▁trader	-11.7612
▁60%	-11.7613
bissau	-11.7617
▁rs	-11.7619
▁dig	-11.762
▁prospective	-11.7624
▁transforming	-11.7625
▁pillar	-11.7628
▁persistence	-11.763
ju	-11.7632
▁harness	-11.7632
▁deserves	-11.7633
▁veto	-11.7633
▁entrusted	-11.7635
any	-11.7639
▁realm	-11.7641
▁remainder	-11.7643
▁67	-11.7646
▁sentiment	-11.7647
▁compilation	-11.765
▁safeguarding	-11.7651
bus	-11.7651
▁macau	-11.7651
▁escalation	-11.7654
▁preparedness	-11.7654
system	-11.7654
▁commence	-11.7655
▁ceramic	-11.7656
▁prisoner	-11.7658
▁tan	-11.7661
▁mao	-11.7663
▁sons	-11.7669
▁constraint	-11.7672
▁vietnamese	-11.7677
▁carpet	-11.7678
▁erosion	-11.7681
▁blast	-11.7681
▁rainfall	-11.7681
▁nutrients	-11.7682
▁yi	-11.7682
▁automate	-11.7687
"?	-11.769
▁33.	-11.7691
▁$1,	-11.7692
▁shaft	-11.7692
▁dominican	-11.7695
▁lid	-11.7695
band	-11.7697
▁sunny	-11.7698
▁paste	-11.77
▁premature	-11.7701
▁void	-11.7707
▁tar	-11.771
▁petrol	-11.7714
ck	-11.7714
▁(10	-11.7716
▁associates	-11.7717
▁deliberately	-11.7717
od	-11.7719
▁scarce	-11.772
▁louis	-11.7723
▁resorts	-11.7724
ari	-11.7724
▁polymer	-11.7724
▁rebels	-11.7724
▁apparatus	-11.7724
▁cardiovascular	-11.7728
taking	-11.7733
▁scotland	-11.7734
▁magnet	-11.7738
▁prosecute	-11.7743
▁throat	-11.7745
▁dock	-11.7747
▁attraction	-11.775
▁privately	-11.775
▁interviewed	-11.7751
▁drying	-11.7757
▁collision	-11.7758
nc	-11.7761
▁inequalities	-11.7762
▁renovation	-11.7762
▁allowances	-11.7763
▁illustrates	-11.7767
three	-11.7771
▁thumb	-11.7772
▁mice	-11.7774
▁fond	-11.7778
▁ir	-11.7778
▁successes	-11.7779
▁accepts	-11.778
62	-11.778
▁extensively	-11.778
▁hawaii	-11.7784
▁tibetan	-11.7785
▁cc	-11.7785
▁ideology	-11.7785
mark	-11.7786
37	-11.7786
▁sink	-11.7788
ran	-11.7791
▁females	-11.7794
▁deletion	-11.7796
▁horizon	-11.7796
par	-11.7797
▁ipad	-11.78
▁restrictive	-11.7803
▁conditional	-11.7803
▁yard	-11.7804
▁recreational	-11.781
play	-11.7812
▁preferential	-11.7813
ended	-11.7821
▁slope	-11.7824
▁30-	-11.7834
▁commenced	-11.7838
▁vpn	-11.784
▁expire	-11.7842
▁therapeutic	-11.7845
▁rally	-11.7849
▁customization	-11.7851
stock	-11.7854
▁speculation	-11.7854
person	-11.7857
▁grammar	-11.7857
▁disseminate	-11.7859
▁owe	-11.7863
▁corrected	-11.7864
▁vat	-11.7864
▁weekends	-11.7865
▁consulted	-11.7865
▁finishing	-11.7866
▁rub	-11.7868
▁neighbor	-11.7874
▁yahoo	-11.7881
▁typing	-11.7881
▁healing	-11.7881
▁kidney	-11.7883
▁rotating	-11.7885
▁hammer	-11.7885
▁wal	-11.7889
▁92	-11.7892
78	-11.7897
used	-11.7902
▁participatory	-11.7905
▁munich	-11.7905
▁intimate	-11.7906
▁cp	-11.7908
▁expectancy	-11.7909
▁baseball	-11.791
▁understands	-11.7911
▁lenses	-11.7912
▁coins	-11.7912
▁kar	-11.7912
▁interrupt	-11.7914
▁calories	-11.7915
▁misuse	-11.7915
▁scourge	-11.7916
▁desertification	-11.7916
▁creatures	-11.7918
▁enhancements	-11.7919
▁chapters	-11.792
cutting	-11.7921
▁sacred	-11.7926
▁1982	-11.7927
▁virginia	-11.7932
gas	-11.7932
▁jiang	-11.7932
▁christians	-11.7934
▁competitor	-11.7935
▁mal	-11.7939
▁morgan	-11.794
▁arctic	-11.794
▁pound	-11.7942
▁imbalance	-11.7943
▁ratios	-11.7947
▁wolf	-11.7949
▁aunt	-11.795
flow	-11.7953
▁revise	-11.7956
▁analyzes	-11.7961
▁dietary	-11.7961
▁bombs	-11.7963
zo	-11.7963
▁abnormal	-11.7964
▁cathedral	-11.7964
rk	-11.7966
▁panoramic	-11.7967
▁envelope	-11.7968
▁quotes	-11.7969
▁thirdly	-11.7971
▁apologize	-11.7973
▁recreation	-11.7974
▁subset	-11.798
tier	-11.798
tan	-11.7981
▁bride	-11.7983
▁northeast	-11.7984
▁colored	-11.7986
▁observing	-11.7988
▁imply	-11.7989
lt	-11.799
▁cholesterol	-11.799
far	-11.7999
shi	-11.8
▁geological	-11.8002
▁exhausted	-11.8003
▁pretend	-11.8005
ik	-11.8007
▁deficiencies	-11.8009
▁brokers	-11.8013
▁tianjin	-11.8013
▁1984	-11.8015
▁cater	-11.8018
van	-11.8018
▁cats	-11.8018
▁jin	-11.8022
▁purple	-11.8023
dustrialization	-11.8027
▁seas	-11.8029
▁15%	-11.8033
ita	-11.8035
▁indications	-11.8035
▁correspond	-11.8036
ford	-11.8037
ants	-11.8037
▁venues	-11.8038
▁subregion	-11.8045
▁easiest	-11.8051
▁commend	-11.8055
base	-11.8056
▁impetus	-11.8058
▁oils	-11.8058
▁premise	-11.8059
▁shrink	-11.8062
▁viewer	-11.8067
▁(5)	-11.8068
▁physician	-11.8068
▁negatively	-11.807
▁tire	-11.8078
▁debit	-11.8079
▁anxious	-11.8079
▁medal	-11.808
▁appealed	-11.8081
channel	-11.8081
sub	-11.8082
▁override	-11.8082
▁devil	-11.8085
▁smartphones	-11.8086
▁americas	-11.8086
▁jews	-11.8087
▁tiles	-11.8088
▁sells	-11.8091
▁intervene	-11.8095
9%	-11.8106
▁replies	-11.8107
▁barrel	-11.811
▁deleting	-11.811
▁proposition	-11.811
▁34.	-11.8112
▁wales	-11.8112
▁paradise	-11.8114
▁absorbed	-11.8114
▁lawful	-11.8114
figure	-11.8114
ified	-11.8116
▁contacted	-11.8118
▁tony	-11.8118
▁disagree	-11.8119
▁fence	-11.8122
▁climbing	-11.8127
▁careers	-11.8133
▁87	-11.8133
▁corrective	-11.8134
▁aquaculture	-11.8138
▁backgrounds	-11.8139
▁occupy	-11.8144
▁retaining	-11.8144
tal	-11.8146
mat	-11.8147
place	-11.8149
purpose	-11.8149
▁intimidation	-11.8149
▁inviting	-11.8149
▁variance	-11.8149
▁kits	-11.8149
▁congolese	-11.815
▁distances	-11.8151
▁arises	-11.8152
tra	-11.8152
▁anne	-11.8153
▁anchor	-11.8153
stage	-11.8154
▁lithium	-11.8156
▁sudanese	-11.816
▁courtyard	-11.816
▁swear	-11.8162
ix	-11.8164
shaped	-11.8168
▁bullet	-11.8169
▁electromagnetic	-11.817
▁receipts	-11.8172
▁honesty	-11.8172
▁electro	-11.8172
▁imposition	-11.8174
▁bind	-11.8175
▁glory	-11.8177
▁pla	-11.8177
▁charming	-11.8178
iness	-11.8178
▁leakage	-11.8181
▁harbor	-11.8182
▁nu	-11.8184
▁sixty	-11.8185
▁nanjing	-11.8188
▁listened	-11.8189
▁biotechnology	-11.8191
▁3,000	-11.8195
▁invoked	-11.8195
▁prohibits	-11.8195
▁imposing	-11.8198
▁shaped	-11.8199
▁approached	-11.82
▁hepatitis	-11.8202
▁classmates	-11.8202
▁gem	-11.8203
▁depreciation	-11.8205
▁terrain	-11.8206
▁removes	-11.8209
▁va	-11.8216
▁exert	-11.8216
▁concessions	-11.8216
▁guaranteeing	-11.8217
▁distributor	-11.8217
▁bamboo	-11.822
▁31.	-11.8223
▁breaches	-11.8223
▁contingency	-11.8227
▁keyword	-11.8231
▁lengthy	-11.8231
br	-11.8233
▁presently	-11.8234
▁oneself	-11.8236
▁tooth	-11.8236
▁1992,	-11.824
▁forefront	-11.8241
▁communicated	-11.8241
▁madam	-11.8246
▁fucking	-11.8246
▁validated	-11.8252
▁infinite	-11.8252
▁zip	-11.8253
▁disadvantage	-11.8253
will	-11.8254
ev	-11.8255
▁restraint	-11.8256
▁uncomfortable	-11.8259
▁undergo	-11.8259
▁relocation	-11.826
pping	-11.8268
▁od	-11.8271
▁sporting	-11.8272
▁93	-11.8273
▁ds	-11.8273
▁munitions	-11.8275
cultural	-11.8276
▁compartment	-11.8276
▁financially	-11.8278
▁br	-11.8278
stone	-11.8279
▁41.	-11.8282
▁fold	-11.8285
db	-11.8285
▁piracy	-11.8286
▁monster	-11.8287
▁mum	-11.8287
▁tracked	-11.8287
using	-11.829
left	-11.8291
▁moldova	-11.8295
▁interrupted	-11.8296
▁lap	-11.8297
▁masses	-11.8297
▁ventures	-11.831
▁consulate	-11.8313
▁knock	-11.8319
▁frequencies	-11.832
frame	-11.8321
med	-11.8323
▁prescription	-11.8324
▁specifying	-11.8324
qaida	-11.8327
▁350	-11.8327
▁8,	-11.833
▁quotas	-11.833
ane	-11.833
▁vacancy	-11.833
▁invented	-11.8332
▁assembled	-11.8332
▁bitter	-11.8334
million	-11.8337
▁calculator	-11.8337
▁seals	-11.8339
▁wanting	-11.834
▁wool	-11.8349
▁wastewater	-11.835
▁canvas	-11.8353
▁oppose	-11.8354
iest	-11.8355
▁copying	-11.8355
▁unstable	-11.8355
ethnic	-11.8361
▁bribery	-11.8362
these	-11.8363
▁spell	-11.8364
era	-11.8367
▁puzzle	-11.8368
▁manifest	-11.8368
ng	-11.8373
▁watches	-11.838
human	-11.8381
▁trapped	-11.8381
▁indexes	-11.8383
ub	-11.8383
1%	-11.8384
▁minimizing	-11.8384
▁counted	-11.8385
▁beta	-11.8385
mr	-11.8389
▁lag	-11.8392
▁1.1	-11.8392
nce	-11.8395
▁congratulations	-11.8395
▁canal	-11.8396
▁confronted	-11.8397
▁shy	-11.8397
▁locks	-11.8398
▁guitar	-11.8404
▁42.	-11.8405
▁miracle	-11.8406
▁springs	-11.8407
▁publishers	-11.8407
thirds	-11.8408
▁pane	-11.8408
▁convergence	-11.8408
▁finances	-11.8408
▁subjective	-11.8412
▁gotten	-11.8413
▁affiliates	-11.8421
▁pole	-11.8422
▁countless	-11.8423
▁1987	-11.8423
▁earning	-11.8423
▁reside	-11.8424
▁shutdown	-11.8425
▁dataset	-11.8426
sk	-11.8427
▁fighters	-11.8428
▁backward	-11.8429
▁nano	-11.843
▁designation	-11.8431
53	-11.8431
▁mainstreaming	-11.8431
▁redundant	-11.8431
▁stranger	-11.8432
▁formulating	-11.8434
except	-11.8434
▁vicinity	-11.8435
▁junk	-11.8437
▁ob	-11.8438
▁inspector	-11.8442
▁coatings	-11.8443
▁fires	-11.8444
▁pp	-11.8444
▁lightning	-11.8446
▁2016,	-11.8446
▁kitchenette	-11.8446
ical	-11.8447
cy	-11.8447
▁91	-11.8449
▁brick	-11.8451
▁(6	-11.8453
▁inherited	-11.8454
▁scrutiny	-11.8457
ea	-11.8458
▁villagers	-11.8461
▁82	-11.8461
▁ji	-11.8461
▁wording	-11.8463
post	-11.8463
▁detecting	-11.8466
▁outset	-11.8467
▁attaches	-11.8468
▁pants	-11.8471
▁mat	-11.8473
▁spiral	-11.8479
▁downward	-11.848
0.00	-11.8481
▁chaos	-11.8481
▁39.	-11.8483
alone	-11.8484
▁locking	-11.8485
▁ken	-11.8488
▁insured	-11.849
▁payroll	-11.8495
ties	-11.8495
▁gi	-11.8495
reaching	-11.8497
leading	-11.85
action	-11.8501
▁literally	-11.8501
4%	-11.8502
active	-11.8503
▁00	-11.8504
▁eliminates	-11.8505
▁conception	-11.8506
hai	-11.8507
ever	-11.8511
▁elect	-11.8513
▁rico	-11.8513
▁trim	-11.8514
▁tenant	-11.852
▁mb	-11.8522
▁reorganization	-11.8523
▁visualization	-11.8524
pin	-11.8524
mann	-11.8531
▁stereotypes	-11.8537
▁fixes	-11.854
▁pulling	-11.8541
▁fl	-11.8542
▁transported	-11.8542
▁textiles	-11.8542
▁norm	-11.8545
▁1.0	-11.8546
▁outlet	-11.8546
ski	-11.8547
▁firing	-11.855
have	-11.8554
▁supplying	-11.8555
▁monopoly	-11.8556
▁pour	-11.8559
▁affair	-11.856
▁withdrawn	-11.8561
▁enshrined	-11.8564
▁flooding	-11.8565
▁manpower	-11.8565
▁indices	-11.8566
▁flip	-11.8567
▁hangzhou	-11.8567
lp	-11.857
▁scalability	-11.857
▁lover	-11.8571
▁nominated	-11.8577
▁genital	-11.8581
▁cooperating	-11.8582
▁withstand	-11.8582
▁diagnose	-11.8583
▁headset	-11.8587
▁bucket	-11.8587
▁stereo	-11.8589
▁disparities	-11.8592
▁broaden	-11.8594
▁villas	-11.8595
▁stabilize	-11.8599
▁incumbent	-11.86
mc	-11.861
▁outlines	-11.8614
▁facilitates	-11.8615
▁confrontation	-11.8615
▁opponents	-11.8617
▁cultivate	-11.8621
maker	-11.8622
▁float	-11.8622
▁zinc	-11.8623
06	-11.8625
▁lectures	-11.8629
▁shifted	-11.8631
▁78	-11.8637
▁cautious	-11.8637
▁15-	-11.8643
▁reiterates	-11.8643
▁countermeasures	-11.8645
▁rivals	-11.8646
▁thanked	-11.865
▁ward	-11.865
▁fe	-11.8651
▁visually	-11.8657
▁surrender	-11.8657
real	-11.8658
▁paradigm	-11.8659
▁versatile	-11.8659
▁alarming	-11.8661
▁auxiliary	-11.8662
▁1967	-11.8665
▁graphical	-11.8666
▁candy	-11.8668
▁grouped	-11.8668
▁clearer	-11.8672
▁warfare	-11.8674
▁bonuses	-11.8677
member	-11.8679
▁exterior	-11.8681
▁implied	-11.8681
▁hotline	-11.8682
▁tubes	-11.8685
tax	-11.8687
▁rebuilding	-11.869
ano	-11.8694
▁corresponds	-11.8696
▁referral	-11.8696
▁avenue	-11.87
minded	-11.8704
office	-11.8704
▁spouses	-11.8706
▁trauma	-11.8707
▁tumor	-11.8708
▁assurances	-11.8708
▁reservoir	-11.8711
white	-11.8711
▁32.	-11.8715
▁humor	-11.8716
▁undergoing	-11.8716
▁69	-11.8716
▁ye	-11.8717
▁acoustic	-11.872
▁cigarette	-11.8721
▁scholarship	-11.8722
▁masters	-11.8726
▁emphasizing	-11.8728
▁celebrated	-11.873
foot	-11.873
▁hardship	-11.8733
▁3)	-11.8735
▁15,	-11.8736
▁catalogue	-11.8737
take	-11.874
▁shed	-11.8744
▁clarified	-11.8748
▁incompatible	-11.8749
▁sn	-11.875
▁awaiting	-11.875
▁fundamentally	-11.8752
▁oct	-11.8759
▁sorrow	-11.8759
▁demonstrating	-11.8763
going	-11.8765
plan	-11.8767
▁propaganda	-11.8767
▁tuition	-11.8767
▁homeland	-11.8767
social	-11.8768
▁2016.	-11.877
▁prague	-11.8771
▁ct	-11.8771
▁wrap	-11.8774
▁fin	-11.8775
▁militia	-11.8775
▁sco	-11.8776
working	-11.8777
▁stance	-11.878
▁protesters	-11.878
▁grinding	-11.878
▁stove	-11.8781
▁claimants	-11.8781
▁unsafe	-11.8789
▁headache	-11.8791
▁prosecuted	-11.8791
▁briefings	-11.8791
cal	-11.8792
▁poultry	-11.8793
▁subscribers	-11.8794
▁tracing	-11.8798
consuming	-11.8798
▁respecting	-11.88
▁tabs	-11.8801
▁fibre	-11.8804
▁awesome	-11.8808
▁useless	-11.881
▁1979	-11.881
▁bathtub	-11.8812
▁learners	-11.8814
▁accreditation	-11.8816
▁numerical	-11.8822
▁grease	-11.8823
▁smarter	-11.8823
-6	-11.8825
▁certainty	-11.8827
▁successive	-11.8829
▁slowing	-11.883
▁arbitral	-11.8831
▁fitting	-11.8833
▁deepening	-11.8835
▁1986	-11.8835
equipped	-11.8836
▁socket	-11.884
qua	-11.8844
▁underwater	-11.8844
▁dilemma	-11.8846
▁antibiotics	-11.8849
▁empirical	-11.885
▁disadvantages	-11.8851
▁disappearance	-11.8852
▁76	-11.8852
lon	-11.8852
▁fixing	-11.8853
▁wastes	-11.8856
▁mega	-11.8858
force	-11.8861
▁tournament	-11.8863
setting	-11.8865
ua	-11.8865
▁37.	-11.887
▁contributors	-11.887
▁flex	-11.8875
▁uploaded	-11.8875
▁competencies	-11.8876
▁vault	-11.8877
▁exploited	-11.8881
▁1985	-11.8881
▁38.	-11.8886
▁36.	-11.8889
az	-11.8889
▁unused	-11.889
▁flew	-11.8891
▁forbidden	-11.8891
▁oracle	-11.8894
▁concentrations	-11.8895
cu	-11.8895
learning	-11.8899
▁crossed	-11.8901
▁spill	-11.8902
self	-11.8903
▁dm	-11.8905
▁sahara	-11.8906
▁ash	-11.8906
▁rectangle	-11.8907
track	-11.8908
▁births	-11.891
▁fifteen	-11.8912
▁textbooks	-11.8912
▁ze	-11.8914
▁regulator	-11.8915
▁yan	-11.8918
▁unpaid	-11.8919
▁nasa	-11.8923
▁ballot	-11.8923
▁amsterdam	-11.8926
▁helicopters	-11.8926
▁namibia	-11.893
▁suspicion	-11.8932
▁suppression	-11.8934
▁pale	-11.8939
▁nc	-11.8939
ure	-11.8941
▁montreal	-11.8941
▁linux	-11.8941
▁disturbing	-11.8941
▁marriages	-11.8941
▁seldom	-11.8945
safe	-11.8949
▁tim	-11.8949
▁vo	-11.8951
▁employs	-11.8951
av	-11.8954
▁surf	-11.8957
▁drum	-11.8957
▁recycled	-11.8958
▁1-	-11.8959
ration	-11.896
▁hua	-11.896
▁corners	-11.8961
yu	-11.8961
▁laying	-11.8962
▁males	-11.8963
▁weighing	-11.8965
▁touching	-11.8967
▁recruiting	-11.8967
▁stamps	-11.8967
check	-11.897
▁shame	-11.897
▁objections	-11.8971
▁workloads	-11.8975
itis	-11.8976
ver	-11.8981
▁neo	-11.8983
▁relied	-11.8983
ola	-11.8984
▁organisms	-11.8987
▁shaping	-11.8987
▁0.1	-11.8992
read	-11.8992
▁hectares	-11.8993
▁teenagers	-11.8995
yl	-11.8995
▁aerial	-11.8998
▁enrollment	-11.8999
▁hung	-11.9001
▁landmark	-11.9004
▁bleeding	-11.9004
▁triggers	-11.9007
▁reactor	-11.901
door	-11.901
▁gibraltar	-11.9014
▁polls	-11.9014
▁wasted	-11.9015
▁eventual	-11.9016
▁mba	-11.9019
▁schooling	-11.9021
gan	-11.9021
▁destroying	-11.9023
▁jersey	-11.9025
▁kw	-11.9026
▁wholly	-11.9026
▁wound	-11.9026
df	-11.9029
▁butter	-11.903
▁jar	-11.9032
▁elizabeth	-11.9033
▁voluntarily	-11.9033
▁detector	-11.9034
lit	-11.9035
▁fascinating	-11.9037
▁populated	-11.9038
▁turbine	-11.9039
▁fraudulent	-11.9044
▁sympathy	-11.9044
▁catering	-11.9045
▁appearing	-11.9046
home	-11.9046
▁lively	-11.9047
▁neglected	-11.9047
▁undertook	-11.9048
▁neuro	-11.9049
▁successor	-11.905
▁liverpool	-11.9052
▁bombing	-11.9054
▁executions	-11.9056
▁oxford	-11.9056
▁differentiate	-11.9057
▁imbalances	-11.9061
▁tightly	-11.9064
▁syntax	-11.9064
▁horses	-11.9064
▁1%	-11.9064
▁27,	-11.9066
▁fiji	-11.9066
▁miami	-11.9068
▁shocks	-11.9069
▁35.	-11.9069
▁optimism	-11.9072
▁bench	-11.9072
▁toronto	-11.9072
ony	-11.9072
▁overcoming	-11.9075
established	-11.9076
▁bu	-11.9084
▁dropping	-11.9084
▁daylight	-11.9085
women	-11.9086
▁chongqing	-11.9087
▁lovers	-11.9087
▁fulfilment	-11.9091
▁journalist	-11.9092
▁documentary	-11.9092
front	-11.9092
▁fled	-11.9094
▁manipulate	-11.9094
bc	-11.9096
▁passionate	-11.9097
▁answering	-11.9097
▁licences	-11.9101
▁hearings	-11.9102
▁22,	-11.9102
▁chaired	-11.9103
▁slides	-11.9104
▁standardization	-11.9105
resistant	-11.9105
▁sellers	-11.9111
rin	-11.9111
▁ap	-11.9113
▁reversed	-11.9113
cat	-11.9113
▁ham	-11.912
▁symposium	-11.9126
nbsp	-11.913
▁allocations	-11.9132
▁cage	-11.9133
▁eaten	-11.9136
▁bulletin	-11.9137
▁excitement	-11.9138
▁recognise	-11.9138
▁budgeting	-11.9138
uri	-11.914
cho	-11.914
▁invoke	-11.9141
▁dish	-11.9141
▁73	-11.9143
▁mag	-11.9144
▁sorting	-11.9149
▁depressed	-11.9154
▁mailing	-11.9157
▁mor	-11.9163
▁hesitate	-11.9164
▁lincoln	-11.9165
▁descent	-11.9165
rt	-11.9169
-7	-11.9171
▁handy	-11.9172
▁finest	-11.9172
▁presidents	-11.9172
▁pakistani	-11.9173
▁caller	-11.9173
▁humankind	-11.9173
▁bubbles	-11.9174
▁raid	-11.9175
▁paramount	-11.9177
▁oda	-11.9177
san	-11.9178
▁deficiency	-11.918
▁cattle	-11.9181
▁samoa	-11.9181
seekers	-11.9183
▁disney	-11.9184
▁optimizing	-11.9188
▁motorcycle	-11.919
uc	-11.9191
▁incredibly	-11.9196
har	-11.9196
tain	-11.9196
▁consolidating	-11.92
▁criticized	-11.9205
▁corp	-11.9205
▁grandmother	-11.9208
▁manchester	-11.9208
▁poison	-11.9208
▁mit	-11.9212
▁dressing	-11.9213
▁endangered	-11.9216
71	-11.9217
▁vip	-11.9218
▁liberian	-11.9221
▁niger	-11.9222
▁94	-11.9224
xi	-11.9226
▁constrained	-11.9227
▁delighted	-11.9227
▁modifying	-11.9228
special	-11.9233
▁bc	-11.9233
▁snack	-11.9234
▁troubled	-11.9234
▁corrections	-11.9234
▁capturing	-11.9235
▁aftermath	-11.9235
▁combatants	-11.9237
▁bypass	-11.9239
▁grandfather	-11.9239
▁zhu	-11.9242
▁vocabulary	-11.9243
▁delhi	-11.9243
especially	-11.9245
▁settlers	-11.9247
▁malawi	-11.9247
▁workflows	-11.9247
ians	-11.9248
▁ecology	-11.9251
▁antivirus	-11.9252
▁collapsed	-11.9253
▁beans	-11.9253
▁cube	-11.9254
▁orderly	-11.9255
▁26,	-11.9256
▁cur	-11.9256
cast	-11.9257
▁hurricane	-11.9257
▁predecessor	-11.9257
▁fantasy	-11.9259
▁privatization	-11.9259
▁escaped	-11.9259
▁problematic	-11.926
▁radius	-11.9263
pressure	-11.9263
▁honduras	-11.9266
▁entrepreneurial	-11.9267
▁macao	-11.9267
▁shit	-11.9268
ture	-11.9273
▁14,	-11.9274
▁alice	-11.9276
▁fluids	-11.9277
gate	-11.928
▁misconduct	-11.9283
▁cornerstone	-11.9283
▁eurozone	-11.9287
▁bother	-11.9287
zhou	-11.9288
map	-11.9289
▁striving	-11.929
▁fog	-11.9292
▁elevation	-11.9294
▁unfortunate	-11.9296
▁apples	-11.9296
▁distress	-11.9299
▁referenced	-11.93
▁commissioned	-11.9301
yan	-11.9302
▁breastfeeding	-11.9303
▁sailing	-11.9304
disciplinary	-11.9307
▁checklist	-11.9309
▁eighth	-11.931
▁spirits	-11.931
▁accompany	-11.9312
▁nas	-11.9314
▁retrieved	-11.9317
▁1996.	-11.9318
ata	-11.932
processing	-11.9324
▁zhou	-11.9326
▁authorize	-11.9327
▁renovated	-11.9327
enabled	-11.9328
▁triple	-11.9329
▁praised	-11.9333
▁exempt	-11.9333
▁compressor	-11.9334
▁canceled	-11.9334
▁slim	-11.9336
▁rabbit	-11.934
▁02	-11.9341
▁zi	-11.9343
▁vitamins	-11.9344
▁concludes	-11.9346
▁membrane	-11.9347
share	-11.9348
store	-11.935
▁congratulate	-11.9353
hal	-11.9354
ren	-11.9356
▁analysing	-11.9358
▁despair	-11.9358
▁smiling	-11.9358
▁disappointment	-11.9358
▁recalls	-11.9359
ele	-11.936
▁recourse	-11.9363
▁prof	-11.9364
▁susan	-11.9365
▁resettlement	-11.9366
▁toy	-11.937
▁porn	-11.9371
▁adam	-11.9371
▁md	-11.9373
▁28,	-11.9373
▁9,	-11.9375
▁jean	-11.9375
vin	-11.9378
▁angles	-11.9379
▁magical	-11.9381
▁benchmarks	-11.9384
▁melt	-11.9385
▁newsletter	-11.9386
▁odds	-11.9387
▁74	-11.9388
▁nan	-11.9389
▁generators	-11.939
▁turmoil	-11.939
▁convening	-11.939
▁finnish	-11.939
▁leveraging	-11.939
▁nerve	-11.9393
▁ladder	-11.9394
▁laughing	-11.9398
▁revisions	-11.9403
winning	-11.9403
▁commencement	-11.9403
▁flags	-11.9404
▁guideline	-11.9404
while	-11.9408
▁immense	-11.9411
▁quo	-11.9413
▁fancy	-11.9414
▁curricula	-11.9414
▁capitalism	-11.9415
▁proves	-11.9415
▁yearly	-11.9415
path	-11.9416
▁beneficiary	-11.9418
▁recipe	-11.9422
mel	-11.9422
▁pedal	-11.9422
▁refine	-11.9424
▁ambition	-11.9426
▁suppress	-11.9427
▁meteorological	-11.943
▁contracted	-11.9431
hole	-11.9432
▁deployments	-11.9442
▁aboriginal	-11.9442
was	-11.9443
▁dynamically	-11.9444
▁immigrant	-11.9445
▁confirms	-11.9447
▁entail	-11.9454
▁penetration	-11.9454
▁jun	-11.9454
▁au	-11.9457
hk	-11.9461
▁terminology	-11.9462
▁searched	-11.9463
73	-11.9465
▁bur	-11.9465
▁lately	-11.9466
▁prioritize	-11.9472
▁enhances	-11.9473
▁maria	-11.9474
▁handbook	-11.9474
▁tribal	-11.9474
▁$20	-11.9474
▁cocktails	-11.9475
▁hamas	-11.9475
aligned	-11.9475
ram	-11.9476
affected	-11.9477
▁austrian	-11.9477
▁socialism	-11.948
ks	-11.948
▁sweat	-11.9481
powered	-11.9482
▁supervise	-11.9482
▁genius	-11.9482
misunderstanding	-11.9482
▁scans	-11.9483
▁sights	-11.9483
▁ample	-11.9484
▁andrew	-11.9484
▁narrative	-11.9486
▁coaching	-11.9487
tc	-11.9488
fer	-11.9488
▁accidental	-11.949
▁crafts	-11.949
▁nokia	-11.949
▁pins	-11.949
▁je	-11.949
▁recovering	-11.9491
language	-11.9491
04	-11.9493
▁weaker	-11.9494
▁bore	-11.9496
▁detects	-11.9497
▁labs	-11.9498
▁taipei	-11.9498
▁prone	-11.9502
▁notices	-11.9503
nan	-11.9504
▁explanations	-11.9505
hong	-11.9505
▁null	-11.9505
▁opium	-11.9506
▁vitality	-11.951
▁rat	-11.9511
▁phrases	-11.9513
▁gesture	-11.9515
▁digits	-11.9519
▁occasional	-11.9521
▁71	-11.9523
▁clashes	-11.9523
▁performances	-11.9524
▁acknowledges	-11.9524
conditioning	-11.9524
sum	-11.9525
▁merged	-11.9532
▁dim	-11.9533
▁shadows	-11.9533
▁aforementioned	-11.9534
▁servant	-11.9536
▁intersection	-11.9537
▁predictions	-11.9546
▁condemn	-11.9548
▁isolate	-11.9551
▁cessation	-11.9551
▁melbourne	-11.9551
pan	-11.9552
▁sits	-11.9553
▁fade	-11.9554
ay	-11.9555
▁125	-11.9555
▁incur	-11.9556
▁har	-11.9557
▁artifacts	-11.9558
▁ramp	-11.9558
hard	-11.9567
▁employing	-11.9567
▁undermined	-11.9569
▁violating	-11.9571
▁racist	-11.9571
▁jungle	-11.9571
▁surprisingly	-11.9571
▁rooted	-11.9573
▁contexts	-11.9573
▁arrests	-11.9574
▁peacekeepers	-11.9575
▁instrumental	-11.9578
▁innovate	-11.9579
▁disconnected	-11.958
▁athens	-11.9581
▁towers	-11.9582
▁disrupt	-11.9584
▁brutal	-11.9584
▁merchant	-11.9585
▁petition	-11.9587
fish	-11.959
▁precipitation	-11.9591
▁whoever	-11.9594
ris	-11.9597
▁nut	-11.9599
cf	-11.9603
▁agility	-11.9608
▁duck	-11.961
▁portions	-11.9613
cell	-11.9615
▁efficiencies	-11.9616
pass	-11.9618
▁lip	-11.9619
▁reboot	-11.962
▁reinforcing	-11.9626
▁explorer	-11.9627
▁kyrgyzstan	-11.9634
▁pact	-11.9636
▁editorial	-11.9637
▁newest	-11.9637
▁technician	-11.9638
▁donation	-11.9639
▁vapor	-11.964
▁replica	-11.964
▁pizza	-11.9644
▁tertiary	-11.9644
▁oversee	-11.9644
▁inherit	-11.9648
▁mould	-11.9649
▁wired	-11.965
▁900	-11.9651
▁2.1	-11.9657
▁bands	-11.966
▁buddhist	-11.9661
▁shots	-11.9663
▁bolt	-11.9667
▁equilibrium	-11.9669
rie	-11.9671
▁daughters	-11.9672
▁cigarettes	-11.9677
▁impede	-11.9677
▁researcher	-11.9681
▁reliably	-11.9681
▁heroes	-11.9684
▁privileged	-11.9688
▁ugly	-11.9694
▁rounds	-11.9695
▁ol	-11.9698
▁ids	-11.9699
▁downstream	-11.97
▁adolescent	-11.9701
▁diagnosed	-11.9703
▁$9	-11.9703
▁brakes	-11.9707
▁injustice	-11.9708
▁nomination	-11.9709
▁simulator	-11.9714
▁nest	-11.9715
▁editors	-11.9715
▁lasted	-11.9715
▁duly	-11.9717
ivity	-11.9717
▁overtime	-11.9718
▁complained	-11.9718
built	-11.9718
▁wow	-11.9721
sha	-11.9721
▁convene	-11.9722
▁slice	-11.9722
funded	-11.9727
▁1978	-11.9728
▁handsome	-11.9731
born	-11.9732
▁cal	-11.9736
▁chef	-11.9736
nder	-11.9737
▁insects	-11.9744
ae	-11.9746
▁sla	-11.9746
▁cb	-11.9746
▁hash	-11.9747
▁vancouver	-11.9747
act	-11.9748
▁marker	-11.9752
section	-11.9753
▁openly	-11.9755
▁pencil	-11.9755
▁scanned	-11.9756
▁1983	-11.9758
▁colonel	-11.976
▁laptops	-11.9761
▁accidentally	-11.9764
▁xinhua	-11.9764
▁endeavours	-11.9768
▁trunk	-11.9768
▁screws	-11.977
▁20,000	-11.977
▁winds	-11.9771
▁1975	-11.9771
▁defensive	-11.9772
ening	-11.9773
▁eg	-11.9773
▁novels	-11.9778
▁restricting	-11.978
▁diplomats	-11.978
▁digest	-11.9782
▁manifestations	-11.9782
media	-11.9787
▁stipulates	-11.9789
▁parity	-11.979
▁pertinent	-11.9793
wan	-11.9795
▁races	-11.9802
▁carolina	-11.9805
▁constructing	-11.9806
▁dried	-11.9806
▁desperate	-11.9811
▁fuck	-11.9814
▁44.	-11.9814
▁empowered	-11.9817
▁impacted	-11.9818
▁ic	-11.982
▁08	-11.982
▁col	-11.9822
▁solvent	-11.9823
▁easing	-11.9826
▁derive	-11.9827
▁tightening	-11.9827
2%	-11.9828
▁chris	-11.9831
▁wei	-11.9832
▁ascertain	-11.9832
▁dispatch	-11.9833
▁lowered	-11.9837
0%	-11.9837
▁essay	-11.9839
▁lenders	-11.9839
▁laden	-11.984
▁expires	-11.9841
▁pockets	-11.9842
▁waterproof	-11.9845
pf	-11.985
▁corps	-11.9855
▁charitable	-11.9855
▁kabul	-11.9856
his	-11.9858
▁corridor	-11.986
▁resin	-11.9861
▁morality	-11.9862
▁homeless	-11.9863
▁cooler	-11.9865
▁sw	-11.9867
▁amnesty	-11.9868
▁simplest	-11.9873
election	-11.9874
outs	-11.9875
▁affiliated	-11.9875
city	-11.9876
▁estimation	-11.9877
▁triangle	-11.9877
▁eb	-11.988
▁accommodations	-11.9883
▁acknowledging	-11.9885
▁balls	-11.9885
fs	-11.9888
▁deferred	-11.9889
ets	-11.9889
▁planted	-11.9891
ters	-11.9892
▁reasoning	-11.9892
▁curves	-11.9893
digit	-11.9894
production	-11.9894
▁viewers	-11.9895
oo	-11.9895
▁airplane	-11.9895
▁accredited	-11.9897
gra	-11.9901
▁timorese	-11.9902
oe	-11.9902
:"	-11.9903
▁mechanics	-11.9904
▁repaired	-11.9906
▁81	-11.9907
four	-11.9908
▁tilt	-11.9911
▁tricks	-11.9911
▁companion	-11.9912
▁seamlessly	-11.9914
▁tenants	-11.9917
ven	-11.9918
▁reforming	-11.9921
▁gui	-11.9922
▁feeds	-11.9927
▁spheres	-11.9928
factor	-11.9929
▁opponent	-11.9932
▁rockets	-11.9933
▁pollutants	-11.9933
▁converting	-11.9934
▁hy	-11.9934
▁accorded	-11.9935
▁79	-11.9936
▁ingredient	-11.9941
▁banquet	-11.9946
▁qi	-11.9948
centric	-11.995
▁1981	-11.9954
▁84	-11.9955
▁endorsement	-11.9957
▁monkey	-11.9958
▁lesser	-11.9961
▁beaten	-11.9961
gy	-11.9962
away	-11.9963
▁bookings	-11.9963
▁shoulders	-11.9965
▁adjustable	-11.9967
▁subsistence	-11.9969
▁symbolic	-11.9971
▁designate	-11.9971
▁redirect	-11.9974
▁12-	-11.9975
▁sword	-11.9981
phase	-11.9982
▁neural	-11.9982
▁stockholm	-11.9982
▁assemble	-11.9982
carbon	-11.9985
ches	-11.9989
▁lane	-11.9989
▁prevail	-11.999
health	-11.9992
▁identifiable	-11.9993
▁marital	-11.9994
▁frontier	-11.9995
sion	-11.9998
▁intangible	-11.9999
▁converter	-11.9999
▁coup	-12.0001
▁huang	-12.0004
▁earthquakes	-12.0005
▁showcase	-12.0014
▁uniquely	-12.0014
▁recurring	-12.0017
▁supervisors	-12.0018
▁arrives	-12.002
▁sexy	-12.0022
▁dividend	-12.0023
▁additives	-12.0023
ye	-12.0028
▁pit	-12.0029
▁darling	-12.0037
▁obey	-12.004
▁(7	-12.0046
6,000	-12.0046
▁2030	-12.0046
▁noon	-12.0046
▁0.7	-12.0049
▁administering	-12.0049
▁harmonization	-12.005
▁bite	-12.0052
▁apis	-12.0056
▁fusion	-12.0056
▁commented	-12.0057
▁distributing	-12.0062
▁curtain	-12.0064
▁whatsoever	-12.0067
▁announcements	-12.0067
▁tro	-12.0069
▁outgoing	-12.007
▁drift	-12.007
▁directives	-12.007
▁bro	-12.0071
▁2.2	-12.0072
fr	-12.0072
▁washed	-12.0073
▁liquids	-12.0075
▁(8	-12.0077
▁chan	-12.0079
gar	-12.008
▁origins	-12.008
▁deaf	-12.0082
trial	-12.0083
▁charlie	-12.0084
▁underscored	-12.0085
▁soa	-12.0087
illa	-12.0087
▁identities	-12.0088
▁scenic	-12.0088
▁misleading	-12.009
lar	-12.0096
▁rainy	-12.0096
▁hits	-12.0098
▁subsidy	-12.01
▁perfection	-12.01
▁1991,	-12.01
▁cocktail	-12.01
▁shelters	-12.0105
▁hai	-12.0106
▁translations	-12.0106
▁dividends	-12.0107
▁makeup	-12.0109
▁29,	-12.0109
▁metropolitan	-12.0109
interest	-12.011
▁101	-12.011
▁scattered	-12.0111
ery	-12.0112
▁peripheral	-12.0113
▁attained	-12.0113
nal	-12.0114
▁picnic	-12.0118
▁prudent	-12.0122
▁icc	-12.0122
▁streamlined	-12.0122
▁arch	-12.0123
series	-12.0124
product	-12.0126
▁blockade	-12.0127
▁surveyed	-12.0128
▁fighter	-12.0129
oil	-12.013
▁imperial	-12.013
▁1990,	-12.0132
▁43.	-12.0134
▁trash	-12.014
▁sliding	-12.0141
▁unite	-12.0141
▁enforcing	-12.0144
▁gradient	-12.0144
▁maldives	-12.0148
ice	-12.0148
til	-12.0148
fully	-12.0149
version	-12.0157
▁tolerate	-12.0157
qu	-12.0157
▁exhibits	-12.0158
▁entitlement	-12.0161
▁regain	-12.0161
▁differs	-12.0162
▁formerly	-12.0164
▁championship	-12.0165
▁consortium	-12.0165
▁distortion	-12.017
▁instructor	-12.0171
▁dense	-12.0172
▁cha	-12.0174
▁breed	-12.0175
▁lei	-12.0177
▁establishments	-12.0178
▁murdered	-12.0178
iz	-12.0179
▁icrc	-12.018
ria	-12.0183
len	-12.0183
▁extracted	-12.0187
▁perpetrated	-12.0188
▁uneven	-12.0188
has	-12.019
▁fines	-12.019
▁ignition	-12.0191
▁wallpaper	-12.0192
▁interruption	-12.0195
▁thrive	-12.0196
▁naked	-12.0196
mal	-12.0196
▁merchants	-12.0198
▁authorised	-12.0199
▁paraguay	-12.02
▁sectoral	-12.0203
▁minus	-12.0203
ira	-12.0205
dic	-12.0208
▁simon	-12.0208
▁che	-12.0208
▁continents	-12.021
change	-12.0211
▁fabrics	-12.0212
local	-12.0213
▁wheelchair	-12.0216
▁($1	-12.0217
▁rationale	-12.0219
▁sr	-12.022
▁richer	-12.022
▁rhythm	-12.022
2,000	-12.0221
▁prizes	-12.0221
very	-12.0221
▁bearings	-12.0221
▁towels	-12.0223
▁spelling	-12.0224
▁circumstance	-12.0226
ette	-12.0228
8)	-12.0229
ida	-12.0229
ue	-12.0231
▁illnesses	-12.0231
▁cleansing	-12.0231
▁purity	-12.0235
▁incorporates	-12.0235
▁cow	-12.0236
▁inland	-12.0237
▁disregard	-12.0239
▁posture	-12.0241
4,000	-12.0242
wall	-12.0243
▁addiction	-12.0243
▁monaco	-12.0244
▁uni	-12.0251
▁planting	-12.0257
▁rooftop	-12.0257
▁packs	-12.0264
▁vague	-12.0264
▁elaboration	-12.0265
lock	-12.0268
▁dishwasher	-12.0269
sky	-12.0272
▁goodwill	-12.0272
ral	-12.0273
▁unpredictable	-12.0274
▁constituent	-12.0275
▁payload	-12.0275
▁traces	-12.0275
▁businessmen	-12.0276
▁adhesive	-12.0277
▁quicker	-12.0283
▁studios	-12.0283
ban	-12.0284
sis	-12.0285
▁healthier	-12.0287
both	-12.0288
7)	-12.0289
▁liquidation	-12.029
▁sl	-12.029
▁hose	-12.0295
▁perceptions	-12.0296
▁packaged	-12.0297
▁bundle	-12.0298
then	-12.0299
▁nail	-12.03
town	-12.0306
▁clutch	-12.0306
▁ruin	-12.0308
▁urging	-12.0309
▁northwest	-12.0311
▁observance	-12.0316
▁wore	-12.0316
▁releasing	-12.0317
▁lazy	-12.0322
▁registering	-12.0323
▁advocated	-12.0325
▁2.4	-12.0325
▁honestly	-12.0327
▁vm	-12.0328
ily	-12.0328
▁venice	-12.0331
▁woke	-12.0332
▁weigh	-12.0337
▁chrome	-12.0338
decentralization	-12.0339
▁hometown	-12.0343
▁educators	-12.0347
security	-12.0347
▁1974	-12.0348
▁efficacy	-12.0348
▁kuwaiti	-12.0349
▁tended	-12.0352
▁barbecue	-12.0353
▁folks	-12.0357
project	-12.0359
▁stepping	-12.0361
▁prevalent	-12.0362
▁soup	-12.0362
▁din	-12.0366
▁nowhere	-12.0366
▁melting	-12.0368
▁05	-12.0368
▁poorer	-12.0369
▁pal	-12.037
▁jewellery	-12.037
game	-12.0371
▁academics	-12.0371
▁owed	-12.0372
▁bare	-12.0377
▁ny	-12.038
▁kidnapping	-12.0383
▁romance	-12.0385
▁approximate	-12.0385
tp	-12.0386
▁gis	-12.0389
nia	-12.0392
▁waiver	-12.0393
pt	-12.0393
▁philip	-12.0394
premises	-12.0395
▁tastes	-12.0395
▁dar	-12.0395
▁survived	-12.0398
▁inconvenience	-12.0401
▁rugged	-12.0401
▁mate	-12.0402
▁contributor	-12.0403
▁benefiting	-12.0403
▁polling	-12.0405
▁jeans	-12.0406
-15	-12.0408
text	-12.0409
ign	-12.041
▁weaken	-12.041
▁confirming	-12.0411
▁potatoes	-12.0411
▁patches	-12.0413
▁circulated	-12.0414
▁11,	-12.0416
▁diploma	-12.0417
▁sculpture	-12.0421
▁2020	-12.0424
▁spur	-12.0424
▁originated	-12.0424
▁heater	-12.0425
▁wellness	-12.0425
▁defending	-12.0427
▁affirmative	-12.0428
▁discourage	-12.0428
▁physicians	-12.0432
▁ontario	-12.0432
▁endanger	-12.0435
▁avoidance	-12.0435
▁chengdu	-12.0436
▁travelled	-12.0437
▁lacks	-12.044
▁nov	-12.0441
▁boeing	-12.0441
▁slowed	-12.0445
▁rays	-12.0445
▁proposing	-12.0445
▁rob	-12.0447
▁boosting	-12.0447
▁disposition	-12.045
▁defective	-12.0455
▁summarized	-12.0456
▁hostage	-12.0456
▁strangers	-12.046
▁sealing	-12.0461
▁adobe	-12.0463
▁lodge	-12.0472
▁needing	-12.0475
aries	-12.0475
▁inefficient	-12.0475
▁foolish	-12.0477
▁anna	-12.0478
▁(0	-12.0479
cur	-12.0484
▁potato	-12.0484
▁val	-12.0485
▁deadlines	-12.0486
▁plight	-12.0488
▁incorrectly	-12.0488
▁seizures	-12.0488
▁abused	-12.0489
▁qu	-12.0491
$1	-12.0493
▁benin	-12.0495
▁enclosure	-12.0498
▁conflicting	-12.0499
▁ser	-12.0499
rating	-12.0502
▁passports	-12.0504
▁$50	-12.0504
▁silly	-12.0505
▁1.4	-12.0506
ken	-12.0506
▁inactive	-12.0506
▁170	-12.0507
▁cannabis	-12.0508
150	-12.0508
▁engineered	-12.051
▁arose	-12.0511
▁awake	-12.0515
▁pic	-12.0517
▁burns	-12.0517
▁weakened	-12.0517
▁cn	-12.0519
▁launches	-12.0519
▁stole	-12.0521
▁ribbon	-12.0521
▁teaches	-12.0524
▁alex	-12.0524
▁deliveries	-12.0524
▁invaluable	-12.0525
▁bass	-12.0526
▁mergers	-12.0526
▁taxis	-12.0526
▁alliances	-12.0526
▁48.	-12.0527
▁dick	-12.0527
▁heightened	-12.0528
▁sail	-12.0529
▁exacerbated	-12.0531
▁blogs	-12.0539
▁patented	-12.054
▁vigorous	-12.0541
▁franchise	-12.0543
▁retire	-12.0547
▁shine	-12.0547
▁roster	-12.055
▁manhattan	-12.0552
▁reproduce	-12.0558
ui	-12.0558
▁voter	-12.0558
tl	-12.0558
▁filtered	-12.0559
▁neighbourhood	-12.0561
▁cushion	-12.0561
yang	-12.0563
▁basement	-12.0563
▁deviation	-12.0565
▁observatory	-12.0566
offs	-12.0566
press	-12.0568
▁serbian	-12.0572
▁concurrent	-12.0572
▁50,000	-12.0577
bl	-12.0578
▁trainers	-12.058
▁taylor	-12.0584
▁knee	-12.0584
▁semester	-12.0588
▁forwarded	-12.0592
una	-12.0592
fc	-12.0593
▁twitter	-12.0593
▁scandal	-12.0593
▁prohibiting	-12.0594
▁actress	-12.0596
▁controversy	-12.0597
▁regrets	-12.0602
▁retrieval	-12.0606
▁appealing	-12.0608
▁heap	-12.0609
▁landed	-12.0611
▁inbox	-12.0613
▁fatty	-12.0617
▁lawn	-12.0617
▁deepest	-12.0618
▁cubic	-12.0622
▁influencing	-12.0624
▁gorgeous	-12.0624
▁spreadsheet	-12.0625
▁rim	-12.0627
▁skiing	-12.0628
▁shallow	-12.0629
▁universally	-12.0629
▁imagery	-12.0631
▁slider	-12.0633
▁kan	-12.0633
yo	-12.0634
▁kate	-12.0636
tr	-12.0637
▁25,	-12.0637
▁persecution	-12.0638
▁discrete	-12.0638
▁planets	-12.0638
▁shocked	-12.0644
▁guam	-12.0644
ory	-12.0649
▁49.	-12.065
▁cups	-12.065
▁journals	-12.0652
8,000	-12.0653
▁charger	-12.0653
▁stanley	-12.0656
▁depart	-12.0656
▁troubles	-12.0659
▁desires	-12.066
ky	-12.066
▁drainage	-12.0666
▁sourcing	-12.0666
▁viewpoint	-12.0669
▁pioneer	-12.0669
tar	-12.067
▁ideals	-12.067
▁forge	-12.0672
▁pornography	-12.0674
▁iteration	-12.0675
▁viet	-12.0676
▁portrait	-12.068
▁communal	-12.0681
▁cakes	-12.0683
ground	-12.0685
price	-12.0685
▁pesticides	-12.0688
del	-12.0691
▁demobilization	-12.0692
▁cartoon	-12.0694
▁13,	-12.0694
▁disconnect	-12.0695
export	-12.0697
▁curiosity	-12.0697
▁kennedy	-12.0697
1000	-12.0698
energy	-12.07
▁2%	-12.0701
▁electronically	-12.0701
▁massachusetts	-12.0701
int	-12.0702
▁preferably	-12.0702
changing	-12.0702
▁feared	-12.0703
▁learnt	-12.0703
▁heights	-12.0705
▁sensible	-12.0706
▁proving	-12.0706
than	-12.0707
▁creator	-12.0708
▁1995.	-12.0709
color	-12.071
▁liechtenstein	-12.0714
▁unwilling	-12.0714
▁seemingly	-12.0715
▁83	-12.0717
▁2017.	-12.0717
▁basel	-12.0717
▁collects	-12.0717
max	-12.0718
▁lottery	-12.072
▁airspace	-12.0723
▁mobilizing	-12.0724
▁bargaining	-12.0725
▁animated	-12.0727
global	-12.0728
▁believing	-12.0733
.30	-12.0734
▁sequences	-12.0735
ens	-12.0735
eh	-12.074
▁groundwater	-12.074
▁lacked	-12.0743
▁4.5	-12.0744
iya	-12.0745
▁parliamentarian	-12.0747
▁cosmetic	-12.0753
▁uncertainties	-12.0756
▁3%	-12.0757
▁rust	-12.0758
▁seizure	-12.0758
und	-12.0759
▁thrust	-12.076
▁pepper	-12.0761
▁unreasonable	-12.0761
▁intact	-12.0761
▁formulas	-12.0765
▁brains	-12.0766
▁fiction	-12.0766
▁gl	-12.0767
virus	-12.0769
▁attainment	-12.0771
250	-12.0773
▁invites	-12.0776
▁undermining	-12.0776
▁beating	-12.0779
▁advising	-12.0779
▁istanbul	-12.0779
▁markers	-12.0779
▁prestigious	-12.0779
▁monuments	-12.0781
▁hormone	-12.0781
▁hip	-12.0781
▁imminent	-12.0784
▁junction	-12.0784
▁polio	-12.0784
loss	-12.0786
des	-12.0786
▁retailer	-12.0787
▁slept	-12.0793
ition	-12.0794
▁fonts	-12.0795
▁southwest	-12.0796
▁comp	-12.0796
▁threatens	-12.0798
▁enrich	-12.0799
▁46.	-12.0802
▁tokens	-12.0803
▁nick	-12.0803
▁statue	-12.0804
▁scott	-12.0805
▁coexistence	-12.0807
usa	-12.0808
▁contradiction	-12.0809
▁tactical	-12.081
3,000	-12.0814
zu	-12.0815
-11	-12.0816
▁rolls	-12.0817
oma	-12.0817
▁handful	-12.0817
/10	-12.0819
▁convincing	-12.0825
▁perceive	-12.0826
▁boutique	-12.0827
▁drunk	-12.0828
▁dev	-12.0833
▁encoding	-12.0834
▁3:	-12.0837
▁catastrophe	-12.0839
kh	-12.0841
▁parcel	-12.0842
▁programmed	-12.0844
▁qing	-12.0845
▁adapting	-12.0845
▁fruitful	-12.0847
▁deteriorating	-12.0848
▁accumulate	-12.0849
▁rushed	-12.0853
▁lao	-12.0854
habitat	-12.0855
▁definite	-12.0855
▁needle	-12.0855
▁sauce	-12.0856
best	-12.0856
▁(20	-12.0861
▁spacecraft	-12.0863
▁amplifier	-12.0865
▁banner	-12.0866
oa	-12.0866
▁47.	-12.0866
chinese	-12.0867
▁laughter	-12.087
▁chang	-12.0871
6)	-12.0871
▁decay	-12.0872
▁checkpoints	-12.0872
▁shorten	-12.0873
▁braking	-12.0876
▁behavioral	-12.0876
▁spark	-12.0876
▁bmw	-12.0876
▁abolition	-12.0878
mis	-12.088
▁cohesion	-12.088
▁ceased	-12.0881
▁resignation	-12.0881
▁motivate	-12.0881
▁michigan	-12.089
▁recipes	-12.089
▁inexpensive	-12.0891
▁affirmed	-12.0893
▁echo	-12.0895
▁municipality	-12.0897
▁episode	-12.0898
▁lever	-12.0898
english	-12.0899
▁undergraduate	-12.0899
▁versa	-12.0901
▁instructed	-12.0903
▁geared	-12.0903
▁dip	-12.0903
▁papua	-12.0904
▁dow	-12.0906
▁satisfying	-12.0907
▁priced	-12.0909
▁backlog	-12.0912
▁sandy	-12.0913
▁organise	-12.0914
▁ethiopian	-12.0916
▁incorporation	-12.0917
▁inhuman	-12.0918
ments	-12.092
▁rt	-12.0921
▁ignorance	-12.0922
▁viability	-12.0923
▁mutilation	-12.0927
▁cambridge	-12.0927
▁oem	-12.0928
▁interpol	-12.0929
▁seismic	-12.0932
▁crane	-12.0932
▁advertisers	-12.0935
▁elevated	-12.0936
▁sightseeing	-12.0936
▁soy	-12.0939
▁routinely	-12.0941
▁betting	-12.0942
▁happily	-12.0945
▁elastic	-12.0948
▁bargain	-12.0949
ori	-12.095
▁tuning	-12.0951
▁reaffirms	-12.0956
▁vegetation	-12.0959
▁ag	-12.096
▁51.	-12.096
▁topology	-12.0964
▁24,	-12.0967
▁scholarships	-12.0969
▁turkmenistan	-12.0969
▁cookie	-12.0969
▁dryer	-12.0971
▁nap	-12.0974
▁revert	-12.0975
contributing	-12.0979
▁unequal	-12.0979
▁judged	-12.0981
▁reunification	-12.0983
▁stressing	-12.0987
▁ridiculous	-12.0988
▁followers	-12.0989
▁bang	-12.099
▁cherish	-12.0992
▁endorse	-12.0992
▁fountain	-12.0992
ulation	-12.0995
▁undergone	-12.0997
▁vigorously	-12.1
▁hemisphere	-12.1002
▁borrowed	-12.1002
mit	-12.1006
▁inventories	-12.1006
▁faithful	-12.1008
▁consisted	-12.1009
▁hitting	-12.101
▁georgian	-12.1011
▁mentally	-12.1015
▁qingdao	-12.1016
▁impartiality	-12.1017
▁naming	-12.1017
▁professors	-12.1018
▁thief	-12.1025
▁03	-12.103
mac	-12.1032
5)	-12.1034
▁compiler	-12.1035
▁tick	-12.1035
▁laughed	-12.1037
▁sodium	-12.1039
▁torch	-12.1041
▁festivals	-12.1042
flight	-12.1044
▁tent	-12.1044
▁slots	-12.1048
▁tissues	-12.1049
▁responds	-12.105
▁erase	-12.1052
▁tapes	-12.1058
▁putin	-12.106
▁3.1	-12.1061
▁memorable	-12.1067
▁regression	-12.1068
2000	-12.1068
▁hardest	-12.107
▁1930	-12.1071
/1	-12.1071
▁whale	-12.1073
▁widening	-12.1075
▁gel	-12.1078
▁routers	-12.1079
cn	-12.108
▁infrastructures	-12.108
ney	-12.108
bb	-12.1082
▁degrading	-12.1082
▁susceptible	-12.1082
▁unifil	-12.1082
cher	-12.1085
gr	-12.1085
▁queues	-12.1086
▁flour	-12.1087
▁stimulating	-12.1091
▁minimise	-12.1091
▁punishable	-12.1093
▁localization	-12.1098
▁owns	-12.11
▁cv	-12.1103
▁dies	-12.1109
▁clay	-12.1112
hd	-12.1113
▁liquor	-12.1115
▁metabolism	-12.1115
▁nationalities	-12.1116
▁poet	-12.1121
▁realise	-12.1122
▁3.0	-12.1123
▁handler	-12.1123
▁measurable	-12.1124
▁snapshots	-12.1125
▁airways	-12.1128
▁congestion	-12.1129
sec	-12.1132
▁professionalism	-12.1132
▁alarms	-12.1134
nu	-12.1135
▁projector	-12.1143
▁20-	-12.1146
▁madagascar	-12.1146
▁recordings	-12.1147
▁auditor	-12.1147
:15	-12.1148
▁expedite	-12.1149
▁accent	-12.1152
▁bronze	-12.1154
▁oxide	-12.1154
▁twist	-12.1154
▁09	-12.1156
-16	-12.1158
▁implicit	-12.1158
lc	-12.1159
1,000	-12.116
add	-12.1161
▁extremism	-12.1162
▁jurisprudence	-12.1162
▁oz	-12.1162
▁boots	-12.1163
▁refuge	-12.1166
▁vacancies	-12.1167
▁ninth	-12.1168
▁predictive	-12.1168
▁dispose	-12.1169
▁footage	-12.1169
▁1994.	-12.1172
▁champagne	-12.1172
▁cousin	-12.1173
▁cried	-12.1175
▁elder	-12.1176
▁xenophobia	-12.1177
▁ambulance	-12.1178
▁hop	-12.118
▁serb	-12.1183
▁rains	-12.1186
▁illiteracy	-12.1186
▁hobby	-12.1186
▁comparisons	-12.1187
▁coupling	-12.1188
▁agreeing	-12.1188
▁hood	-12.1191
touch	-12.1191
▁grocery	-12.1191
▁speeches	-12.1198
og	-12.1202
▁commercially	-12.1203
▁105	-12.1209
▁implements	-12.1211
cycle	-12.1214
▁plaza	-12.1215
position	-12.1215
ther	-12.1216
▁progressively	-12.1217
▁replicate	-12.1218
comp	-12.1218
▁decorative	-12.122
tv	-12.1222
▁chu	-12.1224
▁sponsorship	-12.1225
▁hay	-12.1225
▁vivid	-12.1227
▁easter	-12.1228
▁confusing	-12.1229
▁energies	-12.1229
▁unsuccessful	-12.123
sale	-12.1232
▁trainer	-12.1234
▁balloon	-12.124
▁denying	-12.124
ics	-12.1243
▁fame	-12.1245
▁farther	-12.1246
help	-12.1249
▁diagrams	-12.1252
▁possesses	-12.1252
▁accomplishments	-12.1253
▁provisioning	-12.1254
night	-12.1256
▁detrimental	-12.1257
▁abundance	-12.1258
▁yo	-12.1258
▁conveniently	-12.1263
yn	-12.1267
▁ep	-12.1268
▁cis	-12.1269
▁sustaining	-12.1272
▁legality	-12.1274
▁16,	-12.1275
▁1.6	-12.1275
▁djibouti	-12.1275
eastern	-12.1281
▁galleries	-12.1282
call	-12.1283
▁dean	-12.1283
▁qualifying	-12.1284
ese	-12.1284
inter	-12.1285
▁fertilizer	-12.1285
▁weights	-12.1288
▁poisoning	-12.1289
ova	-12.129
▁heroin	-12.1295
japan	-12.1299
put	-12.13
▁nationally	-12.13
▁07	-12.13
▁embodiment	-12.1301
▁differentiated	-12.1307
▁snake	-12.1307
▁rein	-12.1309
▁quotation	-12.131
▁(6)	-12.1312
-18	-12.1313
▁proportional	-12.1314
interoperability	-12.1316
▁belgrade	-12.1316
▁elaborated	-12.1323
▁enrichment	-12.1326
▁israelis	-12.1331
▁remittances	-12.1335
▁fireplace	-12.1337
▁taxpayers	-12.1337
▁briefed	-12.1338
▁overhaul	-12.1339
▁outbreaks	-12.1339
▁manuals	-12.1339
▁escort	-12.134
▁defeated	-12.1342
▁representations	-12.1345
▁bicycles	-12.1345
▁upstream	-12.1345
▁pumping	-12.1348
▁artwork	-12.1349
▁vent	-12.1359
▁reap	-12.136
ima	-12.1362
zone	-12.1363
▁temper	-12.1364
▁ambitions	-12.1365
▁median	-12.1365
▁caps	-12.1366
▁tale	-12.1366
▁attendees	-12.1368
▁judging	-12.1369
▁postponed	-12.137
▁twentieth	-12.1374
▁piston	-12.1375
▁registers	-12.1375
ett	-12.1377
▁serbs	-12.1378
▁arguing	-12.1384
sex	-12.1384
▁outdoors	-12.1385
▁worksheet	-12.1391
▁residing	-12.1394
▁inflows	-12.1397
▁warmth	-12.14
voltage	-12.1402
▁1976	-12.1402
▁reminds	-12.1404
▁sarah	-12.1405
author	-12.1406
▁entrepreneur	-12.1408
▁overlay	-12.1409
▁originating	-12.141
▁pcb	-12.1413
▁wives	-12.1414
vers	-12.1414
▁barcode	-12.1414
ux	-12.1417
▁kindly	-12.1421
▁jiangsu	-12.1423
▁nets	-12.1424
▁storms	-12.1429
fp	-12.1429
▁rwandan	-12.1432
▁booth	-12.1433
▁branding	-12.1437
fit	-12.1438
▁honourable	-12.1441
▁candle	-12.1441
▁bitcoin	-12.1448
▁induction	-12.1448
▁backbone	-12.1449
▁unsustainable	-12.1453
▁bbc	-12.1453
load	-12.1457
▁aggregation	-12.1457
▁impaired	-12.1458
▁fm	-12.1459
▁spreads	-12.1463
▁sweep	-12.1468
▁bosch	-12.1468
osis	-12.147
▁scar	-12.1472
▁quarantine	-12.1474
▁sickness	-12.1476
largest	-12.1481
▁botswana	-12.1482
▁collaborating	-12.1482
▁obsolete	-12.1482
▁cer	-12.1482
▁throwing	-12.1483
▁buck	-12.1484
▁definitive	-12.1484
▁takeover	-12.1485
▁hypothesis	-12.1487
▁divine	-12.1487
▁wounds	-12.1487
▁prc	-12.1488
without	-12.1488
▁sm	-12.149
▁compares	-12.149
▁45.	-12.1491
▁seriousness	-12.1491
show	-12.1491
▁poem	-12.1491
▁precedent	-12.1492
fuel	-12.1493
▁chase	-12.1495
▁mosque	-12.1497
▁programmers	-12.1498
▁traveled	-12.1499
▁champions	-12.15
▁counterfeit	-12.1501
▁bikes	-12.1503
▁freshwater	-12.1503
▁reinforcement	-12.1505
▁inspected	-12.1505
gue	-12.1506
▁zurich	-12.1507
▁gum	-12.1507
▁leasing	-12.1507
▁idf	-12.1507
dar	-12.151
▁intermediary	-12.1511
▁wuhan	-12.1512
word	-12.1515
▁speedy	-12.1516
▁opposing	-12.1516
cd	-12.1517
▁counties	-12.1518
▁acc	-12.1519
▁helen	-12.1519
50,000	-12.1521
▁pond	-12.1523
▁questioning	-12.1524
ses	-12.1525
▁eric	-12.1527
▁pigs	-12.1527
gh	-12.1528
▁centrally	-12.1529
▁surfing	-12.1529
▁verbal	-12.153
▁hampered	-12.153
▁empowering	-12.1531
bel	-12.1532
ada	-12.1535
▁pavilion	-12.1536
▁gospel	-12.1536
▁albanian	-12.154
▁furnace	-12.1542
gg	-12.1542
rn	-12.1543
▁pork	-12.1544
▁imagined	-12.1544
wed	-12.1545
0.0	-12.1549
▁cheat	-12.1552
▁inaccurate	-12.1552
▁outbound	-12.1552
▁transplant	-12.1555
▁cottage	-12.1556
▁fuse	-12.1559
▁lisbon	-12.1561
▁supermarkets	-12.1562
▁dot	-12.1563
▁30,000	-12.1563
anti	-12.1563
▁herein	-12.1565
▁induce	-12.1566
rf	-12.1566
▁physiological	-12.1566
▁xu	-12.1568
▁06	-12.157
▁genome	-12.1571
▁diversion	-12.1571
py	-12.1575
▁ev	-12.1576
defence	-12.158
▁sized	-12.158
▁amateur	-12.1581
▁philosophical	-12.1581
▁deter	-12.1583
job	-12.1584
▁cons	-12.1585
▁readings	-12.1586
▁furnishings	-12.1586
▁pra	-12.1587
▁enclosed	-12.1588
▁52.	-12.159
hold	-12.159
▁redundancy	-12.1591
▁equities	-12.1591
▁encompasses	-12.1592
▁dominate	-12.1594
▁canyon	-12.1596
▁creature	-12.1597
▁differentiation	-12.1598
▁bal	-12.1599
▁complemented	-12.1599
▁cl	-12.1599
zz	-12.1599
▁replicated	-12.16
▁confronting	-12.16
▁primitive	-12.1601
▁tract	-12.1604
▁coca	-12.1605
eb	-12.1606
oid	-12.1608
▁fingerprint	-12.1609
▁neighboring	-12.1609
fat	-12.1611
▁beloved	-12.1611
ranging	-12.1611
mu	-12.1612
▁requisite	-12.1613
sch	-12.1615
▁wr	-12.1615
▁frankfurt	-12.1616
▁dull	-12.1618
▁pd	-12.1619
▁indiscriminate	-12.1619
▁usable	-12.1619
▁97	-12.162
gt	-12.162
▁standpoint	-12.1621
▁cro	-12.1622
drive	-12.1622
▁mapped	-12.1623
▁2.3	-12.1625
▁(18	-12.1625
▁zhao	-12.1626
▁lily	-12.1626
nie	-12.1626
▁19,	-12.1628
▁filtration	-12.1629
▁motive	-12.1633
▁poster	-12.1633
▁climbed	-12.1633
▁militants	-12.1633
▁blessing	-12.1633
▁xinjiang	-12.1636
▁thanksgiving	-12.1636
current	-12.1638
▁differing	-12.164
▁authoritative	-12.1641
▁rainbow	-12.1641
▁hunter	-12.1641
▁commanders	-12.1641
cia	-12.1641
▁oak	-12.1642
▁xml	-12.1643
▁40.	-12.1643
design	-12.1644
ude	-12.1647
sar	-12.1648
▁happier	-12.1651
▁horrible	-12.1651
▁gal	-12.1653
file	-12.1656
▁enactment	-12.1656
▁10:00	-12.1656
▁ef	-12.1657
▁mai	-12.1658
▁gr	-12.1659
mart	-12.1659
▁factual	-12.166
▁mandarin	-12.1661
▁arrays	-12.1661
▁fathers	-12.1662
▁grams	-12.1665
bri	-12.1665
since	-12.1666
▁conserve	-12.1666
via	-12.1668
▁argentine	-12.1671
ase	-12.1673
▁skirt	-12.1673
▁transmitter	-12.1673
too	-12.1675
▁fairy	-12.1675
▁competency	-12.1676
▁refusing	-12.1676
▁synchronized	-12.1678
▁hinder	-12.1681
wave	-12.1681
▁railways	-12.1681
dh	-12.1682
▁advisable	-12.1686
▁democratization	-12.1686
aging	-12.1687
▁capitalist	-12.1689
wheel	-12.169
▁fibers	-12.1691
▁xp	-12.1692
▁transitions	-12.1693
▁bot	-12.1694
▁scaled	-12.1695
▁shandong	-12.1696
▁aug	-12.1696
many	-12.1697
▁souls	-12.1701
▁marginalization	-12.1702
▁dismissal	-12.1702
▁subordinate	-12.1705
▁phased	-12.1706
▁decentralized	-12.1707
▁depended	-12.171
▁informing	-12.1712
▁deposited	-12.1718
▁rude	-12.1722
gl	-12.1722
▁outward	-12.1723
▁knocked	-12.1723
▁backdrop	-12.1724
ees	-12.1727
▁blamed	-12.1727
▁idiot	-12.1727
▁linkage	-12.1729
nk	-12.173
▁hint	-12.173
▁worthwhile	-12.1732
▁subscriber	-12.1735
▁4)	-12.1735
▁celebrity	-12.1736
▁deforestation	-12.1736
▁expiry	-12.1736
▁towel	-12.1739
▁amounting	-12.174
▁sanitary	-12.1741
▁lehman	-12.1741
▁doses	-12.1742
▁miners	-12.1745
▁tracker	-12.1745
▁alcoholic	-12.1746
▁conducts	-12.1747
▁affection	-12.1749
▁intentionally	-12.175
▁celebrating	-12.1751
▁endure	-12.1753
ering	-12.1755
▁bent	-12.1755
▁integrates	-12.1756
▁donated	-12.1757
▁posters	-12.1761
▁confiscation	-12.1761
process	-12.1763
▁honda	-12.1767
▁childcare	-12.1767
/5	-12.1768
▁receivable	-12.177
▁outdated	-12.177
▁resilient	-12.1771
▁tense	-12.1771
▁smiled	-12.1776
▁aquatic	-12.1777
▁normative	-12.1777
▁rotary	-12.1782
rm	-12.1783
▁specializing	-12.1785
▁formatting	-12.1785
▁toolbar	-12.1786
▁voucher	-12.1789
disproportionate	-12.1789
ify	-12.179
▁pv	-12.1791
▁enquiries	-12.1792
▁bids	-12.1793
▁1945	-12.1794
▁coil	-12.1795
▁cre	-12.1795
▁cy	-12.1796
▁platinum	-12.1797
▁embodied	-12.1797
▁repayment	-12.1797
▁ethnicity	-12.1802
▁dislike	-12.1803
▁yards	-12.1806
▁marshall	-12.1807
▁accountants	-12.1811
▁illinois	-12.1812
7,000	-12.1812
▁rec	-12.1813
▁tighten	-12.1815
▁sadness	-12.1815
frequency	-12.1818
▁shade	-12.1822
▁kindergarten	-12.1826
trip	-12.1828
▁(0)	-12.1829
profile	-12.1833
ula	-12.1833
uz	-12.1836
▁shortcuts	-12.1837
▁vicious	-12.1843
technology	-12.1843
last	-12.1847
▁tires	-12.1848
▁clamp	-12.1849
model	-12.1851
▁animations	-12.1861
▁sorted	-12.1861
▁declines	-12.1863
▁insider	-12.1863
▁proactively	-12.1865
plus	-12.1866
ene	-12.1867
▁alpha	-12.1868
▁submits	-12.1868
▁td	-12.1869
▁usefulness	-12.187
▁illusion	-12.1873
▁frankly	-12.1873
▁leaks	-12.1874
money	-12.188
▁sas	-12.1881
▁quartet	-12.1882
9)	-12.1883
aged	-12.1884
▁perfume	-12.1889
▁robbery	-12.1889
▁sue	-12.1891
▁nt	-12.1894
▁overlapping	-12.1894
▁entitlements	-12.1894
▁roller	-12.1902
▁newborn	-12.1902
▁sums	-12.1902
▁understandable	-12.1905
▁albeit	-12.1909
▁deportation	-12.1909
▁loses	-12.191
▁89	-12.1914
▁gordon	-12.1914
ben	-12.1921
aki	-12.1922
▁labeled	-12.1922
▁bloom	-12.1923
▁exquisite	-12.1925
▁swipe	-12.1925
▁awful	-12.1927
▁04	-12.1928
▁noticeable	-12.1928
pay	-12.193
▁gt	-12.1931
▁richest	-12.1931
▁128	-12.1933
▁eleven	-12.1933
▁disputed	-12.1933
▁0.0	-12.1934
▁synergies	-12.1935
▁nickel	-12.1936
▁mccain	-12.194
▁jeff	-12.194
▁agro	-12.1941
▁policeman	-12.1941
▁viral	-12.1945
▁expands	-12.1945
▁figured	-12.1947
▁shan	-12.1949
focused	-12.1949
2.5	-12.1949
▁bracket	-12.195
▁0.2	-12.1954
▁critically	-12.1957
▁(12	-12.1958
▁enjoyable	-12.1958
▁ger	-12.1958
▁rebound	-12.1964
▁settling	-12.1966
▁vacant	-12.1966
▁cooked	-12.1966
black	-12.1968
▁dire	-12.1969
▁pills	-12.1969
▁compelled	-12.1971
▁prop	-12.1972
▁recurrent	-12.1972
▁attacking	-12.1975
▁hollow	-12.1976
▁wrapped	-12.1978
▁archiving	-12.1981
▁headphones	-12.1981
▁asthma	-12.1982
▁0.3	-12.1982
▁1972	-12.1986
▁peacefully	-12.1988
sponsored	-12.199
ei	-12.199
▁computation	-12.1991
▁academia	-12.1992
▁policing	-12.1992
▁kevin	-12.1992
▁preferable	-12.1993
▁fx	-12.1996
▁enthusiastic	-12.1996
▁accelerator	-12.1997
▁alleviation	-12.1997
var	-12.1998
▁wo	-12.1999
▁shortest	-12.1999
▁53.	-12.2
▁transmitting	-12.2003
▁enriched	-12.2003
ax	-12.2004
▁disseminated	-12.2004
▁panda	-12.2004
▁congressional	-12.2007
▁cracks	-12.2008
▁shortcut	-12.2009
roll	-12.2011
▁purification	-12.2012
▁ohio	-12.2015
borne	-12.2015
▁violates	-12.2016
▁roses	-12.2017
finding	-12.2017
▁refining	-12.2018
books	-12.2018
financial	-12.2019
▁pioneering	-12.2019
▁advisors	-12.202
workers	-12.2022
▁illumination	-12.2023
▁directories	-12.2028
-30	-12.2028
▁wax	-12.2028
▁quake	-12.2032
▁selfish	-12.2033
▁seattle	-12.2034
▁randomly	-12.2034
▁widow	-12.2041
live	-12.2041
▁glue	-12.2043
tive	-12.2044
▁stealing	-12.2045
▁disposed	-12.2047
▁basics	-12.2047
▁delight	-12.2053
▁knees	-12.2057
▁reef	-12.2057
▁tyre	-12.2059
▁exotic	-12.2059
ston	-12.206
sided	-12.206
dependent	-12.2061
▁digit	-12.2061
each	-12.2062
▁lifelong	-12.2063
▁lubrication	-12.2063
▁potter	-12.2064
▁metallic	-12.2066
▁myth	-12.2068
▁reversal	-12.207
▁prints	-12.2071
▁practise	-12.2072
lation	-12.2073
▁oman	-12.2076
▁discard	-12.2076
▁symptom	-12.2079
▁petrochemical	-12.2085
▁wasting	-12.2088
▁variant	-12.209
tes	-12.2091
▁1949	-12.2092
▁feb	-12.2093
▁golan	-12.2096
▁kettle	-12.2096
▁embarked	-12.2101
▁magnesium	-12.2101
say	-12.2105
▁excellency	-12.2106
▁ross	-12.2112
▁peasants	-12.2113
▁gentlemen	-12.2117
▁repay	-12.2117
although	-12.212
▁wil	-12.2122
▁irrelevant	-12.2122
[...]
