<unk>	0
<s>	0
</s>	0
,	-2.89754
。	-3.14043
▁	-3.21464
的	-3.89429
和	-4.47999
、	-4.62677
在	-5.07561
"	-5.4304
是	-5.53821
)	-5.64828
?	-5.67692
或	-5.67863
(	-5.73215
:	-5.78479
了	-5.79923
与	-5.85861
年	-5.8902
中	-5.89628
对	-5.96287
.	-6.06542
为	-6.06886
将	-6.1042
时	-6.25019
并	-6.29694
有	-6.35957
▁在	-6.36717
我	-6.38445
我们	-6.4038
以	-6.4674
以及	-6.50305
上	-6.51722
/	-6.57608
你	-6.59798
月	-6.60191
他	-6.60754
而	-6.60859
一个	-6.61241
从	-6.63785
到	-6.63981
a	-6.64017
提供	-6.65236
使用	-6.65422
进行	-6.65716
人	-6.66058
问题	-6.73205
不	-6.73399
来	-6.73966
包括	-6.74335
其	-6.76733
▁我	-6.81077
;	-6.82516
及	-6.82635
可以	-6.82803
会	-6.86026
工作	-6.86154
这些	-6.89484
被	-6.91379
他们	-6.91657
服务	-6.92852
需要	-6.93335
日	-6.94847
但	-6.95503
也	-6.9564
可	-6.96368
通过	-6.97507
》	-6.97634
地	-6.98206
后	-6.98541
它	-6.98783
说	-6.99269
!	-7.00287
系统	-7.02197
▁我们	-7.03022
都	-7.03615
《	-7.03699
就	-7.04503
国家	-7.05592
该	-7.0581
没有	-7.07304
公司	-7.07608
等	-7.10093
吗	-7.10173
向	-7.10861
所有	-7.14579
要	-7.1614
已	-7.17552
1	-7.17715
性	-7.20072
▁如果	-7.20171
▁他	-7.2178
信息	-7.23576
新	-7.23956
数据	-7.23989
政府	-7.25491
▁(	-7.26341
管理	-7.26443
要求	-7.26859
她	-7.26926
产品	-7.2715
所	-7.28017
于	-7.28107
支持	-7.28297
可能	-7.2942
您	-7.31137
技术	-7.32867
活动	-7.33351
已经	-7.35005
方面	-7.35188
2	-7.35373
由	-7.35696
这	-7.36068
▁你	-7.36845
▁-	-7.36902
中国	-7.37144
-	-7.37652
大	-7.39106
任何	-7.39175
3	-7.39575
一些	-7.39683
计划	-7.40528
时间	-7.4163
还	-7.42682
有关	-7.42861
使	-7.43002
·	-7.43238
者	-7.44065
这个	-7.44383
用	-7.44506
项目	-7.44755
里	-7.45907
能	-7.4671
发展	-7.47375
必须	-7.47464
个	-7.47475
处理	-7.47639
去	-7.49018
内	-7.49212
执行	-7.49631
一	-7.49946
并且	-7.50452
国际	-7.50779
前	-7.51341
应	-7.51355
关于	-7.51522
安全	-7.51643
5	-7.51805
开始	-7.51977
更	-7.52189
选择	-7.53515
美国	-7.54569
具有	-7.54657
因为	-7.54759
其他	-7.5503
作为	-7.55282
能够	-7.56708
下	-7.57915
点	-7.58749
用户	-7.59366
如	-7.59496
设备	-7.6054
多	-7.61079
则	-7.61183
最	-7.62058
组织	-7.62194
4	-7.63591
把	-7.63685
委员会	-7.64054
这种	-7.64272
报告	-7.64402
经济	-7.64494
获得	-7.65327
企业	-7.65555
文件	-7.6576
表示	-7.65852
网络	-7.66037
市场	-7.66973
设计	-7.67679
比	-7.67794
的人	-7.67997
保护	-7.68604
第	-7.68641
6	-7.6977
方案	-7.7061
认为	-7.7069
10	-7.71066
研究	-7.71571
实现	-7.72052
这一	-7.72168
▁但是	-7.72249
功能	-7.7314
高	-7.73582
如果	-7.74023
或者	-7.74635
▁因此	-7.77292
控制	-7.77404
中的	-7.77622
)。	-7.77833
方法	-7.78154
情况	-7.78211
用于	-7.78673
显示	-7.79174
你的	-7.79701
至	-7.79962
新的	-7.80614
自己	-7.80623
建议	-7.80983
法	-7.81335
着	-7.81401
正在	-7.81826
此	-7.81952
继续	-7.82338
您的	-7.82428
教育	-7.83283
社会	-7.83541
环境	-7.8356
资源	-7.84028
增加	-7.84035
▁"	-7.84143
而且	-7.84246
给	-7.84413
因此	-7.8461
7	-7.84621
拥有	-7.86667
▁这	-7.86935
影响	-7.87266
机构	-7.87365
▁她	-7.87566
小	-7.87772
根据	-7.88361
政策	-7.8862
之前	-7.88652
应用	-7.88899
合作	-7.8916
方式	-7.89278
联合国	-7.8933
法律	-7.8974
部分	-7.89903
目标	-7.90659
区域	-7.90685
会议	-7.90782
水	-7.9083
标准	-7.90867
内容	-7.91121
过	-7.91129
客户	-7.92188
不同	-7.92469
世界	-7.92537
主要	-7.92635
之后	-7.92672
成为	-7.92763
▁此外	-7.93095
它们	-7.93369
9	-7.93677
名	-7.93798
8	-7.9383
程序	-7.94227
建立	-7.94266
妇女	-7.94876
分析	-7.94964
全球	-7.9503
不能	-7.95199
决定	-7.95357
努力	-7.95614
出	-7.95716
如何	-7.95757
好	-7.9598
很	-7.96097
业务	-7.96871
设置	-7.97161
行动	-7.97219
但是	-7.97329
例如	-7.97343
帮助	-7.97384
访问	-7.97384
中心	-7.98241
完成	-7.98266
各种	-7.98406
无	-7.98525
12	-7.98554
解决	-7.9897
得到	-7.98991
非常	-7.99089
地区	-7.99105
让	-7.99452
做	-7.9968
测试	-7.99686
参与	-7.99856
投资	-7.99869
▁他们	-7.99988
——	-8.00008
操作	-8.00063
应该	-8.00227
是否	-8.0065
发现	-8.00776
同	-8.00805
本	-8.00859
▁这些	-8.0123
了解	-8.01233
即	-8.01677
希望	-8.02264
对于	-8.02774
同时	-8.03218
代表	-8.03757
就是	-8.0389
利用	-8.03983
提高	-8.04427
确定	-8.05299
许多	-8.06129
生产	-8.06208
我们的	-8.06875
实施	-8.07071
减少	-8.07097
之间	-8.07132
确保	-8.07659
子	-8.0846
应用程序	-8.08542
现在	-8.08803
请	-8.08821
外	-8.09036
能力	-8.09707
人员	-8.09986
是一个	-8.10939
措施	-8.11764
以便	-8.11832
儿童	-8.119
非	-8.12037
创建	-8.12509
无法	-8.1271
斯	-8.12872
呢	-8.13189
未	-8.13238
接受	-8.1326
先生	-8.13288
促进	-8.13376
因	-8.14148
期间	-8.1504
家	-8.15369
▁它	-8.15447
...	-8.15472
工具	-8.15673
那些	-8.16425
完全	-8.16472
卡	-8.17017
还是	-8.17066
行为	-8.17141
模式	-8.1728
调查	-8.17344
想	-8.17416
当	-8.17434
▁然而	-8.17521
提出	-8.17599
20	-8.17601
之	-8.17665
我的	-8.17788
之一	-8.1781
▁该	-8.17811
运行	-8.17862
规定	-8.17915
一样	-8.17937
一种	-8.18595
值	-8.18879
讨论	-8.18961
什么	-8.19051
那	-8.19246
又	-8.19261
更新	-8.19327
得	-8.19344
软件	-8.19701
采用	-8.20383
相关	-8.20584
评估	-8.20953
家庭	-8.21005
区	-8.21015
受	-8.21088
解决方案	-8.21113
▁当	-8.21174
特	-8.21306
领域	-8.21377
价格	-8.21435
c	-8.21438
自	-8.21756
学习	-8.21812
开发	-8.22148
由于	-8.22318
条	-8.22322
发生	-8.22357
采取	-8.22693
限制	-8.22859
城市	-8.23034
保持	-8.23123
记录	-8.23559
结果	-8.2368
银行	-8.2372
不是	-8.23767
人们	-8.23825
各	-8.23957
生活	-8.24001
只	-8.24373
▁但	-8.2489
的问题	-8.24988
的时候	-8.25031
▁由于	-8.25063
11	-8.25128
政治	-8.25208
费用	-8.25288
加强	-8.25315
化	-8.2548
来自	-8.25881
拉	-8.25953
特别	-8.26845
交易	-8.2708
状态	-8.27229
个人	-8.27522
d	-8.28074
然后	-8.2813
直接	-8.2823
战略	-8.28855
正	-8.28982
成本	-8.29148
器	-8.29166
两个	-8.29207
事件	-8.29319
任务	-8.29455
▁从	-8.29587
部门	-8.29589
改变	-8.29827
▁例如	-8.29887
负责	-8.29952
进入	-8.29995
位置	-8.30427
检查	-8.30674
更改	-8.30687
文化	-8.31096
自己的	-8.31298
数	-8.31429
目前	-8.31708
<	-8.31745
不会	-8.32216
分	-8.32292
参加	-8.32298
们	-8.32891
部	-8.33344
每个	-8.33633
德	-8.33873
说明	-8.33898
其中	-8.33909
考虑	-8.34056
受到	-8.34143
他的	-8.34163
出现	-8.34266
行	-8.34575
机	-8.34581
再	-8.34665
线	-8.3472
且	-8.34786
进一步	-8.34814
长	-8.34856
大学	-8.34862
酒店	-8.3495
网站	-8.35019
连接	-8.3507
和其他	-8.3518
关系	-8.35266
带	-8.35354
包含	-8.35388
需求	-8.35569
安装	-8.35689
天	-8.3601
组	-8.36486
以下	-8.3659
式	-8.36646
这是	-8.37419
空间	-8.37456
指出	-8.37864
成功	-8.38035
30	-8.3816
风险	-8.38275
这样	-8.38429
条件	-8.3845
学生	-8.38535
成员	-8.38625
低	-8.38932
那么	-8.39079
有效	-8.39379
过程	-8.39579
超过	-8.39655
结构	-8.39767
及其	-8.39944
制度	-8.39966
▁对于	-8.40026
他们的	-8.40157
国	-8.40216
b	-8.40419
改善	-8.40558
重新	-8.40586
美元	-8.40952
恢复	-8.4099
的工作	-8.41112
提供了	-8.41219
作出	-8.41231
表	-8.41473
允许	-8.41485
保证	-8.41962
基于	-8.42337
看	-8.42475
▁通过	-8.42647
▁1	-8.4267
▁这是	-8.42696
计算机	-8.4279
都是	-8.42897
机制	-8.43168
通常	-8.43196
15	-8.43857
更加	-8.44234
从而	-8.44243
按	-8.44268
可能会	-8.44651
▁根据	-8.44879
请求	-8.45022
车	-8.45043
产生	-8.45091
类型	-8.45162
水平	-8.45475
规则	-8.45533
增长	-8.45652
共同	-8.45657
制定	-8.45882
达到	-8.45951
销售	-8.46104
培训	-8.46151
一次	-8.4648
上的	-8.46694
的所有	-8.46754
购买	-8.47118
审查	-8.47257
却	-8.47304
针对	-8.47847
▁现在	-8.47985
运动	-8.48275
资金	-8.48382
范围	-8.4839
存在	-8.48551
很多	-8.48639
量	-8.4869
吧	-8.48703
涉及	-8.4871
号	-8.48799
特别是	-8.48875
利	-8.49018
服务器	-8.49029
员工	-8.49216
语言	-8.4929
学校	-8.49488
自动	-8.49593
安排	-8.50034
类	-8.50127
之间的	-8.50273
整个	-8.50303
s	-8.50381
协议	-8.50461
的影响	-8.50464
达	-8.50709
存储	-8.50724
三	-8.50978
材料	-8.51246
均	-8.51582
行业	-8.51773
找到	-8.51793
间	-8.5216
只有	-8.52223
代码	-8.52259
头	-8.52356
支付	-8.5256
仍然	-8.52649
约	-8.52656
公约	-8.52743
应当	-8.52859
看到	-8.53215
商业	-8.53459
图	-8.53495
更多	-8.53573
处	-8.54323
知道	-8.54402
价值	-8.54434
像	-8.54794
学	-8.54862
调整	-8.54993
改革	-8.55046
人民	-8.55233
来说	-8.55283
对象	-8.55539
健康	-8.55633
万	-8.55815
而不是	-8.5584
一项	-8.55888
重要	-8.55898
移动	-8.56084
团队	-8.56282
准备	-8.56399
配置	-8.56453
模型	-8.56479
导致	-8.56598
专家	-8.56966
开展	-8.57051
欧洲	-8.57685
内部	-8.57851
你们	-8.57902
总	-8.58093
门	-8.58449
计算	-8.58513
发	-8.58645
工业	-8.58655
率	-8.58763
▁2	-8.59147
加	-8.59149
成	-8.59187
机会	-8.5927
某些	-8.59417
▁3	-8.59443
起	-8.59451
光	-8.59529
阶段	-8.59541
造成	-8.59774
位于	-8.59795
的方式	-8.59866
▁虽然	-8.59881
的信息	-8.59888
错误	-8.60133
输入	-8.60284
型	-8.60331
不同的	-8.60387
快速	-8.60388
马	-8.60452
权	-8.60557
策略	-8.60883
长期	-8.60933
日本	-8.61124
多个	-8.61319
自由	-8.61328
承诺	-8.61958
贸易	-8.62082
也是	-8.62121
一直	-8.62133
社区	-8.62189
:"	-8.622
克	-8.62229
▁尽管	-8.62309
称	-8.62531
的情况下	-8.63036
▁为了	-8.63184
设施	-8.63358
关注	-8.63503
数据库	-8.63588
单	-8.63757
权利	-8.63987
人权	-8.64142
的国家	-8.64275
的情况	-8.64312
甚至	-8.64489
提交	-8.64562
集团	-8.64582
面	-8.64753
才能	-8.6499
同意	-8.65032
18	-8.653
将会	-8.65317
只是	-8.6533
开	-8.65429
各国	-8.65442
项	-8.65444
实际	-8.65804
打	-8.65818
资料	-8.65927
不断	-8.65978
表明	-8.66319
合同	-8.66576
0><	-8.66697
基本	-8.66758
两	-8.66812
位	-8.66921
质量	-8.67157
所以	-8.67368
游戏	-8.67515
性能	-8.67598
汽车	-8.67614
工程	-8.67713
联系	-8.6811
过程中	-8.68144
数字	-8.68329
课程	-8.68431
热	-8.68455
电话	-8.68483
科学	-8.68605
独立	-8.68732
的一个	-8.68997
仅	-8.69001
手	-8.69001
持续	-8.69197
和平	-8.69387
收入	-8.69392
当前	-8.69451
心	-8.69522
变化	-8.69526
作用	-8.69547
视频	-8.69551
▁此	-8.69603
工作人员	-8.69809
英国	-8.69833
方	-8.69852
保留	-8.70098
而言	-8.70128
共享	-8.70214
”	-8.70338
最终	-8.70358
西	-8.70406
通知	-8.70485
比较	-8.70512
流	-8.70513
地方	-8.70568
符合	-8.70599
鼓励	-8.70624
法院	-8.70652
降低	-8.7095
按照	-8.71081
挑战	-8.71385
申请	-8.71391
力	-8.71406
全面	-8.71432
一起	-8.71571
特定	-8.71657
查看	-8.7174
推动	-8.71765
科	-8.71881
部署	-8.7192
指定	-8.71963
重	-8.72019
体	-8.72024
强调	-8.72145
事	-8.72564
主	-8.72675
治疗	-8.72739
资产	-8.73022
确认	-8.73037
经常	-8.73074
因素	-8.73089
援助	-8.73093
香港	-8.73358
作	-8.73436
责任	-8.73838
改进	-8.7401
原则	-8.74334
小组	-8.7446
爱	-8.74498
知识	-8.74558
媒体	-8.74769
协调	-8.7507
结束	-8.75092
添加	-8.75202
专业	-8.75261
每	-8.75321
基金	-8.75335
期	-8.75352
理解	-8.75379
启动	-8.75428
孩子	-8.75448
协助	-8.75453
国内	-8.7574
▁不过	-8.7576
人口	-8.75786
注册	-8.7589
电子	-8.75928
承认	-8.75965
制造	-8.7598
书	-8.76089
的话	-8.76142
定义	-8.76294
取得	-8.76302
数量	-8.76308
维护	-8.76366
金	-8.7648
具体	-8.76983
米	-8.7704
▁您	-8.7705
度	-8.77056
走	-8.77251
g	-8.77386
当地	-8.775
有一个	-8.77662
历史	-8.7769
发布	-8.77801
原因	-8.77859
仍	-8.78011
方面的	-8.78067
满足	-8.78087
打开	-8.78277
再次	-8.78315
建筑	-8.78498
以色列	-8.785
证明	-8.78546
冲突	-8.78669
喜欢	-8.78769
上述	-8.78809
预算	-8.78821
▁关于	-8.78993
▁这个	-8.79038
曾	-8.79112
带来	-8.7936
大量	-8.79475
图像	-8.79502
纳	-8.79714
还有	-8.79922
尽管	-8.79945
进行了	-8.80027
生	-8.80064
事务	-8.80511
广告	-8.80542
平台	-8.80558
现有	-8.80732
太	-8.80747
最近	-8.8077
非洲	-8.80795
消息	-8.80925
严重	-8.81041
选项	-8.81096
的主要	-8.81472
获取	-8.81503
传统	-8.81523
x	-8.81541
一般	-8.81704
总统	-8.81741
19	-8.81919
修改	-8.82055
威胁	-8.82127
16	-8.82385
人类	-8.82531
规划	-8.82559
库	-8.82654
加入	-8.82726
删除	-8.82775
停止	-8.82901
的时间	-8.83017
积极	-8.8306
是在	-8.83099
搜索	-8.83127
全	-8.83158
▁5	-8.8409
至少	-8.84154
e	-8.84196
次	-8.84408
尔	-8.84704
办公室	-8.84788
似乎	-8.84846
▁如果你	-8.85264
框架	-8.85316
离开	-8.85354
▁4	-8.85469
层	-8.85645
花	-8.85676
的能力	-8.85795
大会	-8.8609
未来	-8.86237
“	-8.86329
文档	-8.86471
的权利	-8.86577
建设	-8.86686
充分	-8.8694
做出	-8.86988
出口	-8.86992
压力	-8.87006
缺乏	-8.87021
防止	-8.87218
亿美元	-8.87305
▁使用	-8.87462
分配	-8.87469
为了	-8.87489
岁	-8.87564
并不	-8.8757
形式	-8.87702
单位	-8.87947
的是	-8.87984
进程	-8.88044
市	-8.88172
供应商	-8.88232
感到	-8.88313
处于	-8.88411
效果	-8.885
费	-8.88574
尼	-8.88603
14	-8.88853
25	-8.88953
回	-8.89353
尝试	-8.89359
解释	-8.8942
局	-8.89489
不仅	-8.89727
的一部分	-8.89743
发送	-8.89842
的发展	-8.89965
的任何	-8.90043
举行	-8.90226
经验	-8.90343
塔	-8.90353
包	-8.90447
名称	-8.90678
油	-8.9071
是一种	-8.90743
如此	-8.90816
二	-8.90866
公共	-8.90891
危机	-8.91094
关闭	-8.91103
速度	-8.91158
创新	-8.91209
收集	-8.91292
支助	-8.91378
24	-8.91466
▁如果您	-8.91489
步骤	-8.91519
有助于	-8.91573
其它	-8.91646
保障	-8.91727
场	-8.91852
列表	-8.91977
50	-8.92102
n	-8.92364
版本	-8.92397
m	-8.92493
大多数	-8.92914
文	-8.92925
国际社会	-8.93015
能源	-8.93074
扩大	-8.93156
▁请	-8.93232
发展中国家	-8.93355
的新	-8.93385
印度	-8.93615
朋友	-8.93722
道	-8.93797
您可以	-8.93836
尤其是	-8.93947
办法	-8.94023
协会	-8.94054
稳定	-8.94068
更多的	-8.94083
流程	-8.94127
▁要	-8.9417
物	-8.94202
日期	-8.9431
虽然	-8.9441
海	-8.94564
罗	-8.94583
过去	-8.94595
测量	-8.94815
避免	-8.94892
▁那	-8.95212
▁“	-8.95262
几乎	-8.95368
一切	-8.95505
消除	-8.95528
目的	-8.95551
食品	-8.95574
联合	-8.95611
制	-8.95747
检测	-8.95887
入	-8.95942
音乐	-8.95956
▁中国	-8.9605
基	-8.96163
十分	-8.96199
全国	-8.96316
这样的	-8.96321
才	-8.96472
运输	-8.96528
▁这种	-8.96537
返回	-8.96543
级	-8.96582
今天	-8.96684
相关的	-8.96692
介绍	-8.96752
▁•	-8.96838
代表团	-8.96859
遵守	-8.96923
通信	-8.97202
的地方	-8.97213
不要	-8.97278
四	-8.97382
以来	-8.97413
钱	-8.97445
100	-8.97516
p	-8.97635
困难	-8.97759
禁止	-8.97764
最后	-8.97784
谈判	-8.97902
吃	-8.97987
女性	-8.98029
所需的	-8.98144
艺术	-8.98146
德国	-8.98269
'	-8.98465
旅行	-8.98498
州	-8.98569
阿	-8.98592
山	-8.9861
状况	-8.98703
民主	-8.98769
主席	-8.98785
业	-8.98825
并在	-8.98992
享受	-8.99031
当局	-8.99218
经	-8.99223
美	-8.99227
警察	-8.99235
的数据	-8.99327
巴	-8.99358
先	-8.99645
自然	-8.99703
源	-8.99801
的方法	-8.99804
外部	-8.99919
将在	-9.00038
主题	-9.00069
预测	-9.00114
亚	-9.00543
犯罪	-9.0069
就会	-9.00718
军事	-9.00728
组件	-9.00788
宣布	-9.00818
此类	-9.00859
相信	-9.01065
注意到	-9.01136
网	-9.01157
▁然后	-9.01282
供应	-9.01285
简单	-9.01313
收到	-9.01368
▁对	-9.01388
▁最后	-9.01491
安	-9.01606
属于	-9.01631
立即	-9.01642
协定	-9.01667
见	-9.01675
格	-9.01701
站	-9.01702
消费者	-9.01713
13	-9.01783
板	-9.01802
创造	-9.01876
f	-9.01883
基础	-9.02013
气	-9.02065
监测	-9.02134
攻击	-9.02365
迅速	-9.02386
评价	-9.02398
列	-9.02404
给予	-9.02419
明确	-9.02441
信号	-9.02486
适用于	-9.02831
每年	-9.0284
综合	-9.02924
总是	-9.02953
管	-9.02959
17	-9.03021
段	-9.03033
验证	-9.03114
经过	-9.03266
金融	-9.03267
新闻	-9.03276
武器	-9.0343
病	-9.03647
工厂	-9.03668
选举	-9.03838
从事	-9.04175
扩展	-9.04246
款	-9.04256
指标	-9.04369
语	-9.04478
电	-9.04501
保存	-9.04505
是什么	-9.04539
免费	-9.04561
拒绝	-9.04579
下载	-9.04605
维持	-9.04639
谁	-9.04754
页	-9.04803
为什么	-9.04808
旅游	-9.04858
英语	-9.04893
体验	-9.04896
一下	-9.04966
本地	-9.05187
路	-9.05269
增强	-9.05367
▁10	-9.05369
关键	-9.05418
近	-9.0557
帐户	-9.05637
相	-9.0575
五	-9.05807
有些	-9.05939
k	-9.06081
公民	-9.06245
电子邮件	-9.06345
实体	-9.06417
布	-9.06486
旨在	-9.06747
生成	-9.06769
损失	-9.06815
农业	-9.06911
跟踪	-9.06941
写	-9.07095
真正	-9.07098
批准	-9.07163
精神	-9.07481
▁美国	-9.07551
竞争	-9.07576
特殊	-9.0758
全部	-9.07596
医疗	-9.07598
省	-9.07645
大约	-9.07753
条款	-9.07851
起来	-9.07951
占	-9.08046
现代	-9.08237
公开	-9.08286
按钮	-9.08308
没	-9.08403
员	-9.0845
变	-9.08505
识别	-9.08511
将其	-9.08512
下降	-9.08558
哪些	-9.08563
一名	-9.08605
利益	-9.08619
在这里	-9.08731
分享	-9.08817
t	-9.0884
平衡	-9.09047
死亡	-9.09059
节	-9.091
合作伙伴	-9.09147
有关的	-9.09149
反	-9.09152
试图	-9.09179
授权	-9.09213
风	-9.09304
]	-9.09323
商	-9.09368
品牌	-9.09373
亚洲	-9.09453
反对	-9.09586
医生	-9.09763
欢迎	-9.09957
21	-9.10025
一份	-9.10115
采购	-9.10167
空	-9.1025
伊拉克	-9.10381
安全理事会	-9.10601
令人	-9.10607
▁目前	-9.1075
理论	-9.10795
适当	-9.10882
法庭	-9.10884
战争	-9.10973
电脑	-9.11116
训练	-9.11143
情况下	-9.11201
的内容	-9.11209
正确	-9.11555
危险	-9.11557
▁随着	-9.11653
▁我想	-9.11674
以前	-9.11723
部队	-9.11729
转	-9.11729
司法	-9.11784
寻求	-9.11825
意见	-9.11871
私人	-9.11917
决策	-9.1197
颜色	-9.12041
程度	-9.12065
手机	-9.12265
相同	-9.1228
升级	-9.12295
货币	-9.1233
指导	-9.12335
照片	-9.12494
40	-9.1252
链接	-9.12685
属性	-9.12712
h	-9.1292
老	-9.12966
享有	-9.1302
这项	-9.13042
大型	-9.13084
应对	-9.13149
投资者	-9.13399
编辑	-9.13468
接触	-9.13632
2000	-9.1366
高级	-9.13665
秘书处	-9.13773
▁所以	-9.13808
三个	-9.13858
版	-9.13884
法国	-9.13898
2008	-9.14005
云	-9.14029
论坛	-9.141
小时	-9.14109
较	-9.14111
开放	-9.14163
信	-9.14242
联盟	-9.14275
卫生	-9.14305
台	-9.14352
所有的	-9.14505
电影	-9.14505
文本	-9.14577
疾病	-9.14605
林	-9.14631
的行为	-9.14823
须	-9.14964
的目标	-9.1503
年的	-9.15243
集	-9.15258
体系	-9.15265
土地	-9.15291
适合	-9.15322
动物	-9.15338
预防	-9.15403
机场	-9.15518
最大	-9.15567
买	-9.1557
2005	-9.15606
行政	-9.15636
正式	-9.15641
每天	-9.15702
以后	-9.15715
想要	-9.15785
元素	-9.15794
优化	-9.15842
提升	-9.15922
官员	-9.15941
条约	-9.16035
咨询	-9.16109
一家	-9.16278
最大的	-9.16629
参数	-9.16723
60	-9.16762
宗教	-9.16815
致力于	-9.16966
以确保	-9.17016
人士	-9.17101
另一个	-9.17121
重大	-9.17165
注意	-9.17174
页面	-9.17393
移民	-9.17417
宪法	-9.1759
声	-9.17701
失败	-9.17768
医院	-9.17815
手段	-9.17818
贷款	-9.17859
死	-9.17872
描述	-9.17877
对话	-9.1788
方向	-9.17896
加拿大	-9.17913
一位	-9.17928
问	-9.17998
的结果	-9.18025
装置	-9.18081
快	-9.18149
构成	-9.18162
色	-9.18182
迪	-9.18195
感	-9.18201
使得	-9.18212
进	-9.18237
交流	-9.18269
▁作为	-9.18274
的机会	-9.1861
那个	-9.18647
阻止	-9.18764
高度	-9.18853
财务	-9.19004
法官	-9.19198
核	-9.19314
种	-9.19347
只能	-9.19382
伊	-9.19443
实行	-9.19509
都会	-9.19841
以上	-9.19851
审议	-9.19993
组成	-9.20072
▁为	-9.20169
立法	-9.20306
▁另外	-9.20349
▁本	-9.20363
她的	-9.20424
呼吁	-9.20543
担心	-9.20548
口	-9.20631
听	-9.20782
非法	-9.20808
▁将	-9.20948
适用	-9.21087
打击	-9.21096
登记	-9.21098
▁c	-9.21142
我国	-9.21176
地址	-9.21215
邮件	-9.21242
保险	-9.21325
本身	-9.21338
其中包括	-9.21416
女	-9.21472
尚未	-9.21572
最高	-9.21576
2007	-9.21577
火	-9.21601
工作组	-9.21619
缔约国	-9.21716
经营	-9.21746
命令	-9.21759
▁6	-9.21877
公众	-9.21926
秘书长	-9.21926
趋势	-9.21974
制作	-9.22032
有效的	-9.22191
波	-9.22203
资本	-9.22359
相比	-9.22459
▁你们	-9.22497
价	-9.22679
便	-9.2268
白	-9.2279
同样	-9.22828
级别	-9.22846
这样做	-9.22923
教师	-9.23018
科技	-9.2302
片	-9.23085
令	-9.23104
设立	-9.23118
y	-9.23318
尊重	-9.23376
就业	-9.2347
直到	-9.23481
距离	-9.23514
几	-9.23553
供	-9.23684
电视	-9.23731
在线	-9.23759
讲	-9.23891
船	-9.23915
▁*	-9.24007
面临	-9.24024
承担	-9.24075
食物	-9.24157
v	-9.2418
分钟	-9.24235
广泛	-9.24275
▁所有	-9.24276
普遍	-9.24309
定期	-9.24455
最佳	-9.24499
团体	-9.24528
基础设施	-9.24581
职业	-9.24586
车辆	-9.24605
父母	-9.24704
形成	-9.24944
▁个	-9.24949
反应	-9.25047
声明	-9.25051
认识到	-9.2508
不足	-9.25087
变得	-9.25096
身体	-9.25102
预期	-9.25186
地位	-9.25198
生物	-9.25224
下列	-9.25239
▁除了	-9.25252
干	-9.25259
▁--	-9.25262
概念	-9.25276
取消	-9.25333
原	-9.25348
密码	-9.25436
交通	-9.25497
半	-9.25509
住	-9.25656
模块	-9.25671
商品	-9.25891
六	-9.25967
2006	-9.26001
放在	-9.26023
强	-9.26091
感觉	-9.26118
愿意	-9.26171
意味着	-9.26224
传感器	-9.26306
工	-9.26391
可用	-9.26415
需	-9.26488
破坏	-9.26517
多种	-9.26519
r	-9.26543
2010	-9.26667
温度	-9.26705
打印	-9.26744
之外	-9.26812
而是	-9.26919
地点	-9.2692
的东西	-9.26952
石油	-9.26985
▁而	-9.27022
履行	-9.2712
放	-9.27272
标记	-9.27306
艾滋病	-9.27343
教	-9.27557
进展	-9.27561
▁同时	-9.27596
难民	-9.27667
产业	-9.27675
瓦	-9.27759
东西	-9.2777
▁有	-9.27804
派	-9.27859
站点	-9.27963
制订	-9.27984
故障	-9.2817
适当的	-9.28196
正常	-9.28232
的其他	-9.28244
现象	-9.2826
队	-9.28297
i	-9.28301
或其他	-9.284
它的	-9.28426
付款	-9.28491
都有	-9.2852
军	-9.28547
树	-9.28569
作业	-9.28573
合	-9.28707
维	-9.2873
往往	-9.28759
税	-9.28789
机器	-9.28886
人数	-9.28969
监督	-9.29137
案件	-9.29253
的原因	-9.29288
2009	-9.29331
生命	-9.29341
▁一个	-9.29484
球	-9.29519
特派团	-9.2956
并没有	-9.29594
药物	-9.29708
估计	-9.29733
办事处	-9.29763
可以在	-9.29838
了一个	-9.30085
我们将	-9.30087
传播	-9.30124
恐怖主义	-9.30132
寻找	-9.30155
预计	-9.30157
即使	-9.30171
第一	-9.30203
查询	-9.30345
啊	-9.30378
南	-9.30382
2004	-9.30422
平均	-9.3043
不得	-9.30453
这类	-9.30464
会员国	-9.30533
明显	-9.30675
▁s	-9.30682
事情	-9.30727
相互	-9.30832
标签	-9.30984
这一点	-9.31001
一条	-9.31001
技能	-9.31001
不再	-9.31019
担任	-9.31125
鱼	-9.31162
让我	-9.31211
构建	-9.31213
超	-9.31225
系列	-9.31289
万美元	-9.31382
互联网	-9.31408
备份	-9.3141
▁000	-9.31422
类似	-9.31445
安理会	-9.31466
加以	-9.31472
品	-9.31486
宣传	-9.31532
顾问	-9.31533
议会	-9.31568
的重要	-9.31718
的需求	-9.31762
也会	-9.31821
理事会	-9.31833
不需要	-9.31855
真	-9.31897
一系列	-9.32
外国	-9.32095
你可以	-9.32118
该国	-9.32138
22	-9.32146
装	-9.32243
大小	-9.32247
视图	-9.32278
在其	-9.32293
成果	-9.32324
特征	-9.3237
那样	-9.32439
力量	-9.32443
很难	-9.32454
▁因为	-9.32458
效率	-9.32469
萨	-9.32469
阿富汗	-9.32483
核心	-9.32532
违反	-9.32584
屏幕	-9.32588
边	-9.32606
律师	-9.32698
是个	-9.32707
始终	-9.32742
海洋	-9.32763
我想	-9.32785
角色	-9.32788
的活动	-9.3284
阅读	-9.32856
▁7	-9.32957
战	-9.32992
响应	-9.33033
31	-9.33052
▁请注意	-9.33147
亦	-9.33236
提供的	-9.3326
28	-9.33278
飞机	-9.33286
第二	-9.33304
客户端	-9.33358
世纪	-9.33367
领导	-9.33426
性别	-9.33458
消费	-9.33506
的作用	-9.33507
件	-9.33515
1><	-9.33526
临时	-9.33584
我会	-9.3365
相当	-9.33651
代理	-9.33671
运营	-9.33685
取决于	-9.33728
义务	-9.33757
暴力	-9.33776
岛	-9.3386
组合	-9.33864
恩	-9.33977
2003	-9.33983
▁b	-9.34041
接收	-9.34041
良好的	-9.34071
联邦	-9.34154
复杂	-9.34167
联	-9.34338
规范	-9.34372
报	-9.3442
到达	-9.34442
电源	-9.34451
工人	-9.34458
▁8	-9.3462
日益	-9.3468
地图	-9.34713
提出了	-9.34986
青年	-9.35142
灯	-9.35331
伙伴	-9.35355
方便	-9.35371
玩	-9.35383
的建议	-9.3539
双方	-9.35511
最好的	-9.35567
听到	-9.35703
北京	-9.35765
学院	-9.35783
居民	-9.35792
几个	-9.35827
展示	-9.35858
跟	-9.35876
2001	-9.35884
认识	-9.35948
室	-9.35957
值得	-9.35973
块	-9.36006
物质	-9.36161
难以	-9.364
预订	-9.36414
诺	-9.3647
澳大利亚	-9.3661
双	-9.36613
坚持	-9.3667
感染	-9.36762
污染	-9.36852
▁我们的	-9.36878
经理	-9.36947
重复	-9.37035
固定	-9.37068
动	-9.3707
房间	-9.37147
也许	-9.37263
邀请	-9.37272
这里	-9.37349
随着	-9.3737
规模	-9.37389
账户	-9.37425
是由	-9.37434
26	-9.37446
首先	-9.37528
森林	-9.37764
也可以	-9.3799
▁当然	-9.38041
提出的	-9.38077
通	-9.3821
非政府组织	-9.38248
优势	-9.38314
金属	-9.38503
l	-9.3851
•	-9.38577
确实	-9.3863
财产	-9.38667
的安全	-9.38708
上升	-9.38755
复制	-9.38952
▁x	-9.38998
在一起	-9.39022
皮	-9.39062
别人	-9.39079
红	-9.39126
托	-9.39197
某个	-9.39345
共	-9.39363
▁委员会	-9.39385
及时	-9.39466
第一次	-9.39472
轮	-9.39556
城	-9.39649
前往	-9.39767
来源	-9.39837
▁《	-9.39845
病毒	-9.39869
领导人	-9.39876
23	-9.39912
试验	-9.39933
电池	-9.40169
做法	-9.40187
年龄	-9.40276
有着	-9.40339
订单	-9.40388
证书	-9.4042
表现	-9.40578
转换	-9.40578
紧急	-9.40579
27	-9.40614
公司的	-9.40616
包装	-9.40618
到了	-9.40638
调	-9.40646
图片	-9.4068
给你	-9.4075
权力	-9.40846
洛	-9.40891
集成	-9.4094
保健	-9.41016
的要求	-9.41023
事实	-9.41114
森	-9.41232
提	-9.41247
第三方	-9.41271
格式	-9.41279
有权	-9.4128
教学	-9.41419
的努力	-9.41469
大部分	-9.41487
2002	-9.41521
民族	-9.41583
有必要	-9.41601
机械	-9.41677
雷	-9.41724
河	-9.41765
适应	-9.41801
奇	-9.41821
证据	-9.41831
障碍	-9.41848
难	-9.4185
▁2.	-9.41892
班	-9.41958
不可	-9.41974
一点	-9.41991
函数	-9.42114
人的	-9.42149
发出	-9.42193
兰	-9.42293
的产品	-9.42295
代	-9.423
觉得	-9.4231
神	-9.42439
远	-9.42463
补充	-9.42475
明	-9.42508
指南	-9.42566
修订	-9.42578
细胞	-9.4266
贫困	-9.42673
奥	-9.42808
传输	-9.42938
交	-9.43044
别	-9.43044
餐厅	-9.43086
)、	-9.43087
等待	-9.43096
如果你	-9.43117
歧视	-9.43268
▁web	-9.43295
自定义	-9.43487
房	-9.43496
部件	-9.43548
各项	-9.43568
硬件	-9.43607
夫	-9.43617
欧盟	-9.43787
地球	-9.43887
纳入	-9.43904
w	-9.43922
现场	-9.44072
俄罗斯	-9.44104
回答	-9.44246
输出	-9.44263
协作	-9.44344
统计	-9.44399
专门	-9.44547
更为	-9.4455
除了	-9.44616
叫	-9.44634
女孩	-9.44634
怎样	-9.44691
姆	-9.44701
实验	-9.4477
支出	-9.44807
智能	-9.44812
差	-9.44829
今年	-9.44844
混合	-9.44949
曼	-9.44955
越来越	-9.4499
指示	-9.45008
有可能	-9.45014
投入	-9.45037
意大利	-9.45095
加工	-9.45262
即可	-9.45357
星	-9.45409
当时	-9.45435
旧	-9.4544
深	-9.45533
各个	-9.45843
若干	-9.45984
许可	-9.46002
给我	-9.4611
的重要性	-9.46123
引起	-9.46229
比如	-9.46274
一年	-9.46356
考虑到	-9.46467
准则	-9.46505
她们	-9.46614
塞	-9.46678
监控	-9.46694
化学	-9.467
自我	-9.46727
认证	-9.46743
倡议	-9.4682
相对	-9.46823
分类	-9.46861
不应	-9.47057
特性	-9.47104
身	-9.47279
窗口	-9.47351
读	-9.47372
▁12	-9.47387
群体	-9.47549
极	-9.4764
住房	-9.47674
哈	-9.47697
遭受	-9.47698
时期	-9.47753
年度	-9.4785
真正的	-9.47998
分别	-9.48004
翻译	-9.48112
条例	-9.48113
飞	-9.48203
观察	-9.4823
接	-9.48259
损害	-9.48332
循环	-9.4837
看起来	-9.48428
女士	-9.48593
告诉	-9.48667
形	-9.48753
药	-9.48883
客人	-9.48887
管制	-9.48898
29	-9.48979
元	-9.48992
意	-9.49112
黑	-9.49114
债务	-9.49132
感谢	-9.49194
打算	-9.49284
有人	-9.49294
离	-9.49444
重要的	-9.49467
可在	-9.49619
成员国	-9.49745
500	-9.50142
普	-9.50142
清洁	-9.5018
共和国	-9.50185
背景	-9.50306
扫描	-9.50375
0	-9.50455
整体	-9.50539
一定	-9.50631
体制	-9.50726
进口	-9.50738
▁d	-9.5077
中央	-9.50774
亿	-9.50822
释放	-9.50872
怎么	-9.50901
▁自	-9.50941
域	-9.50949
表达	-9.50968
的位置	-9.5098
贡献	-9.50995
盘	-9.5103
剂	-9.51048
运作	-9.51057
集中	-9.51093
类别	-9.51278
思想	-9.51303
编写	-9.51365
的法律	-9.51407
示例	-9.51423
身份	-9.51433
指	-9.51441
合并	-9.51554
厂	-9.51592
比赛	-9.51662
200	-9.51682
出来	-9.51708
股	-9.51743
▁这一	-9.51775
不过	-9.51798
容易	-9.51808
面对	-9.51875
票	-9.51877
▁首先	-9.51923
实时	-9.51937
警告	-9.51985
问题的	-9.52019
实验室	-9.52049
商店	-9.52097
的事情	-9.52102
o	-9.52116
动态	-9.52135
并非	-9.52188
额	-9.52216
可能是	-9.52272
大家	-9.52296
许可证	-9.52302
首次	-9.52386
▁3.	-9.52401
参考	-9.52488
信任	-9.52492
调用	-9.52513
吉	-9.5258
清单	-9.52615
发挥	-9.52738
更好的	-9.52759
的风险	-9.52824
财政	-9.52827
差异	-9.52863
统一	-9.52928
受害者	-9.52983
对此	-9.53031
▁a	-9.5308
画	-9.53085
普通	-9.53166
这次	-9.53225
最新	-9.53236
▁没有	-9.53238
艾滋病毒	-9.53247
绿色	-9.53383
连接到	-9.53402
未能	-9.53488
酒	-9.5349
远程	-9.53549
登录	-9.53561
军队	-9.53598
周	-9.53668
覆盖	-9.53733
零	-9.53806
除	-9.53862
母亲	-9.53896
制造商	-9.539
审计	-9.54209
如下	-9.54219
设有	-9.54279
放弃	-9.54407
▁今天	-9.54417
东	-9.54557
展开	-9.54567
曾经	-9.54585
盖	-9.5462
之中	-9.54656
实践	-9.54686
只要	-9.54702
劳动	-9.54721
发言	-9.54759
定	-9.54806
▁您可以	-9.54812
虚拟	-9.54825
失去	-9.54845
纸	-9.54891
并将	-9.54898
平等	-9.54921
吸引	-9.54964
协商	-9.55
平	-9.55054
重申	-9.55239
指数	-9.55277
营销	-9.55345
80	-9.55559
局势	-9.55701
现金	-9.55788
视	-9.55794
物理	-9.55841
主义	-9.55854
接口	-9.55894
一天	-9.55941
单独	-9.55983
交付	-9.56009
增加了	-9.56022
尺寸	-9.56056
很好	-9.56116
根	-9.56285
现实	-9.56306
木	-9.56353
诊断	-9.56361
相同的	-9.56382
对其	-9.56388
的研究	-9.56424
的基本	-9.56441
成立	-9.56476
那里	-9.5662
发动机	-9.5663
▁在这方面	-9.5666
让我们	-9.56749
产	-9.56792
索	-9.56809
这么	-9.5694
图形	-9.56961
同一	-9.57017
不可能	-9.57061
边界	-9.5714
公园	-9.57223
▁公司	-9.57247
▁9	-9.57296
华	-9.5735
石	-9.57431
植物	-9.57435
周期	-9.57464
用来	-9.57466
卷	-9.57503
公	-9.57545
患者	-9.57586
职位	-9.57607
90	-9.57616
附近	-9.57649
范围内	-9.57685
予以	-9.57706
个月	-9.5782
月份	-9.57896
连续	-9.57929
团	-9.57947
▁1.	-9.57995
必要的	-9.5807
考试	-9.58086
等等	-9.58109
轻松	-9.5812
2><	-9.582
意义	-9.58309
替代	-9.58312
怀疑	-9.58369
得到了	-9.58387
it	-9.58468
一个人	-9.58554
交换	-9.58608
沟通	-9.58623
查找	-9.58658
举办	-9.58784
融资	-9.58847
压	-9.58858
可用于	-9.58867
送	-9.58868
比例	-9.58917
所需	-9.5896
掉	-9.58964
▁他说	-9.58975
因为它	-9.59058
货物	-9.59066
表面	-9.59118
你会	-9.59202
就像	-9.59222
体育	-9.59252
教授	-9.59275
否则	-9.59354
伤害	-9.59427
运用	-9.59429
重点	-9.59452
课	-9.5951
回到	-9.59541
肯定	-9.59543
▁20	-9.59588
质	-9.59597
空气	-9.59612
沙	-9.59621
管理员	-9.59661
操作系统	-9.59676
一致	-9.59676
期望	-9.59687
词	-9.59745
时代	-9.59874
启用	-9.59893
伊朗	-9.59902
反映	-9.59905
监管	-9.5992
十	-9.59979
去年	-9.60072
出售	-9.60073
实际上	-9.60095
70	-9.60097
的一些	-9.60182
探索	-9.60202
少	-9.60235
▁事实上	-9.60266
的规定	-9.6028
举行的	-9.60311
既	-9.60363
2012	-9.60399
模拟	-9.60443
系统的	-9.6048
有限	-9.60504
公寓	-9.60604
无需	-9.60615
不知道	-9.60681
▁据	-9.60756
气候	-9.60792
勒	-9.60828
事项	-9.61106
有时	-9.61116
店	-9.61124
巨大的	-9.61192
实例	-9.61282
的政策	-9.61319
永远	-9.61326
其他人	-9.61334
道德	-9.61501
要素	-9.61677
常	-9.61737
良好	-9.61763
的生活	-9.61793
小型	-9.61796
诸如	-9.61799
更换	-9.61813
工艺	-9.61869
1>	-9.61902
圣	-9.61921
最好	-9.61923
1999	-9.61934
正确的	-9.61974
的关系	-9.62075
告诉我	-9.62097
绝对	-9.62134
界	-9.62223
法规	-9.62224
关联	-9.62305
北	-9.62346
通讯	-9.62348
穿	-9.62384
提到	-9.62414
模板	-9.62444
卫星	-9.62513
报表	-9.62523
收益	-9.62691
修复	-9.62695
在一个	-9.62805
日至	-9.62936
并不是	-9.62959
权限	-9.62975
主管	-9.62976
故事	-9.63008
审判	-9.63056
当然	-9.63096
重建	-9.63099
短	-9.63181
具备	-9.63219
多数	-9.63222
接近	-9.63434
本国	-9.63495
有很多	-9.63517
雇员	-9.6353
全世界	-9.63547
角	-9.63593
的关键	-9.63598
播放	-9.63601
床	-9.63745
▁4.	-9.63782
▁不	-9.63824
草案	-9.63852
真的	-9.63938
座	-9.63949
▁如何	-9.64087
的支持	-9.64108
评论	-9.64121
快乐	-9.64141
眼	-9.64258
巴勒斯坦	-9.64274
第一个	-9.64281
的意见	-9.64342
农村	-9.64363
2011	-9.64403
▁m	-9.64481
倍	-9.64497
利润	-9.64501
贫穷	-9.6453
无论	-9.64532
航空	-9.64616
环境中	-9.6463
年代	-9.6468
单元	-9.64727
浏览	-9.64781
合理	-9.64826
在那里	-9.64834
优惠	-9.64904
▁如	-9.64922
的经济	-9.64939
监狱	-9.65114
赛	-9.6512
很大	-9.65158
轴	-9.65232
转移	-9.65264
巴西	-9.65268
称为	-9.65285
气候变化	-9.65298
流量	-9.65307
博	-9.65322
▁这样	-9.65351
往	-9.65368
也有	-9.65471
投票	-9.65502
玻璃	-9.65505
选	-9.65511
莱	-9.65593
领域的	-9.65594
罪	-9.65634
男人	-9.65646
在此	-9.65651
添加到	-9.65685
培养	-9.6571
老师	-9.65783
提示	-9.65786
建造	-9.65854
▁你知道	-9.65881
▁0	-9.65988
总部	-9.6604
年以来	-9.6608
▁每个	-9.66135
的报告	-9.66146
份	-9.6616
单个	-9.66226
了吗	-9.66255
现有的	-9.66264
字段	-9.66344
张	-9.66375
路径	-9.66449
自动化	-9.66451
逐渐	-9.66483
结合	-9.66517
情	-9.6659
四个	-9.66641
会计	-9.66677
公平	-9.66687
引用	-9.66702
没有任何	-9.66795
采取行动	-9.66861
股票	-9.66911
▁第	-9.66917
声音	-9.66932
▁它们	-9.66936
的责任	-9.66947
推广	-9.66948
取	-9.66952
维修	-9.66952
通道	-9.67021
▁许多	-9.67022
职能	-9.671
工作的	-9.67149
让你	-9.6716
延长	-9.6719
渠道	-9.6725
推荐	-9.67295
拿	-9.67301
编制	-9.67318
▁而且	-9.67367
人道主义	-9.67377
男性	-9.67388
与其他	-9.67428
▁本文	-9.67544
就可以	-9.67554
落实	-9.67568
案	-9.67601
性的	-9.67648
▁不要	-9.67687
推	-9.67739
领土	-9.67783
可能需要	-9.67847
防	-9.67892
达成	-9.6791
35	-9.68001
婴儿	-9.68007
奖	-9.68017
博物馆	-9.68031
切	-9.68235
因而	-9.68243
各方	-9.68249
用途	-9.68274
架	-9.68284
将于	-9.68287
港	-9.68295
纽约	-9.68384
常常	-9.68449
额外	-9.68472
人才	-9.68482
至关重要	-9.68529
铁	-9.68674
▁月	-9.68678
同步	-9.68756
j	-9.6879
伙伴关系	-9.68797
定位	-9.68903
古	-9.68928
护理	-9.68943
脚	-9.68958
浏览器	-9.69007
收	-9.69109
八	-9.69143
可以通过	-9.69202
话	-9.69321
的项目	-9.69334
内存	-9.69337
目录	-9.69457
回来	-9.69462
思考	-9.69471
▁it	-9.69517
微	-9.6954
在内的	-9.69572
风格	-9.69626
的可能性	-9.69691
标	-9.69711
预	-9.69783
今后	-9.69814
福利	-9.69841
利率	-9.69841
地区的	-9.69934
广泛的	-9.69966
的事	-9.70068
工资	-9.70075
韩国	-9.70099
花园	-9.70117
某	-9.70175
决议	-9.70206
记者	-9.70324
有效地	-9.70329
活	-9.7038
连	-9.70408
轻	-9.70431
上海	-9.7046
另一	-9.70477
署	-9.70557
发表	-9.7056
▁p	-9.7078
物品	-9.70797
控件	-9.70887
原始	-9.70926
俱乐部	-9.71088
的基础	-9.7109
严格	-9.71098
显著	-9.71138
清	-9.71176
低于	-9.71207
索赔	-9.71276
照顾	-9.71289
优先	-9.71368
早	-9.71377
理	-9.71383
女人	-9.71521
唯一	-9.71559
▁15	-9.71559
理由	-9.71584
狗	-9.71615
飞行	-9.71649
发行	-9.71656
锁	-9.71807
西班牙	-9.71899
结	-9.71903
七	-9.71953
音频	-9.72032
明白	-9.72052
1998	-9.72069
加快	-9.7207
传统的	-9.72159
依赖	-9.72206
以外	-9.72395
的文件	-9.7243
贝	-9.72469
牌	-9.72566
道路	-9.72571
专利	-9.72577
伦敦	-9.72746
▁政府	-9.72862
知识产权	-9.72867
设定	-9.72869
可持续	-9.72976
的任务	-9.73142
工程师	-9.73143
国际法	-9.73216
依然	-9.73374
很少	-9.73375
观点	-9.73413
除非	-9.73453
▁5.	-9.73481
查	-9.73597
顾客	-9.73606
损坏	-9.73615
激活	-9.73708
任	-9.73736
签署	-9.73744
复杂的	-9.73749
自身	-9.73902
楼	-9.73917
产品的	-9.73932
探讨	-9.73941
商务	-9.73952
雇主	-9.74007
使用的	-9.74134
脚本	-9.74188
减轻	-9.74281
血	-9.74404
妈妈	-9.74405
独特的	-9.74417
意识到	-9.74428
抗	-9.74465
▁酒店	-9.74488
单击	-9.74559
象	-9.74591
节点	-9.74595
台湾	-9.74646
一套	-9.7465
尤其	-9.74689
遭到	-9.74747
病人	-9.74849
订阅	-9.74897
使其	-9.74969
依据	-9.75055
会员	-9.75067
酒吧	-9.75116
一场	-9.75243
找	-9.75338
是指	-9.75366
有什么	-9.75377
外交	-9.75388
▁[	-9.75391
图书馆	-9.754
如果您	-9.75401
议员	-9.75418
若	-9.75423
键	-9.75459
步	-9.75521
司	-9.75528
在中国	-9.75588
我要	-9.7564
提醒	-9.7566
2015	-9.75709
信贷	-9.75726
排	-9.75902
带有	-9.75906
党	-9.75923
巨大	-9.7602
下来	-9.76152
天气	-9.76157
国家的	-9.76157
重视	-9.7619
提议	-9.76233
清楚	-9.7628
这个问题	-9.76321
还可以	-9.76329
孔	-9.76346
论	-9.76362
电力	-9.7639
网页	-9.76432
加密	-9.76458
意识	-9.76478
赔偿	-9.76489
配有	-9.76591
海滩	-9.76633
笔	-9.76661
点击	-9.76684
男子	-9.76761
随后	-9.76798
伤	-9.7681
作品	-9.7686
流动	-9.7696
得以	-9.76962
尽可能	-9.76964
不到	-9.76976
营养	-9.76989
坐	-9.77099
即将	-9.77119
标识	-9.77126
的各种	-9.7713
倒	-9.77227
众多	-9.77242
变量	-9.77275
资助	-9.773
官方	-9.7736
他说	-9.77403
咖啡	-9.77417
相应的	-9.77487
刺激	-9.77514
容量	-9.77545
事故	-9.77601
6.	-9.77619
内的	-9.77649
突然	-9.77687
现	-9.77692
▁我要	-9.77817
房子	-9.77921
将继续	-9.77944
茶	-9.77981
黎巴嫩	-9.78031
在美国	-9.78078
制裁	-9.78159
西方	-9.78174
掌握	-9.78214
附加	-9.78298
报道	-9.78304
事业	-9.78311
公里	-9.78314
▁一些	-9.78448
可以使用	-9.78465
告诉你	-9.78485
经历	-9.78499
建立一个	-9.78564
逻辑	-9.78602
境内	-9.78643
的变化	-9.78729
驻	-9.78737
底	-9.78807
是为了	-9.78825
燃料	-9.78952
手动	-9.78977
系	-9.79008
些	-9.79043
▁哦	-9.79068
的数量	-9.79073
袭击	-9.79123
终止	-9.79153
侵犯	-9.79163
法案	-9.7922
进行的	-9.79229
无线	-9.79258
研讨会	-9.79273
左右	-9.79278
有利于	-9.7928
的同时	-9.79304
个国家	-9.79324
7.	-9.79362
足够	-9.79363
环保	-9.79376
进步	-9.79386
湖	-9.79476
墨西哥	-9.79495
逐步	-9.79566
▁鉴于	-9.79602
为您提供	-9.79603
假	-9.79691
辅助	-9.79734
习惯	-9.79771
的基础上	-9.7978
的做法	-9.79869
[	-9.79933
300	-9.79938
蒂	-9.79943
我们可以	-9.79976
显然	-9.7999
冷	-9.79996
全球化	-9.80025
都在	-9.80041
公布	-9.80091
也不	-9.80187
的核心	-9.8021
是谁	-9.80234
争取	-9.80245
▁我会	-9.80245
巴基斯坦	-9.80251
科学家	-9.80273
另外	-9.80305
不得不	-9.80319
某种	-9.80357
心理	-9.80387
总体	-9.80406
造成的	-9.80457
图表	-9.80474
持有	-9.80474
每一个	-9.80494
种族	-9.80506
建	-9.80553
的设计	-9.80573
购物	-9.8059
关心	-9.80646
有机会	-9.80702
▁30	-9.80767
富	-9.80835
的价格	-9.80878
2013	-9.80896
希腊	-9.80908
很快	-9.8126
套	-9.81298
▁是的	-9.81365
研究所	-9.81372
粮食	-9.81395
结婚	-9.81446
不受	-9.8145
答案	-9.81478
列入	-9.81486
议程	-9.81517
文章	-9.81572
靠	-9.81588
发生的	-9.81616
看看	-9.81663
环	-9.81714
意外	-9.81728
这两个	-9.81799
满	-9.81806
字符	-9.81848
遵循	-9.81875
任意	-9.81912
最重要的	-9.81927
群	-9.82175
开支	-9.82176
可持续发展	-9.82209
更大的	-9.82212
紧张	-9.82216
么	-9.82224
乐	-9.82353
实	-9.82363
新加坡	-9.82375
晚上	-9.8238
清除	-9.8244
它是	-9.82478
必要	-9.82496
温	-9.82511
细节	-9.82592
削减	-9.82618
经济增长	-9.8268
详细	-9.82742
一旦	-9.82778
谈	-9.82802
任何人	-9.82803
计	-9.82816
性质	-9.82868
诉讼	-9.82891
待	-9.8293
鲁	-9.8293
第三	-9.82967
青少年	-9.82967
成长	-9.8298
强大的	-9.8298
伦	-9.83006
留	-9.83035
换	-9.83039
延迟	-9.83057
两种	-9.83074
呼叫	-9.83151
莫	-9.83265
加速	-9.83273
文件夹	-9.83353
是因为	-9.83362
红色	-9.83373
主机	-9.83391
资格	-9.83408
货	-9.83434
在于	-9.83507
还要	-9.83547
插入	-9.83579
准确	-9.83613
各国政府	-9.83769
▁6.	-9.83792
▁11	-9.83941
推进	-9.83955
厨房	-9.83958
不想	-9.83989
多少	-9.84017
儿	-9.84022
音	-9.84052
简单的	-9.84076
年轻	-9.84145
视为	-9.84227
一组	-9.84247
的用户	-9.84265
的经验	-9.8428
有所	-9.84393
匹配	-9.84421
瑞士	-9.84506
枪	-9.84539
监视	-9.84545
的技术	-9.84562
假设	-9.84583
金额	-9.84637
下午	-9.84648
尽快	-9.84649
刚	-9.84655
安全性	-9.84659
态度	-9.84679
过渡	-9.84685
▁为什么	-9.84753
驱动器	-9.84754
▁那么	-9.84757
库存	-9.84839
▁+	-9.84882
建立了	-9.84908
合法	-9.84908
活动的	-9.84927
一张	-9.85002
埃及	-9.85013
▁若要	-9.85056
▁i	-9.85126
医学	-9.85132
遇到	-9.85143
潜在	-9.85154
我就	-9.85187
九	-9.85211
追求	-9.85278
储存	-9.85301
箱	-9.85307
架构	-9.85324
有点	-9.85329
中间	-9.85369
苏丹	-9.85394
言	-9.85437
婚姻	-9.85456
分布	-9.85542
明天	-9.85572
王	-9.85614
菜单	-9.85651
幸福	-9.85653
开关	-9.85668
的服务	-9.85701
分子	-9.85711
严重的	-9.85738
审核	-9.85775
有许多	-9.85789
最低	-9.85847
收购	-9.85888
解	-9.86106
异常	-9.86184
is	-9.86219
海外	-9.86246
欧洲联盟	-9.8636
增	-9.86373
最多	-9.86438
信用卡	-9.86458
q	-9.86484
端口	-9.86528
附件	-9.86555
排放	-9.86558
成就	-9.86689
保	-9.86761
的功能	-9.86781
1997	-9.86781
还没有	-9.86825
默认	-9.86845
院	-9.86862
驱动	-9.86922
关	-9.86999
▁其他	-9.8703
的国际	-9.87111
做了	-9.87146
更大	-9.87157
更好地	-9.87168
数学	-9.87241
直	-9.87248
节省	-9.87345
获	-9.87362
宣言	-9.87365
0>	-9.87434
跨	-9.87463
▁你可以	-9.87483
皮肤	-9.87512
周围	-9.87516
食	-9.87537
晚	-9.87591
大规模	-9.87591
32	-9.87617
日志	-9.87639
特别是在	-9.87896
中国的	-9.87932
雪	-9.87975
泰	-9.87987
说话	-9.88033
大量的	-9.88076
仅仅	-9.8814
的行动	-9.88212
整合	-9.88214
节目	-9.88222
平民	-9.88244
可靠	-9.88379
▁我认为	-9.8842
把它	-9.88474
中断	-9.88482
证	-9.88527
农民	-9.88601
后果	-9.88606
减	-9.88618
很容易	-9.88674
他人	-9.8874
表格	-9.88842
顿	-9.88869
罪行	-9.88892
集体	-9.88913
土耳其	-9.88961
询问	-9.88981
娱乐	-9.89057
广播	-9.89072
途径	-9.89111
的决定	-9.89245
面积	-9.89252
航班	-9.89279
▁e	-9.89402
co	-9.89414
充满	-9.89454
必须在	-9.89456
简化	-9.89506
彻底	-9.89516
此种	-9.89547
住在	-9.89659
瑞	-9.8969
及其他	-9.89703
的一种	-9.89762
核武器	-9.89794
发达国家	-9.89818
随	-9.89831
部长	-9.89858
奖励	-9.89878
越	-9.89884
3.	-9.89904
分发	-9.89913
会话	-9.89933
端	-9.89947
上帝	-9.89961
短期	-9.89981
房屋	-9.90166
▁同样	-9.90184
一直在	-9.90196
▁g	-9.90225
坏	-9.90265
拍摄	-9.90266
衡量	-9.90284
生存	-9.90295
铁路	-9.90322
也没有	-9.90327
男女	-9.90357
治理	-9.9037
▁就	-9.90402
开发人员	-9.90436
电缆	-9.90484
推出	-9.90687
冰	-9.90698
太阳	-9.90844
45	-9.90922
会在	-9.90926
▁v	-9.90947
举措	-9.90949
做什么	-9.90959
起诉	-9.91062
干预	-9.911
经济发展	-9.91127
博士	-9.9119
促使	-9.91244
百	-9.91375
液	-9.91396
额外的	-9.91404
荷兰	-9.9141
声称	-9.91424
印	-9.91451
字	-9.91451
世	-9.91478
本组织	-9.91545
面向	-9.91551
客	-9.916
丢失	-9.91629
跳	-9.91648
都可以	-9.91656
行动计划	-9.91666
▁|	-9.91673
特点	-9.91675
最初	-9.9173
兹	-9.91798
赫	-9.91832
▁f	-9.91882
算法	-9.91925
答复	-9.91942
自愿	-9.91964
品质	-9.91987
--	-9.91998
运	-9.9206
的资料	-9.92063
软	-9.92079
标志	-9.92146
提前	-9.92149
独立的	-9.92212
最新的	-9.92225
旋转	-9.92295
我们在	-9.92304
▁7.	-9.92403
孩子们	-9.92425
▁我是	-9.92453
希	-9.92505
都能	-9.92555
▁我在	-9.92585
展	-9.92679
行使	-9.92682
互动	-9.92745
副	-9.92841
拟订	-9.92841
梅	-9.92863
首	-9.92864
放松	-9.92945
回家	-9.92961
麦	-9.93015
▁我的	-9.93015
菜	-9.93034
形状	-9.93076
我们会	-9.93089
塑料	-9.93116
便利	-9.93143
国民	-9.93154
配	-9.93169
常规	-9.93183
相应	-9.93196
欧元	-9.93197
深入	-9.93254
数目	-9.93261
早餐	-9.93271
游	-9.93466
革命	-9.93501
敦促	-9.93532
各类	-9.93561
和发展	-9.93564
变成	-9.93637
装饰	-9.93672
伯	-9.93748
坐在	-9.93823
收费	-9.93917
速	-9.93997
地震	-9.94003
高效	-9.94114
分离	-9.94115
能量	-9.94122
杂志	-9.94125
付	-9.94154
苹果	-9.94159
期待	-9.94184
▁当你	-9.94196
美丽的	-9.94207
负	-9.94335
丰富的	-9.94363
而非	-9.94391
名单	-9.94422
产量	-9.94427
克服	-9.9446
证实	-9.94508
中东	-9.94533
房地产	-9.94615
随时	-9.94722
排除	-9.94724
真实	-9.94758
每月	-9.94809
失业	-9.94827
居住	-9.9488
索引	-9.9489
补偿	-9.94903
休息	-9.9495
生效	-9.95037
看见	-9.95062
情报	-9.95068
爆炸	-9.95143
研发	-9.95146
有一些	-9.95199
完整	-9.95259
密切	-9.95374
朝鲜	-9.9544
动力	-9.95456
提及	-9.95586
读取	-9.95619
4.	-9.95649
被视为	-9.95703
2>	-9.95728
缺陷	-9.95746
更好	-9.95756
手册	-9.95769
突出	-9.95778
子女	-9.95802
赢得	-9.95838
在这方面	-9.95873
的合作	-9.95893
浴室	-9.95901
您需要	-9.95905
带来了	-9.95987
判断	-9.95993
的政治	-9.9607
案例	-9.96096
▁r	-9.96104
的费用	-9.96139
变革	-9.96158
导航	-9.96169
下一个	-9.9619
一只	-9.96239
士	-9.96243
债券	-9.96261
试	-9.9627
落	-9.96279
依靠	-9.96303
抵达	-9.96349
客房	-9.96449
创建一个	-9.96477
多边	-9.96486
失	-9.96556
任命	-9.96585
u	-9.96637
酸	-9.96638
列出	-9.9668
税收	-9.96695
z	-9.96797
索马里	-9.9682
总理	-9.96884
残疾人	-9.96916
肉	-9.9693
英文	-9.96936
手术	-9.96965
朝	-9.9697
目前的	-9.96983
1.	-9.97013
人力资源	-9.97032
丰富	-9.97042
您将	-9.97046
族	-9.97068
私营部门	-9.97068
变更	-9.97077
因为他们	-9.97127
立	-9.97127
毒品	-9.97144
身上	-9.97146
▁18	-9.97151
▁我知道	-9.97159
泵	-9.97319
类型的	-9.9732
▁分钟	-9.97366
的利益	-9.97376
1990	-9.97377
的观点	-9.97389
父亲	-9.97394
主要是	-9.97406
的不同	-9.97412
世界上	-9.97453
的公司	-9.97465
龙	-9.97594
的标准	-9.97595
属	-9.97625
对待	-9.97654
章	-9.97682
▁19	-9.9769
害怕	-9.97709
从未	-9.97733
算	-9.97737
▁只有	-9.97737
▁2017	-9.97741
出现了	-9.97755
升	-9.97762
杯	-9.97823
▁windows	-9.97826
签名	-9.97863
十年	-9.97887
设	-9.97918
和管理	-9.97932
符号	-9.97933
衣服	-9.97937
南非	-9.98024
缔约方	-9.9805
证券	-9.98091
的原则	-9.98125
睡	-9.9815
+	-9.98158
的承诺	-9.9817
或许	-9.98177
关切	-9.98199
斯特	-9.98206
刚刚	-9.98211
发生了	-9.98242
▁正如	-9.9827
能否	-9.9831
主动	-9.98315
迁移	-9.98334
阿拉伯	-9.98338
男孩	-9.98349
该公司	-9.98372
黄	-9.98375
整	-9.98388
古巴	-9.98437
已被	-9.98448
处理器	-9.98544
签证	-9.98574
官	-9.98597
应用于	-9.98628
家人	-9.98631
将被	-9.98654
麻烦	-9.98658
锁定	-9.98696
我们必须	-9.98729
的价值	-9.9876
功率	-9.98772
专用	-9.98866
转让	-9.98868
两年	-9.98903
每周	-9.98924
检验	-9.98967
年前	-9.99014
网上	-9.99055
多次	-9.99066
财富	-9.99069
▁注意	-9.99138
指控	-9.9915
航空公司	-9.99181
▁新	-9.99233
频率	-9.99258
5.	-9.99282
的历史	-9.99284
宽	-9.99307
辩论	-9.99334
调节	-9.9934
情绪	-9.99381
1%	-9.99385
争议	-9.99408
零件	-9.99418
隐藏	-9.99431
舒适	-9.99512
只需	-9.99524
具	-9.99537
▁t	-9.99552
已有	-9.99595
与其	-9.99685
▁这是一个	-9.99728
▁即使	-9.99742
含有	-9.99746
某一	-9.99754
丽	-9.9983
副本	-9.99868
的代表	-9.99927
来看	-10.0001
加载	-10.0003
角度	-10.0004
▁选择	-10.0014
2.	-10.0016
就能	-10.0019
并未	-10.0025
参观	-10.0031
担保	-10.0033
修正	-10.0036
想法	-10.0037
发射	-10.0038
汇率	-10.0039
消耗	-10.004
▁联合国	-10.0041
的过程	-10.0043
危害	-10.0047
的声音	-10.0051
非常重要	-10.0051
钢	-10.0059
▁8.	-10.006
服务的	-10.0061
断	-10.0067
的世界	-10.0069
领	-10.0071
获得了	-10.0072
每日	-10.0073
卖	-10.0078
不存在	-10.0079
夜	-10.0092
产生的	-10.0094
为您	-10.0098
墙	-10.0102
例	-10.0105
痛苦	-10.0109
联系人	-10.0109
卧室	-10.0114
英	-10.0116
花费	-10.0119
绩效	-10.012
两次	-10.0122
负载	-10.013
美国人	-10.0133
3><	-10.014
反馈	-10.0141
控制器	-10.0144
衣	-10.0144
我是	-10.0146
民	-10.015
基金会	-10.015
管道	-10.0151
作为一个	-10.0152
彼此	-10.0153
杰	-10.0154
国外	-10.0155
涵盖	-10.0163
):	-10.0168
▁2012	-10.0172
联络	-10.0173
打印机	-10.0178
在哪里	-10.0183
请参阅	-10.0185
▁也许	-10.0187
定制	-10.0187
通用	-10.019
岁的	-10.0195
丝	-10.0196
校	-10.0199
▁有些	-10.0205
一级	-10.0213
的社会	-10.0218
专题	-10.0224
36	-10.0224
长度	-10.0226
含	-10.0239
印度尼西亚	-10.024
参与者	-10.0249
这些问题	-10.0251
泰国	-10.0257
取得了	-10.0259
同事	-10.0262
成功的	-10.0263
37	-10.0264
会议上	-10.0265
或是	-10.0265
走了	-10.0265
本文	-10.0268
披露	-10.0272
气体	-10.0282
同样的	-10.0283
草	-10.0284
的目的	-10.029
好吗	-10.03
▁我们将	-10.0307
扎	-10.0314
理念	-10.0315
*	-10.0318
的儿童	-10.0319
有限公司	-10.0321
威	-10.0325
家具	-10.0327
的成员	-10.0328
33	-10.0329
密钥	-10.0333
介绍了	-10.0333
3%	-10.0335
瑞典	-10.0337
干扰	-10.034
参加了	-10.0345
警报	-10.0347
它们的	-10.036
等级	-10.0364
喝	-10.0366
异	-10.0372
载	-10.0373
传递	-10.0376
的形式	-10.0381
埃	-10.0383
盐	-10.0384
路线	-10.0385
两国	-10.0387
洗	-10.039
将来	-10.0392
文字	-10.0394
哪	-10.0397
▁一旦	-10.0403
流行	-10.0405
糖	-10.0408
记	-10.0409
的一项	-10.0414
让人	-10.0422
技术和	-10.0423
职责	-10.0424
▁别	-10.0429
码	-10.043
他在	-10.043
灵活	-10.0437
为此	-10.0443
▁人们	-10.0445
年轻人	-10.0446
▁有关	-10.0448
地理	-10.0448
五个	-10.045
愿	-10.0451
演示	-10.0458
透明	-10.0462
负担	-10.0466
结论	-10.0467
表演	-10.0474
越南	-10.0478
1996	-10.0479
市民	-10.0482
紧	-10.0485
强制	-10.0489
生态	-10.05
更高的	-10.0502
容器	-10.0502
的措施	-10.0512
引擎	-10.052
欣赏	-10.0521
做的	-10.0521
场所	-10.0524
惩罚	-10.0524
但在	-10.0524
▁谁	-10.0526
雨	-10.0528
号码	-10.0528
这是一个	-10.0529
单一	-10.053
引导	-10.0535
易	-10.054
技巧	-10.0548
哪个	-10.0552
ip	-10.0559
学会	-10.0562
游客	-10.0563
层面	-10.0568
火车	-10.057
人生	-10.0571
戈	-10.0574
报告中	-10.0574
存	-10.0577
链	-10.0578
后来	-10.0581
回收	-10.0587
让他们	-10.059
当中	-10.0591
了一些	-10.0597
批评	-10.06
▁通常	-10.0608
并为	-10.0612
求	-10.0616
练习	-10.0623
用品	-10.0623
登	-10.0626
完整的	-10.0628
的具体	-10.063
机关	-10.0631
汉	-10.0634
街	-10.0635
特定的	-10.0639
期限	-10.0642
的想法	-10.0642
股东	-10.0643
业绩	-10.0645
更高	-10.0647
基因	-10.0652
看来	-10.0656
缺少	-10.0664
暂停	-10.0665
ra	-10.0671
秒	-10.0673
▁第二	-10.0675
高于	-10.068
成人	-10.0682
美食	-10.0683
是我们	-10.0701
取代	-10.0705
拘留	-10.0715
照明	-10.072
哥伦比亚	-10.0726
这一问题	-10.0731
决心	-10.0734
自行车	-10.0734
还将	-10.0735
毛	-10.0736
伊斯兰	-10.0737
设置为	-10.074
生活在	-10.0742
还在	-10.0743
过度	-10.0757
效应	-10.0762
击	-10.0766
不应该	-10.077
授予	-10.0775
桌面	-10.0775
巴黎	-10.0778
在这个	-10.0782
共有	-10.0784
问题上	-10.0786
公正	-10.079
农	-10.0791
黄金	-10.0792
的小	-10.0794
的孩子	-10.0795
每次	-10.0797
兄弟	-10.08
产生了	-10.0801
双边	-10.0805
钻石	-10.0807
错	-10.0812
退出	-10.0812
地面	-10.0817
▁那是	-10.0817
可通过	-10.0819
是如何	-10.0819
完善	-10.082
可靠的	-10.0832
时刻	-10.0838
恶化	-10.084
▁100	-10.0842
的资源	-10.0844
磁盘	-10.0845
的概念	-10.0849
图标	-10.085
▁ip	-10.085
查明	-10.0851
敏感	-10.0855
五年	-10.0856
出去	-10.0857
的最大	-10.0859
设法	-10.086
帕	-10.0861
千	-10.0865
症	-10.0865
未来的	-10.0866
菲	-10.0873
但它	-10.0874
有机	-10.0876
蓝色	-10.0879
成绩	-10.0879
▁当我	-10.088
痛	-10.088
罗马	-10.0882
状	-10.0885
初步	-10.0888
的范围	-10.0889
占领	-10.089
料	-10.0892
—	-10.0892
的唯一	-10.0898
来到	-10.0901
总额	-10.0901
叙利亚	-10.0904
新西兰	-10.0905
白色	-10.0905
很重要	-10.0908
48	-10.0911
已成为	-10.0912
绿	-10.0912
▁10.	-10.0915
动画	-10.0917
认真	-10.092
这种情况	-10.092
吸收	-10.0922
注重	-10.0922
指令	-10.0924
▁为此	-10.0926
其他国家	-10.0933
出版	-10.0934
2%	-10.0935
▁16	-10.094
尽	-10.0944
项目的	-10.0944
的环境	-10.0946
高速	-10.0946
▁2010	-10.0955
站在	-10.0956
周末	-10.0965
持	-10.0966
成分	-10.0974
高达	-10.0975
早期	-10.0976
用作	-10.0976
出现在	-10.0977
但我	-10.098
帮助您	-10.098
鞋	-10.098
键盘	-10.0983
三年	-10.0983
民众	-10.0986
的学生	-10.0989
每一	-10.0993
厅	-10.1001
赋予	-10.1004
海关	-10.1009
);	-10.1012
仲裁	-10.1014
2014	-10.1017
400	-10.1019
果	-10.102
是我	-10.102
le	-10.1022
留下	-10.1022
苏	-10.1023
阻碍	-10.1028
文书	-10.103
东帝汶	-10.1041
驱动程序	-10.1042
重量	-10.1053
▁当您	-10.1061
好处	-10.1061
战斗	-10.1065
观看	-10.1065
人物	-10.1068
一个新的	-10.1077
出生	-10.1079
致	-10.1084
还需要	-10.1085
日常	-10.1087
▁9.	-10.11
职	-10.1103
公路	-10.1104
眼睛	-10.1106
裁军	-10.1107
完美	-10.1108
还会	-10.1111
欧	-10.1114
组织的	-10.1115
回应	-10.1116
富有	-10.1119
爱尔兰	-10.1119
的应用程序	-10.1125
刑事	-10.1126
采取了	-10.1127
跑	-10.1131
根本	-10.114
印刷	-10.1142
杜	-10.1144
的看法	-10.1145
目的是	-10.1152
首都	-10.1161
滥用	-10.1162
转向	-10.1172
后续	-10.1173
找出	-10.1181
的速度	-10.1182
id	-10.1185
大大	-10.1186
圆	-10.1187
机器人	-10.1188
乘客	-10.119
®	-10.1191
▁让我们	-10.1191
以及其他	-10.1192
史	-10.1196
数据中心	-10.1199
判决	-10.1201
1995	-10.1201
会导致	-10.1203
▁最近	-10.1204
菲律宾	-10.1205
牛	-10.1205
是否有	-10.121
有了	-10.121
服装	-10.1221
呈现	-10.1222
腐败	-10.1222
师	-10.1223
面前	-10.1236
贴	-10.1239
的解决方案	-10.124
编码	-10.124
零售	-10.1242
候选人	-10.1243
系统中	-10.1245
会有	-10.1253
发生在	-10.1256
指定的	-10.1256
约翰	-10.1257
左	-10.1261
儿子	-10.1264
然	-10.1265
仍然是	-10.1268
居	-10.127
全面的	-10.1271
布局	-10.1273
行李	-10.1274
▁2013	-10.1275
类似的	-10.1275
中有	-10.1275
有个	-10.1279
科威特	-10.1285
警方	-10.1292
补贴	-10.13
都将	-10.1307
驾驶	-10.1307
秘密	-10.1309
与会者	-10.131
一部分	-10.1313
装备	-10.1318
出席	-10.1319
▁还有	-10.1324
消失	-10.1325
弹	-10.1328
爸爸	-10.1331
谈论	-10.1334
文明	-10.1334
梦想	-10.1336
作了	-10.1336
场景	-10.1338
港口	-10.1338
顶	-10.1343
基准	-10.1349
室内	-10.1349
轨道	-10.1357
之下	-10.1358
讲习班	-10.1364
▁24	-10.1369
想象	-10.1375
的名称	-10.138
re	-10.138
灾难	-10.138
▁在此	-10.138
永久	-10.138
的实际	-10.1385
而不	-10.1396
配备	-10.1399
术语	-10.1402
8%	-10.1402
特别报告员	-10.1403
性和	-10.1407
采取措施	-10.1413
玛	-10.1419
怎么样	-10.1421
编号	-10.1426
标题	-10.1435
癌症	-10.1437
工会	-10.1439
面板	-10.1439
垃圾	-10.144
日历	-10.144
波兰	-10.144
时尚	-10.144
34	-10.1446
症状	-10.1446
药品	-10.1451
▁我不知道	-10.1451
毒	-10.1453
科索沃	-10.1457
相机	-10.146
主张	-10.1472
作者	-10.1473
▁在这种情况下	-10.1474
视觉	-10.1479
记得	-10.1479
谴责	-10.1483
追踪	-10.1484
浪费	-10.1484
熟悉	-10.1485
▁他的	-10.1485
的人员	-10.1486
饮料	-10.1487
烟	-10.1493
理想	-10.1497
▁我喜欢	-10.15
该地区	-10.1501
玩家	-10.1502
袋	-10.1502
转变	-10.1516
昨天	-10.1517
凯	-10.1518
电信	-10.152
上涨	-10.1521
国际组织	-10.1525
立场	-10.1529
银	-10.1534
团结	-10.1534
硬	-10.1537
上面	-10.1539
上市	-10.154
盒	-10.1541
组成的	-10.1545
一道	-10.1557
认可	-10.1559
规定的	-10.1561
纯	-10.1566
残疾	-10.1569
友好	-10.1569
激励	-10.1572
沃	-10.1573
隔离	-10.1574
休闲	-10.1578
物流	-10.158
县	-10.1585
法治	-10.1586
55	-10.1586
以及在	-10.1587
亲	-10.159
38	-10.159
信仰	-10.1594
他们在	-10.1598
的朋友	-10.16
▁其中	-10.1601
经费	-10.1607
土	-10.1607
也将	-10.1612
边缘	-10.1614
民间社会	-10.1614
娜	-10.1616
为你	-10.1617
别墅	-10.1618
将是	-10.162
让您	-10.1621
▁我们认为	-10.1621
线路	-10.1622
电流	-10.1624
强烈	-10.163
海地	-10.163
碳	-10.1635
潜力	-10.164
奥巴马	-10.1641
住宅	-10.1642
的故事	-10.1643
▁14	-10.1645
修	-10.1646
差距	-10.165
侧	-10.1653
的成功	-10.1653
提交人	-10.1657
士兵	-10.166
的态度	-10.166
的资金	-10.1664
告知	-10.1665
强度	-10.167
右	-10.167
太多	-10.1675
▁id	-10.1676
集合	-10.1681
住宿	-10.1682
净	-10.1683
配合	-10.1689
替换	-10.1692
合适的	-10.1693
切实	-10.1696
葡萄酒	-10.1698
吨	-10.1702
兴趣	-10.1702
压缩	-10.1703
主任	-10.1704
国会	-10.1705
鸟	-10.1707
我认为	-10.1709
办	-10.1709
圈	-10.171
提高了	-10.1713
传	-10.1715
▁实际上	-10.1716
6%	-10.1716
种植	-10.1716
▁这意味着	-10.1718
▁2015	-10.1718
余	-10.172
导入	-10.1722
顺序	-10.1725
国王	-10.1725
国籍	-10.1728
检索	-10.173
入住	-10.1732
务	-10.1737
池	-10.1742
的挑战	-10.1743
到底	-10.1743
辐射	-10.1744
前面	-10.1748
蓝	-10.175
滑	-10.1751
虐待	-10.1752
的各项	-10.1761
▁与此同时	-10.1763
也可	-10.1774
武装	-10.1776
引入	-10.1782
宝	-10.1782
携带	-10.1783
▁你是	-10.1783
的一切	-10.1788
对这些	-10.1792
呼吸	-10.1798
▁2011	-10.1798
给他	-10.1807
观	-10.1809
起草	-10.1811
色彩	-10.1812
样式	-10.1817
越来越多的	-10.1822
天然	-10.1823
暂时	-10.1824
正是	-10.1825
书面	-10.183
编	-10.1834
▁这里	-10.1839
信心	-10.1847
al	-10.1847
折扣	-10.1859
下面	-10.1864
施	-10.1866
佩	-10.1866
叶	-10.1867
不用	-10.1872
设备的	-10.1873
er	-10.1877
土著人民	-10.1878
相反	-10.1881
挪威	-10.1887
艾	-10.1889
安全和	-10.189
专	-10.1894
样	-10.1895
99	-10.1897
电压	-10.1898
数额	-10.19
建筑物	-10.1902
记忆	-10.1909
"(	-10.1912
笑	-10.1915
因为他	-10.1915
桥	-10.1916
序列	-10.1917
解决办法	-10.192
睡眠	-10.1926
机遇	-10.1926
基地	-10.1931
芬兰	-10.1931
家长	-10.1934
证人	-10.1935
年期间	-10.1938
实质性	-10.1939
绘制	-10.1941
丹麦	-10.1942
是不是	-10.1946
步行	-10.195
▁除	-10.1951
精确	-10.1952
管理和	-10.1954
回报	-10.1955
办公	-10.1956
ms	-10.1957
语音	-10.1959
st	-10.1961
素	-10.1963
改	-10.1964
膜	-10.1979
的个人	-10.1986
一座	-10.1987
足够的	-10.1999
一台	-10.2003
领袖	-10.2006
所有人	-10.2008
阳光	-10.2011
不管	-10.2014
▁你能	-10.202
完	-10.2021
报纸	-10.2022
4%	-10.2038
最不发达国家	-10.2038
10%	-10.2039
我可以	-10.2045
所在	-10.2046
应在	-10.205
怀孕	-10.205
康	-10.2052
瓶	-10.2052
条件下	-10.2052
型号	-10.2053
空调	-10.2055
广	-10.2055
极端	-10.2057
土著	-10.2062
65	-10.2064
解决问题	-10.2067
梦	-10.2068
同时也	-10.2072
▁=	-10.2073
▁l	-10.2074
4><	-10.2078
充电	-10.2078
回顾	-10.208
应付	-10.2084
交互	-10.2087
编程	-10.2092
支	-10.2095
50%	-10.21
1994	-10.2101
所述	-10.2102
生长	-10.2109
互相	-10.2116
先进的	-10.2117
▁我希望	-10.2118
俄罗斯联邦	-10.2119
什	-10.212
▁–	-10.2121
卢旺达	-10.2121
os	-10.2123
胡	-10.2126
马来西亚	-10.2127
后者	-10.213
缓存	-10.2134
竞争力	-10.2139
规格	-10.214
去了	-10.2142
万人	-10.2147
承受	-10.2156
那是	-10.2156
框	-10.2158
艺术家	-10.216
大使	-10.2162
上诉	-10.2164
线程	-10.2172
▁11.	-10.2173
上午	-10.2183
博客	-10.2185
▁我们还	-10.2188
不允许	-10.2191
界面	-10.2192
邦	-10.2194
脱	-10.2196
犯	-10.2198
劳工	-10.22
号决议	-10.22
爆发	-10.22
冲	-10.2202
蒙	-10.2202
每个人	-10.2206
▁h	-10.2208
复	-10.2216
下跌	-10.2221
▁13	-10.2223
目的地	-10.2223
刚果民主共和国	-10.2224
液体	-10.2224
49	-10.2226
馆	-10.2229
摄像机	-10.2231
杆	-10.2234
几年	-10.2236
散	-10.2241
忘记	-10.2241
现行	-10.2242
的计划	-10.2244
精	-10.2245
展览	-10.2247
正如	-10.2247
更容易	-10.2248
的目的是	-10.2249
利比里亚	-10.2255
超级	-10.2255
提案	-10.2273
减少了	-10.2277
你知道	-10.2278
物体	-10.2279
美国的	-10.2284
弄	-10.2285
▁确保	-10.2288
生态系统	-10.2288
▁2008	-10.229
仪器	-10.2293
也在	-10.2299
受伤	-10.2299
靠近	-10.23
游泳池	-10.23
fi	-10.2301
出发	-10.2304
放置	-10.2311
是一项	-10.2312
▁若	-10.2317
▁12.	-10.2318
被认为是	-10.2319
▁2009	-10.232
不够	-10.2321
极为	-10.2327
乌克兰	-10.2327
能够在	-10.2329
的投资	-10.2329
地雷	-10.233
的威胁	-10.2335
废物	-10.2336
第二个	-10.2336
75	-10.2339
文学	-10.2344
村	-10.2345
来了	-10.2345
......	-10.2346
灵活性	-10.2348
的办法	-10.2352
破产	-10.2357
这些国家	-10.2367
儿童基金会	-10.2367
宗	-10.2369
联合国系统	-10.2371
专业人员	-10.2373
数据的	-10.2376
繁荣	-10.2377
并对	-10.238
▁只要	-10.2383
董事会	-10.239
的妇女	-10.2396
禁用	-10.2399
伟大的	-10.24
的需要	-10.2403
收取	-10.2406
庆祝	-10.2414
镇	-10.2422
个别	-10.2427
详细信息	-10.2428
不好	-10.2428
一间	-10.2429
脑	-10.2433
▁小时	-10.2434
后的	-10.2439
外国人	-10.2442
为何	-10.2443
津贴	-10.2444
职务	-10.2445
隐私	-10.245
in	-10.2461
世界银行	-10.2463
推行	-10.2463
差别	-10.2467
电路	-10.2468
加上	-10.2469
档案	-10.247
酷刑	-10.2473
物料	-10.2474
客户的	-10.2474
里面	-10.2476
▁n	-10.2489
被迫	-10.2489
养	-10.249
缓解	-10.2491
著名的	-10.25
归	-10.25
什么时候	-10.2503
自然资源	-10.2504
联合王国	-10.2505
何时	-10.251
44	-10.251
礼物	-10.2513
猫	-10.2516
托管	-10.2517
一段时间	-10.2518
齐	-10.2524
市场的	-10.2527
临床	-10.253
年至	-10.2531
举	-10.2546
仍在	-10.2547
合成	-10.2566
把他	-10.2567
然而	-10.2567
的详细信息	-10.2569
的客户	-10.2572
营	-10.2573
出于	-10.2576
读者	-10.2577
劳动力	-10.2579
巩固	-10.2581
土壤	-10.2585
税务	-10.2585
不必	-10.2587
一周	-10.2592
如今	-10.2597
可能导致	-10.2601
发放	-10.2604
▁大多数	-10.261
竞争对手	-10.2613
的危险	-10.2614
兵	-10.2619
一定要	-10.2622
餐	-10.2623
松	-10.2624
无效	-10.2633
看法	-10.2633
几天	-10.264
未经	-10.2644
被称为	-10.2645
每个人都	-10.2646
通常是	-10.2651
阀	-10.2652
并提供	-10.2658
当你	-10.266
成熟	-10.266
▁但我	-10.2662
捕获	-10.2665
本人	-10.2665
我们需要	-10.2669
较低	-10.2674
后面	-10.2674
客观	-10.2675
缅甸	-10.2675
学术	-10.268
创作	-10.2681
特色	-10.2681
不太	-10.2685
强化	-10.2686
对方	-10.2697
带来的	-10.27
赞扬	-10.27
几个月	-10.2702
尽量	-10.2704
的增长	-10.2706
发明	-10.2715
使我们	-10.2719
各级	-10.272
多年	-10.2721
武装冲突	-10.2721
区别	-10.2722
的理由	-10.2724
超出	-10.2731
和技术	-10.2732
可供	-10.2736
和社会	-10.2741
的名字	-10.2743
强大	-10.2746
市中心	-10.2746
能力建设	-10.2747
杀	-10.2749
的业务	-10.2749
引发	-10.2751
秩序	-10.2757
创意	-10.2758
并确保	-10.276
as	-10.276
已在	-10.2763
国际合作	-10.2763
召开	-10.2765
一件	-10.2765
照	-10.2767
鼠标	-10.2771
的应用	-10.2772
最近的	-10.2773
警	-10.2775
具体的	-10.2777
茨	-10.2777
父	-10.279
英里	-10.2793
游泳	-10.2794
商标	-10.2796
黑色	-10.2801
配置文件	-10.2802
航	-10.2804
何	-10.2804
▁2007	-10.2809
男	-10.2818
的程序	-10.282
在全球	-10.2822
妻子	-10.2824
信息技术	-10.2827
唯一的	-10.283
▁无论	-10.283
燃油	-10.2832
影	-10.2838
46	-10.2845
我也	-10.2845
藏	-10.2846
奥地利	-10.2847
存款	-10.2854
的家庭	-10.2858
成功地	-10.2868
给我们	-10.2868
约束	-10.2873
他是	-10.2873
这场	-10.2873
借	-10.2875
让他	-10.2878
大陆	-10.2882
和平进程	-10.2884
43	-10.2887
9%	-10.2887
较高	-10.2889
粉	-10.2892
好的	-10.2894
▁13.	-10.2896
20%	-10.2901
为基础	-10.2906
权益	-10.2907
触发	-10.2908
玩具	-10.2909
大众	-10.2911
600	-10.2912
的过程中	-10.2914
的未来	-10.2918
福	-10.2919
▁阿	-10.2919
退休	-10.292
反映了	-10.292
▁你想	-10.292
▁这项	-10.2922
感兴趣	-10.2923
优先事项	-10.2927
se	-10.2928
▁我可以	-10.293
47	-10.2931
很高兴	-10.2931
▁w	-10.2934
▁他在	-10.2934
弗	-10.2938
ma	-10.2942
的比例	-10.2943
2016	-10.2946
附近的	-10.2946
样本	-10.2948
疫苗	-10.2949
依照	-10.295
el	-10.2951
太平洋	-10.2952
定价	-10.2955
的最	-10.2959
填充	-10.2959
on	-10.2964
前景	-10.2967
租赁	-10.2968
美洲	-10.2971
面包	-10.2971
北部	-10.2973
的感觉	-10.2975
为其	-10.2975
届	-10.2977
华盛顿	-10.2981
拍	-10.2984
新型	-10.2986
逮捕	-10.2986
成为一个	-10.2987
区分	-10.299
讨论了	-10.2994
融合	-10.2996
终于	-10.3004
不稳定	-10.3007
救	-10.3008
因为我	-10.3009
耶	-10.3011
▁日本	-10.3012
发起	-10.3013
刀	-10.3013
▁查看	-10.3015
一段	-10.3018
乘	-10.3019
饮食	-10.3019
下面的	-10.3022
传送	-10.3023
事实上	-10.3023
的值	-10.3026
各自	-10.3026
神经	-10.3027
绝	-10.3029
▁14.	-10.303
以为	-10.303
曲线	-10.3031
▁国际	-10.3031
现代化	-10.3034
设想	-10.304
的消息	-10.3043
订购	-10.3044
社	-10.3044
雅	-10.3049
合理的	-10.3051
30%	-10.3053
最为	-10.306
里的	-10.306
▁至于	-10.306
的成本	-10.3066
顺利	-10.3068
死了	-10.3076
所作的	-10.3079
有能力	-10.3083
餐馆	-10.3091
us	-10.3093
的最佳	-10.3096
你是	-10.31
▁他是	-10.3102
这意味着	-10.3105
还能	-10.3106
的最新	-10.3108
通过了	-10.3113
▁基于	-10.3113
▁天	-10.3115
老年人	-10.3115
谨慎	-10.312
一些国家	-10.3122
背	-10.3127
企图	-10.3129
空中	-10.3129
先进	-10.3134
近期	-10.3137
经济体	-10.3139
ic	-10.3141
教堂	-10.3143
劳	-10.315
化学品	-10.315
es	-10.3151
摆脱	-10.3152
成了	-10.3155
鉴于	-10.3155
检察官	-10.3156
的大小	-10.3158
▁你的	-10.3159
出版物	-10.3161
盛	-10.3164
政党	-10.3165
戴	-10.3169
提供服务	-10.317
表现出	-10.317
足	-10.3171
缓慢	-10.3171
像素	-10.3172
南部	-10.3184
一步	-10.3184
39	-10.3189
极其	-10.3191
足球	-10.3194
这么做	-10.3195
出了	-10.3199
球员	-10.3205
的使用	-10.321
联合会	-10.3214
▁如果我们	-10.3216
的质量	-10.3218
思	-10.3218
的网站	-10.3223
▁好吧	-10.3223
教会	-10.3225
作出了	-10.3227
帮	-10.3233
队伍	-10.3236
季	-10.3245
挂	-10.3256
移	-10.3258
▁用	-10.326
尚	-10.3261
表单	-10.3263
丈夫	-10.3264
磋商	-10.3264
假期	-10.3264
人民币	-10.327
继承	-10.3281
教育和	-10.3284
潜在的	-10.3289
报价	-10.3289
▁它是	-10.3292
矿	-10.3294
清理	-10.3297
信用	-10.3302
的设备	-10.3308
测	-10.3316
融入	-10.3318
管理人员	-10.3319
你能	-10.3319
之内	-10.332
好像	-10.3321
和其它	-10.3322
护照	-10.3322
该项	-10.3323
导弹	-10.3324
的条件	-10.3324
穆斯林	-10.3325
800	-10.3326
下的	-10.3328
也能	-10.3333
耐	-10.3336
两名	-10.3343
我在	-10.3346
丁	-10.3348
写入	-10.3353
享用	-10.3354
足以	-10.3354
观众	-10.3355
会谈	-10.3355
早上	-10.3356
的全球	-10.3358
商定	-10.3362
▁今年	-10.3363
旅馆	-10.3364
中使用	-10.3365
总数	-10.3366
缩小	-10.3367
的认识	-10.3372
1992	-10.3372
制止	-10.3378
另一种	-10.3378
留在	-10.3378
雇用	-10.3378
▁15.	-10.3382
政	-10.3382
终端	-10.3383
恐惧	-10.3383
才会	-10.3384
例子	-10.3384
默	-10.3385
冷却	-10.3392
园	-10.3393
渴望	-10.3395
记住	-10.3401
乱	-10.3403
管理局	-10.3404
晚餐	-10.3405
一支	-10.3411
的状态	-10.3412
都必须	-10.3413
相当于	-10.3416
核查	-10.342
150	-10.3421
陈述	-10.3423
打造	-10.3423
尤其是在	-10.3424
谷歌	-10.3424
▁这将	-10.3425
恐怖	-10.3425
观念	-10.3428
纪念	-10.343
▁利用	-10.343
女儿	-10.3431
之间的关系	-10.3432
7%	-10.3434
铝	-10.3435
导	-10.3436
救济	-10.3441
持久	-10.3443
▁我觉得	-10.3443
在该	-10.3445
的区域	-10.3445
造成了	-10.3449
随机	-10.345
形象	-10.345
小说	-10.3454
议题	-10.3456
的确	-10.346
形势	-10.3462
发现了	-10.3466
创	-10.3467
埃塞俄比亚	-10.3467
安保	-10.3474
▁—	-10.3474
的总	-10.348
退	-10.3483
66	-10.3487
毫无	-10.3489
仔细	-10.3495
相似	-10.3497
▁2006	-10.3497
的战略	-10.3497
爱情	-10.3498
帧	-10.3498
si	-10.35
沉	-10.3503
尼日利亚	-10.3504
▁2016	-10.3507
许多人	-10.3513
和谐	-10.3514
排名	-10.3514
做到	-10.3516
至今	-10.3521
涉及到	-10.3526
积极的	-10.3531
防护	-10.3539
变动	-10.3539
面临的	-10.3544
不错	-10.3553
它将	-10.3555
▁17	-10.3556
直至	-10.3558
并通过	-10.3558
服	-10.3564
员额	-10.3569
激光	-10.3572
李	-10.3572
乌	-10.3576
开发计划署	-10.3576
微软	-10.3578
的选择	-10.3579
文件中	-10.3581
薄	-10.3582
▁另一方面	-10.3585
西部	-10.3586
考	-10.3588
阿根廷	-10.3589
看着	-10.359
$	-10.3592
者的	-10.3594
举行了	-10.3595
大楼	-10.3599
事先	-10.36
执法	-10.3602
得多	-10.3603
桑	-10.3609
投诉	-10.361
发展的	-10.3614
肯尼亚	-10.3614
▁我们必须	-10.362
比利时	-10.3627
日在	-10.3629
边境	-10.3631
造	-10.3635
1000	-10.3636
澄清	-10.364
动作	-10.3642
招聘	-10.3646
制定了	-10.3647
摘要	-10.3647
2017	-10.3653
弱	-10.3658
保密	-10.3658
ta	-10.3662
的性能	-10.3668
下去	-10.3668
有两个	-10.367
和解	-10.3671
电机	-10.3679
还包括	-10.368
投	-10.368
体现	-10.3686
电气	-10.3688
的部分	-10.3688
明确的	-10.3689
密	-10.3689
不在	-10.3695
是对	-10.3695
所谓的	-10.3697
ps	-10.3697
的对象	-10.3702
栏	-10.3705
不良	-10.3708
可提供	-10.371
想到	-10.3714
卢	-10.3717
缩短	-10.3718
筛选	-10.3722
老人	-10.3722
字母	-10.3728
纠正	-10.373
▁相反	-10.3731
所需要的	-10.3732
旅客	-10.3732
1993	-10.3735
所做的	-10.3739
常见	-10.3743
纤维	-10.3745
完成了	-10.3746
思维	-10.3749
葡萄牙	-10.3752
陷入	-10.3754
所示	-10.3758
亮	-10.376
很大的	-10.3764
广场	-10.3774
填写	-10.3776
▁它还	-10.3777
股市	-10.3777
▁有时	-10.3779
含量	-10.3779
乐观	-10.3782
塞浦路斯	-10.3784
_	-10.3787
历史上	-10.3787
东部	-10.3789
在整个	-10.3791
ti	-10.3792
东京	-10.3792
迫使	-10.3793
置于	-10.3793
存在着	-10.3798
▁我们在	-10.3798
忽略	-10.38
据	-10.3806
吸烟	-10.3807
字符串	-10.3808
▁这家	-10.3809
置	-10.381
切换	-10.381
透明度	-10.3813
老板	-10.3815
睡觉	-10.3815
▁我们希望	-10.3816
例外	-10.3817
有趣的	-10.3819
任何其他	-10.3819
法定	-10.382
的立场	-10.3822
的讨论	-10.3824
船舶	-10.3828
阳台	-10.383
湿	-10.3835
的事件	-10.3837
di	-10.384
您在	-10.3842
提供一个	-10.3846
妨碍	-10.3847
那种	-10.3849
全体	-10.385
可以从	-10.3854
在未来	-10.3855
自行	-10.3864
的限制	-10.3866
以满足	-10.3867
中文	-10.3871
不喜欢	-10.3873
宇宙	-10.3873
进度	-10.3873
论文	-10.3877
1991	-10.3878
储备	-10.3879
这位	-10.3881
塞拉利昂	-10.3883
的工作人员	-10.3886
搞	-10.3887
美利坚合众国	-10.3887
所提供的	-10.3887
过滤	-10.3887
免	-10.3889
微笑	-10.3889
没有什么	-10.389
大脑	-10.3901
确立	-10.3913
5%	-10.3914
待遇	-10.3916
克斯	-10.3918
的地位	-10.3927
严格的	-10.3927
婚礼	-10.3928
da	-10.3928
sa	-10.3928
主权	-10.3928
▁2005	-10.393
金融机构	-10.393
用户的	-10.3932
总结	-10.3933
赞同	-10.3935
效益	-10.3939
许多国家	-10.3939
-1	-10.3945
燃烧	-10.3945
问题是	-10.395
41	-10.3952
介质	-10.3956
这方面的	-10.3961
水果	-10.3971
公务员	-10.3975
为止	-10.3975
腿	-10.3976
初	-10.3976
▁了解	-10.3977
的工具	-10.3977
金钱	-10.398
me	-10.3982
预先	-10.3983
有用	-10.3989
混乱	-10.399
胶	-10.3991
韦	-10.3998
做好	-10.4003
是非常	-10.4004
pc	-10.4004
▁如果我	-10.4004
捐款	-10.4005
冒险	-10.4007
村庄	-10.4007
被告	-10.401
铜	-10.4012
在这	-10.4013
发票	-10.4013
目	-10.4016
城镇	-10.4018
套房	-10.4018
失去了	-10.4023
司机	-10.4023
web	-10.4025
不符合	-10.4026
针	-10.4027
实现了	-10.4028
充分利用	-10.4031
满意	-10.4032
冲击	-10.4034
并将其	-10.4045
ro	-10.4046
曲	-10.4047
穷人	-10.4047
旁	-10.4051
是你	-10.4052
的企业	-10.4055
家庭暴力	-10.4055
千年发展目标	-10.4061
易于	-10.4066
以期	-10.4067
增进	-10.4069
仅有	-10.4069
▁16.	-10.407
二十	-10.4071
网站上	-10.4071
列表中	-10.4072
样品	-10.4073
摩洛哥	-10.4084
但他	-10.4086
共识	-10.4088
显示器	-10.4089
间的	-10.4089
的力量	-10.4093
超越	-10.4094
00	-10.4102
噪音	-10.4108
作家	-10.4112
年来	-10.4112
完美的	-10.4113
莉	-10.4114
世界各地	-10.4115
沿	-10.4116
▁50	-10.4121
一切都	-10.4121
独特	-10.4123
图层	-10.4131
▁emc	-10.4131
我们认为	-10.4133
布隆迪	-10.4141
分区	-10.4144
武装部队	-10.4148
灾害	-10.4149
路由	-10.4149
的压力	-10.4155
包括在	-10.4157
首脑会议	-10.4157
com	-10.416
▁按照	-10.4161
▁25	-10.4164
欺诈	-10.4172
价值观	-10.4174
领先	-10.4179
▁k	-10.4183
宪章	-10.4187
哲学	-10.4191
一块	-10.4196
59	-10.4197
控	-10.4198
深度	-10.4201
标准的	-10.4201
耳	-10.4203
名字	-10.4207
准备好	-10.4208
主持	-10.4208
慢	-10.4208
所涉	-10.4211
正义	-10.4212
可用的	-10.4214
很可能	-10.4215
▁用于	-10.4215
为期	-10.4215
回复	-10.4216
▁每	-10.4219
这将	-10.4222
蛋白质	-10.4224
敌人	-10.4225
情形	-10.4226
的照片	-10.4228
en	-10.4231
42	-10.4233
骨	-10.4234
影片	-10.4235
界定	-10.424
强奸	-10.4242
我们要	-10.4243
也可能	-10.4244
邻国	-10.4244
影响到	-10.4246
当地的	-10.4246
制造业	-10.4246
▁香港	-10.4246
通报	-10.4248
尾	-10.4251
久	-10.4252
其实	-10.4253
提取	-10.4254
马上	-10.4255
施工	-10.4256
太阳能	-10.426
而且还	-10.426
我觉得	-10.4263
密封	-10.4263
议定书	-10.4265
抑制	-10.4271
身份验证	-10.4272
年底	-10.4275
乌干达	-10.4276
供资	-10.4276
中国政府	-10.4277
是通过	-10.4279
波动	-10.4279
你们的	-10.4285
少数	-10.4285
等于	-10.4287
映射	-10.4289
豪华	-10.4293
专注于	-10.4295
面临着	-10.4295
外观	-10.4296
▁如今	-10.4298
霍	-10.43
丹	-10.4302
的第一个	-10.4308
当今	-10.4313
移徙	-10.4314
大幅	-10.4316
的那样	-10.4317
显示了	-10.432
克罗地亚	-10.4331
自主	-10.4334
加热	-10.4335
64	-10.4337
依赖于	-10.4338
告诉我们	-10.4341
设计师	-10.4341
射	-10.4342
强迫	-10.4342
发言人	-10.4346
午餐	-10.4349
和安全	-10.4351
可以将	-10.4351
走向	-10.4352
▁英国	-10.4354
非正式	-10.4354
矛盾	-10.4355
▁嘿	-10.436
扩张	-10.4366
牛奶	-10.4366
筹资	-10.4368
▁17.	-10.4371
申请人	-10.4371
加剧	-10.438
依	-10.4381
分散	-10.4384
li	-10.4386
岛屿	-10.4387
第二次	-10.4388
程	-10.4389
母	-10.439
仪	-10.4391
着手	-10.4391
休	-10.4395
都要	-10.4396
抓住	-10.4396
刑法	-10.4398
▁你要	-10.4401
人群	-10.4403
呈	-10.4403
望	-10.4404
细	-10.4406
天然气	-10.4408
所有这些	-10.4408
该区域	-10.4412
演讲	-10.4413
58	-10.4415
市场上	-10.4419
无论是	-10.4422
观察员	-10.4429
难民署	-10.4433
指向	-10.4434
裁决	-10.4435
还可	-10.4444
卡车	-10.445
想知道	-10.4451
最小	-10.4459
户	-10.4461
味	-10.4461
初始	-10.4464
佛	-10.4468
个人信息	-10.4472
贩运	-10.4472
订	-10.4472
▁你会	-10.4473
乡村	-10.4473
柬埔寨	-10.4482
56	-10.4483
该项目	-10.4485
了很多	-10.4488
刚果	-10.4492
实力	-10.4495
▁我相信	-10.4497
身边	-10.4497
研究人员	-10.4498
崩溃	-10.4498
等方面	-10.4501
的地区	-10.4503
硬盘	-10.4505
历	-10.451
所有者	-10.451
婚	-10.451
审理	-10.4511
产出	-10.4514
脸	-10.4516
有用的	-10.4519
提供给	-10.4521
的精神	-10.4525
法令	-10.4527
此次	-10.4527
主体	-10.453
各位	-10.4538
01	-10.4542
肌肉	-10.4544
前进	-10.4548
我知道	-10.4548
▁有人	-10.4549
内置	-10.455
座位	-10.455
86	-10.455
▁$	-10.4552
中期	-10.4554
制品	-10.4559
注释	-10.4564
40%	-10.4564
▁2014	-10.4567
折	-10.4569
便于	-10.4571
季度	-10.4575
▁必须	-10.4576
见到	-10.4577
改造	-10.4579
柱	-10.4579
丧失	-10.4581
的管理	-10.4581
贵	-10.4581
窗	-10.4584
可使用	-10.4585
版权	-10.4585
暗	-10.4585
告诉他	-10.4586
》(	-10.4586
利比亚	-10.4587
康复	-10.4587
不包括	-10.4588
77	-10.4588
▁我已经	-10.4589
设计的	-10.4592
节约	-10.4593
较为	-10.4594
垂直	-10.4597
只会	-10.4598
田	-10.4601
mi	-10.4602
付费	-10.4602
夫人	-10.4602
湾	-10.4605
认知	-10.4606
政权	-10.4608
▁18.	-10.4609
次数	-10.4611
海上	-10.4612
管理系统	-10.4621
英寸	-10.4621
法语	-10.4621
划	-10.4622
首席	-10.4625
事物	-10.4627
在所有	-10.463
移动设备	-10.4633
受害人	-10.4634
把我	-10.4635
小孩	-10.4635
na	-10.4636
你就	-10.4644
de	-10.4646
清晰	-10.4648
05	-10.4648
以上的	-10.465
过于	-10.4651
3>	-10.4651
▁那个	-10.466
剧	-10.466
基础上	-10.4661
智利	-10.4663
对该	-10.4666
元件	-10.4668
▁这就是	-10.4671
▁第三	-10.4671
▁电话	-10.4674
管理层	-10.4677
运动员	-10.468
罐	-10.4681
的方案	-10.4681
谈到	-10.4683
支撑	-10.4684
比率	-10.4685
的许多	-10.4688
在过去	-10.469
董事	-10.4691
▁创建	-10.4692
渔业	-10.4693
远离	-10.4697
基本上	-10.4698
的定义	-10.4701
▁由	-10.4701
密度	-10.4708
吸	-10.4709
ch	-10.471
带着	-10.4711
也不会	-10.4711
捐助者	-10.4713
助理	-10.4713
得出	-10.4715
干燥	-10.4716
原因是	-10.4724
漏洞	-10.4725
何种	-10.4725
解除	-10.4729
核准	-10.4732
设计和	-10.4732
窗体	-10.4734
农场	-10.4737
~	-10.4739
▁我也	-10.474
实地	-10.4742
工作队	-10.4745
过来	-10.4747
优质	-10.4748
疼痛	-10.4753
海岸	-10.4756
紧密	-10.476
以确定	-10.4762
使用者	-10.4762
的平均	-10.4763
80%	-10.4764
血液	-10.4766
语句	-10.4775
啤酒	-10.4775
原子能机构	-10.4777
不论	-10.4778
统治	-10.4783
苦	-10.4785
能在	-10.4785
关税	-10.4785
大于	-10.4786
停	-10.4788
聊天	-10.4791
钥匙	-10.4791
当前的	-10.4795
胜	-10.4799
提供了一个	-10.4799
磨	-10.48
▁500	-10.4806
屋	-10.4812
彩	-10.4815
监禁	-10.4819
:“	-10.482
中国人	-10.4825
拟定	-10.4825
条目	-10.4828
采访	-10.4828
歌	-10.4829
和服务	-10.4829
长时间	-10.4831
te	-10.4833
处罚	-10.4837
此项	-10.4839
景点	-10.484
百分比	-10.484
的义务	-10.4843
审	-10.4845
清洗	-10.4848
是不	-10.485
mp	-10.4854
生产力	-10.4855
真相	-10.4857
北美	-10.4857
人工	-10.4858
是从	-10.4859
胜利	-10.4866
网格	-10.4869
不了	-10.4872
利息	-10.4872
厚	-10.4877
la	-10.4878
聚会	-10.4879
现已	-10.4879
开启	-10.488
从来没有	-10.488
你需要	-10.4882
假定	-10.4886
设立了	-10.4888
少数民族	-10.4888
热情	-10.4891
南方	-10.4894
两性平等	-10.4903
姓名	-10.4904
95	-10.4904
路由器	-10.4906
对我们	-10.4912
▁19.	-10.4912
思科	-10.4914
这就是	-10.4915
之处	-10.4917
的第	-10.4918
重组	-10.4918
我能	-10.4921
观测	-10.4928
的钱	-10.493
限	-10.4931
分配给	-10.4936
金融危机	-10.4938
炉	-10.4938
主要的	-10.4941
的人数	-10.4943
芯片	-10.4944
映像	-10.4947
井	-10.4949
显得	-10.4953
学员	-10.4955
经济学	-10.4956
和国际	-10.4956
学者	-10.4962
营业	-10.4962
寿命	-10.4965
度假	-10.4967
52	-10.4969
我将	-10.4972
锻炼	-10.4972
拖	-10.4972
分歧	-10.4973
的颜色	-10.4975
组成部分	-10.4977
都没有	-10.4981
▁j	-10.4981
景	-10.4983
-2	-10.4987
主办	-10.4988
爱你	-10.499
停车场	-10.4996
围绕	-10.4997
呀	-10.4998
54	-10.4999
夹	-10.4999
do	-10.5
储蓄	-10.5004
巴勒斯坦人	-10.5015
失望	-10.5016
打电话	-10.5017
的存在	-10.5018
年初	-10.5022
牺牲	-10.5022
重新启动	-10.5023
要么	-10.5024
85	-10.5027
▁2000	-10.5028
黄色	-10.5028
应该是	-10.5028
街道	-10.5031
租	-10.5033
很高	-10.5033
脂肪	-10.5034
和非	-10.5037
当代	-10.5037
经济学家	-10.5039
存在的	-10.5039
mm	-10.5046
兼	-10.505
不平等	-10.5052
该组织	-10.5055
ci	-10.5063
配件	-10.5066
稳定的	-10.5067
十二	-10.5072
改变了	-10.5073
说什么	-10.508
很好的	-10.5084
破	-10.5085
公式	-10.5085
宠物	-10.5089
真是	-10.5092
间接	-10.5097
交叉	-10.51
您必须	-10.5101
封	-10.5103
说过	-10.5105
购	-10.511
全球经济	-10.5112
看上去	-10.5128
抗议	-10.513
选定	-10.5138
的大	-10.5138
概述	-10.5147
不久	-10.5147
销	-10.5147
的主题	-10.5147
一个或多个	-10.5149
较高的	-10.5149
百分之	-10.5152
目前正在	-10.5153
以便在	-10.5153
其余	-10.5155
乳	-10.5156
并与	-10.516
种子	-10.5163
国际贸易	-10.5172
im	-10.5173
▁去年	-10.518
赞赏	-10.5181
人权委员会	-10.5182
非洲国家	-10.5183
对抗	-10.5184
▁好	-10.519
带宽	-10.519
付出	-10.5192
甲	-10.5194
单独的	-10.5195
入境	-10.5196
插	-10.5204
行业的	-10.5204
舒适的	-10.5206
to	-10.5209
斗争	-10.521
书籍	-10.521
推迟	-10.5211
病例	-10.5213
洞	-10.5213
使他们	-10.5214
转型	-10.5217
生活的	-10.5219
对其进行	-10.5219
户外	-10.522
反恐	-10.522
花了	-10.5223
▁自从	-10.5225
高兴	-10.5225
57	-10.5226
活力	-10.5228
切割	-10.5234
囚犯	-10.5234
选中	-10.5235
这儿	-10.5237
降	-10.5237
与您	-10.5238
自治	-10.5243
生命周期	-10.5243
明显的	-10.5245
提供支持	-10.5245
之旅	-10.5253
以外的	-10.5255
赞成	-10.5256
引	-10.5256
以使	-10.5257
仪式	-10.5258
免疫	-10.5262
▁<	-10.5264
我们对	-10.5268
景观	-10.5269
日内瓦	-10.5269
预定	-10.5269
明年	-10.5271
有多	-10.5274
lo	-10.5275
原料	-10.5277
仓库	-10.5281
并向	-10.5282
惯例	-10.5283
供应链	-10.5288
68	-10.529
政府的	-10.5294
但我们	-10.5295
是最	-10.5295
对我	-10.5296
的数字	-10.5296
因为它们	-10.5297
野	-10.5298
设备上	-10.53
寄	-10.5302
透过	-10.5304
会使	-10.5304
心脏	-10.5306
这件事	-10.5307
妇女的	-10.5308
是一家	-10.5309
分开	-10.5312
6><	-10.5313
67	-10.5324
小姐	-10.5325
对你	-10.5325
冻结	-10.5325
广大	-10.533
见过	-10.5332
▁那些	-10.5333
的健康	-10.5334
巴士	-10.5335
一直是	-10.5337
这些人	-10.5342
的相关	-10.5345
▁第一	-10.5346
宁	-10.5347
发展中国家的	-10.535
朗	-10.535
作物	-10.5352
ba	-10.5353
上次	-10.5355
有责任	-10.5359
的员工	-10.5363
家里	-10.5364
乘坐	-10.5368
唱	-10.5368
53	-10.5368
合约	-10.5373
▁我不	-10.5375
本网站	-10.538
对付	-10.538
确信	-10.5385
频繁	-10.5385
amp	-10.5387
运营商	-10.5388
ec	-10.5389
维生素	-10.5389
应急	-10.5391
侵略	-10.5392
▁2004	-10.54
必然	-10.54
可将	-10.54
的人口	-10.5401
防御	-10.5401
短缺	-10.5402
mo	-10.5402
体重	-10.5404
▁用户	-10.5407
最高的	-10.5408
英雄	-10.5411
烧	-10.5418
单词	-10.5419
部门的	-10.5419
一体化	-10.542
的一个重要	-10.5426
安全的	-10.5427
命	-10.5427
虫	-10.543
录制	-10.5432
不愿	-10.5434
节能	-10.5438
的反应	-10.544
逃	-10.5445
拉丁美洲	-10.5446
民事	-10.5448
舞	-10.5448
什么样的	-10.5451
薪	-10.5456
的角度	-10.5463
死刑	-10.5463
本港	-10.5463
的收入	-10.5464
人们对	-10.5467
某人	-10.5468
的有效	-10.5469
选民	-10.5469
上了	-10.5472
诚实	-10.5475
较大	-10.5476
▁不管	-10.5478
▁我们可以	-10.5481
入侵	-10.5482
自杀	-10.5483
标准化	-10.5483
08	-10.5483
▁20.	-10.5484
约旦	-10.5484
排序	-10.5485
精度	-10.5488
三种	-10.5489
将成为	-10.5491
扩散	-10.5493
就要	-10.5494
妇女在	-10.5494
当事人	-10.5495
有害	-10.5499
的全部	-10.5505
移除	-10.5509
生活中	-10.5512
游览	-10.5514
跟我	-10.5514
委托	-10.552
偏	-10.552
资源的	-10.552
批	-10.5522
的某些	-10.5522
买方	-10.5532
优秀	-10.5532
交谈	-10.5534
竞选	-10.5534
肯	-10.5536
提名	-10.5536
难题	-10.5538
品种	-10.5539
患	-10.5542
▁在这个	-10.5543
奥运会	-10.5549
会被	-10.555
的贡献	-10.5552
翻	-10.5552
的趋势	-10.5554
最高法院	-10.5555
质疑	-10.5557
拟	-10.5559
捐助	-10.5563
经销商	-10.5566
年轻的	-10.557
▁单击	-10.5571
发动	-10.5575
的目标是	-10.5578
队列	-10.5579
活跃	-10.5584
企业的	-10.5584
一边	-10.5585
失踪	-10.5586
杂	-10.5586
抱怨	-10.5586
格鲁吉亚	-10.5588
分辨率	-10.5591
销毁	-10.5593
找不到	-10.5594
▁如果没有	-10.5595
急	-10.5595
无线电	-10.5596
治	-10.5597
优	-10.5598
ga	-10.5601
管辖权	-10.5604
月至	-10.5604
电子商务	-10.5608
季节	-10.5609
黑暗	-10.5613
和平与安全	-10.5615
我自己	-10.562
容忍	-10.562
平面	-10.5622
灰	-10.5623
▁21.	-10.5631
普及	-10.5631
原理	-10.5634
青	-10.5637
英尺	-10.5637
忽视	-10.5638
命名	-10.5639
▁过去	-10.564
与发展	-10.5641
的人们	-10.5641
gdp	-10.5643
工作者	-10.5644
太空	-10.5644
愤怒	-10.5647
穿着	-10.5649
他会	-10.5651
▁噢	-10.5652
交换机	-10.5653
调动	-10.5656
at	-10.5656
社会发展	-10.5657
am	-10.5657
电话号码	-10.5664
谈谈	-10.5664
否认	-10.5665
▁您的	-10.5667
四年	-10.5669
技术支持	-10.5671
模	-10.5672
提供商	-10.5673
转换为	-10.5674
高性能	-10.5675
物种	-10.5676
即时	-10.5688
头发	-10.5689
°	-10.5694
它会	-10.5695
跟你	-10.5698
因特网	-10.5701
地下	-10.5704
免受	-10.5704
▁21	-10.5705
热带	-10.5705
高级别	-10.5706
700	-10.5709
")	-10.571
导出	-10.5711
修正案	-10.5714
创业	-10.5715
了许多	-10.5715
民主党	-10.5718
迄今	-10.572
的水平	-10.5724
机构的	-10.5727
大概	-10.5731
以往	-10.5731
美丽	-10.5734
势	-10.5739
我已经	-10.5739
的保护	-10.574
阿尔	-10.5743
细菌	-10.5748
分析师	-10.5748
汇	-10.5748
你要	-10.5749
均衡	-10.5751
透露	-10.5751
人体	-10.5751
目标是	-10.5751
找到了	-10.5752
行程	-10.5752
对手	-10.5755
出色的	-10.5759
在这儿	-10.5765
夏	-10.5775
场合	-10.5777
▁就像	-10.5782
智慧	-10.5784
施加	-10.5785
和一个	-10.5785
引起的	-10.5788
争论	-10.5788
的语言	-10.5791
在我的	-10.5791
以及对	-10.5792
使用了	-10.5793
和文化	-10.5794
独	-10.5799
恐怖分子	-10.58
谈话	-10.5801
讲话	-10.5805
发送到	-10.5805
▁2003	-10.5808
知	-10.5808
磁	-10.581
社交	-10.5811
优先级	-10.582
一半	-10.5824
-5	-10.5825
罪犯	-10.5827
我们已经	-10.5832
对所有	-10.5833
申诉	-10.5833
检	-10.5837
ri	-10.584
存储在	-10.584
饥饿	-10.5841
负责人	-10.5844
成效	-10.5845
▁或者	-10.585
征	-10.5851
门户	-10.5851
尽力	-10.5851
可见	-10.5855
事宜	-10.5856
显示在	-10.5858
新技术	-10.5858
的效果	-10.5858
特殊的	-10.5859
有趣	-10.5861
这样一个	-10.5863
月底	-10.5865
拯救	-10.5865
外汇	-10.5865
▁我们要	-10.5869
▁22.	-10.5873
争端	-10.5881
学科	-10.5883
的因素	-10.5888
72	-10.589
先前	-10.5893
夏季	-10.5894
▁我们会	-10.5898
忙	-10.5898
手指	-10.5899
谢	-10.5902
第四	-10.5909
还原	-10.591
结算	-10.5912
中学	-10.5912
对比	-10.5916
报告说	-10.5916
插件	-10.5916
穆	-10.5921
小心	-10.5923
这项工作	-10.5926
蔬菜	-10.5927
所有国家	-10.5929
取得成功	-10.5939
其中一个	-10.594
旅游业	-10.5941
你在	-10.5943
▁结果	-10.5944
▁检查	-10.5944
▁嗯	-10.5949
▁针对	-10.5951
仅在	-10.5952
的知识	-10.5953
的请求	-10.5953
是由于	-10.5954
▁经过	-10.5955
ds	-10.596
社会保障	-10.596
星期五	-10.5961
▁23.	-10.5961
调解	-10.5962
88	-10.597
但却	-10.5972
纪录	-10.5972
02	-10.5972
结束时	-10.5974
专业的	-10.5974
07	-10.5976
新兴	-10.5982
冰箱	-10.5984
情感	-10.5984
预览	-10.5987
薪酬	-10.5992
任期	-10.5993
屋顶	-10.5997
实用	-10.5999
除外	-10.6
检测到	-10.6
全新	-10.6
聪明	-10.6
不仅是	-10.6012
的文化	-10.6016
秘鲁	-10.6017
录	-10.6018
距	-10.6018
泡沫	-10.6022
▁你有	-10.6023
木材	-10.6025
or	-10.6033
相结合	-10.6034
守	-10.6034
详情	-10.6035
小学	-10.6037
一部	-10.6037
和支持	-10.6037
▁地址	-10.6038
你必须	-10.6039
98	-10.6039
▁你认为	-10.6044
模糊	-10.6048
诸多	-10.6049
可用性	-10.6052
环境下	-10.6052
加大	-10.6057
将为	-10.6058
危险的	-10.6059
在联合国	-10.6061
委员会的	-10.6071
运送	-10.6071
过滤器	-10.6073
认定	-10.6074
从而使	-10.6076
匈牙利	-10.6076
新产品	-10.6078
略	-10.6078
的代码	-10.6083
该文件	-10.6085
当我	-10.6087
个性化	-10.6088
节日	-10.6088
工作场所	-10.6089
在他的	-10.609
巧克力	-10.6092
多项	-10.6097
盈利	-10.6099
贾	-10.61
资	-10.6104
字体	-10.6105
美国政府	-10.6105
尼泊尔	-10.611
鸡	-10.6114
舱	-10.6116
响	-10.6117
全局	-10.612
▁一	-10.6122
空白	-10.6122
62	-10.6123
代替	-10.6123
政府官员	-10.6124
更具	-10.6131
礼	-10.6134
我希望	-10.6135
天空	-10.6136
0.	-10.6145
扣	-10.615
已经成为	-10.6152
就必须	-10.6154
自然灾害	-10.6157
的网络	-10.6158
ce	-10.6159
的中心	-10.6161
套件	-10.6161
政策和	-10.6163
百万	-10.6165
上学	-10.6167
优秀的	-10.6168
噪声	-10.6168
和我	-10.6168
有利	-10.6175
稳定性	-10.6176
转移到	-10.6177
怪	-10.6177
条规定	-10.6179
教练	-10.6179
我不知道	-10.618
个体	-10.6182
停车	-10.6187
遭	-10.6192
用户界面	-10.6195
运转	-10.6196
混	-10.6197
sp	-10.6199
25%	-10.6201
家族	-10.6204
虚拟机	-10.6204
服务和	-10.6205
我们就	-10.6205
弹性	-10.6206
决议草案	-10.6207
反射	-10.6215
就在	-10.622
管辖	-10.6221
智能手机	-10.6223
科特迪瓦	-10.6225
不确定	-10.6228
新鲜	-10.6229
约为	-10.6231
的特定	-10.6237
降低了	-10.6237
的证据	-10.624
将要	-10.6242
则可以	-10.6246
密切合作	-10.6247
go	-10.6247
因为我们	-10.6249
镜头	-10.6251
出现的	-10.6252
浓度	-10.6256
▁把	-10.6257
的角色	-10.6257
外地	-10.6261
给出	-10.6261
技术援助	-10.6266
采用了	-10.6267
简	-10.6267
都需要	-10.6268
▁问	-10.6269
▁不是	-10.6269
应用程序的	-10.6274
生物多样性	-10.6274
舍	-10.6278
今日	-10.6279
可靠性	-10.6281
分支	-10.6283
不仅仅是	-10.6284
自信	-10.6287
护士	-10.6287
一定会	-10.6293
高等教育	-10.6295
幻灯片	-10.6296
复苏	-10.6299
效力	-10.63
究竟	-10.63
浅	-10.63
一方	-10.6302
客户服务	-10.6302
器件	-10.6312
的操作	-10.6315
的组织	-10.6321
78	-10.6324
的身份	-10.6329
担忧	-10.6332
受到了	-10.6334
的软件	-10.6341
皇家	-10.6341
建模	-10.6344
写作	-10.6345
禁	-10.6346
的长期	-10.6349
扬	-10.635
服务提供商	-10.635
你自己	-10.6352
雇佣	-10.6352
是很	-10.6354
所使用的	-10.6355
是我的	-10.6359
捐赠	-10.6362
ia	-10.6367
▁2002	-10.6372
创建的	-10.6372
他们会	-10.6373
救援	-10.6375
安哥拉	-10.6375
的食物	-10.6376
漂亮的	-10.6377
▁40	-10.6378
谷	-10.6378
筹备	-10.6378
更快	-10.638
拨款	-10.6383
以帮助	-10.6384
裁定	-10.6385
的优势	-10.6386
相对于	-10.6387
▁小	-10.6388
撤销	-10.639
▁全球	-10.6392
余额	-10.6395
一辆	-10.6395
63	-10.6398
离婚	-10.6403
顶级	-10.6405
分为	-10.6405
疟疾	-10.6407
已经在	-10.6408
51	-10.6408
补	-10.6408
bo	-10.6411
引进	-10.6413
诚信	-10.6413
领取	-10.6414
76	-10.6416
频	-10.6423
▁任何	-10.6427
沿着	-10.6428
感受	-10.6429
遭遇	-10.6438
可以看到	-10.6438
可选	-10.644
形式的	-10.6441
同一个	-10.6442
泄漏	-10.6444
单元格	-10.6447
则是	-10.6448
人口基金	-10.6448
招	-10.6448
时间表	-10.6449
会出现	-10.6449
速率	-10.6455
多久	-10.6455
的城市	-10.6457
平方米	-10.6458
蛋白	-10.6459
聚	-10.6461
企业家	-10.6462
加沙	-10.6462
ss	-10.6462
类似于	-10.647
可持续性	-10.6473
要去	-10.6475
只需要	-10.6476
转到	-10.6476
为客户提供	-10.6477
贸发会议	-10.6478
社会主义	-10.6479
长达	-10.6483
轮胎	-10.6484
占用	-10.6484
罩	-10.6484
和美国	-10.6487
是一位	-10.6487
穿过	-10.6488
我们都	-10.649
乔	-10.649
下一步	-10.6492
积极参与	-10.6492
技术的	-10.6492
快照	-10.6492
演员	-10.6493
东南亚	-10.6493
高层	-10.6503
条文	-10.6503
打破	-10.6504
说服	-10.6506
指责	-10.6507
著名	-10.6508
众	-10.6509
特权	-10.6511
种类	-10.6515
不愿意	-10.6517
多达	-10.6519
达尔富尔	-10.6519
▁我能	-10.6522
ap	-10.6532
会议室	-10.6535
受影响	-10.6535
尊严	-10.6536
的生命	-10.6537
的事实	-10.6538
经典	-10.6538
几分钟	-10.6539
通胀	-10.6539
健康的	-10.654
的空间	-10.6543
负债	-10.6545
的程度	-10.6547
为基础的	-10.6548
时候	-10.6551
回去	-10.6553
它在	-10.6555
多样化	-10.6555
摄影	-10.656
▁什么是	-10.6561
的会议	-10.6563
管理者	-10.6564
▁特别报告员	-10.6564
你将	-10.6565
诗	-10.6566
的结构	-10.6567
这一切	-10.6576
香	-10.6577
之所以	-10.6579
脆弱	-10.6579
可以选择	-10.658
操作员	-10.658
注	-10.6582
我不	-10.6582
适配器	-10.6587
蛋糕	-10.6588
不超过	-10.6592
的方向	-10.6593
淡	-10.6594
非洲联盟	-10.6594
开展了	-10.6597
将不会	-10.6603
结束后	-10.6605
这些信息	-10.6608
开发署	-10.6608
杀死	-10.661
是中国	-10.6613
所有权	-10.6614
▁如果在	-10.6614
06	-10.6615
09	-10.6617
还必须	-10.6619
夏天	-10.6621
03	-10.6622
5>	-10.6624
据称	-10.6625
手中	-10.6626
解放	-10.6627
之一是	-10.6633
同等	-10.6633
窗户	-10.6638
磁带	-10.6639
生意	-10.664
▁我们需要	-10.6641
报酬	-10.6642
sc	-10.6642
可以帮助	-10.6646
载有	-10.6651
90%	-10.6652
▁26.	-10.6656
的规则	-10.666
来的	-10.6661
国家安全	-10.6661
▁截至	-10.6661
奖金	-10.6664
铺	-10.6671
"、"	-10.6671
触摸	-10.6673
垫	-10.6674
监察	-10.6677
出租车	-10.6678
双重	-10.668
▁25.	-10.668
上下文	-10.6682
▁这位	-10.6682
豁免	-10.6682
抽	-10.6686
机票	-10.6687
▁或许	-10.669
态	-10.6691
本公司	-10.6692
数据集	-10.6697
看到了	-10.6698
人民的	-10.6698
的传统	-10.6699
的两个	-10.6706
款项	-10.6709
的关注	-10.6711
将这些	-10.6714
突破	-10.6716
联机	-10.6717
控制系统	-10.6719
错了	-10.672
钢铁	-10.6722
镜	-10.6722
▁可是	-10.6722
生产商	-10.6724
处置	-10.6726
▁我有	-10.6728
▁让我	-10.6729
▁按	-10.6732
▁24.	-10.6733
经济和社会	-10.6741
谋杀	-10.6742
哪种	-10.6744
煤	-10.6744
冬季	-10.6746
健身	-10.6748
要在	-10.6749
息	-10.6753
啦	-10.6754
影像	-10.6757
第五	-10.6758
一贯	-10.6758
并使	-10.676
拟议	-10.6761
所谓	-10.6761
尼亚	-10.6762
域名	-10.6765
别的	-10.6767
句	-10.6767
沙特阿拉伯	-10.6773
友	-10.6775
对他	-10.6775
帮我	-10.6776
环节	-10.6777
合规	-10.6778
在本	-10.678
区的	-10.6785
配偶	-10.6789
对中国	-10.6789
会自动	-10.679
专家组	-10.6794
著	-10.6795
的培训	-10.6796
宝宝	-10.68
▁60	-10.68
讨厌	-10.6805
元数据	-10.6806
一个国家	-10.6808
▁会议	-10.681
或在	-10.6812
一本	-10.6816
英特尔	-10.6816
条第	-10.6823
▁她说	-10.6824
▁以下	-10.6824
有限的	-10.6825
幸运	-10.6825
开采	-10.6826
度假村	-10.6829
96	-10.683
的例子	-10.6832
新增	-10.6832
由此	-10.6834
大学生	-10.6834
毫米	-10.6835
行事	-10.6839
对外	-10.684
我喜欢	-10.684
恶意	-10.6842
国内外	-10.6842
成为了	-10.6844
评	-10.6845
的性质	-10.6845
驱逐	-10.6846
=	-10.6847
变为	-10.6849
详细的	-10.6852
佳	-10.6852
流离失所	-10.6852
延	-10.6854
影响力	-10.6855
信息和	-10.6859
不满	-10.6861
是以	-10.6864
&	-10.6867
全新的	-10.6869
04	-10.687
静态	-10.6873
助	-10.6874
债权人	-10.6876
了我	-10.6877
各种各样的	-10.6879
义	-10.6883
有任何	-10.6885
干事	-10.6887
今晚	-10.6888
经历了	-10.6888
舞蹈	-10.6889
可再生能源	-10.6889
可持续的	-10.6892
的生产	-10.6893
构造	-10.6893
疗法	-10.6894
阿塞拜疆	-10.6896
的特殊	-10.6897
文件的	-10.6899
漂亮	-10.6901
在同一	-10.6902
大力	-10.6902
th	-10.6903
迈	-10.6905
的状况	-10.6905
▁英寸	-10.6906
另	-10.691
而在	-10.691
的链接	-10.6912
cs	-10.6912
发展和	-10.6913
隆	-10.6914
群岛	-10.6914
周一	-10.6917
法律规定	-10.6923
努	-10.6923
卡尔	-10.6925
开车	-10.6928
的市场	-10.6931
只有在	-10.6933
使之	-10.6935
的商业	-10.6936
连接器	-10.6939
▁我国	-10.6942
刺	-10.6944
衰退	-10.6945
笔记本电脑	-10.6945
星期一	-10.6949
挑选	-10.695
截至	-10.695
我们还	-10.6953
我没有	-10.6954
▁除非	-10.6954
可视化	-10.6956
干净	-10.6956
明星	-10.6957
-3	-10.6958
▁当我们	-10.6958
氧	-10.6959
下一	-10.6963
拓展	-10.6963
哭	-10.6966
关联的	-10.6966
高中	-10.697
▁27.	-10.6973
ed	-10.6973
可是	-10.6975
稍后	-10.6977
过的	-10.6977
约会	-10.6979
误	-10.6985
的另一个	-10.6985
罚款	-10.6985
两者	-10.6986
设备和	-10.6988
法律和	-10.6989
氧化	-10.699
凡	-10.6992
60%	-10.6994
仿真	-10.6996
缩放	-10.6997
工作流	-10.6997
汤姆	-10.6998
滑雪	-10.6999
色情	-10.7
下次	-10.7001
分组	-10.7002
会对	-10.7004
泽	-10.7006
cc	-10.7008
刷	-10.7008
决策者	-10.701
▁印度	-10.7013
光线	-10.7017
光学	-10.7017
顶部	-10.702
那就是	-10.7021
▁你在	-10.7022
的案件	-10.7025
然后再	-10.7026
杀害	-10.7029
▁加拿大	-10.7031
ac	-10.7031
计划的	-10.7032
的权力	-10.7033
吃饭	-10.7033
强调了	-10.7033
斯里兰卡	-10.7034
将使	-10.7034
女童	-10.7036
▁o	-10.7037
交给	-10.7037
这两种	-10.704
没有人	-10.7041
居住在	-10.7041
这么多	-10.7042
祈祷	-10.7044
创造了	-10.7044
场地	-10.7044
电子邮件地址	-10.7046
岩	-10.705
耶稣	-10.7055
研究表明	-10.7056
每种	-10.7057
钟	-10.7058
年间	-10.7059
喷	-10.7063
我们也	-10.707
我们应该	-10.707
间隔	-10.7072
▁另一个	-10.7074
▁其实	-10.7079
均可	-10.7082
儿童的	-10.7083
永远不会	-10.7084
甜	-10.7084
剂量	-10.7085
的交易	-10.7086
pe	-10.7088
约有	-10.7088
演出	-10.709
层次	-10.709
规定了	-10.709
频道	-10.7091
安静	-10.7091
数值	-10.7091
以避免	-10.7092
缺	-10.7093
公斤	-10.7095
近年来	-10.7096
用户可以	-10.7096
ho	-10.7099
校园	-10.7104
波斯尼亚和黑塞哥维那	-10.7105
较大的	-10.7106
#	-10.7109
保安	-10.7112
评级	-10.7113
顺	-10.7115
一片	-10.7116
流动性	-10.7117
积累	-10.7118
毕业	-10.7118
群集	-10.7119
对策	-10.7121
更多地	-10.7127
▁卡	-10.7127
宣称	-10.7128
氏	-10.7129
达到了	-10.713
石头	-10.7131
▁你觉得	-10.7131
把你	-10.7131
糖尿病	-10.7134
ha	-10.7141
你想	-10.7147
ts	-10.715
▁pc	-10.7151
促销	-10.7154
▁世界	-10.7154
生产的	-10.7154
需要在	-10.7154
试着	-10.7154
的进程	-10.7155
rs	-10.7155
▁当前	-10.7157
之际	-10.7158
不利	-10.7158
提交的	-10.7158
多名	-10.7161
愉快	-10.7163
友谊	-10.7164
振动	-10.7164
进而	-10.7169
服用	-10.7172
有多少	-10.7172
▁u	-10.7176
上传	-10.7177
到期	-10.7178
阐述	-10.7183
蛋	-10.7187
在我	-10.719
好了	-10.7191
1.5	-10.7193
六个	-10.7193
风景	-10.7193
还应	-10.7199
罗马尼亚	-10.72
允许您	-10.7201
文化和	-10.7204
现状	-10.7205
▁我需要	-10.7209
得不到	-10.7209
冠军	-10.721
当选	-10.7212
学家	-10.7212
的表现	-10.7214
水资源	-10.7216
▁这次	-10.7217
就业机会	-10.7218
将有助于	-10.7218
王国	-10.7219
私	-10.722
私营	-10.7225
更有	-10.7225
地说	-10.7226
辆	-10.7226
等领域	-10.7227
以防止	-10.7229
▁在这里	-10.723
彩色	-10.7231
所有其他	-10.7233
届会议	-10.7234
安全问题	-10.7237
教科文组织	-10.7239
入口	-10.7241
70%	-10.7242
羊	-10.7246
培训和	-10.7249
分析和	-10.7254
医药	-10.7255
一生	-10.7255
等问题	-10.7256
必	-10.7257
洛杉矶	-10.7259
流入	-10.726
在纽约	-10.7261
在这些	-10.7261
行驶	-10.7263
全球性	-10.7267
回归	-10.7267
人力	-10.7268
客厅	-10.7268
指挥	-10.7271
▁米	-10.7272
的计算机	-10.7274
静	-10.7276
地方政府	-10.7276
回忆	-10.7278
偿还	-10.7279
多元化	-10.7281
恶	-10.7282
对象的	-10.7285
分裂	-10.729
表达式	-10.7291
拍卖	-10.7293
▁我不想	-10.7296
壁	-10.7297
ex	-10.7297
碎	-10.7301
▁以色列	-10.7301
作为一种	-10.7303
你的孩子	-10.7304
▁还	-10.7304
的特点	-10.7307
▁28.	-10.7311
一个月	-10.7312
考察	-10.7312
▁2001	-10.7319
说明了	-10.7322
干什么	-10.7324
250	-10.733
120	-10.7331
的机构	-10.7332
很多人	-10.7333
着重	-10.7333
基础结构	-10.7334
不幸	-10.7335
提供有关	-10.7336
订立	-10.7337
暗示	-10.7342
是要	-10.7342
可行	-10.7343
社会经济	-10.7343
理想的	-10.7346
的水	-10.7348
尤	-10.735
灵	-10.735
在我们	-10.7351
也就是	-10.7351
去做	-10.7352
放大	-10.7356
失业率	-10.7357
不断地	-10.7358
荣誉	-10.7359
会晤	-10.736
所选	-10.7365
封锁	-10.7369
迷	-10.737
已知	-10.7371
的类型	-10.7372
管理器	-10.7372
莎	-10.7373
案文	-10.7375
抓	-10.7378
名为	-10.7379
控制台	-10.7379
划分	-10.738
▁他还	-10.7381
蒸汽	-10.7381
很小	-10.7383
受益	-10.7386
让她	-10.7389
央行	-10.7389
▁我现在	-10.739
69	-10.7391
冬天	-10.7392
安装在	-10.7397
有义务	-10.7399
影响的	-10.7399
辩护	-10.7399
合适	-10.7401
国内生产总值	-10.7402
隔	-10.7405
15%	-10.7413
烟草	-10.7413
计数	-10.7414
炸弹	-10.7415
计算机上	-10.7419
十五	-10.7419
会产生	-10.742
暴	-10.742
此事	-10.7421
动荡	-10.7423
兼容	-10.7424
奈	-10.7425
零售商	-10.7426
诉	-10.7427
立刻	-10.7429
的每个	-10.7429
的专业	-10.7429
接待	-10.743
酒精	-10.7433
过了	-10.7434
赞助	-10.7434
球队	-10.7434
哥	-10.7437
维持和平行动	-10.7438
时钟	-10.7439
修理	-10.7439
国际机场	-10.744
通常会	-10.7441
是如此	-10.7442
备	-10.7442
ka	-10.7444
方针	-10.7444
粘	-10.7445
学生们	-10.7446
发电	-10.7446
餐饮	-10.7447
备用	-10.7448
潮	-10.7448
区域的	-10.7452
项目中	-10.7452
支援	-10.7455
已经开始	-10.7456
两位	-10.7459
弹药	-10.7461
表决	-10.7461
右侧	-10.7463
语文	-10.7463
塞尔维亚	-10.7467
灰色	-10.7467
ad	-10.7469
大学的	-10.747
烹饪	-10.7471
在你的	-10.7473
的第一	-10.7473
蔓延	-10.7474
两项	-10.7476
共同努力	-10.7476
感兴趣的	-10.7476
▁否则	-10.7482
可能性	-10.7486
通货膨胀	-10.7487
种族主义	-10.749
专员	-10.7493
特别代表	-10.75
最终用户	-10.7502
▁29.	-10.7507
弥补	-10.751
堆	-10.7511
十分重要	-10.7513
第三个	-10.7514
的职责	-10.7516
的教育	-10.7517
绝大多数	-10.752
灵活的	-10.7521
演	-10.7521
▁22	-10.7522
了他	-10.7523
可怕的	-10.7523
护	-10.7524
定义的	-10.7525
录音	-10.7528
▁api	-10.753
欺骗	-10.7534
面试	-10.7537
邮箱	-10.7538
如果我们	-10.7539
审批	-10.7541
并且在	-10.7543
平静	-10.7547
一百	-10.7547
医疗保健	-10.7549
不安	-10.7549
肿瘤	-10.755
il	-10.755
键入	-10.7554
撒	-10.7554
世界各地的	-10.7555
发布的	-10.7562
选项卡	-10.7563
net	-10.7566
▁近年来	-10.7566
卖方	-10.7566
忘了	-10.7568
委员	-10.7568
巴勒斯坦人民	-10.7568
参	-10.757
查阅	-10.7574
那时	-10.7577
▁200	-10.7579
科研	-10.758
旁边	-10.7581
公告	-10.7582
死亡率	-10.7585
马里	-10.7586
出色	-10.7586
稍	-10.7588
乔治	-10.7588
增长率	-10.7589
悉尼	-10.7596
高质量	-10.7598
工作中	-10.7601
她说	-10.7603
偷	-10.7603
反映出	-10.7604
和维护	-10.7606
典型的	-10.7611
的好处	-10.7612
可以是	-10.7614
提供援助	-10.7615
的兴趣	-10.7615
方法是	-10.7616
pa	-10.7619
我们希望	-10.762
宫	-10.7621
小于	-10.7622
有所不同	-10.7627
拖延	-10.7633
售	-10.7633
传真	-10.7633
账	-10.7634
来自于	-10.7636
不希望	-10.7639
ii	-10.764
棒	-10.764
遗产	-10.7641
可能的	-10.7641
星期六	-10.7643
可以为	-10.7644
61	-10.7647
积分	-10.7647
席位	-10.7648
本来	-10.765
焦	-10.7651
▁下午	-10.7652
三维	-10.7655
长大	-10.7656
仅仅是	-10.7658
计量	-10.766
环境保护	-10.7661
基督教	-10.7662
拨	-10.7664
▁考虑到	-10.7669
您可能	-10.7671
的最后	-10.7671
的意义	-10.7673
的调查	-10.7673
素质	-10.7676
以及如何	-10.7676
沙漠	-10.7678
任职	-10.7678
所以我	-10.7679
▁主要	-10.768
你应该	-10.7687
将对	-10.7688
估算	-10.769
塔利班	-10.769
强制性	-10.7692
剩余	-10.7695
仍有	-10.7695
▁30.	-10.7699
和你	-10.77
ni	-10.7704
柜	-10.7705
联合国宪章	-10.7708
与客户	-10.7709
▁其次	-10.7713
强有力的	-10.7716
斗	-10.772
所得	-10.7722
这家	-10.7723
常见的	-10.7723
▁应	-10.7724
复合	-10.7725
欲	-10.7726
天堂	-10.7727
-4	-10.7728
上网	-10.7728
et	-10.7732
露台	-10.7732
原来	-10.7735
产品和服务	-10.7737
和执行	-10.7737
无疑	-10.7738
离开了	-10.774
扬声器	-10.7743
无关	-10.7745
物资	-10.7745
为什么要	-10.7747
▁一位	-10.7751
防火墙	-10.7754
用以	-10.7757
有没有	-10.7758
中小企业	-10.7765
使用该	-10.7768
▁应用程序	-10.7769
续	-10.777
美联储	-10.7775
在他	-10.7775
摄像头	-10.7777
绑架	-10.7778
为我们	-10.778
设立一个	-10.7781
▁microsoft	-10.7781
可以用	-10.7782
上周	-10.7784
信息系统	-10.7787
那天	-10.7788
河流	-10.7788
慈善	-10.779
起到	-10.779
最具	-10.7796
城堡	-10.7796
5><	-10.7796
设在	-10.7797
交货	-10.7799
滚动	-10.7799
脱离	-10.7801
短信	-10.7802
了他的	-10.7805
79	-10.7808
白俄罗斯	-10.7808
接受了	-10.7809
癌	-10.781
厄立特里亚	-10.7813
个小时	-10.782
阶层	-10.7821
▁希望	-10.7821
火箭	-10.7821
干旱	-10.7822
采	-10.7827
违反了	-10.7827
海军	-10.783
维度	-10.7832
露	-10.7833
风险管理	-10.7833
请使用	-10.7836
阐明	-10.7839
▁德国	-10.784
透	-10.7845
的系统	-10.7849
的现象	-10.7851
我不能	-10.7852
度过	-10.7856
▁我只是	-10.7859
在香港	-10.786
英镑	-10.786
六个月	-10.7861
装配	-10.7861
养恤金	-10.7861
倾向	-10.7862
借助	-10.7864
▁谢谢你	-10.7867
所说的	-10.7869
业界	-10.7869
最佳的	-10.7871
珠宝	-10.7875
报警	-10.7876
下滑	-10.7877
增加到	-10.7881
美好	-10.7882
都不	-10.7882
如何使用	-10.7882
族裔	-10.7884
媒介	-10.7884
一个小	-10.7889
参照	-10.7889
政府机构	-10.7891
过去的	-10.7891
引渡	-10.7892
几次	-10.7893
船只	-10.7893
形成了	-10.7895
滴	-10.7895
周围的	-10.7898
这个国家	-10.7899
粮农组织	-10.7901
英格兰	-10.7901
甚	-10.7901
说道	-10.7902
的作品	-10.7903
马克	-10.7903
与之	-10.7904
它可以	-10.7904
怀	-10.7906
▁欧洲	-10.7908
则会	-10.7909
97	-10.791
宝石	-10.7917
的整体	-10.792
跳舞	-10.792
的潜在	-10.7925
招募	-10.7927
代价	-10.793
▁#	-10.7931
捕捉	-10.7931
呼	-10.7931
组织和	-10.7934
较低的	-10.7935
之上	-10.7936
灵魂	-10.7936
买了	-10.7941
框架内	-10.7943
废	-10.7943
将显示	-10.7944
化的	-10.7948
正当	-10.7954
视察	-10.7954
拿到	-10.7964
在欧洲	-10.7965
集中在	-10.7965
适用的	-10.7968
动机	-10.7968
以前的	-10.797
可能有	-10.7971
2.5	-10.7972
世卫组织	-10.7972
哪里	-10.7974
变得更加	-10.7975
年开始	-10.7978
次会议	-10.7979
的总体	-10.798
给了	-10.7982
骚扰	-10.7984
给他们	-10.7985
开展工作	-10.7985
岩石	-10.7987
可为	-10.7987
善	-10.799
从一个	-10.7993
成年人	-10.7993
亚美尼亚	-10.7994
周日	-10.7997
的参与	-10.7997
地中海	-10.7998
那儿	-10.7998
的理想	-10.7999
帝国	-10.8004
委	-10.8005
激烈	-10.8005
和分析	-10.8009
探	-10.8009
生活方式	-10.8011
显示屏	-10.8017
免费的	-10.8019
职员	-10.8021
的内部	-10.8022
外面	-10.8023
另一方面	-10.8024
派遣	-10.8025
也不能	-10.8027
帮忙	-10.8027
股份	-10.8028
显示出	-10.8029
承包商	-10.8031
危地马拉	-10.8031
超过了	-10.8033
认同	-10.8033
的各个	-10.8034
存档	-10.8035
猪	-10.8035
所面临的	-10.8037
来实现	-10.804
取得进展	-10.8045
秘书	-10.8045
填补	-10.8046
围	-10.8046
激发	-10.8047
模式下	-10.8047
合格	-10.8048
深圳	-10.8051
潜水	-10.8056
削弱	-10.8061
国有	-10.8062
暴力行为	-10.8062
的共同	-10.8062
帮助我们	-10.8063
卓越	-10.8066
征聘	-10.8066
时光	-10.8066
以此	-10.8068
注射	-10.8069
帮你	-10.807
左侧	-10.8072
89	-10.8077
支票	-10.8078
发挥作用	-10.8078
%	-10.8078
不可用	-10.8081
1980	-10.8087
国防	-10.8089
通话	-10.8089
咨询委员会	-10.809
创造性	-10.8091
当天	-10.8093
向您	-10.8093
收件人	-10.8095
辛	-10.8096
领导者	-10.8098
文献	-10.8099
说他	-10.8104
不当	-10.8106
稿	-10.8108
光盘	-10.811
我的朋友	-10.8111
砂	-10.8112
维持和平	-10.8117
效	-10.8118
宽度	-10.8118
颁布	-10.8119
邮	-10.8122
贩卖	-10.8124
▁澳大利亚	-10.8126
江	-10.8127
▁下面	-10.8134
损伤	-10.8135
签	-10.8135
戏	-10.8138
日元	-10.814
各自的	-10.8141
饭	-10.8142
故意	-10.8143
之时	-10.8146
电动	-10.8148
▁什么	-10.8151
方案的	-10.8152
支柱	-10.8152
见解	-10.8152
什么是	-10.8153
遗传	-10.8157
耳机	-10.8157
输	-10.8159
▁服务器	-10.8159
87	-10.8159
触	-10.816
no	-10.8163
时机	-10.8164
信息的	-10.8165
网站的	-10.8168
的进展	-10.8169
▁我没有	-10.817
的手段	-10.817
理性	-10.817
使用这些	-10.8173
▁url	-10.8173
城市的	-10.8175
数据库中	-10.8175
采集	-10.8175
确定了	-10.8176
无限	-10.8177
周边	-10.8177
主页	-10.8179
但没有	-10.8179
的房子	-10.8181
抵抗	-10.8183
蒙古	-10.8185
阿尔及利亚	-10.8188
精力	-10.8188
有意	-10.8189
74	-10.8189
每天都	-10.8194
ie	-10.8195
ne	-10.82
赢得了	-10.8204
5000	-10.8205
申报	-10.8207
圣诞节	-10.8208
宝贵的	-10.8209
政府间	-10.821
的错误	-10.8211
纸张	-10.8212
人道主义援助	-10.8215
欧元区	-10.8215
因为你	-10.8215
深刻	-10.8218
突尼斯	-10.8218
正面	-10.822
耐心	-10.8221
专为	-10.8221
但他们	-10.8222
出来的	-10.8223
的条款	-10.8223
焊接	-10.8225
壳	-10.8225
剥夺	-10.8225
导致了	-10.8226
的身体	-10.8227
本报告	-10.8228
▁我们已经	-10.823
见面	-10.8231
分析了	-10.8234
的必要性	-10.8236
▁无法	-10.8236
的分析	-10.8239
继	-10.8244
幕	-10.8244
汽油	-10.8248
剪辑	-10.8249
多么	-10.8249
收藏	-10.8249
他们将	-10.825
的成果	-10.8251
钻	-10.8256
播	-10.8256
此前	-10.8256
我们的客户	-10.826
课题	-10.8262
探测	-10.8263
孤独	-10.8266
地板	-10.8272
反复	-10.8272
应用程序中	-10.8273
供给	-10.8273
槽	-10.8274
开设	-10.8274
倡导	-10.8277
▁31.	-10.8277
外交部	-10.8279
dr	-10.8279
不是吗	-10.8281
如果我	-10.8283
▁23	-10.8286
▁借助	-10.829
合作关系	-10.829
▁客户	-10.8291
的电子邮件	-10.8292
五十	-10.8293
索赔人	-10.8297
零部件	-10.8298
政府和	-10.8299
内地	-10.8299
真空	-10.83
▁马	-10.8302
注入	-10.8304
其他地方	-10.8309
紧急情况	-10.8309
就此	-10.831
但也	-10.8311
后勤	-10.8314
孟加拉国	-10.8316
营地	-10.8317
很有	-10.832
重叠	-10.832
使我	-10.8322
电梯	-10.8327
引起了	-10.8328
与你	-10.8331
兑换	-10.8333
嘴	-10.8333
表中	-10.8336
选择了	-10.8338
▁azure	-10.8339
73	-10.834
消	-10.8342
权威	-10.8342
▁于是	-10.8342
级别的	-10.8343
橡胶	-10.8344
现时	-10.8346
亿美元的	-10.8346
基础架构	-10.8348
才是	-10.8348
倾向于	-10.8348
必须是	-10.8349
我很	-10.8349
的材料	-10.835
演变	-10.835
侵犯人权	-10.8354
匿名	-10.8358
没收	-10.8359
在学校	-10.8363
委会	-10.8363
一个新	-10.8364
地域	-10.8365
当您	-10.8366
底部	-10.8368
浮	-10.8369
su	-10.8369
数字化	-10.837
ja	-10.837
两天	-10.8373
有一种	-10.8378
农村地区	-10.8378
op	-10.838
的高	-10.838
▁尽管如此	-10.8381
和保护	-10.8381
纪律	-10.8382
将从	-10.8382
分数	-10.8384
磅	-10.8385
使用此	-10.8385
原子	-10.8387
都很	-10.839
学位	-10.8391
政府在	-10.8392
摩托车	-10.8392
与我们	-10.8393
可疑	-10.8394
朋友们	-10.8394
是根据	-10.8398
会影响	-10.8399
这方面	-10.84
-8	-10.84
附带	-10.8403
筛选器	-10.8403
ge	-10.8406
的图像	-10.8408
正在进行	-10.8408
的道路	-10.841
裂	-10.8414
帮助你	-10.8414
所产生的	-10.8414
做出了	-10.8418
行为的	-10.842
艰难	-10.8422
000	-10.8422
暴露	-10.8424
好好	-10.8424
有些人	-10.8424
画面	-10.8428
真理	-10.843
最佳做法	-10.843
但不	-10.8435
新兴市场	-10.8435
的后果	-10.8437
将近	-10.8437
开会	-10.8439
宏	-10.8439
者和	-10.8439
如同	-10.8441
堂	-10.8442
规划和	-10.8444
去看	-10.8444
直升机	-10.8444
所带来的	-10.8445
活动中	-10.8446
韩	-10.8449
气象	-10.845
周六	-10.8453
申诉人	-10.8457
以提高	-10.8457
进来	-10.8457
粗	-10.8461
这两	-10.8461
基本的	-10.8461
ing	-10.8462
同时还	-10.8464
一词	-10.8465
不但	-10.8471
他就	-10.8472
北方	-10.8472
保加利亚	-10.8473
火灾	-10.8474
校准	-10.8476
会上	-10.8479
技术人员	-10.848
大西洋	-10.848
▁我知道你	-10.8482
卫	-10.8482
so	-10.8483
配额	-10.8483
他们对	-10.8484
有兴趣	-10.8486
制约	-10.8486
去除	-10.8488
跨越	-10.8489
给您	-10.8495
▁比如	-10.8495
资讯	-10.8496
检讨	-10.8497
剥削	-10.8497
码头	-10.8497
无数	-10.8499
废除	-10.85
发言者	-10.85
不支持	-10.8505
▁我很	-10.8508
bi	-10.8513
仍是	-10.8515
陈	-10.8515
高科技	-10.8516
图案	-10.8519
重要性	-10.8521
原材料	-10.8524
斯洛伐克	-10.8524
信托基金	-10.8527
屏	-10.8529
交易所	-10.8531
三个月	-10.8532
家园	-10.8532
团队成员	-10.8532
签订	-10.8532
焦点	-10.8533
奶	-10.8533
po	-10.8537
莫斯科	-10.8537
中的所有	-10.8539
和个人	-10.8543
以实现	-10.8544
扮演	-10.8551
输送	-10.8551
送到	-10.8555
武	-10.8556
▁法国	-10.8556
刻	-10.8557
暖	-10.8561
高质量的	-10.8563
金融市场	-10.8563
不同于	-10.8564
转化	-10.8564
完成后	-10.8569
能力和	-10.8573
就有	-10.8575
加州	-10.8575
▁接下来	-10.8577
斯坦	-10.858
▁是否	-10.8581
▁这不是	-10.8582
一般性	-10.8585
的思想	-10.8591
语法	-10.8593
极大的	-10.8594
世界经济	-10.8595
伴侣	-10.8596
的书	-10.8597
的权限	-10.8598
困境	-10.86
甘	-10.86
这种做法	-10.8601
的销售	-10.8601
准确的	-10.8601
累积	-10.8604
风扇	-10.8604
淋浴	-10.8604
怎么办	-10.8605
权利的	-10.8609
或其	-10.861
今	-10.8612
▁33.	-10.8612
▁秒	-10.8615
纠纷	-10.8615
时间和	-10.8615
mb	-10.8618
需求的	-10.8619
的全面	-10.8622
只有一个	-10.8622
长远	-10.8622
的最高	-10.8624
诊所	-10.8625
擦	-10.8628
哦	-10.8629
今天的	-10.863
闭	-10.8631
止	-10.8632
不少	-10.8632
国际标准	-10.8634
履行其	-10.8638
一定的	-10.8639
极大	-10.8639
首席执行官	-10.864
帮助他们	-10.864
排列	-10.8644
话题	-10.8645
的自由	-10.8648
热量	-10.8649
我相信	-10.865
的非	-10.865
愿望	-10.8655
了解到	-10.8655
告	-10.8656
专业人士	-10.8656
东道国	-10.8658
的资产	-10.8664
生育	-10.8665
每位	-10.8668
将由	-10.8671
平板电脑	-10.8678
日起	-10.8678
早晨	-10.8678
越多	-10.8683
租金	-10.8683
迪拜	-10.8683
为我	-10.8683
man	-10.8685
患有	-10.8685
发送给	-10.8687
以促进	-10.8688
奇怪	-10.8688
▁如果要	-10.8691
炮	-10.8692
采取的	-10.8694
戴尔	-10.8694
卖淫	-10.8695
我有	-10.87
的土地	-10.8703
宗旨	-10.8706
被捕	-10.8706
指明	-10.8708
有何	-10.872
――	-10.872
多样性	-10.8721
▁对不起	-10.8721
完善的	-10.8729
欠	-10.8732
星期二	-10.8733
迎接	-10.8734
缺点	-10.8736
志愿者	-10.874
摩	-10.874
▁我不能	-10.8741
大多数人	-10.8741
协同	-10.8742
浴缸	-10.8742
吹	-10.8743
(1	-10.8745
开心	-10.8747
促成	-10.8747
给她	-10.8751
少数群体	-10.8751
颗粒	-10.8752
粒子	-10.8753
办理	-10.8753
隧道	-10.8756
创立	-10.8759
指示灯	-10.8759
迟	-10.876
高校	-10.8761
策划	-10.8761
逐	-10.8762
▁q	-10.8768
世贸组织	-10.8769
研究中心	-10.877
最少	-10.877
代理人	-10.8771
并于	-10.8771
撞	-10.8772
整理	-10.8772
年后	-10.8773
使他	-10.8774
ir	-10.8776
这条	-10.8778
谋	-10.8778
而已	-10.878
消极	-10.878
比尔	-10.878
问我	-10.8781
将需要	-10.8782
中删除	-10.8783
服务器上	-10.8784
世界卫生组织	-10.8786
在北京	-10.8789
风暴	-10.8794
庇护	-10.8795
就不会	-10.8796
委员会成员	-10.8797
部落	-10.8798
替	-10.88
体积	-10.8801
的女孩	-10.8802
西班牙语	-10.8803
业主	-10.8804
举办了	-10.8804
的援助	-10.8807
过期	-10.8808
不一样	-10.8809
中所	-10.881
生成的	-10.8811
恶意软件	-10.8812
超市	-10.8812
医	-10.8816
▁让	-10.8816
拜	-10.8817
吊	-10.8818
买卖	-10.8819
系数	-10.882
洋	-10.882
▁约翰	-10.8822
高效的	-10.8823
奇迹	-10.8823
力度	-10.8824
更广泛的	-10.8825
清楚地	-10.883
精心	-10.883
为自己	-10.883
广州	-10.8832
在国际	-10.8833
错过	-10.8835
最适合	-10.8838
评分	-10.8839
刷新	-10.884
因为这	-10.8843
世界的	-10.8844
典型	-10.8848
珠	-10.8848
黑人	-10.8851
un	-10.8852
沙滩	-10.8853
em	-10.8853
汇报	-10.8853
干涉	-10.8854
的更多信息	-10.8856
向上	-10.8856
加强了	-10.8857
使命	-10.8858
在我们的	-10.8858
室外	-10.886
被认为	-10.8861
视角	-10.8862
志	-10.8862
一致性	-10.8868
体系结构	-10.887
ea	-10.887
买家	-10.8871
提供资金	-10.8874
▁34.	-10.8875
错误的	-10.8879
公共卫生	-10.888
形态	-10.888
作出决定	-10.8882
公共汽车	-10.8885
有意义的	-10.8887
规律	-10.8887
▁您还可以	-10.8889
一体	-10.8889
在任何	-10.889
迫切需要	-10.8899
绑定	-10.8899
的说法	-10.8901
▁本公司	-10.8902
签署了	-10.8904
的谈判	-10.8907
专门知识	-10.8909
市场营销	-10.8909
操纵	-10.891
重置	-10.891
住了	-10.8914
高管	-10.8914
▁至	-10.8916
习俗	-10.8917
充满了	-10.892
终	-10.8922
\	-10.8922
有时候	-10.8925
▁32.	-10.8926
▁usb	-10.8928
发表的	-10.8929
按下	-10.8929
妇女和儿童	-10.8929
股权	-10.8931
组建	-10.8932
数据源	-10.8932
意图	-10.8932
焦虑	-10.8933
收到了	-10.8933
0.0	-10.8934
「	-10.8934
新闻部	-10.8936
永	-10.8939
在英国	-10.8939
有益	-10.8939
年起	-10.8941
的步骤	-10.8946
供水	-10.8947
100%	-10.8947
於	-10.895
他们是	-10.895
的增加	-10.8951
但是我	-10.8952
春天	-10.8953
题	-10.8953
的受害者	-10.8953
生病	-10.8954
谢谢	-10.896
▁毫米	-10.896
累	-10.896
关键字	-10.896
上限	-10.8961
核实	-10.8964
技术合作	-10.8964
是吗	-10.8965
收到的	-10.8966
地铁	-10.8966
开发者	-10.8967
行星	-10.8968
正规	-10.8968
不一定	-10.8969
沿海	-10.897
示	-10.897
占据	-10.8971
维尔	-10.8973
口头	-10.8974
▁%	-10.8975
追	-10.8976
利益攸关方	-10.8977
补救	-10.8978
期货	-10.8979
大的	-10.8981
做过	-10.8981
一次性	-10.8984
be	-10.8984
夫妇	-10.8986
堡	-10.8986
强烈的	-10.8987
女子	-10.8989
一所	-10.8991
ol	-10.8992
的决议	-10.8992
协调员	-10.8995
液压	-10.8995
便宜	-10.8998
偏见	-10.9
移植	-10.9001
赤字	-10.9002
走进	-10.9003
悲剧	-10.9003
机构和	-10.9005
岸	-10.9006
我们能	-10.9011
数组	-10.9014
残	-10.9014
显	-10.9014
已完成	-10.9017
重要的是	-10.9019
的列表	-10.902
星期四	-10.902
作出的	-10.9022
将该	-10.9025
利亚	-10.9026
亲自	-10.9027
坚信	-10.9028
会显示	-10.9029
一流的	-10.903
在您的	-10.9031
成本效益	-10.9031
有足够的	-10.9034
收回	-10.9039
不必要的	-10.9043
高端	-10.9044
臂	-10.9045
菜肴	-10.9046
商人	-10.9047
颁发	-10.9047
▁直到	-10.9047
供电	-10.9049
一件事	-10.9049
轨	-10.905
挖掘	-10.905
▁以下是	-10.9053
微型	-10.9057
玛丽	-10.9058
各地	-10.9059
与中国	-10.9061
这对	-10.9062
向你	-10.9063
制动	-10.9066
礼品	-10.9066
腐蚀	-10.9071
保险公司	-10.9072
大规模毁灭性武器	-10.9076
章节	-10.9076
所造成的	-10.9077
眼镜	-10.9078
美元的	-10.9079
知道你	-10.9082
维也纳	-10.9082
▁美元	-10.9083
芝加哥	-10.9085
悲伤	-10.9085
柏林	-10.9087
是正确的	-10.9091
惊人的	-10.9092
cl	-10.9093
转化为	-10.9094
个性	-10.9097
了一项	-10.9097
对妇女	-10.9099
▁仅	-10.9099
祝贺	-10.91
的房间	-10.91
东盟	-10.91
sm	-10.9101
一些人	-10.9101
增大	-10.9102
与联合国	-10.9103
第六	-10.9103
spa	-10.9107
你有	-10.911
采矿	-10.9114
家庭成员	-10.9115
此问题	-10.9116
机构间	-10.9117
报告的	-10.9119
桥梁	-10.912
传达	-10.912
▁妈妈	-10.9124
销售额	-10.9124
安置	-10.9124
▁你应该	-10.9126
热点	-10.9127
cd	-10.9132
专业知识	-10.9133
天内	-10.9135
可能无法	-10.9136
卓越的	-10.9138
达成协议	-10.9139
考验	-10.9139
流通	-10.9142
的改革	-10.9143
兴	-10.9144
▁我将	-10.9145
定居点	-10.9146
咖啡馆	-10.9151
周二	-10.9153
发表了	-10.9157
房价	-10.9158
坦	-10.9158
▁像	-10.9169
一笔	-10.9171
并行	-10.9175
材	-10.9175
必需	-10.9175
照料	-10.9177
▁您可以在	-10.9177
在您	-10.9179
可以提供	-10.9179
举办的	-10.918
抢	-10.918
难民专员办事处	-10.9184
当作	-10.9186
对他们	-10.9188
侵害	-10.9188
大韩民国	-10.9191
生气	-10.9191
这点	-10.9194
坚决	-10.9194
厂商	-10.9195
几种	-10.9195
势头	-10.9196
智	-10.9197
同学	-10.9198
听说	-10.92
金融服务	-10.92
同性恋	-10.92
作战	-10.9201
家伙	-10.9201
酶	-10.9204
大气	-10.9204
扔	-10.9205
歌曲	-10.9205
这些活动	-10.9206
局部	-10.9207
真实的	-10.9209
84	-10.9211
债	-10.9212
您可以在	-10.9212
科目	-10.9214
移交	-10.9214
酒店的	-10.9216
兴奋	-10.9219
这个世界	-10.922
乐趣	-10.922
初级	-10.922
也要	-10.9223
▁来自	-10.9223
的执行	-10.9224
led	-10.9226
会将	-10.9227
地理位置	-10.9229
和国家	-10.9229
的联系	-10.9229
▁昨天	-10.923
可能会导致	-10.9231
▁后来	-10.9233
son	-10.9235
各方面	-10.9235
正常的	-10.9236
在哪儿	-10.9236
印尼	-10.9239
an	-10.9239
开发和	-10.9243
传染	-10.9243
的视频	-10.9244
的效率	-10.9245
桌子	-10.9246
促请	-10.9246
收获	-10.9246
洪水	-10.9254
的预算	-10.9256
▁mm	-10.9259
幅度	-10.9259
看过	-10.9259
自身的	-10.9261
克拉	-10.9261
消防	-10.9263
侧重于	-10.9265
灯光	-10.9266
涂	-10.9267
我们有	-10.9271
个案	-10.9272
社会服务	-10.9273
储	-10.9273
帐	-10.9273
ar	-10.9274
▁无	-10.9276
和使用	-10.9276
必须要	-10.9276
抽象	-10.9279
▁好的	-10.9282
我们的产品	-10.9282
星期三	-10.9284
的客人	-10.9285
1989	-10.9285
动员	-10.929
将它们	-10.9291
▁那你	-10.9291
研究和	-10.9291
高压	-10.9292
和环境	-10.9295
饭店	-10.9296
古代	-10.9297
天线	-10.9297
妥善	-10.9297
pi	-10.9297
滚	-10.9298
82	-10.93
二氧化碳	-10.93
这么说	-10.93
▁某些	-10.9301
厄瓜多尔	-10.9301
主导	-10.9302
变成了	-10.9302
雾	-10.9303
▁所有的	-10.9303
已经被	-10.9303
棉	-10.9303
可能在	-10.9304
配备了	-10.9305
的立法	-10.931
应用到	-10.9313
▁客人可以在	-10.9313
中心的	-10.9317
和经济	-10.9317
绘画	-10.932
分解	-10.9324
)(	-10.9325
印象	-10.9326
dna	-10.9326
▁很多	-10.9327
虽	-10.9329
周五	-10.933
的开发	-10.9331
大厦	-10.9331
长期的	-10.9332
进行调查	-10.9336
并以	-10.9337
▁35.	-10.934
开拓	-10.934
多媒体	-10.934
填	-10.9347
功	-10.9347
些什么	-10.9348
该计划	-10.9349
涨	-10.9353
线性	-10.9354
在其他	-10.9354
在家	-10.9357
过境	-10.9358
历史记录	-10.9358
集会	-10.936
电台	-10.9362
摧毁	-10.9365
用餐	-10.9365
附	-10.9367
的日期	-10.9368
埋	-10.9368
本周	-10.937
困扰	-10.937
的重大	-10.9371
感情	-10.9371
举报	-10.9373
▁秘书长	-10.9376
撰写	-10.9376
谱	-10.9378
积	-10.9378
洗钱	-10.9379
是基于	-10.938
蓝牙	-10.9382
布什	-10.9382
ee	-10.9384
对应	-10.9384
▁谢谢	-10.9384
冰岛	-10.9387
孤立	-10.9391
予	-10.9395
未成年人	-10.9395
炎	-10.9397
火车站	-10.9398
不公平	-10.94
fa	-10.94
春	-10.9402
公共部门	-10.9403
在执行	-10.9403
负面	-10.9405
配方	-10.9406
浪漫	-10.9407
,“	-10.9408
TM	-10.9408
符	-10.9408
多家	-10.9409
咨询服务	-10.941
统计数据	-10.9412
源代码	-10.9413
的衣服	-10.9414
活性	-10.9414
监视器	-10.9415
的综合	-10.9415
一批	-10.9418
中等	-10.9419
总量	-10.9423
化工	-10.9425
阈值	-10.9426
sd	-10.9428
阻	-10.9433
巨	-10.9435
▁在我	-10.9435
开展的	-10.9438
还没	-10.9439
存在于	-10.9443
规章	-10.9444
业务流程	-10.9444
以支持	-10.9444
防治	-10.9446
麻	-10.9447
问责制	-10.9448
退款	-10.9449
岛上	-10.9451
发生变化	-10.9456
的访问	-10.9456
▁在这	-10.9456
包含在	-10.9457
把他们	-10.9457
器官	-10.9458
峰会	-10.9458
哈萨克斯坦	-10.9462
词汇	-10.9463
信誉	-10.9465
圣诞	-10.9465
加纳	-10.9472
快捷	-10.9472
的日子	-10.9474
-6	-10.9476
委内瑞拉	-10.9478
和非政府组织	-10.948
把握	-10.9481
故	-10.9482
加勒比	-10.9485
的数目	-10.9488
看不到	-10.9491
io	-10.9495
捷克共和国	-10.9497
教室	-10.9499
▁显然	-10.9499
曾在	-10.95
聚合	-10.9501
▁36.	-10.9502
财务报表	-10.9502
渲染	-10.9504
参与了	-10.9505
有价值的	-10.9505
前所未有的	-10.9506
▁在我们	-10.9508
优点	-10.951
树木	-10.951
产品质量	-10.951
数据包	-10.9512
温暖	-10.9513
这不是	-10.9517
多年来	-10.9518
调试	-10.9518
北约	-10.952
周年	-10.9524
锡	-10.9526
接下来	-10.9529
邻居	-10.9532
亲爱的	-10.9534
根本不	-10.9536
任何地方	-10.954
网址	-10.9541
没什么	-10.9546
束	-10.9546
没有得到	-10.9547
延误	-10.9548
▁汤姆	-10.9548
一个问题	-10.9552
座椅	-10.9555
开办	-10.9556
接到	-10.9558
泥	-10.9558
应用中	-10.9561
违约	-10.9561
强劲	-10.9562
▁当时	-10.957
总共	-10.9571
介入	-10.9572
实施的	-10.9575
犹太人	-10.9576
该问题	-10.9577
设立的	-10.9584
向下	-10.9587
在每个	-10.9588
妮	-10.9591
不断增加	-10.9592
阳	-10.9593
消灭	-10.9595
出租	-10.9597
和他的	-10.9597
网关	-10.96
食用	-10.9603
较少	-10.9605
生命的	-10.9605
人员的	-10.9605
的游戏	-10.9605
泳池	-10.9611
研究报告	-10.9611
▁有时候	-10.9612
的机制	-10.9613
可爱的	-10.9613
也不是	-10.9614
较小的	-10.9616
害	-10.9617
唐	-10.962
放缓	-10.9621
还提供	-10.9621
钓鱼	-10.9621
讨论会	-10.9622
vi	-10.9622
澳门	-10.9624
交往	-10.9624
熊	-10.9626
嘉	-10.9626
装载	-10.9628
的儿子	-10.9628
捍卫	-10.9628
烤	-10.9633
在这一	-10.9634
救助	-10.9634
继续进行	-10.9636
磨损	-10.9636
阿尔巴尼亚	-10.9637
▁39.	-10.964
高级专员	-10.9643
安全部队	-10.9643
胃	-10.9644
有一天	-10.9645
房间里	-10.9646
大幅度	-10.9646
化合物	-10.9647
▁37.	-10.965
阴	-10.9652
建设性	-10.9655
宽敞的	-10.9656
是他	-10.9657
访	-10.9658
聚集	-10.9663
几乎没有	-10.9666
自从	-10.9667
修建	-10.9668
在家里	-10.9668
▁●	-10.9669
人在	-10.967
仪表板	-10.9671
鉴定	-10.9675
对齐	-10.9679
▁你不	-10.9679
感受到	-10.9682
籍	-10.9684
绘图	-10.9684
在非洲	-10.9688
带到	-10.9688
的规模	-10.9689
当我们	-10.9691
够	-10.9692
运行时	-10.9693
了一系列	-10.9693
走到	-10.9693
半导体	-10.9695
他们可以	-10.9695
种种	-10.9696
的母亲	-10.9697
去世	-10.9697
接着	-10.9698
赖	-10.9701
的领域	-10.9703
人均	-10.9706
执	-10.9708
保守	-10.971
的完整	-10.9711
版本的	-10.9712
▁该公司	-10.9714
准	-10.9714
放到	-10.9717
直径	-10.9717
用水	-10.9718
指引	-10.9718
赢	-10.9718
听见	-10.9719
柯	-10.972
受损	-10.9721
竞争优势	-10.9722
氢	-10.9724
和资源	-10.9724
上方	-10.9724
这些文件	-10.9724
搜索结果	-10.9725
开了	-10.9725
太大	-10.9726
杰克	-10.9726
存放	-10.9727
谨	-10.9728
ck	-10.9729
不明白	-10.9729
列出了	-10.9732
决	-10.9735
偶尔	-10.9738
高速公路	-10.974
刚才	-10.974
得很	-10.9744
需要一个	-10.9744
孩子的	-10.9745
为您的	-10.9746
研制	-10.9748
险	-10.975
数千	-10.9753
混凝土	-10.9754
封装	-10.9757
大多	-10.9759
if	-10.976
卡片	-10.976
但这	-10.976
提起	-10.9761
发育	-10.9762
一国	-10.9762
这本书	-10.9763
怎么做	-10.9763
克隆	-10.9763
契约	-10.9766
构成了	-10.9767
▁你必须	-10.9767
92	-10.9768
宾	-10.9768
是否会	-10.977
借口	-10.9771
柔	-10.9771
外壳	-10.9774
难民营	-10.9774
来帮助	-10.9775
货运	-10.9777
总裁	-10.9777
紧迫	-10.9777
赚	-10.978
性暴力	-10.978
的好	-10.9781
▁这是我	-10.9782
星球	-10.9785
疯狂	-10.9786
对话框	-10.9786
进化	-10.9787
依法	-10.9788
将它	-10.9788
关键的	-10.979
该委员会	-10.9791
搜索引擎	-10.9791
小时内	-10.9792
:1	-10.9793
大厅	-10.9795
你不	-10.9796
▁41.	-10.9797
国集团	-10.9797
签发	-10.98
飞往	-10.98
生产率	-10.98
▁假如	-10.9801
外包	-10.9801
召开的	-10.9802
街头	-10.9804
漏	-10.9806
片段	-10.9807
增多	-10.9807
营造	-10.9808
政府部门	-10.9811
不足以	-10.9811
将通过	-10.9813
我现在	-10.9814
热爱	-10.9814
变得更	-10.9816
之类的	-10.9816
儿童权利	-10.9816
剧院	-10.9818
负荷	-10.9818
通往	-10.9819
毫不	-10.9823
高温	-10.9823
作出贡献	-10.9823
叫做	-10.9826
以英语发言	-10.9828
总线	-10.9832
列车	-10.9834
停火	-10.9836
该国政府	-10.9837
降至	-10.9838
0°	-10.9839
末	-10.9839
采纳	-10.9839
闪烁	-10.984
股价	-10.984
提交给	-10.9841
本土	-10.9841
罢工	-10.9842
上班	-10.9843
热门	-10.9844
卫生部	-10.9845
了我的	-10.9845
境外	-10.9847
▁采用	-10.985
本着	-10.9851
主流	-10.9851
缔结	-10.9851
您的计算机	-10.9852
开始了	-10.9854
2020	-10.9855
冒	-10.9856
▁随后	-10.9858
您应该	-10.9859
▁此时	-10.986
人为	-10.9862
日子	-10.9862
无人	-10.9862
保护和	-10.9863
的指控	-10.9863
低成本	-10.9864
此外	-10.9865
打击恐怖主义	-10.9866
惊	-10.9868
94	-10.9871
和加强	-10.9872
渗透	-10.9874
延续	-10.9874
将自动	-10.9881
▁38.	-10.9881
按摩	-10.9882
遣返	-10.9883
国际法院	-10.9885
▁主席	-10.9886
▁系列	-10.9886
以免	-10.9886
大致	-10.9887
怎么了	-10.9888
充分的	-10.9889
人口的	-10.989
力求	-10.9891
相信我	-10.9891
成立了	-10.9891
请在	-10.9895
三分之一	-10.9895
尽早	-10.9897
麦克	-10.9898
生日	-10.9898
不使用	-10.99
展示了	-10.99
白宫	-10.9902
的实施	-10.9905
长的	-10.9906
或其它	-10.9908
中止	-10.9909
会议的	-10.991
两人	-10.9911
篇	-10.9913
▁好了	-10.9917
卡拉	-10.992
答应	-10.9921
过多	-10.9923
放入	-10.9925
图书	-10.9926
美好的	-10.9926
93	-10.9927
当事方	-10.9928
伴	-10.9928
阴影	-10.993
充足	-10.9932
不只是	-10.9933
两年期	-10.9933
听取	-10.9937
案件中	-10.9939
▁委员会还	-10.994
向导	-10.9944
▁28	-10.9945
这些数据	-10.9948
请参见	-10.9948
▁google	-10.995
的愿望	-10.9951
酌情	-10.9951
这份	-10.9952
和控制	-10.9958
便可	-10.9959
为每个	-10.9961
汇总	-10.9962
雷达	-10.9963
最后一个	-10.9964
地球上	-10.9965
社会的	-10.9967
住所	-10.9968
该法	-10.9969
小组委员会	-10.9973
王子	-10.9976
闻	-10.9977
访问权限	-10.9977
竞赛	-10.9978
同情	-10.9979
来处理	-10.9981
的理解	-10.9986
固体	-10.9986
成像	-10.9986
承	-10.9986
与此	-10.9987
ns	-10.9987
西岸	-10.9988
牙齿	-10.9991
因为这些	-10.9993
表示关切	-10.9994
保养	-10.9994
不大	-10.9994
改为	-10.9997
示范	-10.9999
容	-11
▁这间	-11.0001
进一步的	-11.0002
狂	-11.0002
生产线	-11.0006
征收	-11.0007
周四	-11.0007
证明了	-11.0009
持续时间	-11.001
醒	-11.0011
篮球	-11.0012
范围的	-11.0013
桶	-11.0015
横	-11.0015
▁我们有	-11.0016
粮食安全	-11.0016
即使在	-11.0018
所有人都	-11.0019
桌	-11.0019
联邦政府	-11.002
的文档	-11.0021
饮用水	-11.0022
并使用	-11.0022
中部	-11.0022
▁42.	-11.0024
fs	-11.0025
虚拟化	-11.0028
知情	-11.003
勇气	-11.003
的属性	-11.0031
封闭	-11.0032
苏联	-11.0033
共和党	-11.0033
不一致	-11.0034
▁工作组	-11.0034
▁40.	-11.0035
区域内	-11.0036
减小	-11.0037
▁位于	-11.0038
高清	-11.0039
核裁军	-11.004
星期	-11.0041
来确定	-11.0042
同行	-11.0042
一群	-11.0044
东方	-11.0046
民兵	-11.0047
营养不良	-11.0047
初期	-11.0048
想起	-11.0048
鱼类	-11.0049
的邮件	-11.0049
3000	-11.0049
厘米	-11.0051
bs	-11.0051
把她	-11.0053
子公司	-11.0053
结束了	-11.0053
条例草案	-11.0053
贝尔	-11.0055
诞生	-11.0056
一款	-11.0056
是一名	-11.006
摇	-11.006
遏制	-11.006
的记录	-11.0062
都应	-11.0066
增值	-11.0066
拆	-11.0069
71	-11.007
pm	-11.0071
主意	-11.0072
▁26	-11.0074
周三	-11.0075
手续	-11.0077
社会福利	-11.0077
原油	-11.0078
复杂性	-11.0078
赛季	-11.0082
较小	-11.0085
此处	-11.0085
将此	-11.0088
cm	-11.0089
数量的	-11.0089
的运动	-11.0094
sh	-11.0094
所在的	-11.0095
ve	-11.0096
凭	-11.0097
ca	-11.0101
任何一个	-11.0102
辅导	-11.0102
▁1999	-11.0103
中获得	-11.0105
酷	-11.0107
相关性	-11.0108
道歉	-11.011
对我来说	-11.0112
的爱	-11.0113
几何	-11.0114
而且也	-11.0114
也门	-11.0116
震	-11.0119
讯	-11.0122
不变	-11.0122
向前	-11.0126
▁我们也	-11.0127
▁北京	-11.0128
wa	-11.0128
已开始	-11.0129
哥斯达黎加	-11.0131
内阁	-11.0131
几周	-11.0132
是有	-11.0134
电阻	-11.0134
玫瑰	-11.0135
经济的	-11.0136
的控制	-11.0139
系统和	-11.0141
都被	-11.0142
机密	-11.0142
分割	-11.0146
忧虑	-11.0147
你所	-11.0147
朱	-11.0149
地带	-11.015
能力的	-11.0151
幼	-11.0152
一致的	-11.0154
光纤	-11.0154
看到的	-11.0154
此时	-11.0155
截止	-11.0155
另有	-11.0156
而无需	-11.0157
薪金	-11.0158
或使用	-11.0158
私有	-11.0161
年内	-11.0161
信息和通信技术	-11.0162
危及	-11.0162
过敏	-11.0163
国际会议	-11.0164
污	-11.0171
审计委员会	-11.0172
轴承	-11.0172
鬼	-11.0173
单方面	-11.0174
垃圾邮件	-11.0174
过分	-11.0175
900	-11.0176
在不同	-11.0177
的人权	-11.0179
民间	-11.018
性别平等	-11.018
玉米	-11.0181
防范	-11.0181
医疗服务	-11.0182
断开	-11.0182
甚至是	-11.0184
嵌入	-11.0185
撤出	-11.0187
两周	-11.0192
一颗	-11.0193
来解决	-11.0194
减缓	-11.0195
使你	-11.0195
或者是	-11.0196
新建	-11.0197
▁在本	-11.0198
进行分析	-11.0202
给定	-11.0203
▁在美国	-11.0203
▁看看	-11.0205
包裹	-11.0205
编译	-11.0205
执行局	-11.0206
可从	-11.0207
述	-11.021
销量	-11.0212
组装	-11.0213
没事	-11.0214
违背	-11.0215
排斥	-11.0215
tc	-11.0215
报复	-11.0218
昂贵的	-11.022
统一的	-11.022
不适合	-11.0221
的途径	-11.0222
亏损	-11.0222
cr	-11.0223
是否可以	-11.0226
昨日	-11.0226
获悉	-11.0229
攻击者	-11.0234
跨国公司	-11.0234
犯罪行为	-11.0234
代理商	-11.0235
健身房	-11.0239
的文章	-11.0247
的灵魂	-11.0252
ai	-11.0254
赶	-11.0255
仇恨	-11.0255
告诉她	-11.0257
▁只是	-11.0257
如果没有	-11.0258
可帮助	-11.0259
将军	-11.026
充足的	-11.0263
火山	-11.0264
我们能够	-11.0264
宾馆	-11.0266
您要	-11.0267
硅	-11.0267
妥协	-11.0268
激情	-11.0269
时代的	-11.0272
群众	-11.0272
排放量	-11.0273
车站	-11.0276
懂	-11.0278
▁z	-11.028
看待	-11.0282
信赖	-11.0283
肝	-11.0285
该方案	-11.0285
;(	-11.0285
指针	-11.0286
在哪	-11.0288
档	-11.0288
tp	-11.0288
进行评估	-11.0289
的专家	-11.0289
有哪些	-11.029
外国直接投资	-11.0291
不对	-11.0292
奖学金	-11.0293
青年人	-11.0299
▁32	-11.0299
缩	-11.0299
▁2018	-11.0301
贵公司	-11.0302
国际人道主义法	-11.0302
其在	-11.0306
西非	-11.0306
东亚	-11.0309
生计	-11.031
简要	-11.0311
背后	-11.0311
进程中	-11.0316
提请	-11.0316
微生物	-11.0319
开放式	-11.032
▁27	-11.0323
序	-11.0323
所列	-11.0325
外交部长	-11.0329
装修	-11.0331
旅程	-11.0334
▁但在	-11.0335
要比	-11.0335
要点	-11.0339
通风	-11.0341
毕业生	-11.0342
也很	-11.0343
宜	-11.0343
银行业	-11.0345
的音乐	-11.0345
就开始	-11.0346
海盗	-11.0347
▁你怎么	-11.0348
公用	-11.0348
戏剧	-11.0349
矩阵	-11.0349
失效	-11.0349
」	-11.035
学校的	-11.035
灵感	-11.0351
相处	-11.0353
▁圣	-11.0353
心理学	-11.0355
牙	-11.0358
和联合国	-11.0358
风格的	-11.0359
的竞争	-11.0362
的损失	-11.0363
教程	-11.0365
骗	-11.0365
反对派	-11.0366
完整性	-11.0368
援	-11.037
菌	-11.0371
上市公司	-11.0372
最大化	-11.0373
▁因为我	-11.0373
▁注	-11.0374
却是	-11.0377
参议院	-11.0378
▁预计	-11.0379
▁有些人	-11.0379
提供程序	-11.038
83	-11.0381
家属	-11.0384
币	-11.0386
wi	-11.0387
▁不幸的是	-11.0387
制度的	-11.039
可行的	-11.0391
旋	-11.0391
时间内	-11.0394
▁欧洲联盟	-11.0395
集群	-11.0395
越来越多	-11.0397
▁我不会	-11.0398
香港的	-11.0399
喜	-11.0399
的进步	-11.0403
多人	-11.0403
▁我是说	-11.0409
走出	-11.041
在日本	-11.0413
很快就	-11.0414
鼓	-11.0417
环境和	-11.0418
这些措施	-11.042
辞职	-11.0421
也是如此	-11.0423
可使	-11.0424
犯下	-11.0425
主义者	-11.0428
独自	-11.0429
人员和	-11.0429
▁您可以使用	-11.0431
▁1998	-11.0434
加深	-11.0436
育	-11.044
的安全性	-11.044
重大的	-11.044
▁我不是	-11.0441
在那儿	-11.0442
坎	-11.0447
管理的	-11.0451
齿轮	-11.0451
的创新	-11.0452
应用的	-11.0452
使用情况	-11.0453
ph	-11.0454
并购	-11.0456
数码	-11.0457
道理	-11.0463
▁300	-11.0463
昂贵	-11.0466
言论	-11.0468
▁我说	-11.0469
的巨大	-11.047
即便	-11.0471
但仍	-11.0472
观光	-11.0473
误差	-11.0473
我们所	-11.0473
130	-11.0475
160	-11.0477
安理会成员	-11.0478
糟糕	-11.0478
见证	-11.0479
恐怕	-11.0483
受众	-11.0484
适宜	-11.0487
控制的	-11.0487
的真实	-11.0488
可以使	-11.0489
活着	-11.0491
轻松地	-11.0493
▁欢迎	-11.0495
人们的	-11.0496
不适用于	-11.0497
也需要	-11.0498
很简单	-11.0498
的大部分	-11.0498
智力	-11.0499
扭曲	-11.0499
因为她	-11.0502
军事行动	-11.0502
的结论	-11.0503
在你	-11.0503
迫切	-11.0503
宽带	-11.0504
不锈钢	-11.0505
坚定	-11.0506
去找	-11.0507
神秘	-11.0509
接入	-11.051
负有	-11.0512
的重点	-11.0514
品尝	-11.0514
编辑器	-11.0514
懂得	-11.0516
的连接	-11.0517
的人士	-11.0517
感觉到	-11.0518
实在	-11.0519
楼梯	-11.052
提倡	-11.0521
该系统	-11.0521
这种方法	-11.0523
的独特	-11.0523
在很大程度上	-11.0524
移动到	-11.0526
枚	-11.0529
事务部	-11.0529
涉嫌	-11.053
三十	-11.0531
发出的	-11.0533
来文	-11.0538
▁您是否	-11.0539
的信心	-11.054
镜像	-11.054
合金	-11.0541
保修	-11.0542
总监	-11.0543
偏好	-11.0544
产品和	-11.0545
以供	-11.0546
迄今为止	-11.0546
孕妇	-11.0547
充当	-11.0547
有力	-11.0549
不像	-11.055
▁每天	-11.055
本次	-11.055
电视台	-11.0552
增至	-11.0552
所占	-11.0553
幅	-11.0557
鸡蛋	-11.0558
外来	-11.0562
选出	-11.0562
我不会	-11.0568
的根源	-11.0569
虚	-11.057
一篇	-11.057
现代化的	-11.0573
佐	-11.0573
传染病	-11.0575
至少有	-11.0577
限额	-11.0578
有利的	-11.0579
铅	-11.0579
这也是	-11.058
ot	-11.0582
聘用	-11.0583
保健服务	-11.0583
泡	-11.0587
航行	-11.0588
几乎所有	-11.0589
关系的	-11.0592
大国	-11.0596
▁亲爱的	-11.0596
手表	-11.0598
采样	-11.06
手工	-11.0601
爱好	-11.0602
怕	-11.0602
魅力	-11.0603
他对	-11.0604
彼得	-11.0605
140	-11.0606
2)	-11.0607
提出建议	-11.0608
拔	-11.0612
课堂	-11.0613
则必须	-11.062
对吧	-11.0624
应由	-11.0624
气氛	-11.0625
rt	-11.0628
爬	-11.0628
不安全	-11.0628
度量	-11.063
抵制	-11.0631
三次	-11.0632
的父母	-11.0632
这也	-11.0634
在世界	-11.0634
法律援助	-11.0637
不属于	-11.0641
答	-11.0641
的梦想	-11.0645
治安	-11.0646
无缝	-11.0647
掉了	-11.0648
熟	-11.0648
ul	-11.065
简单地	-11.065
猎	-11.0653
培训课程	-11.0655
全年	-11.066
年中	-11.0661
太多的	-11.0663
请选择	-11.0663
裁谈会	-11.0665
▁大部分	-11.0665
中的一个	-11.0666
向我	-11.0669
代表性	-11.0673
ll	-11.0674
奇怪的	-11.0674
车间	-11.0675
精密	-11.0678
卫生保健	-11.0678
运行的	-11.0679
胸	-11.0679
祝福	-11.0679
冲突的	-11.068
那就	-11.0681
诱	-11.0682
5,000	-11.0684
特别委员会	-11.0685
罗斯	-11.0685
爱我	-11.069
议	-11.0691
好消息	-11.0692
进行合作	-11.0692
千年	-11.0693
夜晚	-11.0694
在今后	-11.0694
在那	-11.0696
碎片	-11.0701
下方	-11.0701
告诉他们	-11.0701
这里的	-11.0703
骑	-11.0705
材料的	-11.0706
箭头	-11.0706
停留	-11.0708
▁aws	-11.0709
术	-11.0712
接头	-11.0713
圣经	-11.0713
开发的	-11.0714
生产和	-11.0719
是为	-11.072
称之为	-11.072
▁90	-11.0721
保罗	-11.0721
展现	-11.0723
放置在	-11.0723
的组成部分	-11.0723
地质	-11.0727
▁作为一个	-11.0729
创伤	-11.0731
心里	-11.0732
煽动	-11.0732
乍得	-11.0733
▁未	-11.0733
里程碑	-11.0734
泛	-11.0734
评审	-11.0736
了一	-11.0742
券	-11.0743
包含了	-11.0743
对自己	-11.0745
▁点击	-11.0746
配套	-11.0749
背景下	-11.0749
解决了	-11.0751
陆地	-11.0752
源于	-11.0752
简介	-11.0753
您可以使用	-11.0757
的心	-11.0758
副作用	-11.076
7><	-11.076
宝贝	-11.0763
到来	-11.0767
是这样	-11.0768
与合作	-11.0771
捐助国	-11.0775
这一进程	-11.0777
邻近	-11.0777
不正确	-11.0779
从不	-11.078
致使	-11.0781
的文本	-11.0781
创新的	-11.0783
▁我还	-11.0783
▁43.	-11.0784
或不	-11.0785
做到这一点	-11.0785
冲突后	-11.0786
伏	-11.0787
农产品	-11.0788
熟练	-11.0788
非常好	-11.0788
数据和	-11.0792
人事	-11.0792
的有效性	-11.0795
的重要组成部分	-11.0796
他将	-11.0797
远远	-11.0797
碰撞	-11.0798
▁每次	-11.0799
入学	-11.08
此信息	-11.08
常用	-11.0801
绕	-11.0803
政策的	-11.0803
约定	-11.0803
大使馆	-11.0804
模具	-11.081
货币政策	-11.0811
是美国	-11.0813
伦理	-11.0813
疑问	-11.0815
此选项	-11.0815
林业	-11.0815
的必要	-11.0816
均匀	-11.0817
砖	-11.0818
心脏病	-11.082
严肃	-11.0822
首要	-11.0825
情景	-11.0827
为实现	-11.0827
小吃	-11.0828
局面	-11.0834
幻想	-11.0835
从来不	-11.0836
倾斜	-11.0838
并可	-11.0841
▁艾	-11.0844
协	-11.0845
下雨	-11.0845
不同类型的	-11.0845
视野	-11.0847
▁每年	-11.0848
醒来	-11.0849
中介	-11.0851
▁无论是	-11.0852
▁再	-11.0853
正常工作	-11.0853
跟他	-11.0853
天使	-11.0855
休息室	-11.0859
谋求	-11.0859
充	-11.0863
豆	-11.0863
误解	-11.0863
得知	-11.0864
拿出	-11.0864
恋	-11.0866
和政治	-11.0868
的理论	-11.087
执行情况	-11.0871
拥挤	-11.0871
禁令	-11.0871
▁44.	-11.0872
的军事	-11.0872
便是	-11.0875
可能对	-11.0875
更正	-11.0879
敬	-11.0879
呆	-11.088
跟着	-11.0882
公司在	-11.0883
选择一个	-11.0884
人类的	-11.0884
降低成本	-11.0888
原型	-11.0891
导游	-11.0891
放心	-11.0892
并根据	-11.0893
感激	-11.0894
肠	-11.0898
舞台	-11.0899
擅长	-11.09
但由于	-11.0902
容纳	-11.0902
抢劫	-11.0902
是怎么	-11.0903
渔	-11.0904
进行比较	-11.0904
ru	-11.0905
比我	-11.0906
搬	-11.0909
投标	-11.0911
联合国儿童基金会	-11.0912
另外一个	-11.0912
互	-11.0912
一再	-11.0914
脸上	-11.0915
做好准备	-11.0917
试试	-11.0917
明智的	-11.0919
可确保	-11.092
委员会主席	-11.0922
数百	-11.0923
您可	-11.0925
看了	-11.0926
区内	-11.0926
工具和	-11.0929
dc	-11.0934
吸引力	-11.0934
▁俄罗斯	-11.0935
必须确保	-11.0937
六月	-11.0939
外界	-11.0939
基督	-11.0944
首相	-11.0944
描述了	-11.0945
▁位	-11.0948
的女人	-11.0951
既定	-11.0952
亿元	-11.0953
的汽车	-11.0954
杀了	-11.0955
持续的	-11.0956
限定	-11.0956
便捷	-11.0956
在网上	-11.0957
威廉	-11.0959
起了	-11.0959
中华人民共和国	-11.0961
人死亡	-11.0964
的航班	-11.0965
受教育	-11.0965
受理	-11.0967
有更多的	-11.097
无线网络	-11.0974
开头	-11.0975
芬	-11.0979
仍然存在	-11.0979
法律制度	-11.0979
有几个	-11.098
以及与	-11.0981
路线图	-11.0983
▁爸爸	-11.0983
▁他们在	-11.0984
国际货币基金组织	-11.0985
骄傲	-11.0985
与您的	-11.0986
功能的	-11.0987
三大	-11.0987
的学习	-11.099
▁李	-11.099
向我们	-11.0992
差不多	-11.0994
实施了	-11.0998
▁答	-11.1001
员工的	-11.1003
升高	-11.1005
签字	-11.1009
350	-11.1011
弟弟	-11.1012
不知	-11.1012
脂	-11.1013
令牌	-11.1014
朝着	-11.1016
驾驶员	-11.102
中包含	-11.1022
全体会议	-11.1026
死去	-11.1026
经济活动	-11.1028
▁现代	-11.1028
该方法	-11.1029
官方发展援助	-11.1029
心中	-11.103
世界上最	-11.1031
形成的	-11.1032
饼	-11.1033
录像	-11.1036
移动电话	-11.1038
耶路撒冷	-11.104
仅限于	-11.104
▁所以我	-11.104
安全地	-11.1042
信念	-11.1043
领先的	-11.1044
刑	-11.1045
连接的	-11.1048
帽子	-11.1049
坐落在	-11.1049
环绕	-11.1054
我们不能	-11.1055
我需要	-11.1056
▁office	-11.1057
意愿	-11.1058
缓冲	-11.1059
出示	-11.1063
信托	-11.1064
少于	-11.1068
旧金山	-11.107
波斯尼亚	-11.1075
提供关于	-11.1076
疾病的	-11.1078
劳动力市场	-11.108
三天	-11.1081
貌	-11.1083
立陶宛	-11.1083
吓	-11.1086
做的事	-11.1086
人权和	-11.1086
阵列	-11.1087
折叠	-11.109
奴隶	-11.1091
▁我们应该	-11.1092
服务业	-11.1093
亲密	-11.1093
市场份额	-11.1094
迁	-11.1097
提到的	-11.1098
浸	-11.1098
one	-11.1099
最后一次	-11.11
开玩笑	-11.1101
撤离	-11.1101
起飞	-11.1103
下一次	-11.1103
的前景	-11.1104
解析	-11.1105
泄露	-11.1111
工作时间	-11.1112
的期望	-11.1112
监管机构	-11.1114
慢慢	-11.1115
船上	-11.1116
精简	-11.1118
德语	-11.1118
幻	-11.1121
夺	-11.1126
大声	-11.1126
份额	-11.1127
请单击	-11.1127
太太	-11.1129
的女性	-11.1129
更有效地	-11.1129
非常适合	-11.1129
涂料	-11.1131
题为	-11.1131
C	-11.1134
筒	-11.1135
不含	-11.1139
在某些情况下	-11.1139
是多少	-11.114
尖	-11.1143
过高	-11.1145
oc	-11.1145
的说明	-11.1146
还有一个	-11.1147
你喜欢	-11.1148
▁所有这些	-11.1148
开销	-11.1149
煮	-11.1149
经济衰退	-11.115
体内	-11.115
一方面	-11.1154
消化	-11.1154
的广告	-11.1154
迹象	-11.1157
鸡尾酒	-11.1158
兼容性	-11.1158
个人资料	-11.1159
导向	-11.1159
其中一些	-11.1159
上有	-11.116
是否需要	-11.1162
时间来	-11.1162
▁但他	-11.1163
紧缩	-11.1165
缩减	-11.1165
为他们	-11.1165
苏格兰	-11.1167
▁45.	-11.1167
如何在	-11.1167
亮度	-11.1169
是完全	-11.1172
东欧	-11.1176
勤	-11.1178
将无法	-11.1178
就没有	-11.1179
▁三	-11.1182
延伸	-11.1182
仅为	-11.1185
教导	-11.1186
涂层	-11.1187
讲述	-11.1188
▁¥	-11.1189
发货	-11.1189
进了	-11.119
海湾	-11.119
预约	-11.1191
的男人	-11.1193
的歧视	-11.1193
联合国机构	-11.1194
卡塔尔	-11.1194
补助	-11.1195
的策略	-11.1196
随意	-11.1199
哈利	-11.1199
网络中	-11.1201
链路	-11.1201
的现有	-11.1204
▁(1)	-11.1204
此操作	-11.1207
▁看	-11.1209
最常见的	-11.1209
知道我	-11.121
▁明天	-11.1214
笔记	-11.1214
的外观	-11.1215
分布式	-11.1216
脏	-11.1217
司法部	-11.1217
克林顿	-11.122
时段	-11.122
问你	-11.122
塑造	-11.1223
的独立	-11.1224
福祉	-11.1224
(1)	-11.1225
有资格	-11.1227
的父亲	-11.1228
指的是	-11.123
大海	-11.1231
内容的	-11.1234
享	-11.1237
而又	-11.1238
哥哥	-11.1239
和家庭	-11.1239
垄断	-11.124
海水	-11.1242
▁如果您的	-11.1243
假日	-11.1243
内核	-11.1244
市长	-11.1244
的酒店	-11.1245
为什么不	-11.1247
资源和	-11.1247
巡逻	-11.1248
受到影响	-11.1248
势力	-11.1248
热线	-11.1251
▁奥	-11.1255
喊	-11.1257
请注意	-11.1258
几内亚	-11.1259
所规定的	-11.126
感知	-11.1265
线索	-11.1268
预防性	-11.127
西藏	-11.127
数百万	-11.127
斯洛文尼亚	-11.1272
册	-11.1272
争	-11.1273
成立于	-11.1277
并不能	-11.1278
出台	-11.1278
▁如果需要	-11.1278
在使用	-11.1279
▁客人可以	-11.1279
布朗	-11.1279
将以	-11.1282
回来了	-11.1284
的痛苦	-11.1284
因为在	-11.1288
▁您将	-11.1289
敏捷	-11.129
深信	-11.129
的障碍	-11.129
衬衫	-11.1291
继续努力	-11.1292
”。	-11.1299
饮品	-11.13
▁至少	-11.13
1988	-11.13
环境署	-11.1301
占有	-11.1302
网络连接	-11.1302
德尔	-11.1305
的帮助	-11.1306
喜爱	-11.1306
塞内加尔	-11.1306
纹理	-11.1307
也许是	-11.1308
疲劳	-11.1309
浴	-11.1309
星期日	-11.131
事件的	-11.1311
革新	-11.1311
有组织犯罪	-11.1312
和相关	-11.1315
方法来	-11.1318
81	-11.132
有一	-11.132
产能	-11.1322
是多么	-11.1322
更少	-11.1323
读书	-11.1325
物业	-11.1326
认	-11.1327
总干事	-11.1328
集装箱	-11.1329
接纳	-11.1329
庞大的	-11.1332
马德里	-11.1332
多重	-11.1333
可以根据	-11.1333
命运	-11.1333
真诚	-11.1334
污染物	-11.1335
选取	-11.1336
遇到了	-11.1336
的差异	-11.1339
分摊	-11.1343
以获得	-11.1343
为客户	-11.1343
开放的	-11.1344
丰	-11.1348
的眼睛	-11.1349
和平与	-11.1349
um	-11.1351
▁上午	-11.1352
基本法	-11.1353
这张	-11.1353
▁她在	-11.1355
附属	-11.1355
活动和	-11.1355
好友	-11.1355
客户提供	-11.1355
音量	-11.1356
为主	-11.1359
加入了	-11.1365
gi	-11.1368
陶瓷	-11.137
包容性	-11.1373
的答复	-11.1374
云计算	-11.1378
▁爱	-11.138
爱沙尼亚	-11.1381
法人	-11.1381
原来的	-11.1381
▁»	-11.1384
我说	-11.1384
▁特别是	-11.1387
狼	-11.1387
人权问题	-11.1388
转发	-11.1389
1)	-11.1389
坐标	-11.139
每小时	-11.1391
恨	-11.1392
所在地	-11.1396
ko	-11.1398
空缺	-11.1398
津巴布韦	-11.1398
在其中	-11.1399
我谨	-11.14
需要进行	-11.1402
1.2	-11.1404
高品质	-11.1404
dm	-11.1405
缓冲区	-11.1405
汇款	-11.1405
-7	-11.1409
不相信	-11.141
市区	-11.141
水和	-11.1412
处在	-11.1412
标记为	-11.1413
该报告	-11.1413
最严重的	-11.1415
间卧室	-11.1415
营运	-11.1416
解决方法	-11.1416
调查结果	-11.1417
终身	-11.1419
▁如果你想	-11.1419
新一代	-11.142
很长时间	-11.1421
缴纳	-11.1427
这座	-11.1428
美容	-11.1429
▁我对	-11.1429
和中国	-11.143
综合性	-11.1432
领域中	-11.1432
我还	-11.1434
厚度	-11.1434
的样子	-11.1434
1,000	-11.1435
煤炭	-11.1436
▁在您	-11.1436
列为	-11.1437
进攻	-11.1437
返	-11.1438
分支机构	-11.1439
巴拿马	-11.144
高的	-11.1441
范畴	-11.1444
马耳他	-11.1444
工作方案	-11.1445
仍未	-11.1447
居留	-11.1448
恰当的	-11.1449
少年	-11.1449
没有必要	-11.145
的贸易	-11.1451
体现了	-11.1452
监测和	-11.1452
战士	-11.1453
鞋子	-11.1454
高峰	-11.1457
在这种情况下	-11.1458
逾	-11.146
的版本	-11.146
迈克尔	-11.1461
▁总之	-11.1464
2018	-11.1468
跌	-11.147
不断变化的	-11.147
所用的	-11.147
▁上述	-11.1471
你不能	-11.1472
是否存在	-11.1473
邮政	-11.1475
本区域	-11.1475
军方	-11.1476
似乎是	-11.1476
允许用户	-11.1478
的攻击	-11.1479
制定的	-11.148
在国家一级	-11.148
是没有	-11.1481
展望	-11.1481
4>	-11.1483
而被	-11.1485
割	-11.1487
▁既然	-11.1488
中添加	-11.1492
对这一	-11.1493
你就会	-11.1494
做的事情	-11.1494
的主	-11.1494
不敢	-11.1495
慷慨	-11.1495
量化	-11.1496
写的	-11.1497
产生影响	-11.1498
一杯	-11.1498
制成	-11.1499
ep	-11.1502
知名	-11.1505
和教育	-11.1505
加沙地带	-11.1506
汗	-11.1506
一人	-11.1507
直线	-11.1511
希望能	-11.1511
又是	-11.1515
相关信息	-11.1516
不是一个	-11.1517
是你的	-11.152
▁客房	-11.1522
黑客	-11.1523
▁她是	-11.1524
与美国	-11.1527
它们是	-11.1527
om	-11.1528
姑娘	-11.1529
您可能需要	-11.153
源自	-11.1531
肥胖	-11.1532
生理	-11.1532
▁31	-11.1532
计划生育	-11.1536
▁46.	-11.1536
▁我们相信	-11.1536
屏幕上	-11.1537
函	-11.1539
听起来	-11.1539
最后的	-11.154
会面	-11.154
主人	-11.1541
车型	-11.1542
建立起	-11.1543
的细节	-11.1543
变得越来越	-11.1544
钢琴	-11.1544
死于	-11.1545
计划中	-11.1545
忍受	-11.1545
上个月	-11.1546
氛围	-11.1546
说我	-11.1547
目的在于	-11.1548
肩	-11.1548
葡萄	-11.155
播放器	-11.1552
大城市	-11.1554
信件	-11.1554
一个大	-11.1555
耳朵	-11.1555
解释说	-11.1555
忠诚	-11.1556
大批	-11.1556
的财政	-11.1559
幼儿	-11.1561
把自己	-11.1563
▁47.	-11.1564
复兴	-11.1565
只是一个	-11.1565
凭据	-11.1565
再生	-11.1567
文档中	-11.1567
援引	-11.1569
野生动物	-11.157
建成	-11.1571
古老的	-11.1572
▁在过去	-11.1572
国家和国际	-11.1572
麦克风	-11.1574
1-	-11.1575
下降了	-11.1576
对吗	-11.1576
虚假	-11.1577
精确的	-11.1577
姐姐	-11.1577
钱包	-11.1579
和他	-11.1581
的解释	-11.1582
材质	-11.1583
▁你还	-11.1584
有过	-11.1584
其他一些	-11.1584
的选项	-11.1585
第十	-11.1585
和社区	-11.1586
声誉	-11.1587
创造力	-11.1587
往往是	-11.1587
这段	-11.1587
前提	-11.1588
▁48.	-11.159
▁internet	-11.1591
不如	-11.1592
多功能	-11.1596
门口	-11.1597
提供免费	-11.1597
最多的	-11.1597
下了	-11.1598
扭转	-11.1599
油价	-11.1599
亨利	-11.16
很低	-11.1601
各区域	-11.1603
的时刻	-11.1606
带领	-11.1606
预计将	-11.1606
搭	-11.1606
▁下面是	-11.1607
▁49.	-11.1607
的潜力	-11.1608
受过	-11.1609
归档	-11.1609
熔	-11.161
岗位	-11.1612
这会	-11.1613
相连	-11.1618
的财务	-11.1619
实现千年发展目标	-11.1623
解决这个问题	-11.1623
自豪	-11.1624
的冲突	-11.1624
在第	-11.1628
▁就在	-11.163
不同意	-11.163
mar	-11.1631
并无	-11.1631
在国内	-11.1635
多个国家	-11.1636
选定的	-11.1637
拉脱维亚	-11.1638
报导	-11.1638
为一个	-11.1638
中立	-11.1643
跑步	-11.1643
无须	-11.1645
行动纲领	-11.1646
▁安理会	-11.1648
颗	-11.1648
使它	-11.1649
投资组合	-11.1652
结构和	-11.1653
不包含	-11.1654
月初	-11.1656
马尔	-11.1656
嵌入式	-11.1657
的经历	-11.1657
有关国家	-11.1657
脉冲	-11.1658
年份	-11.1658
标志着	-11.1659
向其	-11.1662
的百分比	-11.1663
的发言	-11.1665
指导原则	-11.1665
预防措施	-11.1666
外资	-11.1668
是非常重要的	-11.1668
程序的	-11.1669
lan	-11.1671
描绘	-11.1674
会发生	-11.1677
跨国	-11.1679
的那	-11.1679
▁在过去的	-11.168
瑟	-11.168
价值的	-11.1681
电视节目	-11.1682
化妆品	-11.1683
中央银行	-11.1683
汤	-11.1684
世界各国	-11.1686
抵	-11.1688
有待	-11.169
为所有	-11.1691
该机构	-11.1692
沉默	-11.1693
税率	-11.1695
明智	-11.1695
教训	-11.1696
和促进	-11.1697
透明的	-11.1703
非常有用	-11.1705
方案和	-11.1706
企	-11.1707
可根据	-11.1709
▁凭借	-11.1711
不扩散条约	-11.1712
预期的	-11.1712
看电视	-11.1712
性别问题	-11.1712
战胜	-11.1713
的适当	-11.1713
挺	-11.1715
特别的	-11.1716
并从	-11.1718
这个人	-11.1718
质量和	-11.1719
的意愿	-11.1719
可信	-11.172
氯	-11.1721
生物学	-11.1722
般的	-11.1723
流体	-11.1724
伟大	-11.1725
瓜	-11.1726
把它们	-11.1727
共用	-11.1728
把你的	-11.1731
纽	-11.1732
有问题	-11.1733
多年的	-11.1734
它们在	-11.1735
本书	-11.1738
做得	-11.174
拖动	-11.174
方案中	-11.1741
月球	-11.1742
因子	-11.1743
身份证	-11.1744
宏观经济	-11.1744
捷	-11.1745
社交媒体	-11.1745
中最	-11.1745
来讲	-11.1746
人权理事会	-11.1748
不平衡	-11.1748
我们现在	-11.1748
变形	-11.175
讲座	-11.1751
分成	-11.1751
四十	-11.1752
贿赂	-11.1752
中亚	-11.1752
萨尔瓦多	-11.1755
提供支助	-11.1756
▁co	-11.1762
未知	-11.1762
▁他把	-11.1762
还指出	-11.1763
以其	-11.1765
航运	-11.1766
迭代	-11.1768
吃了	-11.177
文件系统	-11.1772
举行会议	-11.1772
让自己	-11.1776
进去	-11.1776
让它	-11.1778
lu	-11.1778
秒钟	-11.178
提交了	-11.178
不懂	-11.1783
墙壁	-11.1785
(5	-11.1786
吻	-11.1791
首选	-11.1791
ry	-11.1792
珍	-11.1794
可获得	-11.1795
▁您可	-11.1797
示例中	-11.1798
海啸	-11.1802
以加强	-11.1803
赞比亚	-11.1803
乡	-11.1805
发展战略	-11.1805
构想	-11.1805
的时代	-11.1806
▁我一直	-11.1806
请确保	-11.1806
职工	-11.1808
无可	-11.1808
▁只需	-11.181
进一步加强	-11.181
大自然	-11.181
水域	-11.181
110	-11.1812
他们也	-11.1812
女朋友	-11.1817
叙述	-11.1817
那么多	-11.1818
起始	-11.1818
抵消	-11.1821
费率	-11.1824
斑	-11.1825
希望在	-11.1825
页面上	-11.1826
住院	-11.1828
基督徒	-11.1829
所能	-11.1829
区域性	-11.1831
中国经济	-11.1832
九月	-11.1833
言论自由	-11.1834
▁50.	-11.1835
科学家们	-11.1835
承担责任	-11.1835
分担	-11.1838
礼貌	-11.1838
激素	-11.184
工程处	-11.1841
校长	-11.1842
和设备	-11.1842
▁wi	-11.1843
的斗争	-11.1844
91	-11.1846
访客	-11.1847
重要的作用	-11.1848
少量	-11.1848
的迹象	-11.1848
180	-11.1851
的来源	-11.1852
南亚	-11.1853
的局势	-11.1854
皮革	-11.1855
两个月	-11.1855
的命运	-11.1856
的距离	-11.1857
▁哈	-11.1858
一类	-11.186
境内的	-11.1861
工作流程	-11.1862
大卫	-11.1862
在今年	-11.1862
多大	-11.1864
很久	-11.1865
往返	-11.1866
含义	-11.1866
根源	-11.1866
节奏	-11.1866
▁确定	-11.1866
gb	-11.1866
▁第一个	-11.1867
段落	-11.1868
在内	-11.1869
这只是	-11.1869
ml	-11.1869
规	-11.1871
也必须	-11.1871
与他们	-11.1873
但它们	-11.1874
她在	-11.1874
不行	-11.1876
相互作用	-11.1877
不起	-11.1878
琳	-11.1879
奖项	-11.188
席	-11.1882
斜	-11.1883
仓	-11.1883
射线	-11.1884
使人们	-11.1885
弯曲	-11.1886
魔法	-11.1886
意志	-11.1888
我国政府	-11.189
昨晚	-11.1892
这个项目	-11.1893
分销	-11.1898
因其	-11.1898
更多信息	-11.1904
亿欧元	-11.1906
汞	-11.1907
自由和	-11.191
国防部	-11.191
用户体验	-11.1912
是否已	-11.1915
滑动	-11.1915
0.5	-11.1917
仪表	-11.1917
摆	-11.1918
fe	-11.1919
程序集	-11.192
的脸	-11.192
遇	-11.1922
对她	-11.1923
碰	-11.1924
其他用户	-11.1925
串	-11.1925
ld	-11.1926
碗	-11.1927
▁如果不	-11.1928
分别为	-11.193
陌生人	-11.1932
▁cd	-11.1933
但如果	-11.1933
的运作	-11.1936
开幕	-11.1937
四分之一	-11.1937
定居	-11.1938
提供帮助	-11.1938
经合组织	-11.1939
门票	-11.1939
的高度	-11.194
▁第四	-11.1941
在伦敦	-11.1941
我对	-11.1941
购物中心	-11.1944
-10	-11.1944
倾听	-11.1947
▁我真的	-11.1949
经纪人	-11.1949
的电话	-11.195
的一般	-11.1952
▁你喜欢	-11.1952
如果他们	-11.1952
即使是	-11.1953
▁警方	-11.1955
很强	-11.1957
▁最终	-11.1959
环境的	-11.1959
则需要	-11.1961
建立在	-11.1961
优越	-11.1961
是至关重要的	-11.1964
冲浪	-11.1965
的广泛	-11.1966
总经理	-11.1967
国际化	-11.1968
安装了	-11.1968
西亚	-11.1969
社会和经济	-11.197
拜访	-11.1971
▁医生	-11.1972
软件包	-11.1973
适	-11.1976
挖	-11.1976
各机构	-11.1977
鼻子	-11.1977
根据需要	-11.1977
十月	-11.1977
各组织	-11.1978
的私人	-11.1978
激动	-11.1979
我都	-11.1981
乐队	-11.1982
曼谷	-11.1982
是我们的	-11.1983
音乐会	-11.1983
万元	-11.1984
头部	-11.1986
发电机	-11.1986
的头发	-11.1988
▁听着	-11.1988
被动	-11.1991
的和平	-11.1993
商定的	-11.1996
的首要	-11.1996
注意力	-11.1997
▁现在我	-11.1997
埃尔	-11.1998
▁客人	-11.2
纳米	-11.2002
房产	-11.2003
另一些	-11.2004
国务院	-11.2004
促进了	-11.2006
拼	-11.2007
没人	-11.2009
逃离	-11.2009
的最终	-11.2012
该国的	-11.2013
龄	-11.2016
曲面	-11.2018
指导方针	-11.2018
前后	-11.2018
去过	-11.2019
高级官员	-11.2021
为他	-11.2021
参见	-11.2024
▁29	-11.2025
山区	-11.2026
开始时	-11.2026
勘探	-11.2027
结合起来	-11.2028
▁该项目	-11.2028
▁他表示	-11.2029
多少钱	-11.203
老鼠	-11.2031
不错的	-11.2031
否	-11.2032
芯	-11.2034
批量	-11.2035
唱歌	-11.2035
这就	-11.2035
▁嗨	-11.2036
矿物	-11.2036
迷人的	-11.2038
使用它	-11.2038
如何处理	-11.2039
▁她的	-11.204
那边	-11.2041
请联系	-11.2041
可接受的	-11.2042
一同	-11.2042
马丁	-11.2044
有不同的	-11.2044
水平的	-11.2044
指望	-11.2045
五月	-11.2046
债务人	-11.2046
计划和	-11.2048
▁打开	-11.2048
奋斗	-11.2049
中方	-11.2049
翼	-11.2051
的温度	-11.2051
ly	-11.2053
简报	-11.2053
经济和	-11.2054
视图中	-11.2057
▁一种	-11.2059
宁愿	-11.2059
耗	-11.2059
法例	-11.206
的女儿	-11.2064
租用	-11.2064
动物园	-11.2065
说你	-11.2066
标准和	-11.2067
我的心	-11.2067
将有	-11.207
最佳实践	-11.2071
沮丧	-11.2071
妇女权利	-11.2072
机架	-11.2074
问责	-11.2075
冠	-11.2077
缝	-11.2081
肺	-11.2081
也应	-11.2081
公平的	-11.2082
急剧	-11.2084
注册表	-11.2084
受欢迎	-11.2084
工作人员的	-11.2086
小麦	-11.2089
惊喜	-11.2089
流行病	-11.2091
实际上是	-11.2094
定为	-11.2094
旧的	-11.2095
成熟的	-11.2096
月以来	-11.2098
阁下	-11.21
▁非	-11.2101
绝望	-11.2101
径	-11.2103
拆除	-11.2104
起着	-11.2105
▁罗	-11.2105
的能量	-11.2107
▁当他	-11.2109
在某些	-11.2109
研究生	-11.2109
你可能	-11.2111
银行的	-11.2112
对您	-11.2115
吉姆	-11.2115
了一种	-11.2116
▁我们都	-11.2116
惠	-11.2116
破坏性	-11.2117
责	-11.2117
被发现	-11.2118
复原	-11.2118
个人的	-11.2119
联系起来	-11.212
艰苦	-11.2121
指挥官	-11.2124
脱机	-11.2126
在伊拉克	-11.2127
白天	-11.2127
下周	-11.2128
致命	-11.2128
一会儿	-11.2128
准许	-11.213
做些什么	-11.213
工作室	-11.213
定于	-11.2132
公顷	-11.2133
浪	-11.2134
第三次	-11.2135
捷克	-11.2135
然后在	-11.2136
▁我们是	-11.2138
进出口	-11.2139
福特	-11.2139
秋	-11.2143
学生的	-11.2145
▁我想要	-11.2145
汇编	-11.2146
购置	-11.2147
市场中	-11.2148
世纪的	-11.2148
大约有	-11.2148
▁51.	-11.215
▁获取	-11.2151
帐号	-11.2151
了解如何	-11.2153
决定性	-11.2154
警官	-11.2156
豪	-11.2156
专家们	-11.2158
有效期	-11.2158
的姓名	-11.2159
然后将	-11.2161
公布的	-11.2161
增长了	-11.2162
种族歧视	-11.2162
借鉴	-11.2162
帽	-11.2163
前台	-11.2164
显示为	-11.2165
雄	-11.2166
手套	-11.2167
扫	-11.2167
行动的	-11.2168
没有足够的	-11.2169
成员的	-11.2169
强调指出	-11.2172
▁在某些情况下	-11.2172
fo	-11.2173
看起来像	-11.2174
秀	-11.2177
应考虑	-11.2177
男女平等	-11.2178
其中的	-11.2179
法律框架	-11.218
tra	-11.218
年里	-11.2182
任一	-11.2183
结构性	-11.2183
必要时	-11.2185
租户	-11.2185
会增加	-11.2186
的真正	-11.2187
廉价	-11.2187
将根据	-11.219
指派	-11.2192
▁mac	-11.2195
衍生	-11.2196
精英	-11.2196
部位	-11.2198
出价	-11.2198
祖国	-11.2198
ke	-11.2199
pu	-11.2201
夜间	-11.2201
坚强	-11.2203
拨打	-11.2204
什么事	-11.2204
弱点	-11.2204
发布了	-11.2205
斯基	-11.2206
的天气	-11.2211
专家小组	-11.2212
这笔	-11.2212
傻	-11.2213
朝鲜民主主义人民共和国	-11.2214
中使用的	-11.2214
只在	-11.2215
基层	-11.2216
我们的网站	-11.2216
75%	-11.2217
拷贝	-11.2219
批准的	-11.2219
不清楚	-11.2219
赌场	-11.222
摩擦	-11.2221
一个简单的	-11.2221
勇敢	-11.2222
的出口	-11.2223
不仅仅	-11.2227
这种方式	-11.2227
乌拉圭	-11.2228
听说过	-11.2228
这次会议	-11.2228
理论上	-11.2231
中美洲	-11.2232
并能	-11.2232
使用武力	-11.2232
▁你不能	-11.2233
▁毫无疑问	-11.2233
----	-11.2234
伊斯兰教	-11.2234
▁您需要	-11.2239
结构的	-11.2239
城市化	-11.224
支架	-11.2241
日常生活	-11.2241
▁这是因为	-11.2241
地产	-11.2242
▁全	-11.2242
裔	-11.2244
已经有	-11.2244
米兰	-11.2247
氧气	-11.2248
被用来	-11.2249
制药	-11.225
转变为	-11.225
正确地	-11.2256
的协议	-11.2257
马拉	-11.2259
散发	-11.2259
生活水平	-11.2262
这三个	-11.2263
的课程	-11.2266
扩展到	-11.2267
知识和	-11.2269
提供者	-11.2273
她会	-11.2273
能找到	-11.2275
▁您也可以	-11.2276
澳洲	-11.2276
诊	-11.2278
志愿	-11.2282
之路	-11.2283
走廊	-11.2286
量的	-11.2286
交易记录	-11.2287
的那些	-11.2287
大规模的	-11.2289
等到	-11.2289
观察到	-11.2291
调度	-11.2293
一小时	-11.2294
极大地	-11.2295
来进行	-11.2295
公共服务	-11.2297
▁换句话说	-11.2297
的详细	-11.2298
恰当	-11.2298
预料	-11.2299
三名	-11.2303
学到	-11.2303
都知道	-11.2304
有超过	-11.2308
预见	-11.2308
女生	-11.231
表示欢迎	-11.2311
and	-11.2314
培训班	-11.2315
经济危机	-11.2317
这将是	-11.2317
机油	-11.2318
的最低	-11.2321
每人	-11.2321
您希望	-11.2321
了解有关	-11.2322
现在已经	-11.2323
玻利维亚	-11.2324
养老金	-11.2327
往来	-11.2331
红外	-11.2331
对美国	-11.2333
弹出	-11.2334
便携式	-11.2335
md	-11.2335
实物	-11.2335
平行	-11.2336
▁1997	-11.2337
我们不	-11.2337
平稳	-11.2338
写了	-11.2339
不妨	-11.2342
七个	-11.2342
斯顿	-11.2343
绝不	-11.2344
到一个	-11.2345
詹姆斯	-11.2345
你已经	-11.2346
拒	-11.2348
专长	-11.2349
的职业	-11.2352
摸	-11.2352
处境	-11.2352
–	-11.2353
时限	-11.2353
下属	-11.2354
名义	-11.2355
正常运行	-11.2355
专门的	-11.2355
经验和	-11.2357
▁面对	-11.236
会继续	-11.2362
紧凑	-11.2362
如果有	-11.2363
▁led	-11.2364
▁与会者	-11.2364
▁在这些	-11.2364
备忘录	-11.2365
尼加拉瓜	-11.2365
弹簧	-11.2365
的特征	-11.2365
你会发现	-11.2366
转动	-11.2368
会造成	-11.237
这些建议	-11.2371
被用于	-11.2371
总计	-11.2372
联合国的	-11.2373
任何东西	-11.2373
▁意大利	-11.2374
州的	-11.2374
不止	-11.2375
账单	-11.2376
指称	-11.2376
永久性	-11.2376
式的	-11.2378
罗伯特	-11.2379
将导致	-11.2383
联网	-11.2383
派出	-11.2384
汁	-11.2384
更改为	-11.2386
领导的	-11.2387
该软件	-11.2387
粒	-11.2392
后续行动	-11.2392
可以利用	-11.2393
不确定性	-11.2395
违法	-11.2396
的罪行	-11.2397
是最好的	-11.24
的副本	-11.24
之间的联系	-11.2401
▁我们现在	-11.2402
效率和	-11.2402
辞	-11.2402
轮廓	-11.2403
社会中	-11.2408
凭证	-11.2409
会见	-11.2409
友好的	-11.241
常任理事国	-11.2411
史密斯	-11.2411
刊	-11.2411
爆	-11.2411
落后	-11.2411
mc	-11.2412
另一项	-11.2414
▁孩子们	-11.2415
做一个	-11.2416
前任	-11.2417
剪	-11.2417
便会	-11.2419
的背景	-11.2422
个百分点	-11.2423
簿	-11.2423
电磁	-11.2424
加强对	-11.2424
个国家的	-11.2425
国际刑事法院	-11.2425
爱好者	-11.2427
下一代	-11.2428
知道他	-11.2428
布拉	-11.2428
▁设置	-11.2429
实际的	-11.2434
▁在中国	-11.2436
笔记本	-11.2437
赠款	-11.2437
哪儿	-11.2438
对联合国	-11.2438
▁每个人都	-11.2439
搭乘	-11.2442
弃	-11.2443
休假	-11.2447
大选	-11.2448
慢性	-11.2451
获胜	-11.2451
▁两个	-11.2452
省份	-11.2452
深化	-11.2453
乃至	-11.2453
能得到	-11.2454
ki	-11.2454
保持在	-11.2455
程序和	-11.2456
的信任	-11.2456
妇	-11.2458
警察局	-11.2459
承运人	-11.2459
而这	-11.2461
小镇	-11.2461
犯有	-11.2462
汉语	-11.2465
遍布	-11.2465
使人	-11.2466
个月内	-11.2467
hi	-11.2469
各部门	-11.247
公主	-11.2471
简便	-11.2471
夏威夷	-11.2472
忘	-11.2472
说出	-11.2475
准确地	-11.2475
深受	-11.2475
车轮	-11.2475
颇	-11.2476
演奏	-11.2477
也就	-11.2477
真的很	-11.248
该网站	-11.248
per	-11.2481
解锁	-11.2483
发现自己	-11.2483
接地	-11.2484
健康和	-11.2484
弱势	-11.2485
地毯	-11.2486
八个	-11.2486
好朋友	-11.2488
纺织	-11.2489
之外的	-11.2491
有益的	-11.2493
稳	-11.2494
杨	-11.2496
堆栈	-11.2496
受益于	-11.2497
正在使用	-11.25
▁35	-11.2502
老年	-11.2502
漆	-11.2504
糟	-11.2506
并鼓励	-11.2506
并要求	-11.2507
莫桑比克	-11.2508
▁科	-11.2509
▁这就	-11.2509
▁巴	-11.251
范	-11.251
得到的	-11.251
思路	-11.2511
直观	-11.2511
我所	-11.2513
od	-11.2513
合伙人	-11.2513
▁(2)	-11.2515
他们都	-11.2515
角落	-11.2517
被拘留者	-11.2518
能为	-11.2518
有毒	-11.2521
工作区	-11.2521
党派	-11.2521
早在	-11.2522
上课	-11.2525
咬	-11.2525
陪	-11.2526
投资于	-11.2526
陶	-11.2527
四月	-11.2528
计数器	-11.2528
进行审查	-11.2529
峰	-11.2532
鲜	-11.2533
吉尔	-11.2537
的提议	-11.2538
该等	-11.254
持有人	-11.2543
集团的	-11.2544
飓风	-11.2545
孙	-11.2545
有需要	-11.2547
膨胀	-11.2547
的其它	-11.2548
ag	-11.2549
很好地	-11.255
提到了	-11.255
特别会议	-11.2555
所涉及的	-11.2556
杀人	-11.2557
议案	-11.2557
▁53.	-11.2557
的对话	-11.2558
欢乐	-11.2558
他还	-11.256
你的朋友	-11.256
的前	-11.2561
及其它	-11.2562
所用	-11.2562
市场经济	-11.2566
或者在	-11.2568
她是	-11.2569
败	-11.2569
阀门	-11.2571
▁上帝	-11.2572
天花板	-11.2572
您能	-11.2573
能使	-11.2574
×	-11.2577
娃	-11.2579
专有	-11.258
头脑	-11.2581
习	-11.2582
执政	-11.2583
实习	-11.2583
树立	-11.2584
请将	-11.2586
椅子	-11.2586
艇	-11.2589
区域组织	-11.259
网络的	-11.2591
可以帮助您	-11.2593
赚钱	-11.2594
期待着	-11.2594
杠杆	-11.2594
收益率	-11.2595
可达	-11.2596
电网	-11.2597
有所增加	-11.2597
长期以来	-11.2598
儿童和	-11.2599
近东救济工程处	-11.2599
将与	-11.26
该产品	-11.26
阐述了	-11.2603
饰	-11.2603
免税	-11.2604
借贷	-11.2605
抚养	-11.2607
游行	-11.2607
参议员	-11.2608
字节	-11.2608
一大	-11.261
▁这两个	-11.2614
保管	-11.2618
文件和	-11.2619
到处	-11.2621
科学技术	-11.2621
乙	-11.2621
猜测	-11.2622
所以我们	-11.2623
发给	-11.2625
一月	-11.2626
的工资	-11.2626
心灵	-11.2626
安慰	-11.2627
很清楚	-11.2627
的示例	-11.2628
凉	-11.2628
怎么说	-11.2628
最初的	-11.2629
他们已经	-11.263
赞	-11.2631
流感	-11.2631
夫妻	-11.2632
ls	-11.2632
▁400	-11.2633
在处理	-11.2635
问题时	-11.2635
歧视性	-11.2635
大麻	-11.2639
pp	-11.2641
▁但你	-11.2641
的那个	-11.2642
(3	-11.2642
是关于	-11.2643
妹妹	-11.2643
▁这就是为什么	-11.2649
受害	-11.2649
独一无二的	-11.265
文化的	-11.265
以至于	-11.2652
返回到	-11.2653
工作时	-11.2653
年度报告	-11.2654
无视	-11.2658
诚	-11.2658
商学院	-11.266
正好	-11.2661
有力的	-11.2661
反过来	-11.2662
工业化	-11.2663
通过使用	-11.2663
链接到	-11.2663
对环境	-11.2664
在没有	-11.2665
在世界各地	-11.2666
重点是	-11.2668
大臣	-11.2668
后期	-11.2669
我去	-11.2669
的测试	-11.267
精神病	-11.2671
受影响的	-11.2672
几十年	-11.2673
利用率	-11.2673
全景	-11.2674
下述	-11.2675
汽	-11.2676
这表明	-11.2677
则将	-11.2677
星期天	-11.268
可怕	-11.268
批准了	-11.2681
而定	-11.2684
抵押	-11.2685
一句	-11.2686
的复杂性	-11.2686
应该在	-11.2686
交互式	-11.2688
和协调	-11.2689
研究的	-11.2691
施政	-11.2691
当他	-11.2694
世界贸易组织	-11.2695
我感到	-11.2695
国内法	-11.2699
鼠	-11.27
一种新的	-11.2701
有望	-11.2701
奶酪	-11.2703
是人类	-11.2705
增值税	-11.2706
晶	-11.2707
研究中	-11.2707
已于	-11.2708
或删除	-11.271
请务必	-11.2711
跟随	-11.2712
和实施	-11.2713
但其	-11.2713
血管	-11.2713
定量	-11.2713
钙	-11.2714
不扩散	-11.2716
欢	-11.2719
平滑	-11.2719
阶级	-11.2723
和区域	-11.2724
扣除	-11.2724
的一名	-11.2725
研究者	-11.2725
▁km	-11.2726
原本	-11.2726
任务的	-11.2726
资本主义	-11.2727
是真的	-11.2728
▁伊	-11.2728
暂	-11.2729
有关的问题	-11.273
同类	-11.273
进程的	-11.273
分娩	-11.2731
蛇	-11.2731
尘	-11.2733
有三个	-11.2739
您自己的	-11.2739
难度	-11.2739
我应该	-11.2739
固件	-11.2741
养殖	-11.2741
万美元的	-11.2742
尤为	-11.2743
1.0	-11.2743
▁52.	-11.2743
肥	-11.2744
对那些	-11.2746
订正	-11.2746
的范围内	-11.2746
运行状况	-11.2746
的主要原因	-11.2747
落在	-11.2749
童	-11.2749
ig	-11.275
我国代表团	-11.275
航线	-11.2753
可以被	-11.2753
了你	-11.2754
▁但是我	-11.2754
精彩	-11.2755
人身	-11.2755
攻	-11.2756
反腐败	-11.2756
阵	-11.2757
数据收集	-11.2763
和商业	-11.2763
,”	-11.2763
培训方案	-11.2764
的建筑	-11.2764
均为	-11.2765
创建了	-11.2765
卢森堡	-11.2766
商用	-11.2767
的顺序	-11.2769
许	-11.277
标识符	-11.2771
这款	-11.2771
辉煌	-11.2771
行政长官	-11.2772
计划在	-11.2773
该部	-11.2775
的积极	-11.2775
于是	-11.2775
地方当局	-11.2775
商机	-11.2776
召集	-11.2777
我必须	-11.2781
错误消息	-11.2784
影响了	-11.2788
斯塔	-11.2789
严	-11.279
▁软件	-11.279
致力	-11.279
走私	-11.2792
了一份	-11.2794
再见	-11.2794
期内	-11.2794
此功能	-11.2795
怒	-11.2796
解决冲突	-11.2797
免除	-11.2797
▁欧盟	-11.2797
还有一些	-11.2799
▁杰克	-11.2799
是世界上	-11.2799
▁伦敦	-11.28
的特性	-11.2801
的自然	-11.2801
欧洲委员会	-11.2803
在国家	-11.2803
统	-11.2805
严重影响	-11.2805
者们	-11.2806
以减少	-11.2807
原先	-11.2809
推出了	-11.2809
▁真	-11.2809
旅行者	-11.2811
资深	-11.2814
伊朗伊斯兰共和国	-11.2814
缺失	-11.2815
书写	-11.2816
乌兹别克斯坦	-11.2817
行径	-11.2821
可以让	-11.2822
人格	-11.2823
派对	-11.2824
就越	-11.2829
暴力和	-11.2831
用户名	-11.2831
iphone	-11.2835
启发	-11.2835
安妮	-11.2835
愿景	-11.2836
目标和	-11.2836
收缩	-11.2837
应将	-11.2838
瓦尔	-11.2839
维奇	-11.2839
战略性	-11.2841
缘	-11.2842
益	-11.2843
客户机	-11.2843
出现问题	-11.2844
国家机构	-11.2844
我们没有	-11.2844
的秘密	-11.2848
坦克	-11.2849
秋天	-11.2849
上世纪	-11.285
的组合	-11.2851
伤亡	-11.2851
裁	-11.2857
人权高专办	-11.2858
冬	-11.2858
的客房	-11.2858
它能	-11.2861
呆在	-11.2862
sl	-11.2862
共计	-11.2862
残酷	-11.2863
控制和	-11.2866
皆	-11.2867
商业银行	-11.2868
的头	-11.287
句子	-11.2872
自由化	-11.2873
柴油	-11.2873
确定的	-11.2875
经验丰富的	-11.2877
近来	-11.2877
的根本	-11.288
绝缘	-11.2881
所必需的	-11.2881
自由的	-11.2882
车队	-11.2884
环境问题	-11.2887
沙发	-11.2887
▁默认情况下	-11.2887
防水	-11.2888
演示文稿	-11.2888
守则	-11.289
格林	-11.2891
▁厘米	-11.2892
捐助方	-11.2894
鼓舞	-11.2895
▁国际社会	-11.2896
向他	-11.2896
赛车	-11.2897
逆	-11.2897
衬	-11.2898
困惑	-11.2898
投放	-11.2899
牙买加	-11.29
军官	-11.2901
和第	-11.2903
心情	-11.2904
可帮助您	-11.2905
▁我们知道	-11.2905
魔	-11.2907
捕	-11.2909
提问	-11.2909
这篇文章	-11.2911
射击	-11.2911
再度	-11.2911
▁你为什么	-11.2913
中没有	-11.2914
▁奥巴马	-11.2915
得益于	-11.2915
巴勒斯坦权力机构	-11.2916
武力	-11.292
凭借	-11.2922
期权	-11.2922
的情形	-11.2924
新功能	-11.2926
个星期	-11.2926
将使用	-11.2927
市政	-11.2929
所说	-11.2933
相等	-11.2935
色调	-11.2937
▁80	-11.2938
挑战性	-11.2939
在亚洲	-11.2939
山脉	-11.2943
参加者	-11.2943
净化	-11.2944
日前	-11.2946
一把	-11.2946
工作地点	-11.2946
巨额	-11.2948
工发组织	-11.2952
螺栓	-11.2952
▁输入	-11.2953
放射性	-11.2953
般	-11.2954
很有趣	-11.2955
▁ibm	-11.2955
政治家	-11.2955
隐	-11.2956
一份报告	-11.2958
带走	-11.2959
爱的	-11.296
候	-11.296
如下所示	-11.2961
在全世界	-11.2962
佣金	-11.2962
其工作	-11.2964
庞大	-11.2964
亚马逊	-11.2964
▁这是我们	-11.2966
审讯	-11.2966
奉献	-11.2967
很有用	-11.2967
学士学位	-11.2967
通过电子邮件	-11.2968
的公共	-11.2969
僵局	-11.297
拿着	-11.2971
合规性	-11.2971
▁此类	-11.2971
▁在你	-11.2971
的一半	-11.2972
在新	-11.2972
▁接着	-11.2973
资本市场	-11.2973
跳过	-11.2973
染	-11.2975
gps	-11.2975
练	-11.2975
所知	-11.2975
试用	-11.2976
延期	-11.2976
奥巴马总统	-11.2977
否定	-11.2978
本协议	-11.2978
祖	-11.2978
界限	-11.2978
财政部	-11.2978
堕胎	-11.298
两条	-11.298
宿舍	-11.2981
极限	-11.2981
统计数字	-11.2984
吁请	-11.2985
的空气	-11.2987
▁我必须	-11.2988
曝光	-11.299
此举	-11.2991
工作效率	-11.2992
0.00	-11.2992
lt	-11.2994
寒	-11.2994
案件的	-11.2995
送给	-11.2995
升值	-11.3001
始于	-11.3002
万名	-11.3003
您所	-11.3003
闪	-11.3003
您对	-11.3003
执行的	-11.3003
毁灭	-11.3003
德拉	-11.3003
本质上	-11.3004
益处	-11.3006
的一系列	-11.3006
氮	-11.3009
很明显	-11.3009
建设和平	-11.3009
拥抱	-11.301
所采取的	-11.3011
三月	-11.3011
移到	-11.3012
是重要的	-11.3013
挂钩	-11.3015
判	-11.3015
各会员国	-11.3017
证件	-11.3018
带给	-11.3019
奥运	-11.3019
骑自行车	-11.3019
丢	-11.3024
严厉	-11.3025
来完成	-11.3026
▁如果有	-11.3027
签署的	-11.3028
项目管理	-11.3028
一些问题	-11.3028
鼻	-11.3028
估计数	-11.3029
财	-11.3029
仍将	-11.303
迷你	-11.303
可以对	-11.3031
确保在	-11.3032
一代	-11.3034
大家都	-11.3035
了自己的	-11.3037
来这里	-11.3038
宝贵	-11.3038
投影	-11.3039
万亿美元	-11.304
妈	-11.3041
而且在	-11.3041
和培训	-11.3043
写道	-11.3044
轻微	-11.3048
测定	-11.3049
我真的	-11.305
▁在一个	-11.3052
布鲁塞尔	-11.3052
可能存在	-11.3053
天的	-11.3053
赶上	-11.3055
详细说明	-11.3056
这些机构	-11.3057
的生活方式	-11.3057
取出	-11.3059
▁我没	-11.3059
行政当局	-11.3059
勃	-11.306
但她	-11.306
解雇	-11.3062
捕鱼	-11.3062
学费	-11.3062
要做	-11.3062
ter	-11.3063
览	-11.3063
联系我们	-11.3064
发达	-11.3064
都已	-11.3064
恶劣	-11.3065
nc	-11.3065
预防和	-11.3067
薪水	-11.3069
加重	-11.307
陆	-11.3071
和水	-11.3072
肾	-11.3073
(2	-11.3074
逃避	-11.3074
感谢你	-11.3076
累计	-11.3077
横向	-11.308
的环境中	-11.3082
中的作用	-11.3082
所载	-11.3085
光明	-11.3086
庭	-11.3087
伪造	-11.3088
的意思	-11.309
的债务	-11.3091
了大量	-11.3091
▁他对	-11.3092
▁也就是说	-11.3093
包容	-11.3093
北极	-11.3094
的含义	-11.3094
在当地	-11.3097
亲属	-11.3099
尸体	-11.31
库中	-11.3101
押	-11.3101
我爱你	-11.3102
室外游泳池	-11.3102
根据第	-11.3104
的合法	-11.3104
服从	-11.3105
的解决办法	-11.3105
3.5	-11.3107
的频率	-11.3111
过程的	-11.3111
内外	-11.3114
棘手	-11.3115
增量	-11.3115
宽容	-11.3116
则在	-11.3117
能看到	-11.3117
8><	-11.3118
是唯一	-11.3118
孕	-11.3121
离子	-11.3122
外层空间	-11.3122
内战	-11.3122
它还	-11.3125
离职	-11.3125
总督	-11.3125
▁re	-11.3126
▁54.	-11.3126
亚太	-11.3126
间谍	-11.3127
洪	-11.3128
▁'	-11.3128
偶	-11.3129
将所有	-11.3129
继续在	-11.3129
饲料	-11.313
就需要	-11.3131
调查显示	-11.3132
果汁	-11.3132
下文	-11.3134
论述	-11.3134
主席团	-11.3134
焊	-11.3135
可爱	-11.3137
如果不	-11.3137
的声明	-11.3137
小的	-11.3138
所要求的	-11.3139
亚太地区	-11.314
人造	-11.314
圆形	-11.3142
▁瑞士	-11.3143
日趋	-11.3144
巴林	-11.3145
副总裁	-11.3146
以保证	-11.3147
齿	-11.315
包括对	-11.3151
试点	-11.3152
快速发展	-11.3152
委员会在	-11.3154
高尔夫	-11.3154
▁可以使用	-11.3155
▁视频	-11.3155
持久的	-11.3155
卫生组织	-11.3156
平台上	-11.3156
我们正在	-11.3156
能够提供	-11.3158
的银行	-11.3161
威尔	-11.3162
获利	-11.3163
中得到	-11.3163
的每一个	-11.3163
书中	-11.3171
现任	-11.3171
▁本报告	-11.3172
谅解备忘录	-11.3172
但是他	-11.3174
冗余	-11.3174
与此同时	-11.3176
也许会	-11.3177
就不能	-11.3177
得出结论	-11.3178
工商	-11.3179
紧张局势	-11.318
敌	-11.3182
得分	-11.3183
资产的	-11.3183
二者	-11.3184
面部	-11.3185
性剥削	-11.3185
逊	-11.3185
军人	-11.3187
定罪	-11.3189
徒	-11.319
时使用	-11.319
多了	-11.319
的评估	-11.3191
的律师	-11.3191
190	-11.3192
好莱坞	-11.3193
▁现在我们	-11.3193
▁你需要	-11.3193
是可以	-11.3194
健全	-11.3194
170	-11.3195
早些时候	-11.3196
▁您必须	-11.3196
处理的	-11.3198
俄	-11.3198
哥本哈根	-11.3198
教育部	-11.3198
▁这包括	-11.3201
日本的	-11.3202
能让	-11.3202
里有	-11.3203
▁大家	-11.3203
名人	-11.3204
归还	-11.3204
伴随着	-11.3207
箱子	-11.3207
审查了	-11.3207
性能和	-11.3207
腰	-11.3208
▁你说	-11.3209
请访问	-11.3211
穿越	-11.3212
存储库	-11.3212
其他的	-11.3214
行走	-11.3216
提供更多	-11.3216
则该	-11.3221
男朋友	-11.3222
家中	-11.3222
很高的	-11.3223
公共交通	-11.3224
▁ca	-11.3225
所得税	-11.3226
骨骼	-11.3227
所作	-11.3227
不断发展	-11.3227
拥有一个	-11.3228
需要使用	-11.323
投机	-11.323
不会再	-11.3232
时间为	-11.3232
不再需要	-11.3232
据说	-11.3234
的人都	-11.3234
打扰	-11.3236
并提高	-11.3237
临	-11.3238
科学研究	-11.324
杰出	-11.3243
厕所	-11.3244
业务的	-11.3244
这一事实	-11.3244
个月的	-11.3248
不去	-11.3248
其他地区	-11.3249
弱势群体	-11.325
生活质量	-11.3252
ur	-11.3252
▁但我们	-11.3255
必须有	-11.3256
征求	-11.3258
▁二	-11.3259
▁主席先生	-11.326
日后	-11.326
追究	-11.3261
水泥	-11.3262
是个好	-11.3262
年级	-11.3262
风险评估	-11.3263
并支持	-11.3264
▁毕竟	-11.3268
的原因是	-11.3268
白人	-11.327
两大	-11.327
司法机构	-11.327
▁公寓	-11.3271
混合物	-11.3271
拆卸	-11.3273
相符	-11.3275
他也	-11.3276
bc	-11.3277
内罗毕	-11.3277
而成	-11.3279
文化遗产	-11.328
其后	-11.3281
成品	-11.3283
一定是	-11.3283
控制权	-11.3284
相关联	-11.3287
掩盖	-11.3288
而异	-11.329
推翻	-11.329
是什么意思	-11.3291
研究结果	-11.3292
栋	-11.3293
还有其他	-11.3293
意义的	-11.3294
小时的	-11.3295
培育	-11.3295
▁玛丽	-11.3296
生殖	-11.3297
提供各种	-11.3299
作出反应	-11.33
大数据	-11.33
▁45	-11.3301
健身中心	-11.3302
-20	-11.3302
更安全	-11.3302
dvd	-11.3304
其中有	-11.3306
的决策	-11.3307
▁图	-11.3308
别人的	-11.3308
▁除此之外	-11.3309
湿度	-11.331
ill	-11.3311
并促进	-11.3312
众议院	-11.3312
胆	-11.3313
直接影响	-11.3315
的商品	-11.3315
缴	-11.3316
期刊	-11.3317
具体取决于	-11.3319
球迷	-11.3319
半岛	-11.3321
显著的	-11.3322
倾	-11.3323
可能被	-11.3323
有意义	-11.3325
的高级	-11.3326
医师	-11.3327
▁57.	-11.3327
卖出	-11.3327
此过程	-11.3328
阿里	-11.3329
却没有	-11.3332
并希望	-11.3333
人道	-11.3333
宽松	-11.3335
贯彻	-11.3338
其对	-11.334
和信息	-11.3341
艺术品	-11.3343
最长	-11.3343
▁非洲	-11.3344
示威	-11.3345
ut	-11.3345
▁ma	-11.3346
解答	-11.3347
溶剂	-11.3348
念	-11.335
都市	-11.3351
采取的行动	-11.3352
我还是	-11.3352
ct	-11.3355
应为	-11.3355
说了	-11.3358
是必要的	-11.3358
偏差	-11.336
走过	-11.3361
▁上海	-11.3362
涌	-11.3362
最早	-11.3363
决定了	-11.3363
3)	-11.3364
在一些	-11.3365
您会	-11.3365
常设	-11.3365
流离失所者	-11.3367
搭配	-11.3368
家乡	-11.3368
不影响	-11.3369
▁这对	-11.337
可以获得	-11.3373
请你	-11.3373
稳步	-11.3373
甚至在	-11.3374
星星	-11.3375
了新的	-11.3376
启示	-11.3377
国际机构	-11.3382
服务于	-11.3384
不舒服	-11.3384
汇丰	-11.3386
把这些	-11.3386
中非共和国	-11.3386
变换	-11.3387
碰到	-11.3387
电器	-11.3389
选择性	-11.339
联合国在	-11.339
手臂	-11.339
诉诸	-11.3391
▁亚洲	-11.3391
峰值	-11.3394
珀	-11.3394
灰尘	-11.3395
它对	-11.3396
程序中	-11.3396
▁正是	-11.3398
for	-11.3398
不利影响	-11.3398
层次结构	-11.34
吸引了	-11.3401
消毒	-11.3402
波多黎各	-11.3405
拉丁美洲和加勒比	-11.3406
庆	-11.3407
和政策	-11.3407
的稳定	-11.3407
的命令	-11.3409
普通的	-11.341
建筑师	-11.341
战术	-11.3412
出错	-11.3413
毫无疑问	-11.3413
并获得	-11.3413
前沿	-11.3413
监督厅	-11.3414
▁到目前为止	-11.3414
动议	-11.3415
的电影	-11.3415
放大器	-11.3415
在过去的	-11.3415
▁不论	-11.3416
似	-11.3416
海底	-11.3417
▁缔约国	-11.3417
有帮助	-11.3417
通常在	-11.3418
监	-11.3419
她们的	-11.3419
务必	-11.342
院长	-11.342
牢固	-11.342
阿拉伯叙利亚共和国	-11.3421
表明了	-11.3422
一开始	-11.3422
区域中	-11.3425
停下来	-11.3427
▁拉	-11.3427
但是我们	-11.3427
本地化	-11.3428
已将	-11.3431
几个小时	-11.3431
表面上	-11.3432
尔斯	-11.3434
做一些	-11.3434
改动	-11.3437
椅	-11.3438
什么东西	-11.344
散步	-11.3441
美景	-11.3441
之间进行	-11.3445
振兴	-11.3445
▁经	-11.3446
在德国	-11.3446
刘	-11.3446
扩大到	-11.3446
▁第二个	-11.3447
最先进的	-11.345
采取的措施	-11.3451
谁是	-11.3453
开发商	-11.3454
可变	-11.3455
和组织	-11.3457
里亚	-11.3458
为例	-11.3459
喀麦隆	-11.3459
可以说	-11.3459
具体情况	-11.3459
布置	-11.346
副主席	-11.346
▁免费	-11.3464
▁如需	-11.3464
敢	-11.3465
单身	-11.3465
高效率	-11.3468
哈里	-11.347
躺在	-11.347
行为者	-11.3471
贩运人口	-11.3472
可实现	-11.3472
怎么会	-11.3472
没有一个	-11.3472
▁巴西	-11.3472
那么你	-11.3472
和法律	-11.3473
将您的	-11.3474
鹰	-11.3475
时装	-11.3475
三项	-11.3477
在阿富汗	-11.3477
的财产	-11.3478
该地区的	-11.3479
天主教	-11.3482
行动者	-11.3482
的灵活性	-11.3482
喝酒	-11.3482
的申请	-11.3483
您想要	-11.3484
有很大	-11.3484
决定是否	-11.3485
工作负载	-11.3486
维多利亚	-11.3488
波士顿	-11.3488
跃	-11.3489
通过其	-11.3489
va	-11.3489
政府对	-11.349
▁各国	-11.3492
水分	-11.3493
迹	-11.3493
毛里求斯	-11.3494
减贫	-11.3494
游戏中	-11.3495
是否能	-11.3496
抗生素	-11.3497
1987	-11.3498
au	-11.3498
歌手	-11.3499
特别注意	-11.35
简短	-11.3502
华尔街	-11.3505
他认为	-11.351
粘贴	-11.3511
会带来	-11.3511
更重要	-11.3512
瞧	-11.3513
瞬间	-11.3514
今后的	-11.3515
现在是	-11.3516
双手	-11.3516
造型	-11.3518
▁我想我	-11.3518
的辩论	-11.3519
发病率	-11.352
发挥了	-11.352
渡轮	-11.352
国内流离失所者	-11.3521
▁cpu	-11.3522
注销	-11.3523
律	-11.3524
抵押贷款	-11.3525
▁55.	-11.3525
ya	-11.3526
兆	-11.3527
与他	-11.3527
也被	-11.3527
原则和	-11.3529
抛弃	-11.3529
十六	-11.353
的科学	-11.3533
基地组织	-11.3534
的艺术	-11.3534
郊区	-11.3536
交易的	-11.3536
的同事	-11.3536
少女	-11.3537
聆听	-11.3537
许多其他	-11.3538
谎言	-11.3539
我发现	-11.3541
平均值	-11.3541
的数据库	-11.3542
模仿	-11.3542
探测器	-11.3542
抛	-11.3542
提高效率	-11.3543
cp	-11.3544
会让	-11.3544
▁我从	-11.3545
早就	-11.3547
▁安	-11.3547
的学校	-11.3549
▁我们对	-11.3549
特使	-11.355
崛起	-11.3551
该决议	-11.3553
野生	-11.3553
不再是	-11.3554
激	-11.3555
淡水	-11.3555
侵权	-11.3558
的使命	-11.3558
缓	-11.3559
厨师	-11.3559
索尼	-11.3559
结果是	-11.356
恐吓	-11.3561
是不可能的	-11.3561
了她	-11.3563
截	-11.3564
设施和	-11.3564
吴	-11.3564
▁多年来	-11.3565
内心	-11.3565
在任何情况下	-11.3565
的图片	-11.3565
有关各方	-11.3566
的优点	-11.3567
斯科	-11.3567
开创	-11.3567
一小	-11.3569
境	-11.3569
积极地	-11.3571
复制到	-11.3571
▁记住	-11.3572
景色	-11.3573
gs	-11.3575
4)	-11.3576
巴厘岛	-11.3576
飞行员	-11.3576
▁y	-11.3577
历史性	-11.3577
地形	-11.3578
但你	-11.3578
交易者	-11.358
童年	-11.3582
将数据	-11.3583
探险	-11.3584
创建新	-11.3585
pr	-11.3587
犹太	-11.3587
▁出于	-11.3588
▁(1	-11.359
发誓	-11.359
筹集	-11.3591
不出	-11.3591
混淆	-11.3592
▁委员会注意到	-11.3592
想像	-11.3592
困	-11.3593
工作站	-11.3593
几百	-11.3593
没能	-11.3593
▁西班牙	-11.3595
我妈妈	-11.3595
现在就	-11.3595
把我们	-11.3598
生命中	-11.3599
db	-11.3599
在我国	-11.3602
宽敞	-11.3604
系统上	-11.3605
国别	-11.3605
技能和	-11.3605
和程序	-11.3605
的一天	-11.3605
的评论	-11.3605
欧安组织	-11.3605
纷纷	-11.3606
平等的	-11.3607
浮动	-11.361
服务器的	-11.3611
瘦	-11.3611
自助	-11.3612
结尾	-11.3613
的本质	-11.3614
薄膜	-11.3615
限制了	-11.3615
表示关注	-11.3616
盈余	-11.3616
在该国	-11.3618
▁通过使用	-11.3618
▁58.	-11.362
那里的	-11.3621
伞	-11.3621
利益相关者	-11.3622
掌控	-11.3624
原则上	-11.3629
都不会	-11.363
本届会议	-11.363
铃	-11.3632
医疗保险	-11.3636
画廊	-11.3637
进入了	-11.3637
现在的	-11.3639
政治和	-11.3639
洗衣机	-11.364
制动器	-11.3643
坡	-11.3643
公正的	-11.3645
都应该	-11.3645
六十	-11.3646
但是在	-11.3647
均有	-11.3648
惊讶	-11.3649
工作量	-11.365
概括	-11.3652
进行测试	-11.3652
川	-11.3653
生产者	-11.3653
也无法	-11.3653
进行研究	-11.3655
插槽	-11.3655
邻	-11.3655
温泉	-11.3656
应力	-11.3656
比其他	-11.3658
中国大陆	-11.3659
社区的	-11.3659
只能在	-11.3659
在全国	-11.3659
的有关	-11.366
一千	-11.3661
日和	-11.3664
▁今晚	-11.3664
则应	-11.3665
硕士	-11.3666
观赏	-11.3666
传媒	-11.3666
晓	-11.3667
老化	-11.3667
▁这类	-11.3668
登记册	-11.3669
他已经	-11.3669
和欧洲	-11.367
偶然	-11.367
达成的	-11.3671
的倡议	-11.3674
该应用程序	-11.3674
叔叔	-11.3674
并由	-11.3674
的到来	-11.3676
也就是说	-11.3677
日程	-11.3679
乐意	-11.368
该怎么办	-11.368
预警	-11.3681
可以找到	-11.3683
格局	-11.3683
聚焦	-11.3684
说法	-11.3685
使用寿命	-11.3685
建议您	-11.3686
1986	-11.3687
文件夹中	-11.3687
产权	-11.3688
裁军谈判会议	-11.3688
新年	-11.3689
这是因为	-11.3689
毁坏	-11.369
纳税人	-11.369
这可能	-11.369
windows	-11.369
集中于	-11.369
以太网	-11.3691
不论是	-11.3692
和平与稳定	-11.3692
▁如果您在	-11.3693
穷	-11.3695
好吧	-11.3696
最喜欢的	-11.3696
民用	-11.3696
风险的	-11.3697
的暴力	-11.3697
国的	-11.37
中型	-11.3701
称赞	-11.3702
聘	-11.3703
终结	-11.3703
贬值	-11.3705
申	-11.3705
开展合作	-11.3706
再加上	-11.3706
我只是	-11.3707
战略和	-11.3707
八月	-11.3713
不太可能	-11.3714
湖泊	-11.3716
支持者	-11.3716
基金的	-11.3723
ver	-11.3724
接管	-11.3725
他们就	-11.3726
▁阅读	-11.3727
▁没有人	-11.3728
安娜	-11.3729
锅	-11.3729
切断	-11.3729
一层	-11.3731
实质	-11.3731
mu	-11.3732
敌对	-11.3733
优雅	-11.3734
而导致	-11.3736
疑	-11.3737
经济复苏	-11.3737
舰	-11.3737
辩	-11.3738
▁是啊	-11.3742
数据保护	-11.3745
各国人民	-11.3746
情节	-11.3746
使它们	-11.3747
第八	-11.3747
一个非常	-11.3747
性质的	-11.3749
cu	-11.3749
实际情况	-11.3751
敏感的	-11.3751
tu	-11.3751
二进制	-11.3751
我们知道	-11.3754
的合同	-11.3755
史上	-11.3755
闪存	-11.3755
▁有了	-11.3756
内陆	-11.3757
宴会	-11.3758
确保所有	-11.3759
俄国	-11.3761
创始人	-11.3761
您可能会	-11.3764
驱	-11.3767
神话	-11.3767
出的	-11.3767
第二大	-11.3768
作法	-11.377
或通过	-11.377
默认值	-11.377
助手	-11.3771
宿	-11.3771
了这个	-11.3773
最大限度地	-11.3774
正在寻找	-11.3774
屏蔽	-11.3774
不明	-11.3776
舒	-11.3779
变化的	-11.3779
适合于	-11.3779
达成了	-11.3779
共同体	-11.3779
》、《	-11.3783
并进行	-11.3783
的协调	-11.3785
是对的	-11.3785
旗	-11.3785
塞族	-11.3786
ram	-11.3787
切换到	-11.3788
1985	-11.3789
爵士	-11.3791
灭	-11.3792
潮流	-11.3793
多长时间	-11.3796
岁时	-11.3796
轰炸	-11.3796
支配	-11.3797
小屋	-11.3797
我方	-11.3797
反而	-11.3798
谅解	-11.3799
海滨	-11.3799
击败	-11.3799
仅适用于	-11.38
赚取	-11.3802
▁如果他	-11.3803
中选择	-11.3803
则可	-11.3803
很棒	-11.3807
假如	-11.3807
的答案	-11.3809
润滑	-11.3809
ok	-11.381
包围	-11.3813
揭示	-11.3813
上运行	-11.3815
在特定	-11.3816
成本和	-11.3818
方面发挥	-11.3818
被人	-11.3819
与该	-11.3823
学期	-11.3823
并加强	-11.3824
▁添加	-11.3827
军火	-11.3828
安全措施	-11.3828
毁	-11.3831
两性	-11.3832
电视机	-11.3832
新生儿	-11.3833
发送电子邮件	-11.3833
的方式来	-11.3834
镜子	-11.3835
和儿童	-11.3835
清算	-11.3836
禁运	-11.3838
停用	-11.3838
各代表团	-11.384
锐	-11.384
这些项目	-11.3841
▁安全理事会	-11.3843
▁这座	-11.3843
收音机	-11.3843
公共政策	-11.3844
日期间	-11.3845
刮	-11.3846
一处	-11.3847
我想要	-11.3847
极度	-11.3848
成年	-11.3849
▁他们还	-11.385
世界杯	-11.385
的支持下	-11.3851
▁各	-11.3852
▁据说	-11.3854
数年	-11.3854
网球	-11.3855
榜样	-11.3858
硬币	-11.3858
愉快的	-11.3858
ab	-11.3858
核可	-11.3858
的技能	-11.3859
的支助	-11.386
捕捞	-11.3861
滤	-11.3862
民间社会组织	-11.3863
踢	-11.3863
将能够	-11.3864
潮湿	-11.3865
电线	-11.3866
殖民	-11.3866
火焰	-11.3867
以防	-11.3867
非洲的	-11.3868
▁韩国	-11.3871
燃	-11.3872
或任何	-11.3876
您的帐户	-11.3878
ws	-11.3878
其目的是	-11.3879
这是我	-11.3879
教育机构	-11.388
▁整个	-11.388
满意度	-11.3881
走上	-11.3883
广阔的	-11.3885
给了我	-11.3885
资产负债表	-11.3885
所提出的	-11.3886
热水	-11.3886
的信号	-11.3886
这件	-11.3887
味道	-11.3888
的利润	-11.3888
幸存者	-11.3889
▁56.	-11.389
▁埃	-11.3891
能帮助	-11.3896
童工	-11.3896
着我	-11.3896
rp	-11.3897
笑话	-11.3897
极具	-11.3899
深深	-11.3899
发展援助	-11.3899
良	-11.39
建立的	-11.3901
相似的	-11.3901
1970	-11.3901
稍微	-11.3902
技	-11.3904
利益冲突	-11.3904
殖民地	-11.3905
▁纽约	-11.3905
词语	-11.3906
列出的	-11.3909
▁他们说	-11.3909
软件开发	-11.3911
娅	-11.3911
在上海	-11.3911
显而易见	-11.3912
征服	-11.3912
就是这样	-11.3913
我们看到	-11.3913
空军	-11.3914
▁抱歉	-11.3915
图中	-11.3915
hs	-11.3916
福音	-11.3916
波特	-11.3917
的年龄	-11.3917
▁他认为	-11.3917
执行主任	-11.3921
床上	-11.3922
相邻	-11.3923
协商一致	-11.3923
放弃了	-11.3923
聚合物	-11.3924
不多	-11.3924
毫克	-11.3926
jo	-11.3928
gt	-11.3931
保持一致	-11.3933
引发了	-11.3933
假装	-11.3934
一系列的	-11.3935
无力	-11.3936
光谱	-11.3936
及相关	-11.3939
空格	-11.394
原谅	-11.3941
对我们的	-11.3942
明亮	-11.3942
盆	-11.3943
想过	-11.3944
发展计划	-11.3946
蓄电池	-11.3948
并就	-11.3948
提供的服务	-11.3951
找到一个	-11.3952
的物品	-11.3953
维和行动	-11.3954
千克	-11.3955
对应的	-11.3955
女王	-11.3955
鸟类	-11.396
国家公园	-11.396
时区	-11.3961
社团	-11.3962
扫描仪	-11.3963
拨号	-11.3964
大师	-11.3965
矩形	-11.3966
中进行	-11.3966
在不同的	-11.3967
辈	-11.3967
伟	-11.3968
汉堡	-11.3968
突出显示	-11.3968
每项	-11.397
东北	-11.397
财政资源	-11.397
的一位	-11.3974
1.1	-11.3974
有自己的	-11.3975
关系到	-11.3975
在日内瓦	-11.3978
▁秘书处	-11.3979
的美国	-11.3979
破裂	-11.3981
最后一	-11.3982
▁gb	-11.3986
被拘留	-11.3986
外出	-11.3986
村民	-11.3987
研究员	-11.3987
对儿童	-11.3987
章程	-11.3987
记录的	-11.3988
某项	-11.3989
模块化	-11.3989
▁你现在	-11.399
体现在	-11.399
振	-11.399
众所周知	-11.3991
回返	-11.3992
的人道主义	-11.3992
的持续	-11.3993
会议期间	-11.3993
昆虫	-11.3994
您还可以	-11.3994
拼写	-11.3994
起点	-11.3997
存储器	-11.3999
必须将	-11.4
是怎样	-11.4001
的整个	-11.4002
nt	-11.4002
确保您	-11.4005
▁想	-11.4006
腾	-11.4008
引领	-11.4009
大豆	-11.4009
恰	-11.401
被要求	-11.401
了什么	-11.4012
必须为	-11.4012
简直	-11.4013
免遭	-11.4015
短语	-11.4016
古典	-11.4017
次区域	-11.4018
吸取	-11.4021
急需	-11.4022
矿业	-11.4022
的第一步	-11.4022
际	-11.4022
和机构	-11.4023
疫情	-11.4027
出行	-11.4028
产品或服务	-11.4029
在印度	-11.4029
并非所有	-11.4031
不会有	-11.4033
甚至可以	-11.4033
丰田	-11.4033
▁他们是	-11.4033
▁在这一	-11.4034
▁59.	-11.4036
的格式	-11.4036
屠杀	-11.4036
健	-11.4038
▁儿童	-11.4038
头痛	-11.4038
表情	-11.404
超出了	-11.4041
名员工	-11.4041
毛巾	-11.4042
合法性	-11.4042
猜	-11.4042
用户帐户	-11.4046
并确定	-11.4046
的电子	-11.4047
每个国家	-11.4047
听众	-11.4047
越来越多地	-11.4048
概述了	-11.4049
美国经济	-11.405
的长度	-11.405
减肥	-11.4051
事态发展	-11.4051
保持不变	-11.4052
膳食	-11.4053
可以用来	-11.4055
人文	-11.4055
退还	-11.4056
硕士学位	-11.4056
看到你	-11.4058
而这些	-11.4065
届时	-11.4065
学术界	-11.4069
十八	-11.407
普遍的	-11.407
路上	-11.407
小小的	-11.407
不会影响	-11.4071
胎	-11.4072
▁100%	-11.4072
达成共识	-11.4075
▁它可以	-11.4076
▁传真	-11.4079
这样一种	-11.408
新生	-11.408
荒	-11.4081
梁	-11.4081
刑事司法	-11.4081
郡	-11.4081
薄弱	-11.4082
拟议的	-11.4083
4000	-11.4084
区域和国际	-11.4084
更是	-11.4087
的车辆	-11.4087
并开始	-11.4089
▁她们	-11.409
的居民	-11.4091
▁甚至	-11.4094
的服务器	-11.4098
除其他外	-11.4099
个人数据	-11.4099
很喜欢	-11.4099
生殖健康	-11.4101
荷	-11.4104
支付的	-11.4105
负面影响	-11.4105
窗口中	-11.4107
我们今天	-11.4108
聘请	-11.4109
两个人	-11.411
多万	-11.411
工作方法	-11.4112
你认为	-11.4119
9><	-11.4119
糖果	-11.4122
一点点	-11.4123
一对	-11.4124
卵	-11.4124
简洁	-11.4125
不佳	-11.4125
中小型企业	-11.4125
航天	-11.4126
▁老师	-11.4128
2-	-11.4128
有效性	-11.4128
被指控	-11.413
紫外线	-11.4131
越高	-11.4132
炸	-11.4133
立法会	-11.4133
我没	-11.4134
废水	-11.4135
人受伤	-11.4135
}	-11.4136
众多的	-11.4139
已从	-11.414
融	-11.414
仁	-11.4143
粉末	-11.4143
的关切	-11.4144
是很重要的	-11.4145
以便为	-11.4147
ft	-11.4148
最重要的是	-11.415
俩	-11.415
搬到	-11.4151
▁我们正在	-11.4152
他曾	-11.4152
荣	-11.4152
题目	-11.4156
赠	-11.4158
▁我把	-11.4161
判定	-11.4162
多于	-11.4163
以了解	-11.4165
调制解调器	-11.4165
和行政	-11.4165
反弹	-11.4166
的武器	-11.417
都可	-11.4171
一行	-11.4172
我感觉	-11.4174
上下	-11.4175
惠普	-11.4175
其中包含	-11.4176
想去	-11.4176
生物技术	-11.4176
是您	-11.4177
尺	-11.4177
卸载	-11.4178
能耗	-11.4179
的三个	-11.4181
是用	-11.4181
我一直	-11.4182
等着	-11.4183
最有	-11.4184
与国际	-11.4188
经济效益	-11.4188
和数据	-11.4193
劳工组织	-11.4193
1500	-11.4193
留意	-11.4194
空气污染	-11.4194
3-	-11.4196
性行为	-11.4196
线条	-11.4197
ah	-11.4197
撤消	-11.4198
的生日	-11.4202
行政管理	-11.4202
和政府	-11.4203
全国性	-11.4203
更低	-11.4205
下令	-11.4205
各州	-11.4206
有两种	-11.4207
打包	-11.4208
我不得不	-11.421
贷	-11.4211
bu	-11.4212
7>	-11.4212
进行一次	-11.4213
▁in	-11.4213
▁800	-11.4213
工作经验	-11.4214
合作社	-11.4214
温和	-11.4215
吞	-11.4217
的正确	-11.4219
撤回	-11.4219
阅	-11.422
顾及	-11.4222
以解决	-11.4222
基本权利	-11.4223
人来说	-11.4225
爱德华	-11.4229
嫁给	-11.4235
火星	-11.4236
向他们	-11.4236
的社区	-11.4237
阿拉伯联合酋长国	-11.4237
后台	-11.4237
con	-11.4238
会引起	-11.4238
保存在	-11.4238
虎	-11.4239
轻易	-11.4239
尴尬	-11.424
过后	-11.4243
小额	-11.4244
的大量	-11.4244
cf	-11.4244
洗衣	-11.4245
的一次	-11.4245
这些服务	-11.4246
运费	-11.4247
您使用	-11.4249
一度	-11.4251
物理学	-11.4251
喂	-11.4252
进行讨论	-11.4254
公交车	-11.4254
▁但如果	-11.4256
养护	-11.4256
设有一个	-11.4257
起初	-11.4258
用了	-11.4259
业内	-11.4262
不能再	-11.4263
咨询意见	-11.4264
将提供	-11.4264
与其它	-11.4265
生产能力	-11.4266
开枪	-11.4267
的人民	-11.4267
译	-11.4267
我不想	-11.4267
警察部队	-11.4268
此方法	-11.4269
巴塞罗那	-11.427
▁公里	-11.427
肯定会	-11.4271
一架	-11.4273
装有	-11.4273
将向	-11.4276
我们发现	-11.4276
的预期	-11.4277
实现这一目标	-11.4278
狮子	-11.4278
该中心	-11.4279
公认的	-11.4281
的大型	-11.4283
▁sa	-11.4284
看不见	-11.4284
facebook	-11.4284
提供信息	-11.4286
石油公司	-11.4286
他们所	-11.4288
听力	-11.4288
下降到	-11.429
社交网络	-11.429
上载	-11.4291
整个世界	-11.4292
商场	-11.4294
的领导	-11.4294
俯瞰	-11.4295
字典	-11.4295
科尔	-11.4295
迫害	-11.4296
表述	-11.4297
时才	-11.4298
的效力	-11.4298
发生了什么	-11.4299
塑	-11.4301
放射	-11.4302
0%	-11.4302
概要	-11.4303
不便	-11.4303
把这个	-11.4304
汇集	-11.4304
产品开发	-11.4305
未被	-11.4306
洁	-11.4308
个人和	-11.4309
du	-11.431
腔	-11.431
经由	-11.4311
移徙者	-11.4313
人心	-11.4314
楼层	-11.4314
历史的	-11.4315
开发银行	-11.4316
退化	-11.4316
创造一个	-11.4317
▁新加坡	-11.4317
咖啡厅	-11.4319
潘	-11.4319
▁600	-11.432
保护儿童	-11.432
可怜的	-11.4322
会给	-11.4327
权利和	-11.4328
希尔	-11.433
发现的	-11.433
妇女参与	-11.4331
2,000	-11.4332
受欢迎的	-11.4332
雕塑	-11.4334
正在进行的	-11.4335
估值	-11.4336
一流	-11.4336
油漆	-11.4336
您所在	-11.4336
肉类	-11.4337
本身的	-11.4338
伤心	-11.4338
▁难道	-11.4338
和民间社会	-11.434
选手	-11.4341
意识形态	-11.4342
优先考虑	-11.4342
挤	-11.4343
初次	-11.4343
珍珠	-11.4343
早已	-11.4343
容许	-11.4344
挽救	-11.4345
对他的	-11.4345
vo	-11.4345
裤	-11.4346
流失	-11.4349
阻力	-11.4352
诗歌	-11.4352
蒙特	-11.4353
保卫	-11.4353
▁70	-11.4353
阿拉伯国家	-11.4353
任何问题	-11.4353
四周	-11.4353
涉	-11.4355
ak	-11.4355
组织中	-11.4356
西北	-11.4356
口味	-11.4358
要求您	-11.4359
人类发展	-11.4359
▁许多人	-11.436
前途	-11.436
有钱	-11.436
精细	-11.4361
国际公约	-11.4362
他没有	-11.4362
买到	-11.4363
始	-11.4363
一事	-11.4364
嘛	-11.4364
成为一名	-11.4365
请不要	-11.4366
一直都	-11.4367
应包括	-11.4369
提案国	-11.4369
细则	-11.437
科学和技术	-11.437
征税	-11.4371
全世界的	-11.4371
不管是	-11.4371
灌溉	-11.4372
明确地	-11.4373
日语	-11.4373
解决这些问题	-11.4373
坑	-11.4375
意义上	-11.4376
奥林匹克	-11.4378
酒吧和	-11.4379
mt	-11.4381
艺	-11.4382
什么呢	-11.4382
的担忧	-11.4383
扩大了	-11.4383
可能不会	-11.4384
消费品	-11.4385
▁总	-11.4385
商会	-11.4386
usb	-11.4386
方法和	-11.4387
厄	-11.4387
后代	-11.4387
过去一年	-11.4388
挫折	-11.4388
借款	-11.4388
本月	-11.4391
▁这里有	-11.4391
不等	-11.4392
停机	-11.4392
特许	-11.4392
有多个	-11.4394
极端主义	-11.4395
▁学生	-11.4395
震惊	-11.4398
你还	-11.4398
看一下	-11.4398
被删除	-11.4399
那位	-11.44
不公正	-11.44
特定于	-11.4402
一揽子	-11.4402
▁ios	-11.4402
非洲大陆	-11.4404
所致	-11.4404
研究了	-11.4404
微波炉	-11.4405
古老	-11.4406
制订了	-11.4408
空运	-11.4409
进行调整	-11.4409
的多	-11.441
的形象	-11.4412
▁汽车	-11.4414
▁但这	-11.4415
伸	-11.4415
警卫	-11.4415
被判	-11.4415
这个词	-11.4418
添加了	-11.4418
新版本	-11.4418
部分中	-11.4418
每隔	-11.4419
▁如果是	-11.442
不接受	-11.4425
创办	-11.4427
在一定程度上	-11.4428
比你	-11.4428
证据表明	-11.4429
庭院	-11.4431
巴格达	-11.4432
▁很抱歉	-11.4432
450	-11.4434
不被	-11.4435
总会	-11.4435
镇压	-11.4439
招标	-11.4439
进行任何	-11.4439
不予	-11.444
窄	-11.4441
我国的	-11.4441
ber	-11.4441
的礼物	-11.4442
执行此操作	-11.4443
的报道	-11.4443
镀	-11.4445
比赛中	-11.4446
半数	-11.4447
项下	-11.445
底层	-11.445
抱	-11.4451
七月	-11.4451
阻塞	-11.4453
补助金	-11.4453
▁1996	-11.4454
无聊	-11.4455
唤醒	-11.4456
受益人	-11.4456
的帐户	-11.4457
一封	-11.4458
登录到	-11.446
的形状	-11.446
塔吉克斯坦	-11.4461
可选择	-11.4462
中找到	-11.4462
见到你	-11.4463
自然的	-11.4464
珍惜	-11.4465
被害人	-11.4465
美国总统	-11.4465
▁假设	-11.4466
穿上	-11.4466
越来越大	-11.4466
美术	-11.4466
战场	-11.4467
的另一	-11.4467
在许多	-11.4468
到目前为止	-11.4468
海运	-11.4468
长久	-11.4468
可能包括	-11.4469
以获取	-11.4471
相当大的	-11.4471
查尔斯	-11.4471
惨	-11.4472
千万	-11.4474
一种方法	-11.4475
三星	-11.4475
提出的建议	-11.4475
0.1	-11.4475
▁我们不能	-11.4476
国际关系	-11.4478
专业化	-11.4478
密切相关	-11.4478
反映在	-11.4478
肌	-11.4479
的改变	-11.4479
岁以下	-11.4481
一分钟	-11.4483
维持和平行动部	-11.4483
▁一名	-11.4486
▁大会	-11.4486
的边缘	-11.4486
▁迄今为止	-11.4487
以保护	-11.4488
执照	-11.4488
克里斯	-11.4489
高品质的	-11.4491
私有化	-11.4493
都不能	-11.4493
叫我	-11.4493
和人权	-11.4494
还设有	-11.4495
还记得	-11.4495
关注的是	-11.4496
苦难	-11.4497
公务	-11.4497
内政部	-11.4499
的动物	-11.4501
模型中	-11.4503
一根	-11.4503
fl	-11.4503
吸入	-11.4504
尊重人权	-11.4505
我们是	-11.4505
学业	-11.4506
渐渐	-11.4506
随着时间的推移	-11.4506
进一步发展	-11.4508
帮助客户	-11.451
和创新	-11.4511
清醒	-11.4511
高盛	-11.4514
气温	-11.4514
按键	-11.4514
轿车	-11.4515
要想	-11.4516
组中	-11.4517
行业中	-11.4517
的特别	-11.4522
的经营	-11.4523
表达了	-11.4523
的股票	-11.4524
我爸爸	-11.4525
冷静	-11.4525
使您	-11.4525
基线	-11.4526
单据	-11.4526
机箱	-11.4527
办法是	-11.4528
遵从	-11.4529
全民	-11.453
后端	-11.453
群组	-11.453
边缘化	-11.453
反向	-11.4533
据报	-11.4534
以及为	-11.4535
保护区	-11.4536
华为	-11.4536
这些努力	-11.4536
晋升	-11.4539
一向	-11.4539
季节性	-11.4543
食品安全	-11.4543
意思	-11.4544
垂	-11.4546
日记	-11.4546
一本书	-11.4547
▁cookie	-11.4548
一遍	-11.4548
既是	-11.455
和质量	-11.4551
强制执行	-11.4552
不会被	-11.4552
线上	-11.4552
细分	-11.4552
等候	-11.4553
请查看	-11.4554
他自己	-11.4557
及其对	-11.4557
赌博	-11.4558
服务中心	-11.4558
与安全	-11.4559
艰难的	-11.4559
一个小时	-11.4559
we	-11.456
地上	-11.456
飘	-11.456
iv	-11.4561
的指导	-11.4563
他们没有	-11.4563
并已	-11.4563
合作伙伴关系	-11.4563
的问题是	-11.4564
快乐的	-11.4565
董事长	-11.4566
▁60.	-11.4566
研究发现	-11.4567
折磨	-11.4567
中存在	-11.4568
高出	-11.4569
局限于	-11.457
几项	-11.4571
公报	-11.4574
计算机的	-11.4574
重启	-11.4575
的职能	-11.4575
结果表明	-11.4575
每一天	-11.4577
全都	-11.4578
悲惨	-11.4578
怪物	-11.458
中午	-11.4581
犬	-11.4581
ow	-11.4584
嗯	-11.4585
从中	-11.4586
以适应	-11.4586
超时	-11.4586
成千上万的	-11.4587
抹	-11.4587
分公司	-11.4588
▁无论如何	-11.4589
上升到	-11.4589
弯	-11.459
锌	-11.459
air	-11.4591
对照	-11.4591
收入的	-11.4592
宾客	-11.4593
给出了	-11.4593
农村妇女	-11.4595
外交政策	-11.4595
它也	-11.4597
稳定和	-11.4598
对不起	-11.4599
tr	-11.4601
小女孩	-11.4602
还为	-11.4602
运载	-11.4602
第一步	-11.4603
艘	-11.4603
船长	-11.4603
▁该系统	-11.4606
逗留	-11.4606
恒	-11.4607
开展业务	-11.4609
英国人	-11.4609
前者	-11.461
与和平	-11.461
老虎	-11.461
▁一般来说	-11.4611
@	-11.4612
這	-11.4612
照相机	-11.4612
递交	-11.4613
car	-11.4613
纹	-11.4614
规约	-11.4614
的比赛	-11.4614
也是一个	-11.4615
您的个人信息	-11.4615
急性	-11.4617
人人	-11.4618
弗兰克	-11.4618
发展中	-11.4618
有一点	-11.4618
一起去	-11.4619
温室气体	-11.462
给人	-11.4622
功能和	-11.4622
范围内的	-11.4624
▁我们提供	-11.4626
尿	-11.4628
的困难	-11.4628
家居	-11.4629
冷冻	-11.463
当他们	-11.463
选票	-11.4631
空气中	-11.4631
筹	-11.4632
1.3	-11.4633
my	-11.4633
现在可以	-11.4634
必需的	-11.4634
可以查看	-11.4635
pt	-11.4637
核能	-11.4637
面临的挑战	-11.4637
格拉	-11.4638
要把	-11.4638
第七	-11.464
他的妻子	-11.464
▁这也是	-11.4641
途中	-11.4641
达成一致	-11.4643
十一月	-11.4644
▁无需	-11.4644
▁人类	-11.4645
可以访问	-11.4647
教徒	-11.4648
牙科	-11.4648
包括但不限于	-11.4651
大胆	-11.4651
如果他	-11.4651
关键问题	-11.4652
程序员	-11.4652
物价	-11.4653
搅拌	-11.4654
和她	-11.4654
水准	-11.4655
▁ad	-11.4655
并发症	-11.4656
需要对	-11.4656
最棒的	-11.4657
的表面	-11.4658
月期间	-11.4658
法制	-11.4659
误导	-11.466
▁61.	-11.4661
ib	-11.4662
它可能	-11.4662
次会议上	-11.4663
在许多情况下	-11.4664
球场	-11.4664
问他	-11.4665
撤	-11.4666
全额	-11.4666
左边	-11.4667
的大多数	-11.4668
吸毒	-11.4669
▁大约	-11.467
可能发生	-11.467
携手	-11.467
西欧	-11.467
必须采取	-11.4672
白皮书	-11.4672
树脂	-11.4674
(2)	-11.4674
性感	-11.4676
报告指出	-11.4678
其他任何	-11.4678
对人类	-11.4678
更快地	-11.4679
遇见	-11.468
审阅	-11.468
预言	-11.468
必须对	-11.4682
结核病	-11.4682
所处的	-11.4683
天才	-11.4683
您已	-11.4683
传说	-11.4685
带上	-11.4685
数据存储	-11.4686
请检查	-11.4687
致电	-11.4688
的模式	-11.4688
中央政府	-11.4688
组的	-11.4692
区域合作	-11.4694
95%	-11.4694
之间的合作	-11.4695
开发了	-11.4696
的象征	-11.4696
借此机会	-11.4698
国民议会	-11.4698
拉斯维加斯	-11.47
行政部门	-11.47
激进	-11.4701
再一次	-11.4702
对这个	-11.4704
▁62.	-11.4704
根据其	-11.4704
剑	-11.4705
有些国家	-11.4706
开源	-11.4706
英国的	-11.4707
觉得自己	-11.4707
▁周	-11.4707
谢谢你	-11.4708
审慎	-11.4709
可由	-11.4709
过时	-11.471
套餐	-11.4712
的直接	-11.4714
摊	-11.4715
委任	-11.4715
教材	-11.4716
分级	-11.4717
配对	-11.4719
纵	-11.4719
系统将	-11.472
对我国	-11.4723
一九九	-11.4725
受限	-11.4725
max	-11.4726
体面	-11.4728
低收入	-11.4729
尊敬	-11.4731
长途	-11.4731
共产党	-11.4733
寒冷	-11.4733
破坏了	-11.4734
与我	-11.4735
剩下的	-11.4736
的能源	-11.4736
不可或缺的	-11.4738
经营者	-11.4738
的一个主要	-11.474
大街	-11.474
偏离	-11.4742
水中	-11.4742
瀑布	-11.4742
丢弃	-11.4743
搜寻	-11.4743
他们自己的	-11.4743
十二月	-11.4745
想想	-11.4745
会发生什么	-11.4748
各大	-11.4748
留给	-11.4749
廷	-11.4752
农业和	-11.4752
配置为	-11.4752
梯	-11.4753
独家	-11.4754
府	-11.4754
浓	-11.4754
赛事	-11.4755
在他们	-11.4755
▁张	-11.4755
激烈的	-11.4756
全国各地	-11.4757
的地址	-11.4757
抵御	-11.4758
人人都	-11.4761
较多	-11.4761
在此处	-11.4761
必须遵守	-11.4762
到位	-11.4763
▁上周	-11.4763
产品组合	-11.4763
▁这也	-11.4764
治愈	-11.4764
▁下载	-11.4765
页上	-11.4765
正式的	-11.4768
柔软	-11.4768
无意	-11.4768
部署到	-11.477
双向	-11.4771
名儿童	-11.4771
写信	-11.4772
高风险	-11.4772
的设置	-11.4773
蜡烛	-11.4773
点钟	-11.4773
搜查	-11.4774
排气	-11.4774
所有相关	-11.4774
包含一个	-11.4774
大门	-11.4775
手里	-11.4775
的事项	-11.4776
头上	-11.4776
牧师	-11.4776
发展目标	-11.4777
分隔	-11.4777
ei	-11.4777
按需	-11.4778
以一种	-11.4779
进行谈判	-11.4781
▁你知道我	-11.4782
有罪	-11.4782
你也	-11.4782
扩充	-11.4783
该服务	-11.4786
写下	-11.4786
砸	-11.4788
专辑	-11.4789
正在努力	-11.479
互联	-11.479
并应	-11.4792
和平协定	-11.4792
山谷	-11.4792
最新版本	-11.4794
大道	-11.4794
对社会	-11.4794
哭泣	-11.4795
材料和	-11.4795
用餐区	-11.4797
在世界上	-11.4798
中的任何	-11.4798
的前提下	-11.4799
的名义	-11.4799
银行家	-11.4801
hr	-11.4801
海事	-11.4801
喷射	-11.4801
我们如何	-11.4801
象征	-11.4802
信函	-11.4803
解释了	-11.4805
的货物	-11.4806
▁我很高兴	-11.4806
这使得	-11.4807
设施的	-11.4808
为目标	-11.4808
促进发展	-11.4811
必须通过	-11.4812
装运	-11.4813
希望你	-11.4814
票价	-11.4815
主动行动	-11.4816
收据	-11.4816
今年的	-11.4819
并帮助	-11.4819
磁场	-11.482
的妻子	-11.4821
亿人	-11.4823
对任何	-11.4824
你得	-11.4824
修补程序	-11.4826
烦恼	-11.4826
漫画	-11.4826
缸	-11.4826
主观	-11.4827
清晰的	-11.4828
卫生间	-11.4828
催化剂	-11.4829
是全球	-11.4831
惹	-11.4832
插头	-11.4832
连同	-11.4833
不容易	-11.4833
遇到的	-11.4837
完成的	-11.4838
幼儿园	-11.4838
全天	-11.4839
应有的	-11.4839
▁你真的	-11.484
来临	-11.4842
的若干	-11.4843
确	-11.4845
探讨了	-11.4845
棉花	-11.4845
其主要	-11.4846
尼克	-11.4848
有更多	-11.4848
小规模	-11.4848
隐私政策	-11.4849
月亮	-11.485
正处于	-11.4852
▁你好	-11.4854
中国人民	-11.4854
摘	-11.4854
高尔夫球	-11.4856
高档	-11.4856
留下了	-11.4857
的成就	-11.4858
电子产品	-11.4859
需要考虑	-11.486
的框架	-11.4861
放下	-11.4862
发挥重要作用	-11.4863
你说	-11.4864
酱	-11.4866
的每一	-11.4868
讯息	-11.4868
胖	-11.4869
传入	-11.487
必须先	-11.4871
最优	-11.4871
二级	-11.4872
会看到	-11.4873
定义为	-11.4874
负责任的	-11.4877
刑事诉讼	-11.4878
高效地	-11.488
我不是	-11.488
第一阶段	-11.4883
竟然	-11.4884
其它国家	-11.4884
菲尔德	-11.4884
杰克逊	-11.4885
转换器	-11.4886
代谢	-11.4886
编写的	-11.4887
毒性	-11.4888
或服务	-11.489
的次数	-11.4893
帐篷	-11.4894
三分之二	-11.4894
简历	-11.4895
年年底	-11.4896
这些因素	-11.4896
年到	-11.4896
这个城市	-11.4898
猛	-11.4899
可能造成	-11.4902
还是在	-11.4903
齐全	-11.4903
桑拿浴室	-11.4903
访问了	-11.4904
奢华	-11.4909
也同样	-11.4912
重返	-11.4913
遥感	-11.4913
提供的信息	-11.4913
留言	-11.4913
美味的	-11.4914
把手	-11.4914
的治疗	-11.4915
既不	-11.4915
校正	-11.4916
市场准入	-11.4916
技术转让	-11.4917
在场	-11.4919
想象的	-11.492
由一个	-11.492
溶	-11.4921
布基纳法索	-11.4922
有信心	-11.4923
帖子	-11.4923
的联合	-11.4924
第二天	-11.4925
▁如果他们	-11.4929
加剧了	-11.4929
看出	-11.4931
▁页	-11.4931
骑士	-11.4932
wifi	-11.4933
范例	-11.4933
可供选择	-11.4934
烦	-11.4934
工序	-11.4935
值的	-11.4936
其他机构	-11.4936
(4	-11.4937
一个星期	-11.4937
使用一个	-11.4938
证实了	-11.4938
疯了	-11.494
司法系统	-11.494
来支持	-11.4942
认可的	-11.4944
收养	-11.4944
善于	-11.4946
电邮	-11.4946
需要有	-11.4947
联合国秘书长	-11.4949
承载	-11.4949
聪明的	-11.4951
也包括	-11.4952
访谈	-11.4955
应以	-11.4958
和应用	-11.4959
fc	-11.496
脆弱的	-11.496
获得成功	-11.4961
现实的	-11.4961
薪资	-11.4963
执行委员会	-11.4963
买入	-11.4964
寻	-11.4964
研	-11.4964
他们需要	-11.4965
应确保	-11.4965
演习	-11.4967
姐妹	-11.4969
枪支	-11.4971
醇	-11.4972
瑜伽	-11.4972
来源于	-11.4974
在当前	-11.4977
战略计划	-11.4977
搜集	-11.4979
灾难性	-11.4979
的物质	-11.4979
副秘书长	-11.4979
不利于	-11.498
烟雾	-11.498
数月	-11.4983
认为自己	-11.4985
的动力	-11.4986
棕色	-11.4986
也没	-11.4988
出差	-11.4988
绳	-11.4988
运气	-11.4989
这是一种	-11.499
也应该	-11.4992
全职	-11.4992
无权	-11.4993
先后	-11.4994
孤儿	-11.4997
非正规	-11.4997
减弱	-11.4998
偏移	-11.4999
忠实	-11.5
google	-11.5002
得到解决	-11.5004
和生产	-11.5005
上面的	-11.5005
版本中	-11.5005
健康问题	-11.5005
纳米比亚	-11.5006
各不相同	-11.5006
戒指	-11.5007
国家警察	-11.5008
直接或间接	-11.5009
诱惑	-11.5009
盲	-11.501
草稿	-11.501
克里	-11.5011
撒谎	-11.5013
▁海	-11.5013
蓄意	-11.5014
格雷	-11.5014
避开	-11.5017
代表了	-11.5018
纺织品	-11.5019
被占领	-11.5021
缺口	-11.5022
▁64	-11.5025
测试和	-11.5025
的团队	-11.5026
犯了	-11.5027
跟你说	-11.5029
打败	-11.5031
建议的	-11.5031
几十	-11.5032
工作计划	-11.5032
运算符	-11.5033
的比率	-11.5035
肝脏	-11.5035
兑现	-11.5036
的气氛	-11.5037
等方面的	-11.504
前来	-11.504
每一位	-11.5041
要有	-11.5041
盎司	-11.5041
各成员国	-11.5041
dd	-11.5043
流行的	-11.5043
妇女和	-11.5044
单纯	-11.5045
边框	-11.5045
子弹	-11.5047
提供必要的	-11.5047
天数	-11.5048
邮寄	-11.5049
法律顾问	-11.5049
我们想	-11.5049
独立专家	-11.505
杀伤人员地雷	-11.505
就像是	-11.5051
之地	-11.5052
神圣	-11.5052
▁自动	-11.5053
压迫	-11.5054
这样说	-11.5055
票据	-11.5055
hu	-11.5055
您就可以	-11.5058
这部	-11.506
来满足	-11.5061
作出努力	-11.5063
▁连接	-11.5063
方便地	-11.5063
四种	-11.5064
▁而在	-11.5067
▁我只	-11.5069
的反馈	-11.5069
竹	-11.507
0>,<	-11.507
污水	-11.507
有理由	-11.5071
像是	-11.5071
核算	-11.5071
标注	-11.5072
按时	-11.5072
管理部门	-11.5072
这事	-11.5073
能够为	-11.5073
一半的	-11.5074
存储空间	-11.5074
家庭和	-11.5075
经济合作	-11.5075
的出现	-11.5075
耐用	-11.5075
确实是	-11.508
ipad	-11.508
的帮助下	-11.508
的战争	-11.5082
der	-11.5082
钩	-11.5084
你可能会	-11.5085
现正	-11.5087
外语	-11.5088
恐慌	-11.5088
挂起	-11.509
开罗	-11.509
冷战	-11.5092
让人们	-11.5093
在他们的	-11.5095
公正和	-11.5097
则可能	-11.5099
我是个	-11.5099
关押	-11.51
跟进	-11.51
▁dns	-11.5103
赔偿责任	-11.5103
提高到	-11.5103
吞吐量	-11.5104
导演	-11.5106
第二部分	-11.5106
无家可归	-11.5107
第二阶段	-11.5108
商家	-11.5108
刀具	-11.5109
被告知	-11.511
考古	-11.511
卷入	-11.5111
溶液	-11.5111
旅	-11.5112
。”	-11.5112
获准	-11.5113
醉	-11.5114
损	-11.5114
完毕	-11.5114
伯格	-11.5115
水质	-11.5116
▁一般	-11.5118
无法使用	-11.5118
运算	-11.5119
完成工作	-11.5119
里程	-11.5119
报告称	-11.512
劣	-11.512
追溯	-11.512
区和	-11.512
生动	-11.5124
知道自己	-11.5124
同期	-11.5124
越大	-11.5124
san	-11.5124
mac	-11.5125
好奇	-11.5126
有很大的	-11.5126
你觉得	-11.5126
务实	-11.5126
宣传活动	-11.5127
排雷	-11.5128
佛教	-11.5129
的最好	-11.5131
▁sp	-11.5131
的官员	-11.5132
有时会	-11.5134
母语	-11.5135
▁如果使用	-11.5136
仙	-11.5136
着眼于	-11.5136
展会	-11.5136
妇女和女孩	-11.5136
的现实	-11.5137
伪	-11.5137
特里	-11.5138
软管	-11.514
的职位	-11.514
这种行为	-11.514
创造出	-11.5142
普遍性	-11.5145
加利福尼亚	-11.5145
▁al	-11.5148
测验	-11.5149
的当前	-11.5149
打交道	-11.5149
缓和	-11.5152
▁该报告	-11.5152
过去十年	-11.5153
深刻的	-11.5154
每秒	-11.5154
印发	-11.5155
几年前	-11.5155
诸	-11.5155
谷物	-11.5157
国际金融	-11.5157
该设备	-11.5157
的裁决	-11.5158
▁只有在	-11.5159
吃惊	-11.516
猴子	-11.516
兔子	-11.5164
质量控制	-11.5164
上一	-11.5165
tor	-11.5165
添加剂	-11.5166
专注	-11.5167
和高	-11.5168
ou	-11.5168
最大限度	-11.5168
api	-11.517
▁提交人	-11.517
光源	-11.517
斐济	-11.5174
与众不同	-11.5175
sn	-11.5177
对冲基金	-11.5177
化学物质	-11.5177
乐器	-11.5178
雷斯	-11.518
重型	-11.518
的手	-11.5183
▁ui	-11.5185
协调和	-11.5185
饮水	-11.5187
健康状况	-11.5187
做了什么	-11.5187
富裕	-11.5188
是世界上最	-11.5188
▁请记住	-11.5188
高等	-11.5189
和企业	-11.5189
米尔	-11.5189
的执行情况	-11.5192
指纹	-11.5192
酒店位于	-11.5192
开发出	-11.5192
起作用	-11.5193
访问者	-11.5193
陷	-11.5193
十七	-11.5195
非常简单	-11.5195
眼前	-11.5196
all	-11.5196
▁研究人员	-11.5198
高血压	-11.5198
的医疗	-11.52
进行更改	-11.5201
ell	-11.5203
表示感谢	-11.5204
▁新西兰	-11.5205
非政府组织和	-11.5205
墨	-11.5207
可以得到	-11.5207
的物理	-11.5207
阿拉	-11.5209
卫生和	-11.521
eg	-11.521
接收器	-11.521
替代品	-11.521
威尼斯	-11.5213
随之	-11.5214
可能与	-11.5214
种族灭绝	-11.5214
电讯	-11.5214
南南合作	-11.5218
恐怖主义行为	-11.5219
处以	-11.5219
徽标	-11.522
过去几年	-11.522
我的生活	-11.5222
最小的	-11.5223
▁63.	-11.5225
排水	-11.5226
消失了	-11.5226
▁警察	-11.5226
您的设备	-11.5227
传动	-11.5228
▁它也	-11.5229
盒子	-11.523
制造的	-11.5231
不那么	-11.5231
▁主	-11.5231
当地人	-11.5233
批发	-11.5234
转速	-11.5234
楼宇	-11.5234
将不	-11.5235
的标志	-11.5235
克莱	-11.5235
军用	-11.5237
大教堂	-11.5237
导师	-11.5238
新闻稿	-11.5239
有两	-11.5239
鲍	-11.524
伍德	-11.524
来保护	-11.524
环境影响	-11.524
西南	-11.5241
据此	-11.5243
通行	-11.5245
加利福尼亚州	-11.5246
痛苦的	-11.5246
半小时	-11.5249
tb	-11.525
会让你	-11.5251
内部的	-11.5252
▁365	-11.5252
残忍	-11.5252
走路	-11.5253
能效	-11.5253
家酒店	-11.5254
一节	-11.5255
涵盖了	-11.5256
海牙	-11.5257
愚蠢	-11.5258
处理程序	-11.5258
▁他们会	-11.5258
院校	-11.5259
载体	-11.5259
你不知道	-11.526
设立了一个	-11.526
血压	-11.526
干预措施	-11.5261
南京	-11.5262
早日	-11.5262
这只	-11.5263
玩耍	-11.5264
休息区	-11.5264
合法的	-11.5265
三角	-11.5266
(6	-11.5267
扭矩	-11.5268
的心脏	-11.5268
触发器	-11.5269
的正式	-11.5269
名妇女	-11.5269
一艘	-11.5271
的提案	-11.5271
的领导人	-11.5271
领域内	-11.5272
▁为什么你	-11.5273
刀片	-11.5274
坦桑尼亚	-11.5274
自决	-11.5274
最有效的	-11.5275
的免费	-11.5277
对未来	-11.5278
纯粹	-11.5278
研究机构	-11.5278
tv	-11.528
拦截	-11.5281
两家	-11.5281
避孕	-11.5281
反恐怖主义	-11.5283
随时随地	-11.5284
压缩机	-11.5285
以查看	-11.5285
受到限制	-11.5289
幽默	-11.5289
党的	-11.5289
在法国	-11.529
发件人	-11.529
推销	-11.5291
提高认识	-11.5291
的更改	-11.5291
兼顾	-11.5294
获得的	-11.5297
很有可能	-11.5298
系统会	-11.5301
是我国	-11.5301
和网络	-11.5301
得很好	-11.5302
离线	-11.5302
的医生	-11.5302
一幅	-11.5302
价格上涨	-11.5304
碱	-11.5304
的路	-11.5305
半年	-11.5307
但现在	-11.5308
但这些	-11.5308
的代价	-11.5309
解决的问题	-11.5309
职权	-11.5309
使用的是	-11.5311
sr	-11.5312
1>,<	-11.5312
▁快速	-11.5313
的元素	-11.5314
che	-11.5314
▁他指出	-11.5315
盗窃	-11.5315
一面	-11.5315
的额外	-11.5316
反思	-11.5316
结构化	-11.5316
遮	-11.5318
一致认为	-11.5318
1:	-11.532
业务活动	-11.532
▁48	-11.5321
审评	-11.5321
名誉	-11.5321
纽约市	-11.5321
在她的	-11.5321
sha	-11.5321
能提供	-11.5322
托马斯	-11.5323
的计算	-11.5326
陷阱	-11.5326
接触到	-11.5329
需要采取	-11.5329
十一	-11.5329
格尔	-11.533
都具有	-11.5332
并有	-11.5333
昂	-11.5334
著作	-11.5334
在必要时	-11.5338
▁双方	-11.5338
前面的	-11.5339
日志文件	-11.5339
死者	-11.5339
崇高	-11.5342
喜悦	-11.5343
保证金	-11.5343
次要	-11.5344
拆分	-11.5344
定向	-11.5344
车库	-11.5344
的疾病	-11.5346
何处	-11.5346
af	-11.5348
作为其	-11.5348
免费使用	-11.5349
迈克	-11.5349
只是在	-11.535
合格的	-11.5352
活跃的	-11.5352
准确性	-11.5353
潜能	-11.5354
到另一个	-11.5354
贩毒	-11.5354
妊娠	-11.5355
海报	-11.5355
和责任	-11.5357
适用于所有	-11.5358
短暂	-11.5359
pro	-11.5359
并指出	-11.5359
船员	-11.5361
祝	-11.5362
了所有	-11.5362
240	-11.5363
团伙	-11.5363
纳税	-11.5364
统计信息	-11.5365
而受到	-11.5366
遗憾	-11.5366
天津	-11.5367
你现在	-11.5368
▁儿童基金会	-11.5369
职权范围	-11.5369
准时	-11.5369
▁有关详细信息	-11.5374
存货	-11.5374
以便使	-11.5375
▁(3)	-11.5375
张贴	-11.5375
纪	-11.5376
职业培训	-11.5376
准备好了	-11.5377
he	-11.5377
说到	-11.5377
侵蚀	-11.5378
缴款	-11.5379
所进行的	-11.5379
之间存在	-11.538
125	-11.538
雨水	-11.5384
高尔夫球场	-11.5387
up	-11.5388
本质	-11.5389
有形	-11.539
时期的	-11.539
的通知	-11.5391
用户在	-11.5392
10,000	-11.5392
被控	-11.5393
策	-11.5394
过去了	-11.5394
洪都拉斯	-11.5394
泉	-11.5394
之前的	-11.5395
叛乱	-11.5396
伯特	-11.5397
功耗	-11.5397
他们自己	-11.5398
遗	-11.5399
措施来	-11.5401
姿态	-11.5401
的描述	-11.5402
牢	-11.5403
固定的	-11.5403
1982	-11.5403
soa	-11.5404
杰出的	-11.5404
我最喜欢的	-11.5406
深入了解	-11.5407
上文	-11.5407
的皮肤	-11.5408
当时的	-11.5409
的行政	-11.541
联系在一起	-11.5412
适当地	-11.5412
▁王	-11.5413
服务质量	-11.5414
瓶颈	-11.5414
安装的	-11.5415
角度看	-11.5417
你不会	-11.5418
他们认为	-11.5419
还说	-11.542
的理念	-11.5423
阻碍了	-11.5423
的预测	-11.5424
瓶子	-11.5425
美味	-11.5425
六年	-11.5427
快速增长	-11.5428
动用	-11.5428
评估和	-11.5428
的味道	-11.5429
一整天	-11.5429
rc	-11.543
▁(2	-11.5432
乐于	-11.5433
打了	-11.5434
敏	-11.5435
会成为	-11.5436
他或她	-11.5438
获得更多	-11.5439
总体上	-11.5439
▁150	-11.5442
钉	-11.5444
爱上	-11.5444
层的	-11.5445
▁hp	-11.5446
▁&	-11.5447
额定	-11.5448
并且可以	-11.5448
必须以	-11.5449
右边	-11.5449
铭记	-11.545
-12	-11.5452
顶尖	-11.5452
敏感性	-11.5452
竞争性	-11.5453
数据显示	-11.5454
和新	-11.5457
的补充	-11.5458
普拉	-11.5459
保护环境	-11.5459
塞尔	-11.5459
▁65.	-11.5463
的两倍	-11.5464
饼干	-11.5466
▁64.	-11.5466
的生存	-11.5466
调研	-11.5469
侵犯人权行为	-11.547
大小的	-11.5471
最低工资	-11.5474
备受	-11.5474
1984	-11.5474
各国的	-11.5475
又有	-11.5475
境内流离失所者	-11.5475
说的是	-11.5475
和日本	-11.5477
坏了	-11.5479
补救办法	-11.548
尽量减少	-11.548
暴行	-11.5481
废料	-11.5482
冻	-11.5482
发展趋势	-11.5483
可以向	-11.5483
▁de	-11.5484
可以实现	-11.5484
欧洲国家	-11.5484
多元	-11.5485
日开始	-11.5487
荡	-11.5487
遍	-11.549
预留	-11.5492
血糖	-11.5493
建立了一个	-11.5494
雅虎	-11.5497
的金额	-11.5497
来电	-11.5497
矮	-11.55
明亮的	-11.5501
所作的努力	-11.5503
月中旬	-11.5503
墓	-11.5503
末尾	-11.5504
中获益	-11.5504
的几个	-11.5506
热烈	-11.5506
马上就	-11.5507
因为它是	-11.5509
仅限	-11.5509
这些产品	-11.551
深感	-11.5513
新鲜的	-11.5513
决赛	-11.5518
明确规定	-11.5522
内涵	-11.5522
施行	-11.5523
中毒	-11.5523
分层	-11.5526
侮辱	-11.5529
中国市场	-11.5529
州长	-11.553
重用	-11.5532
数据流	-11.5532
复选框	-11.5533
权重	-11.5534
全球变暖	-11.5535
重新设计	-11.5535
并提出	-11.5536
1.4	-11.5538
音响	-11.5539
▁在他	-11.554
同盟	-11.554
面上	-11.554
详	-11.5541
的伙伴关系	-11.5541
▁每当	-11.5541
济	-11.5543
仰	-11.5543
速度和	-11.5545
土著人	-11.5546
劳动者	-11.5551
艰巨	-11.5552
劲	-11.5552
重要问题	-11.5552
会计师	-11.5552
袖	-11.5552
海拔	-11.5554
露天	-11.5555
全方位	-11.5555
▁mo	-11.5556
晒	-11.5556
可以看出	-11.5557
必须与	-11.5557
的可靠性	-11.5557
在全球范围内	-11.5558
确保其	-11.5558
度假酒店	-11.5561
人质	-11.5563
与政府	-11.5563
触摸屏	-11.5564
显式	-11.5564
我吗	-11.5564
的印象	-11.5565
柏	-11.5568
只要你	-11.5569
云服务	-11.5569
购买的	-11.5569
段中	-11.5569
限于	-11.5571
相信你	-11.5573
▁如果未	-11.5573
质素	-11.5575
温暖的	-11.5577
牌照	-11.5577
强硬	-11.5578
的转变	-11.558
所属	-11.558
4-	-11.5581
目前在	-11.5581
伴随	-11.5582
的密码	-11.5583
的生物	-11.5585
稳固	-11.5586
发掘	-11.5587
覆	-11.5588
患者的	-11.559
和监测	-11.559
电子设备	-11.5591
密集	-11.5592
▁db	-11.5592
扇	-11.5593
正在运行	-11.5593
诗人	-11.5594
关怀	-11.5596
慕尼黑	-11.5596
▁这款	-11.5597
劝	-11.5597
成型	-11.5598
的判决	-11.5598
快速地	-11.5598
兴建	-11.5599
格里	-11.5599
缔约方会议	-11.5599
资产管理	-11.5601
脉	-11.5603
上诉法院	-11.5603
▁的确	-11.5604
粮	-11.5605
但是他们	-11.5606
的信	-11.5608
您可以将	-11.5612
更糟	-11.5613
但是它	-11.5613
时间段	-11.5614
七年	-11.5614
庄	-11.5617
群体的	-11.5618
宗教信仰	-11.5619
经济及社会理事会	-11.5619
ff	-11.562
巴尔	-11.5621
菲利普	-11.5623
有线	-11.5623
第一位	-11.5623
性骚扰	-11.5623
餐桌	-11.5624
业余	-11.5625
世界级	-11.5626
那次	-11.5626
220	-11.5627
▁表	-11.5629
很不错	-11.5629
中的数据	-11.5629
电影院	-11.563
劫	-11.5632
作证	-11.5633
▁西	-11.5633
既有	-11.5634
12%	-11.5636
的地点	-11.5638
丧生	-11.5638
西方国家	-11.564
身心	-11.5641
向所有	-11.5641
在自己的	-11.5642
午夜	-11.5642
托盘	-11.5643
崇拜	-11.5643
也称为	-11.5643
选用	-11.5643
不了解	-11.5644
香烟	-11.5644
的新闻	-11.5644
抽烟	-11.5644
此后	-11.5644
说的话	-11.5646
展出	-11.5646
和宗教	-11.5647
胆固醇	-11.565
使我们能够	-11.5654
认捐	-11.5654
如果在	-11.5658
▁我们不	-11.566
政府当局	-11.5662
概况	-11.5663
▁sql	-11.5663
苗	-11.5663
▁也许你	-11.5664
吉他	-11.5664
演说	-11.5665
万吨	-11.5665
人选	-11.5667
▁有一个	-11.5667
会议和	-11.567
开业	-11.567
马达	-11.5671
领土上	-11.5673
我告诉你	-11.5673
联赛	-11.5673
▁金	-11.5674
水晶	-11.5674
对等	-11.5675
否决	-11.5676
分钟内	-11.5676
独立性	-11.5678
过剩	-11.5679
这家公司	-11.568
事例	-11.568
可利用	-11.5684
介于	-11.5684
事实是	-11.5684
感应	-11.5685
盟友	-11.5685
其他方面	-11.5686
您想	-11.5689
易受	-11.5689
就业和	-11.5691
相关联的	-11.5691
的了解	-11.5692
▁我不喜欢	-11.5693
天赋	-11.5694
▁一天	-11.5694
2.1	-11.5695
裙子	-11.5696
鲜花	-11.5696
业务部门	-11.5697
来说是	-11.5698
rf	-11.5698
常规武器	-11.5699
读数	-11.5699
存活	-11.5701
犯罪活动	-11.5706
发挥着	-11.5708
在去年	-11.5711
连锁	-11.5712
解决这一问题	-11.5713
mba	-11.5714
可以直接	-11.5716
殴打	-11.5717
跨境	-11.5717
ub	-11.5719
判处	-11.5719
发生故障	-11.572
汽车制造商	-11.5721
拿起	-11.5723
够了	-11.5724
岁以上	-11.5726
苯	-11.5727
管理机构	-11.5727
蒸发	-11.5728
雅典	-11.5729
棒球	-11.573
的乐趣	-11.573
我们建议您	-11.5731
就这样	-11.5731
奔	-11.5733
二次	-11.5737
能够以	-11.5737
土著民族	-11.5739
序列号	-11.574
▁允许	-11.5741
却不	-11.5741
执法机构	-11.5741
但不是	-11.5743
首个	-11.5744
出血	-11.5744
▁他是个	-11.5744
巾	-11.5747
fr	-11.5748
的良好	-11.5751
仿佛	-11.5753
特拉	-11.5755
规则和	-11.5755
某些国家	-11.5756
会见了	-11.5756
沙特	-11.5756
国际和平与安全	-11.5757
与会	-11.5757
独立于	-11.5758
发音	-11.5759
奥尔	-11.5759
vs	-11.576
大奖	-11.5761
在国外	-11.5762
发生过	-11.5764
陪伴	-11.5764
▁在该	-11.5765
地下水	-11.5766
▁咨询委员会	-11.5767
▁您可以通过	-11.5767
han	-11.5768
▁这种情况	-11.5768
筹措	-11.5774
可以创建	-11.5775
▁36	-11.5776
更好地了解	-11.5779
好转	-11.5779
来提高	-11.578
香蕉	-11.5781
玉	-11.5783
增幅	-11.5783
经济和社会发展	-11.5784
拿走	-11.5784
愚蠢的	-11.5785
国际人权	-11.5785
盖茨	-11.5787
减排	-11.5788
▁查找	-11.5788
为单位	-11.5788
商界	-11.5789
▁那就是	-11.5789
去哪里	-11.579
的交通	-11.5791
举行一次	-11.5793
处的	-11.5793
海峡	-11.5795
的记忆	-11.5795
的热情	-11.5795
刑罚	-11.5797
贝克	-11.5797
努力工作	-11.5797
舆论	-11.5798
我开始	-11.5799
是吧	-11.58
武装团体	-11.58
必须使用	-11.5801
退回	-11.5802
拉斯	-11.5802
暴力事件	-11.5803
类别的	-11.5804
组织结构	-11.5804
登上	-11.5804
旅行社	-11.5807
这些功能	-11.5807
还未	-11.5807
十四	-11.5808
机床	-11.5808
硫	-11.5809
启动了	-11.581
澳	-11.5811
解除武装	-11.5811
该如何	-11.5815
纵向	-11.5815
使您能够	-11.5818
万个	-11.5819
任何形式的	-11.5819
ef	-11.5821
贯穿	-11.5823
35%	-11.5823
▁html	-11.5824
▁这样做	-11.5824
隐私权	-11.5825
的移动	-11.5825
涅	-11.5825
马尔代夫	-11.5825
咱们	-11.5826
的贷款	-11.5826
干嘛	-11.5828
翁	-11.5829
定义了	-11.583
处决	-11.583
▁萨	-11.583
0000	-11.5831
要求提供	-11.5831
白色的	-11.5831
尖端	-11.5832
是一件	-11.5832
灾	-11.5832
▁老	-11.5834
但对	-11.5834
这个过程	-11.5834
项目经理	-11.5834
的外部	-11.5835
部委	-11.5835
主持人	-11.5836
忙碌	-11.5836
妇女和女童	-11.5837
与社会	-11.5838
rm	-11.5839
uni	-11.584
▁你是否	-11.584
转换成	-11.5841
和建议	-11.5845
和一些	-11.5847
公安	-11.5848
或任何其他	-11.5849
不遵守	-11.5849
传奇	-11.5849
通告	-11.585
帐单	-11.585
最受欢迎的	-11.5851
并不意味着	-11.5851
特有的	-11.5852
背面	-11.5855
数十年	-11.5855
▁为何	-11.5855
关节	-11.5855
软件更新	-11.5855
烈	-11.5855
手柄	-11.5856
解散	-11.5856
杭州	-11.5857
选举中	-11.5858
免于	-11.586
了其	-11.586
的袭击	-11.5862
可视	-11.5863
那个人	-11.5864
和贸易	-11.5865
哪一个	-11.5866
奎	-11.5867
国际市场	-11.5867
▁墨西哥	-11.5867
起动	-11.5869
可能产生	-11.5869
你想要	-11.587
ron	-11.587
成千上万	-11.587
而不会	-11.5873
月开始	-11.5873
增强了	-11.5874
的初步	-11.5874
的一大	-11.5874
挣	-11.5875
犯人	-11.5875
可能要	-11.5876
冲洗	-11.5877
陪审团	-11.5877
旗下	-11.5877
配送	-11.5878
包括一个	-11.5878
视力	-11.5878
家务	-11.5878
什么吗	-11.5878
效能	-11.5879
致命的	-11.5879
开端	-11.588
▁多数	-11.588
扣押	-11.5881
新娘	-11.5881
之日起	-11.5881
的评价	-11.5882
已知的	-11.5882
器材	-11.5882
滤波器	-11.5882
就已经	-11.5884
一侧	-11.5884
最简单的	-11.5884
▁她还	-11.5887
极少	-11.5887
的恐惧	-11.5887
件事	-11.5889
索取	-11.589
电子表格	-11.589
做饭	-11.5891
认证的	-11.5892
人口贩运	-11.5892
条款和条件	-11.5893
的框架内	-11.5893
和处理	-11.5895
▁”	-11.5897
拐	-11.5897
平常	-11.5901
荧光	-11.5901
工作条件	-11.5902
添加新	-11.5903
再来	-11.5903
风味	-11.5904
被拒绝	-11.5905
美军	-11.5906
请与	-11.5907
1967	-11.5908
imf	-11.5908
兴起	-11.5908
其自身	-11.5909
直播	-11.5909
纳斯	-11.5909
福德	-11.5909
gu	-11.591
对其他	-11.591
▁在这种	-11.5912
店铺	-11.5912
安全局势	-11.5912
我们已	-11.5912
几位	-11.5916
登机	-11.5916
补充说	-11.5918
望远镜	-11.5918
惊奇	-11.5919
高分辨率	-11.592
生涯	-11.5921
这座城市	-11.5922
通过一项	-11.5922
我家	-11.5922
和销售	-11.5922
有好处	-11.5922
在接下来的	-11.5923
请勿	-11.5923
设置了	-11.5925
时常	-11.5925
的各个方面	-11.5925
摄影师	-11.5926
▁另	-11.5928
沉重	-11.5929
圆桌会议	-11.5929
测试结果	-11.593
话语	-11.593
被剥夺	-11.593
二月	-11.5933
自卫	-11.5933
国有企业	-11.5934
也不知道	-11.5934
这两项	-11.5936
你的生活	-11.5937
▁我真	-11.5937
偿	-11.5937
请您	-11.5939
简易	-11.594
经济状况	-11.5941
步伐	-11.5941
▁这里是	-11.5942
该信息	-11.5943
所载的	-11.5943
750	-11.5945
布尔	-11.5945
oo	-11.5946
国债	-11.5946
凝	-11.5947
航空航天	-11.5947
概率	-11.5949
联合国大会	-11.595
其他成员	-11.5951
海域	-11.5951
也为	-11.5952
▁这是一种	-11.5952
你自己的	-11.5953
递	-11.5953
监护人	-11.5954
每一个人	-11.5956
他人的	-11.5957
电极	-11.5959
亨	-11.5959
债权	-11.5961
终点	-11.5961
帮助我	-11.5961
能够通过	-11.5962
的指示	-11.5963
驾车	-11.5963
的形成	-11.5965
会受到	-11.5966
布拉格	-11.5966
的各	-11.5967
迁移到	-11.5968
市的	-11.5968
▁了解如何	-11.5968
政府已	-11.5968
代表着	-11.5969
的一面	-11.5969
抗体	-11.5969
▁安装	-11.5969
丛林	-11.597
以改善	-11.5972
臭氧	-11.5972
迟到	-11.5972
不是很	-11.5974
在发展中国家	-11.5974
的批准	-11.5976
难以置信	-11.5977
vr	-11.5977
ku	-11.5977
裤子	-11.5978
词典	-11.5979
车上	-11.598
一起工作	-11.5981
那只	-11.5981
斯先生	-11.5982
计费	-11.5984
击中	-11.5984
繁	-11.5984
流向	-11.5985
需要帮助	-11.5987
申明	-11.5988
不是我	-11.5989
我们自己	-11.5989
弧	-11.5989
仿	-11.5989
最近在	-11.5991
oem	-11.5991
游艇	-11.5991
可作为	-11.5993
陆军	-11.5993
研究院	-11.5994
雕刻	-11.5994
率为	-11.5995
可能出现	-11.5996
分区域	-11.5998
来创建	-11.5998
间距	-11.5999
窗格	-11.5999
计算的	-11.5999
基础设施和	-11.6
人力资源管理	-11.6
婆	-11.6002
跨界	-11.6002
绳之以法	-11.6005
桃	-11.6005
的金融	-11.6006
同伴	-11.6007
一个例子	-11.6008
形容	-11.6008
▁67.	-11.6008
纳粹	-11.6008
的年轻人	-11.6009
堵塞	-11.6009
烧烤	-11.6011
▁120	-11.6011
ton	-11.6013
善良	-11.6013
降落	-11.6013
不容忍	-11.6013
确切	-11.6013
状态下	-11.6014
目前正	-11.6015
不容	-11.6015
用到	-11.6015
变异	-11.6015
▁app	-11.6016
▁33	-11.6016
由于其	-11.6018
糟糕的	-11.6019
的患者	-11.6019
想象力	-11.6019
▁使用此	-11.6019
是世界	-11.602
同时又	-11.6021
▁还可以	-11.6021
▁小组	-11.6022
浆	-11.6023
异议	-11.6025
的情绪	-11.6027
发出了	-11.6029
紫色	-11.603
该小组	-11.6032
全天候	-11.6033
的老	-11.6033
神的	-11.6035
出现故障	-11.6037
bar	-11.6037
奏	-11.6038
政治意愿	-11.6038
感动	-11.6039
是错误的	-11.6039
剧烈	-11.604
的决心	-11.6041
排队	-11.6042
取消了	-11.6043
让用户	-11.6044
主管部门	-11.6048
严峻	-11.6048
的授权	-11.6048
家用	-11.6048
审视	-11.605
要确保	-11.605
值为	-11.6051
保护措施	-11.6051
才可以	-11.6051
小男孩	-11.6052
月份的	-11.6052
花钱	-11.6052
国家和	-11.6053
的指标	-11.6053
入门	-11.6054
侧重	-11.6055
方式来	-11.6056
切片	-11.6056
朴	-11.6057
我们的服务	-11.6058
事务的	-11.6059
1979	-11.6059
小册子	-11.606
和目标	-11.6061
这个时候	-11.6061
▁真的	-11.6062
▁这是个	-11.6063
▁世卫组织	-11.6064
清真寺	-11.6064
非常感谢	-11.6064
知道如何	-11.6064
所拥有的	-11.6064
峡谷	-11.6065
老婆	-11.6067
估价	-11.6069
弗里	-11.6069
出国	-11.607
和客户	-11.607
泰勒	-11.607
静止	-11.6071
▁凯	-11.6072
重试	-11.6074
重庆	-11.6074
进出	-11.6077
桌上	-11.6077
只不过是	-11.6078
琴	-11.6078
在某种程度上	-11.608
几内亚比绍	-11.6081
会得到	-11.6082
和国际社会	-11.6082
袭	-11.6087
最基本的	-11.6087
圆满	-11.6088
增速	-11.6089
的心理	-11.6089
wipo	-11.6089
洁净	-11.609
周边地区	-11.6091
▁作者	-11.6091
桌子上	-11.6091
负责任	-11.6092
穆罕默德	-11.6092
只是想	-11.6093
的发生	-11.6094
发起了	-11.6095
几个星期	-11.6095
的全	-11.6095
学习如何	-11.6096
军事人员	-11.6098
邮票	-11.6099
亲戚	-11.6099
劫持	-11.6099
国际上	-11.61
全球市场	-11.6101
挣扎	-11.6103
的准则	-11.6107
▁文章	-11.6107
前提是	-11.6107
▁1995	-11.6107
依旧	-11.6109
悠久	-11.6109
可持续发展的	-11.6109
有一定的	-11.611
tt	-11.611
依然是	-11.611
事件发生	-11.611
无法在	-11.611
在寻找	-11.6111
销售和	-11.6111
金融体系	-11.6112
警察和	-11.6114
将不再	-11.6117
畅销	-11.6117
琼斯	-11.6119
胜任	-11.612
忘记了	-11.6121
与他人	-11.6121
的收益	-11.6122
选择要	-11.6123
街上	-11.6124
业务需求	-11.6124
操	-11.6124
巨头	-11.6124
▁酒店的	-11.6124
投资银行	-11.6124
连接至	-11.6125
妙	-11.6125
外籍	-11.6126
准备工作	-11.6128
贸易和	-11.6128
敦	-11.6131
冰淇淋	-11.6131
▁cat	-11.6132
改良	-11.6135
研究成果	-11.6135
创新性	-11.6136
吉尔吉斯斯坦	-11.6138
▁这使得	-11.6138
并继续	-11.6138
根据您的	-11.6139
太好了	-11.614
的边界	-11.614
便可以	-11.614
惊人	-11.6141
可选的	-11.6141
理查德	-11.6145
正文	-11.6145
侦查	-11.6145
▁am	-11.6147
▁以上	-11.6148
该公约	-11.6148
维护和	-11.615
水源	-11.6152
新颖	-11.6153
3.0	-11.6154
工时	-11.6154
迅速发展	-11.6154
信中	-11.6154
他被	-11.6155
特种	-11.6156
情形下	-11.6157
不提供	-11.6158
损耗	-11.6158
来看看	-11.616
完了	-11.616
有大量	-11.6161
数据类型	-11.6161
程度的	-11.6162
信用证	-11.6163
行为守则	-11.6163
▁为了确保	-11.6163
背后的	-11.6163
一直以来	-11.6164
伤口	-11.6166
有关部门	-11.6168
的准确性	-11.6169
£¬	-11.6169
ion	-11.617
囊	-11.617
您是否	-11.6171
▁幸运的是	-11.6173
水下	-11.6176
您也可以	-11.6177
有序	-11.6177
注明	-11.6177
的实例	-11.6179
城里	-11.618
难民和	-11.6182
耗时	-11.6182
先生说	-11.6182
摊款	-11.6185
这一天	-11.6186
一个伟大的	-11.6186
察	-11.6186
根除	-11.6186
企业和	-11.6187
是一款	-11.619
看起来很	-11.619
最快的	-11.6191
胡锦涛	-11.6191
国家办事处	-11.6191
这有助于	-11.6192
设置的	-11.6192
双方都	-11.6193
布什总统	-11.6194
房子里	-11.6194
就其	-11.6195
包括了	-11.6195
灯泡	-11.6196
专门机构	-11.6196
规模的	-11.6196
▁告诉我	-11.6199
螺旋	-11.6201
狭窄	-11.6201
犹豫	-11.6201
同时也是	-11.6202
正在考虑	-11.6202
推动了	-11.6206
我们无法	-11.6206
减速	-11.6206
任何国家	-11.6207
油气	-11.6207
▁贝	-11.6208
变压器	-11.6208
开口	-11.6209
封面	-11.6209
类型和	-11.6209
别忘了	-11.621
预设	-11.621
余地	-11.6211
从此	-11.6211
舒服	-11.6212
品牌的	-11.6212
▁而我	-11.6214
非常高兴	-11.6216
均应	-11.6216
强行	-11.6218
▁这本书	-11.6218
牛肉	-11.6218
兼职	-11.6219
背叛	-11.6219
可对	-11.622
和平解决	-11.6221
你去	-11.6225
有多种	-11.6225
充分发挥	-11.6228
数据传输	-11.6229
国民经济	-11.623
腹	-11.623
将得到	-11.6231
联接	-11.6231
和提高	-11.6233
泪	-11.6234
一声	-11.6234
局长	-11.6235
▁第五	-11.6235
请允许我	-11.6236
不可以	-11.6237
会费	-11.6238
**	-11.6239
实现其	-11.624
证券交易所	-11.6242
能够帮助	-11.6244
哨	-11.6244
他又	-11.6245
经历过	-11.6247
轨迹	-11.6248
藉	-11.6249
会收到	-11.6249
工作表	-11.6249
销售人员	-11.625
争夺	-11.625
而产生的	-11.6251
兑	-11.6253
的任务是	-11.6253
表示支持	-11.6253
职业生涯	-11.6254
经济政策	-11.6254
载荷	-11.6255
在大会	-11.6256
上司	-11.6256
位数	-11.6258
▁个月	-11.6259
中美	-11.6262
▁此次	-11.6262
侵入	-11.6263
技术性	-11.6264
都没	-11.6264
任务规定	-11.6264
这一切都	-11.6264
花在	-11.6264
他们正在	-11.6266
祝愿	-11.6266
眼中	-11.6266
可能不	-11.6268
的条件下	-11.6269
卡扎菲	-11.6269
ui	-11.6269
壁纸	-11.6269
所有成员	-11.627
出席了	-11.627
会发现	-11.6271
锦标赛	-11.6272
该程序	-11.6273
定制的	-11.6273
尽可能多的	-11.6274
萨拉	-11.6278
姿势	-11.628
的网页	-11.628
发展问题	-11.6281
带动	-11.6282
计算器	-11.6283
关键作用	-11.6284
将用于	-11.6285
▁如果你不	-11.6285
的旅行	-11.6285
日落	-11.6286
组织了	-11.6288
作为一名	-11.6288
▁您可能	-11.6289
信通技术	-11.629
1960	-11.6291
多哈	-11.6292
▁英语	-11.6292
神奇	-11.6292
俗	-11.6293
刊登	-11.6293
前端	-11.6294
提议的	-11.6296
运河	-11.6296
狱	-11.6297
集成到	-11.6298
卡特	-11.6299
并强调	-11.6299
网络安全	-11.6301
对面	-11.6301
的统一	-11.6302
▁探索	-11.6302
这份报告	-11.6302
当今世界	-11.6303
研究显示	-11.6303
心理健康	-11.6304
他能	-11.6304
▁66.	-11.6306
的实体	-11.6306
成立的	-11.6307
十个	-11.6308
的负担	-11.6308
称作	-11.6308
海鲜	-11.6308
吐	-11.6308
我来	-11.631
闹	-11.6311
的品牌	-11.6313
红色的	-11.6313
间隙	-11.6313
那不是	-11.6313
能获得	-11.6313
在巴黎	-11.6314
学习和	-11.6314
赴	-11.6315
这是个	-11.6316
坛	-11.6317
大多数国家	-11.6318
ng	-11.6318
▁结果表明	-11.632
对整个	-11.632
边际	-11.632
阿曼	-11.632
应采取	-11.6321
晚会	-11.6321
请尝试	-11.6322
亦可	-11.6326
你的工作	-11.6326
这个地方	-11.6327
知道了	-11.6327
宏观	-11.6328
把这	-11.6329
可以把	-11.6331
招待	-11.6331
可能影响	-11.6331
比以往	-11.6332
为促进	-11.6335
2.2	-11.6341
相匹配	-11.6341
报告和	-11.6342
省的	-11.6344
炭	-11.6344
弦	-11.6344
遵照	-11.6344
几乎是	-11.6345
的意图	-11.6345
为该	-11.6346
的事业	-11.6346
的内存	-11.6346
全身	-11.6347
一个很好的	-11.6347
应有	-11.6347
端到端	-11.6348
一门	-11.6349
▁我只是想	-11.6349
回避	-11.6349
但不能	-11.635
阴谋	-11.6354
的普遍	-11.6354
队员	-11.6355
可否	-11.6357
提高妇女地位	-11.6357
▁请勿	-11.6358
将获得	-11.6358
繁殖	-11.6359
平方公里	-11.6359
报告了	-11.636
牵	-11.6361
该功能	-11.6361
居住的	-11.6362
由于缺乏	-11.6365
▁在本报告所述期间	-11.6367
社会保险	-11.6368
财政年度	-11.637
法典	-11.6371
人口普查	-11.6372
案子	-11.6372
注意事项	-11.6375
▁荷兰	-11.6376
您的应用程序	-11.638
家公司	-11.638
做事	-11.6381
粮食计划署	-11.6381
▁为确保	-11.6381
dp	-11.6381
第一部分	-11.6381
可扩展	-11.6382
才可	-11.6382
向委员会	-11.6383
载入	-11.6383
pl	-11.6384
的配置	-11.6384
橙色	-11.6385
年之前	-11.6387
您可以选择	-11.6388
在加拿大	-11.6389
收集和	-11.6389
6000	-11.639
更有效的	-11.639
盯着	-11.6391
进行管理	-11.6391
奥斯	-11.6391
部份	-11.6392
时会	-11.6392
方面取得	-11.6393
设计中	-11.6393
卫生设施	-11.6394
尔顿	-11.6394
的份额	-11.6396
浇	-11.6397
▁泰国	-11.6398
重新开始	-11.6398
激增	-11.6399
核对	-11.64
水上	-11.64
税款	-11.6401
的胜利	-11.6401
的感情	-11.6401
刑法典	-11.6402
的习惯	-11.6404
导线	-11.6404
皇	-11.6404
的症状	-11.6405
绝不会	-11.6405
放进	-11.6406
和工业	-11.6406
环球	-11.6407
现今	-11.6409
年纪	-11.6411
敌对行动	-11.6412
坚定地	-11.6413
▁我们欢迎	-11.6413
该工具	-11.6413
肥皂	-11.6416
主要用于	-11.6417
尼斯	-11.6418
其成员	-11.6418
应当在	-11.6419
幸福的	-11.642
但对于	-11.642
仍然在	-11.642
动力学	-11.6421
▁近	-11.6421
是他们	-11.6422
和监督	-11.6423
就无法	-11.6424
无论如何	-11.6425
相应地	-11.6426
罪行的	-11.6426
内部控制	-11.6427
──	-11.6427
与环境	-11.6428
继续下去	-11.6428
最低限度	-11.6428
身为	-11.6429
承包	-11.643
android	-11.6431
该区域的	-11.6432
趣	-11.6432
战争罪	-11.6432
己	-11.6434
邪恶	-11.6434
▁因为你	-11.6434
衷心	-11.6435
战争中	-11.6436
指示器	-11.6436
▁土耳其	-11.6436
急救	-11.6437
的第二	-11.6437
说他们	-11.6437
基因组	-11.6438
草地	-11.6438
进行处理	-11.6438
就是要	-11.6439
原有	-11.6439
的感受	-11.644
▁重要的是	-11.644
等其他	-11.6441
加班	-11.6441
局限性	-11.6443
我们一起	-11.6443
纲领	-11.6443
应用商店	-11.6445
卖给	-11.6445
痕迹	-11.6445
和健康	-11.6447
付诸	-11.6448
给自己	-11.6449
图纸	-11.6451
约束力	-11.6452
的在线	-11.6452
届会	-11.6453
在此基础上	-11.6453
年期	-11.6453
这部电影	-11.6454
充电器	-11.6454
为依据	-11.6455
织物	-11.6456
▁1000	-11.6457
的参数	-11.6457
利物浦	-11.646
产假	-11.6461
外交官	-11.6462
通过对	-11.6463
腺	-11.6463
作为一项	-11.6464
▁四	-11.6466
后面的	-11.6468
唱片	-11.6469
▁请确保	-11.647
360	-11.6471
▁次	-11.6471
富人	-11.6474
驶	-11.6474
体育运动	-11.6475
你就可以	-11.6476
应根据	-11.6476
凸	-11.6477
无辜	-11.6477
秋季	-11.6477
和全球	-11.6478
沿岸	-11.6479
将他们	-11.648
完成任务	-11.648
的体验	-11.648
的访问权限	-11.6481
有多大	-11.6482
更有效	-11.6483
▁梅	-11.6484
坦率	-11.6484
迈出	-11.6486
民航	-11.6487
对称	-11.6488
租车	-11.6488
其余的	-11.6489
的旅程	-11.649
告诉我你	-11.649
主板	-11.6491
交通运输	-11.6491
机动	-11.6492
杯子	-11.6493
走在	-11.6494
斯蒂	-11.6495
▁我国代表团	-11.6495
认为这是	-11.6496
蕾	-11.6496
每一次	-11.6496
1.6	-11.6497
为用户提供	-11.6498
以便能够	-11.6498
根本没有	-11.6498
眼泪	-11.65
温馨	-11.65
报名	-11.6501
载于	-11.6501
重力	-11.6501
多伦多	-11.6504
▁其它	-11.6505
仍旧	-11.6507
的货币	-11.6507
漫步	-11.6507
的依据	-11.6508
接线	-11.6509
伊拉克政府	-11.651
逃跑	-11.6511
ev	-11.6511
最低的	-11.6512
怎样才能	-11.6514
对你的	-11.6514
陌生	-11.6515
的犯罪	-11.6517
结局	-11.6518
能够获得	-11.652
运作的	-11.652
发展方案	-11.6521
你没有	-11.6521
▁他会	-11.6522
园区	-11.6522
▁酒店提供	-11.6522
翻新	-11.6522
耦合	-11.6522
在各	-11.6523
饮	-11.6523
我从来没有	-11.6523
这并不是	-11.6523
满了	-11.6525
患病	-11.6526
0.2	-11.6526
▁这会	-11.6526
凯特	-11.6526
博士学位	-11.6527
我才	-11.6527
起步	-11.6528
技术创新	-11.6528
消除贫穷	-11.6528
深表	-11.6529
捆绑	-11.6529
的合作伙伴	-11.6529
就职	-11.653
括号	-11.653
起居室	-11.6534
互补	-11.6534
沉重的	-11.6535
设施包括	-11.6535
很漂亮	-11.6535
的经费	-11.6535
以致	-11.6536
听到了	-11.6536
对我说	-11.6536
▁我应该	-11.6537
拓扑	-11.6537
对这种	-11.6537
铸	-11.6538
ix	-11.6538
马克思主义	-11.6538
赢了	-11.6539
▁思科	-11.6539
直布罗陀	-11.654
肩膀	-11.654
和活动	-11.6541
剩余的	-11.6542
广东	-11.6542
阿姆斯特丹	-11.6544
第二次世界大战	-11.6544
画家	-11.6544
说得	-11.6545
首尔	-11.6545
▁pro	-11.6546
不带	-11.6547
对发展中国家	-11.6548
▁莫	-11.655
名叫	-11.6551
拍照	-11.6551
详细了解	-11.6552
经受	-11.6552
的页面	-11.6554
za	-11.6554
好评	-11.6554
log	-11.6556
浪费时间	-11.6561
的时候了	-11.6562
国务卿	-11.6562
无与伦比的	-11.6562
2.4	-11.6562
的公寓	-11.6564
您的信息	-11.6565
批判	-11.6567
还活着	-11.6568
nd	-11.6569
国家和地区	-11.6569
很快就会	-11.6569
层面上	-11.6571
人们在	-11.6571
悬挂	-11.6574
则为	-11.6574
高兴地	-11.6575
▁搜索	-11.6579
破碎	-11.6581
成一个	-11.6582
低廉	-11.6584
失败的	-11.6584
凌晨	-11.6584
平方英尺	-11.6585
病情	-11.6587
消除了	-11.6587
的敌人	-11.6587
并保持	-11.6588
若要	-11.6588
因为这是	-11.6588
职等	-11.6589
出入	-11.6589
阿联酋	-11.659
摄入	-11.659
霍尔	-11.6591
你了	-11.6591
拉美	-11.6591
失败了	-11.6591
提供任何	-11.6592
基本原则	-11.6593
艾伦	-11.6594
尼日尔	-11.6595
溪	-11.6595
您应	-11.6596
树林	-11.6596
可以用于	-11.6596
看作	-11.6597
这个数字	-11.6597
临近	-11.6598
春季	-11.6598
干细胞	-11.6598
祖先	-11.6598
ax	-11.6599
现金流	-11.6599
▁我发现	-11.6599
和地方	-11.66
说她	-11.6601
来确保	-11.6601
货车	-11.6601
有线电视	-11.6602
上一次	-11.6603
汲取	-11.6603
linux	-11.6603
祝你	-11.6603
理由是	-11.6604
持久和平	-11.6604
▁阿尔	-11.6604
方面的问题	-11.6604
叉	-11.6605
的简单	-11.6606
早期的	-11.6606
海豚	-11.6607
和评估	-11.6608
了吧	-11.6609
口袋	-11.661
的约束	-11.661
备注	-11.661
要走	-11.6611
他所	-11.6611
普查	-11.6612
查理	-11.6612
▁那就	-11.6614
▁快	-11.6615
爸	-11.6616
发展议程	-11.6616
它就	-11.6618
小组成员	-11.6618
提供了一种	-11.6619
日益增加	-11.6619
主教	-11.6619
分销商	-11.6619
加强其	-11.6619
街区	-11.662
添加一个	-11.662
创新和	-11.6621
▁该方案	-11.6621
警务	-11.6621
怎么能	-11.6622
方面的作用	-11.6623
解放军	-11.6623
用户提供	-11.6623
经常预算	-11.6624
可能已经	-11.6624
丙	-11.6625
的工人	-11.6626
通用汽车	-11.6626
的主权	-11.6627
价值链	-11.6627
午	-11.6628
官僚	-11.6629
那些人	-11.6631
晶体	-11.6631
土地上	-11.6632
的完美	-11.6633
饮用	-11.6634
名单上	-11.6634
不断提高	-11.6635
预报	-11.6635
特别关注	-11.6636
会把	-11.6636
两方面	-11.6639
很想	-11.6639
蝴蝶	-11.664
笼	-11.664
九个	-11.6642
小型企业	-11.6643
低估	-11.6643
中创建	-11.6643
侧面	-11.6644
的优先事项	-11.6645
一眼	-11.6645
铅笔	-11.6648
所学校	-11.6649
枝	-11.665
将自己	-11.665
要考虑	-11.665
1975	-11.6652
大屠杀	-11.6652
迅速地	-11.6652
全力	-11.6654
来执行	-11.6655
从根本上	-11.6656
呈现出	-11.6658
的逻辑	-11.6658
第九	-11.6659
可取	-11.666
核武器国家	-11.666
这使	-11.6661
专属	-11.6661
▁pdf	-11.6662
事件中	-11.6663
显现	-11.6663
争吵	-11.6663
警惕	-11.6665
达尔	-11.6667
屈	-11.6669
这份工作	-11.6669
风险和	-11.667
外债	-11.6671
裁判	-11.6671
▁啊	-11.6671
目录中	-11.6672
令我	-11.6672
看似	-11.6673
巴拉圭	-11.6673
声明中	-11.6674
我父亲	-11.6675
mer	-11.6677
卡路里	-11.6677
干净的	-11.6678
是怎么回事	-11.668
是否符合	-11.668
向公众	-11.6681
▁尤其是	-11.6681
该值	-11.6681
战后	-11.6681
该基金	-11.6682
显然是	-11.6683
政府将	-11.6684
lc	-11.6684
10><	-11.6686
通向	-11.6687
议程上	-11.6687
电脑上	-11.6688
蜡	-11.6688
戒	-11.6689
导致的	-11.6693
苏丹政府	-11.6693
驳回	-11.6693
▁我记得	-11.6693
代码中	-11.6694
二十世纪	-11.6695
收容	-11.6695
博彩	-11.6695
如果要	-11.6696
男士	-11.6699
向用户	-11.6699
危害人类罪	-11.67
▁69.	-11.67
下游	-11.6701
为我们的	-11.6701
iso	-11.6701
起到了	-11.6701
世上	-11.6701
是相当	-11.6702
hd	-11.6702
上一个	-11.6703
▁此方法	-11.6704
今天下午	-11.6704
奢侈品	-11.6704
也对	-11.6705
每年都	-11.6707
和能力	-11.6708
业已	-11.6708
我的工作	-11.6709
推断	-11.671
备件	-11.6711
把钱	-11.6712
和专业	-11.6713
开来	-11.6715
送达	-11.6716
出生的	-11.6716
的注意力	-11.6717
是一个非常	-11.6717
况	-11.6717
所有会员国	-11.6719
还有很多	-11.6719
在此之前	-11.672
阶	-11.672
国际文书	-11.6721
卸下	-11.6722
了他们的	-11.6723
▁挪威	-11.6724
采取步骤	-11.6725
可用来	-11.6725
▁我希望你	-11.6725
洞穴	-11.6725
海港	-11.6727
救灾	-11.6727
顾	-11.6728
后悔	-11.6729
退休金	-11.6729
贸	-11.6729
等国	-11.6732
ups	-11.6733
▁34	-11.6733
沟	-11.6733
的最后一	-11.6736
传递给	-11.6736
保护您的	-11.674
反抗	-11.674
的训练	-11.6741
拖欠	-11.6742
和私营部门	-11.6742
说明书	-11.6742
交通工具	-11.6743
让步	-11.6743
的信念	-11.6744
还对	-11.6747
潜在客户	-11.6748
这句话	-11.6748
▁它将	-11.6749
二十年	-11.675
财政和	-11.675
更少的	-11.675
获益	-11.6751
▁有什么	-11.6751
折旧	-11.6751
向大会	-11.6751
nu	-11.6751
低温	-11.6752
取得的进展	-11.6753
网络上	-11.6753
其他形式的	-11.6755
蓬勃发展	-11.6755
▁呃	-11.6755
一生中	-11.6756
结果显示	-11.6757
128	-11.6758
就是一个	-11.6758
林肯	-11.6758
能从	-11.6759
是其	-11.6759
母乳喂养	-11.6759
用法	-11.676
代表团认为	-11.676
说谎	-11.6762
▁游戏	-11.6763
不适	-11.6764
需求和	-11.6765
获奖	-11.6765
的教学	-11.6766
浏览器中	-11.6766
问候	-11.6766
十三	-11.6768
4.5	-11.6768
固	-11.6768
can	-11.6769
盾	-11.677
铀	-11.677
以协助	-11.677
挡	-11.6771
的选举	-11.6772
前南斯拉夫	-11.6773
的模型	-11.6773
民警	-11.6774
委员会的工作	-11.6774
威胁到	-11.6776
上帝的	-11.6777
一年的	-11.6779
工具包	-11.6781
各种不同的	-11.6781
ze	-11.6782
美学	-11.6783
干的	-11.6783
摔	-11.6784
拳	-11.6785
的候选人	-11.6786
摩纳哥	-11.6789
▁68.	-11.6791
难道	-11.6792
统筹	-11.6793
鲨鱼	-11.6793
宣告	-11.6798
可访问	-11.6799
恐怖袭击	-11.6799
必将	-11.68
部长级会议	-11.6802
洞察	-11.6803
握	-11.6803
议程项目	-11.6806
这部分	-11.6807
卓	-11.6807
这种现象	-11.6807
的集合	-11.6809
学校和	-11.681
没有被	-11.6811
我们不会	-11.6811
应与	-11.6816
的交流	-11.6818
1978	-11.6818
改组	-11.6819
▁全国	-11.6819
不匹配	-11.682
熟悉的	-11.682
应答	-11.682
的日常	-11.6821
你有什么	-11.6821
▁如果您需要	-11.6822
两侧	-11.6822
自制	-11.6823
灭绝	-11.6823
前瞻性	-11.6823
对您的	-11.6823
中国企业	-11.6825
空前	-11.6826
据报告	-11.6827
▁智能	-11.6828
公益	-11.6828
奉行	-11.6828
售后服务	-11.6832
法律法规	-11.6833
三明治	-11.6834
柴	-11.6835
卧	-11.6839
一家公司	-11.6842
合资企业	-11.6843
空闲	-11.6844
插座	-11.6844
▁世界上	-11.6845
脖子	-11.6846
就象	-11.6846
送交	-11.6847
脆弱性	-11.6847
副总统	-11.6849
传统上	-11.6849
饱	-11.6851
错过了	-11.6851
难过	-11.6851
南美	-11.6852
无疑是	-11.6853
了起来	-11.6854
实践中	-11.6855
密集型	-11.6855
时间间隔	-11.6856
青睐	-11.6857
往往会	-11.6857
广泛应用于	-11.6857
胎儿	-11.6858
扰	-11.6858
的第二个	-11.6858
的硬件	-11.6859
马拉维	-11.6859
制冷	-11.6861
跟我说	-11.6862
悬	-11.6863
▁最重要的是	-11.6863
太棒了	-11.6863
公然	-11.6863
几千	-11.6864
瘤	-11.6864
保护人权	-11.6865
国家政策	-11.6866
您的网站	-11.6867
没关系	-11.6867
另一方	-11.6867
▁巴基斯坦	-11.6867
拉丁	-11.6868
审查和	-11.6868
安静的	-11.6868
发起的	-11.6871
了大量的	-11.6871
京	-11.6871
一番	-11.6871
家们	-11.6872
解决此问题	-11.6873
国际恐怖主义	-11.6873
既然	-11.6876
停车位	-11.6876
百万美元	-11.6877
中心和	-11.6879
免疫系统	-11.688
枢纽	-11.688
身体健康	-11.6881
信道	-11.6882
对他们的	-11.6884
嘲笑	-11.6885
最伟大的	-11.6885
的现金	-11.6885
化学武器	-11.6886
意向	-11.6886
拨出	-11.6887
▁下表	-11.6891
▁这可能	-11.6891
中非	-11.6893
▁你看	-11.6894
膝盖	-11.6895
不适用	-11.6896
同志	-11.6896
废弃物	-11.6896
还可能	-11.6898
耗费	-11.6898
他想	-11.6899
电量	-11.6899
相一致	-11.69
这些原则	-11.69
您的业务	-11.6901
年为	-11.6901
牵头	-11.6902
已通过	-11.6903
这时	-11.6903
打电话给	-11.6904
的区别	-11.6905
为中心的	-11.6906
小厨房	-11.6907
▁此处	-11.6907
的原始	-11.6908
肤色	-11.6908
续订	-11.6909
创建新的	-11.6914
民族和解	-11.6914
不具备	-11.6916
委员会和	-11.6916
触及	-11.6916
制服	-11.6917
在该地区	-11.6918
和金融	-11.6918
下图	-11.6919
方面取得了	-11.6919
郊	-11.6919
冲突中	-11.6921
sec	-11.6923
公认	-11.6925
耗尽	-11.6926
工作岗位	-11.6927
在两个	-11.6928
场比赛	-11.6928
物联网	-11.6929
中产阶级	-11.6929
▁本周	-11.6929
游说	-11.6929
用在	-11.6931
私人浴室	-11.6931
在实际	-11.6932
任务是	-11.6933
1983	-11.6933
▁布	-11.6934
不会对	-11.6934
二战	-11.6934
的大脑	-11.6934
伍	-11.6936
▁双	-11.6937
社会保护	-11.6938
很棒的	-11.6938
炼	-11.6938
凶手	-11.6939
我刚才	-11.6939
▁sap	-11.694
▁想要	-11.694
就应该	-11.694
补救措施	-11.6941
稳健	-11.6941
维克	-11.6943
接收到	-11.6943
银行和	-11.6943
社会问题	-11.6943
漫游	-11.6943
提供便利	-11.6944
撒哈拉以南非洲	-11.6944
厉害	-11.6944
好事	-11.6945
放映	-11.6945
财务报告	-11.6945
性疾病	-11.6946
这取决于	-11.6946
主管当局	-11.6947
的重量	-11.6948
指定为	-11.6949
为零	-11.6949
可以作为	-11.6949
引发的	-11.695
国际援助	-11.6951
提高其	-11.6951
增益	-11.6953
墙上	-11.6953
特区	-11.6953
各省	-11.6954
对全球	-11.6956
宣	-11.6956
毗邻	-11.6956
附加到	-11.6956
禁毒	-11.6958
提供资料	-11.6958
功能性	-11.696
mon	-11.6961
是针对	-11.6962
整天	-11.6962
永不	-11.6962
直接从	-11.6962
详尽	-11.6963
接入点	-11.6963
通过一个	-11.6964
机上	-11.6964
补丁	-11.6964
强壮	-11.6967
的相对	-11.6968
的建设	-11.6969
压制	-11.697
外形	-11.6971
可能会在	-11.6971
的审查	-11.6971
展览会	-11.6972
拒绝了	-11.6972
的飞机	-11.6972
您同意	-11.6973
这项计划	-11.6973
由政府	-11.6973
点火	-11.6974
mg	-11.6974
经纪	-11.6976
这样就	-11.6977
一路	-11.6977
升级到	-11.6977
▁没人	-11.6978
黛	-11.6979
上级	-11.698
▁酒店设有	-11.698
的难民	-11.6981
3,000	-11.6981
这些权利	-11.6982
你怎么	-11.6983
服饰	-11.6987
监护	-11.6987
如何将	-11.6988
售价	-11.6989
并采取	-11.6989
映	-11.6989
受害者的	-11.699
还提供了	-11.6992
的最重要	-11.6992
在本地	-11.6993
的官方	-11.6996
大家庭	-11.6996
的路径	-11.6996
笨	-11.6998
所有用户	-11.6998
花时间	-11.6999
的尺寸	-11.7
失衡	-11.7001
痕	-11.7001
一级的	-11.7002
调查委员会	-11.7003
一个巨大的	-11.7003
安装程序	-11.7004
入学率	-11.7005
板上	-11.7007
来管理	-11.7009
学习英语	-11.701
ibm	-11.701
保护主义	-11.7012
更喜欢	-11.7013
和效率	-11.7013
主持下	-11.7013
星系	-11.7014
ny	-11.7014
▁即使在	-11.7015
很遗憾	-11.7015
▁现	-11.7016
已婚	-11.7017
肿	-11.7017
不信任	-11.7018
贩	-11.702
把我的	-11.702
▁伊拉克	-11.702
不应当	-11.7023
连续性	-11.7023
az	-11.7025
国家间	-11.7026
并把	-11.7026
善政	-11.7026
遍及	-11.7026
液晶	-11.7027
必须由	-11.7027
质量保证	-11.7029
学历	-11.703
一般的	-11.703
让您的	-11.703
着你	-11.7031
阵线	-11.7031
先生在	-11.7032
以提供	-11.7033
和未来	-11.7034
农作物	-11.7034
日渐	-11.7035
磷	-11.7036
胺	-11.7036
之间建立	-11.7037
▁他想	-11.7037
失误	-11.7039
会变得	-11.7039
违规	-11.7039
▁1994	-11.7042
喜爱的	-11.7042
app	-11.7043
的传播	-11.7043
本组织的	-11.7044
重要作用	-11.7044
牲畜	-11.7044
可能包含	-11.7045
继电器	-11.7045
并最终	-11.7045
和方法	-11.7045
了下来	-11.7046
贫	-11.7047
不让	-11.7047
出口商	-11.7048
丑闻	-11.7048
或者说	-11.7048
提供咨询	-11.7049
科夫	-11.705
喜欢你	-11.7052
斯克	-11.7052
自助早餐	-11.7053
公布了	-11.7054
分配到	-11.7055
lin	-11.7057
的老师	-11.7059
监察员	-11.7059
疑虑	-11.706
的默认	-11.7063
寻求庇护者	-11.7064
的资格	-11.7065
和改善	-11.7065
一句话	-11.7065
坚	-11.7066
学年	-11.7067
▁适用于	-11.7067
已安装	-11.7067
的重视	-11.7068
市场需求	-11.7068
政府与	-11.7068
▁如果用户	-11.7069
和公共	-11.707
细微	-11.707
觉	-11.7071
的顶部	-11.7071
无知	-11.7071
首先是	-11.7072
不是你	-11.7073
▁电子	-11.7074
警告说	-11.7075
棍	-11.7075
昆	-11.7075
所需的时间	-11.7075
充实	-11.7076
名册	-11.7077
eb	-11.7078
协调一致	-11.7079
多米尼加共和国	-11.708
乳腺癌	-11.7083
巧妙	-11.7083
ob	-11.7083
▁请参阅	-11.7084
金色	-11.7085
就是在	-11.7085
多余的	-11.7087
一枚	-11.7089
完全是	-11.7092
手势	-11.7094
中世纪	-11.7095
您已经	-11.7095
执业	-11.7097
以色列政府	-11.7098
这段时间	-11.7098
ud	-11.7099
着陆	-11.7099
理智	-11.7099
的输出	-11.71
强烈建议	-11.71
的流程	-11.7102
大公司	-11.7102
的完整性	-11.7102
使用不同的	-11.7102
的供应商	-11.7102
改善了	-11.7103
泄	-11.7104
气味	-11.7104
问问	-11.7104
评定	-11.7106
个人或	-11.7107
将把	-11.7107
了我们的	-11.7108
也适用于	-11.7108
傻瓜	-11.711
旅途	-11.7111
框中	-11.7113
登陆	-11.7114
从没	-11.7114
牢记	-11.7116
最小化	-11.7116
会说	-11.7117
伊丽莎白	-11.7118
荒谬	-11.7118
回到了	-11.712
搬迁	-11.7122
不正常	-11.7124
联合国各机构	-11.7125
上进行	-11.7126
的种种	-11.7128
模式中	-11.7128
工作环境	-11.7128
的互动	-11.7128
儿童权利公约	-11.713
记载	-11.7131
和我一起	-11.7132
出资	-11.7133
全球各地	-11.7133
的氛围	-11.7134
执行工作	-11.7135
▁两	-11.7135
保留在	-11.7135
赔	-11.7136
领先地位	-11.7137
概览	-11.7137
权衡	-11.7138
保护平民	-11.7141
诺基亚	-11.7141
金字塔	-11.7141
迹象表明	-11.7141
漫长的	-11.7143
不具有	-11.7144
精选	-11.7144
野蛮	-11.7145
检察官办公室	-11.7147
音乐家	-11.7147
和投资	-11.7148
亮点	-11.7148
信封	-11.7149
dl	-11.7149
tm	-11.7149
名成员	-11.7149
发展伙伴	-11.7149
冰川	-11.715
▁无论您	-11.715
不动产	-11.715
产妇	-11.715
随附	-11.7151
轮椅	-11.7152
国际社会必须	-11.7153
领事馆	-11.7153
▁为了使	-11.7153
先决条件	-11.7154
面对面	-11.7154
波长	-11.7154
▁此后	-11.7154
农药	-11.7155
跟上	-11.7156
的某个	-11.7156
抑郁症	-11.7157
着色	-11.7158
在中国的	-11.7159
语义	-11.7159
回国	-11.716
的设施	-11.7161
pd	-11.7161
lm	-11.7161
罗姆人	-11.7162
化妆	-11.7162
现行的	-11.7163
mr	-11.7164
银行账户	-11.7164
尊敬的	-11.7164
提请注意	-11.7165
扶持	-11.7165
字段中	-11.7167
将来的	-11.7167
发生的事情	-11.7167
▁世界银行	-11.7168
▁70.	-11.7168
看作是	-11.717
做出贡献	-11.7173
那条	-11.7175
听过	-11.7176
十九	-11.7176
程度上	-11.7176
完工	-11.7177
减少到	-11.7179
毒品和犯罪问题办公室	-11.718
帅	-11.718
▁那时	-11.718
作斗争	-11.7181
是用来	-11.7183
即在	-11.7184
奴役	-11.7184
同其他	-11.7185
善意	-11.7185
▁我的意思是	-11.7185
的数额	-11.7186
的就业	-11.7186
裁员	-11.7186
▁用户可以	-11.7186
你也可以	-11.7187
的差距	-11.7189
迷人	-11.7189
三位	-11.7189
喜好	-11.719
过热	-11.719
宫殿	-11.7191
自尊	-11.7191
要花	-11.7192
被逮捕	-11.7193
和挑战	-11.7194
平板	-11.7194
能满足	-11.7196
地进行	-11.7196
ent	-11.7197
或者其他	-11.7198
1981	-11.7201
50,000	-11.7201
出庭	-11.7201
最大值	-11.7203
必须能够	-11.7204
▁发动机	-11.7204
低迷	-11.7206
途	-11.7207
较好的	-11.7207
司法部门	-11.7208
该法案	-11.7208
使她	-11.7208
有争议的	-11.7209
文物	-11.7209
任用	-11.721
有关当局	-11.721
的局面	-11.721
餐厅和	-11.7211
我们可能会	-11.7211
和经验	-11.7212
有关如何	-11.7213
相关问题	-11.7213
的病人	-11.7213
被杀	-11.7214
誉	-11.7215
意思是	-11.7215
典	-11.7215
这些国家的	-11.7216
约占	-11.7216
拆下	-11.7216
▁很多人	-11.7217
/10	-11.7217
br	-11.7218
肌肤	-11.7219
感到非常	-11.722
▁属性	-11.7221
▁1990	-11.7222
打扫	-11.7223
周转	-11.7224
行动中	-11.7224
间客房	-11.7224
和改进	-11.7224
在澳大利亚	-11.7225
勾	-11.7225
自己在	-11.7226
我得	-11.7226
▁pa	-11.7227
竞争者	-11.7227
▁你可能	-11.7228
我们相信	-11.7229
总部设在	-11.723
三倍	-11.723
的产物	-11.7232
产品系列	-11.7233
▁一个人	-11.7234
分段	-11.7234
紫	-11.7235
悲观	-11.7236
抽样	-11.7236
▁你不是	-11.7238
条件是	-11.7238
除去	-11.7238
每一种	-11.7239
定性	-11.7239
面谈	-11.7239
无所	-11.7239
终极	-11.724
嘴唇	-11.724
市场竞争	-11.724
与传统	-11.7241
使用相同的	-11.7242
民主和	-11.7242
更长	-11.7242
继续支持	-11.7243
之一就是	-11.7243
art	-11.7244
示威者	-11.7245
▁apple	-11.7245
之家	-11.7245
违	-11.7246
彻	-11.7246
无法访问	-11.7246
僵尸	-11.7247
时尚的	-11.7247
一日	-11.7247
南美洲	-11.7247
金斯	-11.7248
景致	-11.7249
的现状	-11.7249
建立信任	-11.725
数据分析	-11.725
自私	-11.725
迈阿密	-11.7251
放松身心	-11.7251
佩戴	-11.7252
bp	-11.7252
葬礼	-11.7252
我又	-11.7253
驱动的	-11.7253
八年	-11.7254
cad	-11.7254
有几	-11.7255
▁38	-11.7256
抑郁	-11.7256
▁很明显	-11.7257
轻型	-11.7258
▁中国政府	-11.726
性别歧视	-11.726
共和国总统	-11.7261
是否能够	-11.7261
是免费的	-11.7261
温哥华	-11.7263
知名的	-11.7263
布里	-11.7263
原告	-11.7264
卸	-11.7265
闲	-11.7267
▁未来	-11.7267
和最	-11.7267
搬运	-11.7269
毕竟	-11.7269
在今天	-11.7269
留下来	-11.7269
或更多	-11.727
升至	-11.727
▁古巴	-11.7272
工作了	-11.7273
预防犯罪	-11.7273
名学生	-11.7273
列支敦士登	-11.7274
发生冲突	-11.7274
的强大	-11.7274
性格	-11.7276
蓝图	-11.7276
▁看来	-11.7278
体育场	-11.7278
的多个	-11.7278
恢复到	-11.7279
聊	-11.728
就能够	-11.728
使用率	-11.728
罪恶	-11.7282
一倍	-11.7283
的典型	-11.7284
拉姆	-11.7285
言语	-11.7285
魔鬼	-11.7287
的成绩	-11.7288
提供更多的	-11.7289
一个地方	-11.729
有害的	-11.729
要做的	-11.7291
关切地注意到	-11.7291
域中	-11.7291
至关重要的	-11.7292
队长	-11.7292
发挥的作用	-11.7293
的严重	-11.7295
即便是	-11.7296
讨论中	-11.7297
麻醉	-11.7297
财务状况	-11.7297
不打算	-11.7297
攀升	-11.7297
ty	-11.7298
这名	-11.7299
▁700	-11.7299
透明度和	-11.7299
长官	-11.7299
和精神	-11.73
残疾儿童	-11.7301
地板上	-11.7301
合计	-11.7301
淘汰	-11.7301
▁没错	-11.7302
此人	-11.7303
食品和	-11.7304
黑山	-11.7304
飙升	-11.7304
并执行	-11.7306
职业发展	-11.7306
部队派遣国	-11.7308
保持着	-11.7308
架飞机	-11.7308
救护车	-11.7308
股票市场	-11.7309
书店	-11.731
这些东西	-11.7311
解读	-11.7311
减去	-11.7312
住户	-11.7313
祷告	-11.7314
解密	-11.7315
提出的问题	-11.7315
水的	-11.7316
从其	-11.7316
发光	-11.7317
相称	-11.7317
美妙的	-11.7318
▁可以在	-11.7319
总统选举	-11.7321
典雅	-11.7321
降到	-11.7322
教科书	-11.7322
飞船	-11.7322
民主化	-11.7322
修剪	-11.7323
提交报告	-11.7323
这套	-11.7324
已成功	-11.7324
数据处理	-11.7325
的药物	-11.7325
哈马斯	-11.7325
第一批	-11.7325
▁为什么不	-11.7326
【	-11.7326
的组件	-11.7327
力图	-11.7327
能够满足	-11.7328
引脚	-11.7328
】	-11.733
就可	-11.7333
优先权	-11.7334
锋	-11.7334
有价值	-11.7335
儿童保护	-11.7335
场景中	-11.7336
▁如果您想	-11.7336
▁希腊	-11.7337
寺庙	-11.7338
至少在	-11.7338
为之	-11.7338
行为准则	-11.7339
岗	-11.7339
论点	-11.7339
有人认为	-11.7339
的人群	-11.7341
▁乔	-11.7342
java	-11.7343
来做	-11.7343
量子	-11.7343
世界人权宣言	-11.7346
例外情况	-11.7348
具体措施	-11.7349
司法制度	-11.735
该决议草案	-11.7351
的机器	-11.7353
ue	-11.7354
境况	-11.7355
▁我听说	-11.7355
▁°	-11.7356
促	-11.7357
只是为了	-11.7358
辛苦	-11.7358
惩处	-11.7358
永恒	-11.7359
听证会	-11.7361
将会在	-11.7361
欧美	-11.7361
照射	-11.7361
power	-11.7362
佛罗里达州	-11.7362
条款草案	-11.7363
全套	-11.7363
养老	-11.7363
分布在	-11.7363
1200	-11.7363
温室气体排放	-11.7364
堵	-11.7365
房地产市场	-11.7366
柠檬	-11.7366
成交	-11.7367
的一个关键	-11.7367
的丈夫	-11.7368
列举	-11.7369
每个月	-11.7369
区域办事处	-11.7369
不在乎	-11.737
的角度来看	-11.7372
▁昨晚	-11.7372
後	-11.7374
谁会	-11.7375
▁我得	-11.7375
逆转	-11.7375
骨头	-11.7376
请考虑	-11.7376
并不会	-11.7378
sk	-11.7378
路易斯	-11.7378
烤箱	-11.7378
帮您	-11.7379
的事物	-11.738
荒漠化	-11.7381
您可以通过	-11.7382
这些事件	-11.7382
普遍存在	-11.7384
日常生活中	-11.7387
一个项目	-11.7389
共产主义	-11.739
设为	-11.739
外汇储备	-11.7391
忧	-11.7391
他们可能	-11.7393
利用这些	-11.7394
经营的	-11.7394
看着我	-11.7396
的支出	-11.7396
墨尔本	-11.7397
其任务	-11.7398
额外费用	-11.7398
鸽	-11.7398
匹	-11.7399
罪名	-11.74
这片	-11.74
地使用	-11.7401
的估计	-11.7402
纲要	-11.7402
反应堆	-11.7404
从而为	-11.7404
都认为	-11.7405
舞台上	-11.7405
表现为	-11.7405
潜	-11.7406
最快	-11.7407
效用	-11.7408
从而提高	-11.7408
调查中	-11.7408
特遣队	-11.7409
重返社会	-11.7411
轻轻	-11.7412
附有	-11.7413
归功于	-11.7413
的响应	-11.7416
来控制	-11.7417
的公民	-11.7417
腹泻	-11.7418
器和	-11.7418
你是否	-11.7418
追加	-11.7418
最多可	-11.7419
特设	-11.742
保存到	-11.7421
日报	-11.7421
奶奶	-11.7422
的主人	-11.7424
的步伐	-11.7424
的时期	-11.7425
阿拉伯语	-11.7425
揭露	-11.7426
不然	-11.7426
掌	-11.7427
例行	-11.7427
▁你想要	-11.7429
您无法	-11.7429
粗糙	-11.743
▁请不要	-11.743
rd	-11.743
不定	-11.7432
的制度	-11.7433
晚间	-11.7436
的重点是	-11.7437
过帐	-11.7437
等地	-11.7438
转交	-11.7438
的死亡	-11.7438
法学	-11.7438
成立一个	-11.744
对自己的	-11.744
夸	-11.744
控告	-11.7441
▁as	-11.7441
和可靠性	-11.7441
女孩子	-11.7444
购买了	-11.7444
永恒的	-11.7445
酮	-11.7446
颠覆	-11.7446
预备	-11.7446
emc	-11.7446
高频	-11.7447
更能	-11.7448
▁要是	-11.7448
应是	-11.7448
优良的	-11.7449
懒	-11.745
高度重视	-11.745
已向	-11.745
了若干	-11.7451
半径	-11.7452
而设计	-11.7452
严重程度	-11.7452
对某些	-11.7452
一个更	-11.7452
红十字会	-11.7452
土地和	-11.7452
杀手	-11.7452
比以前	-11.7453
种类的	-11.7453
并用	-11.7455
可与	-11.7457
▁这条	-11.7458
看到他	-11.7459
略有	-11.7459
▁71.	-11.7459
最主要的	-11.746
不完整	-11.746
已经完成	-11.746
过去两年	-11.746
例如在	-11.7461
▁雷	-11.7461
届会议上	-11.7462
珍妮	-11.7462
对公司	-11.7463
核电站	-11.7464
沃尔	-11.7466
的确切	-11.7466
岛的	-11.7467
下班	-11.7467
的复杂	-11.7467
▁应当	-11.7468
的文字	-11.7469
产物	-11.7469
碳排放	-11.747
贪婪	-11.747
尤其在	-11.7471
并得到	-11.7471
玩游戏	-11.7472
非常喜欢	-11.7473
土库曼斯坦	-11.7474
祖母	-11.7474
的美丽	-11.7475
以下内容	-11.7475
1974	-11.7475
推测	-11.7476
下调	-11.7476
还不够	-11.7476
过渡时期	-11.7477
景象	-11.7477
车辆的	-11.7477
▁00	-11.7477
快递	-11.7478
戴维	-11.7478
不清	-11.7479
山上	-11.7481
大理石	-11.7481
1.8	-11.7482
埃德	-11.7482
就读	-11.7482
燃气	-11.7483
挑	-11.7484
制成的	-11.7485
锤	-11.7486
是一样的	-11.7486
布鲁	-11.7487
偿付	-11.7488
一阵	-11.749
▁版本	-11.7492
起见	-11.7492
学会了	-11.7492
的伤害	-11.7494
地球的	-11.7495
食物和	-11.7496
赤贫	-11.7496
先例	-11.7496
接受教育	-11.7497
▁现在你	-11.7497
的集体	-11.7497
一个女人	-11.7498
▁50%	-11.7498
桩	-11.7498
浓缩	-11.7499
▁众所周知	-11.75
等因素	-11.7502
的依赖	-11.7503
拉尔	-11.7505
较早	-11.7507
全文	-11.7507
溶解	-11.7507
字幕	-11.7508
四处	-11.7508
这一次	-11.7509
的基本原则	-11.7511
寻常	-11.7511
严厉的	-11.7511
从前	-11.7512
就是我	-11.7513
拘押	-11.7514
的人来说	-11.7515
这里有	-11.7515
令人满意	-11.7517
审议了	-11.7518
奉	-11.7518
一个真正的	-11.752
很不	-11.7521
是唯一的	-11.7521
主要由	-11.7521
进行操作	-11.7522
俄语	-11.7522
▁每一个	-11.7525
托尼	-11.7525
进展情况	-11.7526
的订单	-11.7527
收入和	-11.7527
▁你不会	-11.7527
可以做	-11.7527
你父亲	-11.7528
的处境	-11.753
完全相同	-11.753
金融时报	-11.753
抽屉	-11.753
下达	-11.7532
[...]
