<unk>	0
<s>	0
</s>	0
<ENU>	0
</ENU>	0
▁the	-3.08975
,	-3.23103
.	-3.26101
▁of	-3.58762
▁and	-3.73282
▁to	-3.81964
▁in	-4.21315
▁a	-4.3456
s	-4.38242
▁is	-4.80193
▁that	-4.86553
▁for	-4.875
-	-4.90754
▁on	-5.12219
▁The	-5.1726
'	-5.24008
▁I	-5.25625
▁with	-5.32363
▁you	-5.37174
▁be	-5.42903
▁(	-5.44659
▁it	-5.50979
▁are	-5.52403
▁as	-5.53429
’	-5.57169
▁by	-5.59126
:	-5.70481
▁was	-5.71078
▁have	-5.76444
)	-5.76681
▁not	-5.81776
▁from	-5.8484
?	-5.88107
▁or	-5.88406
▁at	-5.91869
▁this	-5.94309
▁will	-5.96688
t	-6.0362
▁“	-6.0379
▁has	-6.08144
▁an	-6.08608
▁"	-6.11172
▁can	-6.16984
▁its	-6.22884
▁we	-6.23109
▁all	-6.23754
;	-6.25127
▁their	-6.26543
▁-	-6.29293
▁In	-6.32536
▁which	-6.35653
▁your	-6.41496
▁they	-6.42919
▁he	-6.46083
▁more	-6.46961
▁also	-6.47667
▁but	-6.5448
▁	-6.54964
▁It	-6.55116
▁been	-6.56844
▁one	-6.56953
▁United	-6.58495
▁other	-6.59513
▁had	-6.61657
▁were	-6.62988
▁his	-6.68991
▁A	-6.6908
▁our	-6.71046
▁about	-6.72224
▁would	-6.74412
▁do	-6.75872
▁said	-6.78282
!	-6.78546
/	-6.7869
▁people	-6.79745
▁my	-6.82545
▁me	-6.84438
▁time	-6.84755
▁who	-6.88703
▁We	-6.89933
▁so	-6.90435
▁than	-6.90748
▁Nations	-6.92151
▁out	-6.92803
▁You	-6.92967
▁new	-6.93029
▁This	-6.93624
▁should	-6.93762
ing	-6.94447
▁there	-6.94489
▁them	-6.96374
m	-6.97111
▁up	-6.9763
▁what	-6.97631
▁States	-7.00664
▁no	-7.00769
▁He	-7.01625
d	-7.0306
▁only	-7.04575
▁into	-7.04855
re	-7.05791
▁like	-7.06254
▁such	-7.07156
▁work	-7.07976
▁if	-7.10472
▁international	-7.10696
▁development	-7.11502
▁years	-7.11717
▁Committee	-7.12552
▁first	-7.15498
▁world	-7.17192
▁any	-7.17779
▁'	-7.18136
▁some	-7.18991
▁her	-7.19556
▁know	-7.20129
▁countries	-7.20233
▁two	-7.20444
ed	-7.20963
.”	-7.21064
▁And	-7.22774
▁when	-7.22876
▁use	-7.23214
▁these	-7.24137
...	-7.25317
▁may	-7.26008
▁over	-7.27179
▁most	-7.27783
▁including	-7.28229
▁could	-7.29122
▁information	-7.29768
▁need	-7.29898
▁just	-7.30405
▁well	-7.30606
a	-7.31114
”	-7.32571
S	-7.3311
▁under	-7.34039
▁him	-7.34637
▁those	-7.35299
▁us	-7.36088
▁year	-7.36471
▁rights	-7.3715
▁China	-7.37242
▁But	-7.37273
▁make	-7.38926
▁how	-7.39865
▁through	-7.40006
▁system	-7.40066
▁made	-7.40108
▁support	-7.40294
▁many	-7.40994
▁human	-7.41425
▁now	-7.42414
▁report	-7.42486
▁right	-7.42881
▁between	-7.43071
▁1	-7.44868
▁women	-7.45093
▁–	-7.45373
▁she	-7.45385
▁Council	-7.45752
▁very	-7.4976
I	-7.50243
▁take	-7.50684
▁If	-7.50902
▁What	-7.52074
▁don	-7.53018
▁s	-7.53274
▁get	-7.53793
▁They	-7.54128
▁want	-7.54134
e	-7.54907
▁see	-7.55454
▁because	-7.56529
▁data	-7.56584
"	-7.57524
▁life	-7.59527
▁must	-7.59683
▁way	-7.59755
▁national	-7.61635
▁country	-7.61809
▁good	-7.62156
."	-7.64364
▁3	-7.64596
▁International	-7.64874
▁where	-7.65236
▁against	-7.65541
A	-7.65948
ly	-7.6637
▁after	-7.67124
▁number	-7.67577
▁State	-7.67642
▁same	-7.67855
▁No	-7.67956
▁even	-7.68696
▁then	-7.69696
▁per	-7.70491
▁children	-7.70594
▁resolution	-7.70781
▁General	-7.71082
ll	-7.72114
▁here	-7.72213
▁2	-7.72553
▁high	-7.72766
▁used	-7.73221
▁think	-7.73262
▁As	-7.73309
▁being	-7.73443
▁go	-7.73555
▁For	-7.74089
),	-7.74904
▁day	-7.76621
▁God	-7.76941
▁did	-7.76968
).	-7.77401
▁before	-7.77768
▁law	-7.7817
▁security	-7.78575
▁three	-7.79197
▁help	-7.79916
▁There	-7.80383
▁Assembly	-7.80657
▁That	-7.80801
▁still	-7.81224
▁10	-7.81352
▁part	-7.81672
▁important	-7.81962
▁provide	-7.82029
▁New	-7.82145
▁services	-7.82227
ve	-7.83047
▁own	-7.83056
▁back	-7.8431
th	-7.84433
▁process	-7.84652
▁So	-7.85019
▁long	-7.85851
▁within	-7.85872
er	-7.86094
▁5	-7.86708
▁million	-7.86744
▁much	-7.87089
▁To	-7.87593
▁each	-7.87861
▁order	-7.88015
▁activities	-7.88174
▁session	-7.89035
C	-7.89097
▁All	-7.89185
▁say	-7.89829
▁implementation	-7.90432
▁company	-7.90497
▁Convention	-7.90593
▁both	-7.9129
▁public	-7.91935
General	-7.92348
▁economic	-7.92714
▁Mr	-7.92963
▁Secretary	-7.93123
▁Government	-7.93299
▁social	-7.9385
▁At	-7.93952
▁every	-7.95099
▁during	-7.95296
▁last	-7.95754
▁Commission	-7.95928
▁market	-7.9617
▁health	-7.96389
▁while	-7.96762
▁non	-7.97092
b	-7.97277
▁different	-7.97509
▁business	-7.98014
▁meeting	-7.98066
▁She	-7.98578
▁come	-7.98633
▁financial	-8.0013
▁place	-8.00315
▁Group	-8.00407
▁4	-8.01513
▁technology	-8.01775
▁shall	-8.02615
▁does	-8.03127
▁U	-8.03383
▁global	-8.03444
▁set	-8.03499
]	-8.03748
▁best	-8.03886
▁end	-8.04769
▁management	-8.05302
▁[	-8.05401
▁too	-8.05406
▁Republic	-8.05904
▁without	-8.06773
▁—	-8.06803
▁going	-8.07083
▁How	-8.07342
▁since	-8.07786
▁_	-8.08211
▁measures	-8.08445
▁level	-8.08703
▁government	-8.08838
▁Security	-8.09171
▁resources	-8.09258
in	-8.09328
▁Co	-8.09402
▁change	-8.09418
▁never	-8.09582
▁ensure	-8.09765
▁Development	-8.10012
▁further	-8.10012
y	-8.10503
▁better	-8.10515
▁future	-8.10805
▁around	-8.11189
▁down	-8.11474
▁organizations	-8.11823
▁cooperation	-8.12159
▁On	-8.12258
▁service	-8.12269
▁World	-8.12344
▁members	-8.12928
▁When	-8.1323
▁man	-8.13309
▁efforts	-8.13352
▁products	-8.13828
▁Hotel	-8.14741
c	-8.14767
▁issues	-8.15159
▁Rights	-8.1524
▁working	-8.15358
▁find	-8.15714
▁Conference	-8.17055
The	-8.17085
▁next	-8.17701
▁water	-8.17837
▁am	-8.17971
▁continue	-8.18697
▁great	-8.18758
▁power	-8.18792
▁S	-8.1943
▁B	-8.19551
▁cent	-8.20043
▁become	-8.20107
▁20	-8.20311
▁full	-8.20412
▁another	-8.20686
▁areas	-8.20791
i	-8.20973
▁always	-8.21064
▁control	-8.21097
▁really	-8.21108
▁access	-8.21567
▁President	-8.2162
▁period	-8.21978
▁C	-8.22035
▁‘	-8.22131
,”	-8.22164
▁found	-8.22334
▁possible	-8.2242
▁things	-8.22707
▁political	-8.22722
▁home	-8.22943
▁family	-8.23176
▁&	-8.23207
▁industry	-8.23737
▁policy	-8.24114
▁following	-8.24672
▁decision	-8.24725
▁education	-8.24993
▁give	-8.25223
▁area	-8.25261
▁party	-8.25638
▁community	-8.25703
▁6	-8.25819
2	-8.25969
▁needs	-8.26131
▁particular	-8.26404
▁Chinese	-8.26456
▁among	-8.26615
▁However	-8.26797
▁love	-8.27173
▁provided	-8.27186
▁US	-8.27658
D	-8.27921
▁programme	-8.27947
▁called	-8.28219
▁available	-8.28285
▁article	-8.28286
▁Office	-8.28377
▁research	-8.28436
▁regional	-8.28821
▁held	-8.29237
▁case	-8.29281
▁developing	-8.29353
▁might	-8.29848
▁means	-8.30313
▁look	-8.30475
—	-8.30483
▁December	-8.30776
▁local	-8.30864
▁something	-8.31066
▁draft	-8.31108
or	-8.31542
▁special	-8.31549
▁protection	-8.31707
▁15	-8.31827
▁National	-8.32052
▁experience	-8.32185
▁small	-8.32357
▁group	-8.32575
▁second	-8.33242
▁Human	-8.34126
▁taken	-8.34265
▁today	-8.34454
▁again	-8.34967
▁assistance	-8.35207
▁production	-8.35364
▁role	-8.3568
▁energy	-8.3571
▁trade	-8.36005
▁30	-8.363
▁present	-8.36604
▁E	-8.36674
▁person	-8.36678
▁relevant	-8.36798
▁based	-8.37015
▁increase	-8.37264
r	-8.3736
▁example	-8.37491
▁action	-8.37594
▁training	-8.37812
▁got	-8.37862
▁already	-8.37877
▁project	-8.38222
▁free	-8.38261
▁European	-8.38483
▁legal	-8.38532
▁food	-8.38549
▁situation	-8.38847
▁staff	-8.39195
▁why	-8.39281
▁away	-8.39637
▁8	-8.39651
▁companies	-8.3968
▁12	-8.3972
▁South	-8.40408
▁7	-8.40466
▁One	-8.40613
▁include	-8.40646
▁current	-8.40723
▁view	-8.40732
▁Special	-8.41038
▁men	-8.41464
▁off	-8.41703
▁able	-8.41912
▁little	-8.41926
▁days	-8.41939
o	-8.42173
▁My	-8.4256
▁team	-8.4301
▁least	-8.43194
▁growth	-8.43241
n	-8.43318
▁With	-8.43481
▁Do	-8.43567
▁percent	-8.43715
▁paragraph	-8.43913
▁believe	-8.44161
g	-8.44309
▁few	-8.44351
▁name	-8.44382
▁capacity	-8.44591
▁peace	-8.44604
▁major	-8.4508
▁large	-8.45164
▁Africa	-8.45412
▁together	-8.45647
▁four	-8.4626
▁June	-8.46317
▁child	-8.46625
▁state	-8.47062
▁May	-8.47301
▁effective	-8.47356
▁related	-8.4754
▁using	-8.47635
▁These	-8.48505
▁five	-8.48551
▁quality	-8.48707
▁care	-8.488
▁systems	-8.49029
▁established	-8.49227
▁technical	-8.49346
▁put	-8.49987
▁account	-8.50224
▁open	-8.50248
▁review	-8.50356
▁real	-8.50498
▁American	-8.50572
▁necessary	-8.50773
▁parties	-8.50839
▁respect	-8.51065
the	-8.51106
▁often	-8.51216
▁study	-8.51379
es	-8.51709
▁thing	-8.51866
▁upon	-8.51917
▁fact	-8.52082
▁whether	-8.52266
▁money	-8.52432
▁general	-8.52522
com	-8.53383
▁plan	-8.53443
G	-8.53498
▁says	-8.53559
L	-8.53874
▁old	-8.54166
▁course	-8.5443
We	-8.5477
▁city	-8.54924
▁P	-8.54946
to	-8.55078
▁>	-8.55115
▁July	-8.55181
▁past	-8.55342
▁adopted	-8.55612
▁addition	-8.56893
▁18	-8.57415
▁cases	-8.57546
▁let	-8.57581
▁military	-8.5766
▁Why	-8.57818
▁America	-8.57827
▁environment	-8.5797
▁programmes	-8.58051
▁region	-8.5813
▁persons	-8.58216
▁developed	-8.58314
▁lot	-8.58418
▁far	-8.58579
▁/	-8.58672
▁risk	-8.58684
E	-8.58706
▁key	-8.59005
▁total	-8.591
▁D	-8.59188
▁less	-8.59213
▁space	-8.59251
▁progress	-8.59437
▁several	-8.59592
▁nuclear	-8.59693
▁didn	-8.59746
▁given	-8.60069
▁9	-8.60076
▁University	-8.60141
▁private	-8.60196
▁value	-8.60525
▁various	-8.60545
▁until	-8.60566
▁11	-8.60674
▁school	-8.60708
▁society	-8.60711
▁problems	-8.60822
▁third	-8.61118
▁Organization	-8.61133
▁Ltd	-8.61268
▁issue	-8.61326
al	-8.61577
▁regard	-8.61953
▁told	-8.62067
▁point	-8.62083
(	-8.62246
▁call	-8.62597
▁months	-8.62651
▁field	-8.62708
▁body	-8.62725
▁feel	-8.63022
▁product	-8.63141
▁accordance	-8.63205
▁line	-8.63235
▁address	-8.63281
▁His	-8.63325
▁design	-8.63607
▁reports	-8.63663
▁September	-8.63796
▁groups	-8.6383
▁light	-8.63946
▁cannot	-8.64253
▁tell	-8.64375
,"	-8.65214
▁others	-8.6538
▁early	-8.65454
▁making	-8.65665
▁Your	-8.65711
▁problem	-8.65756
▁students	-8.65926
▁above	-8.66262
▁especially	-8.66274
▁re	-8.66555
▁done	-8.66795
▁specific	-8.66853
▁cost	-8.67093
▁March	-8.6716
▁...	-8.67261
▁required	-8.67266
▁Our	-8.67279
▁By	-8.67486
▁equipment	-8.6753
▁October	-8.67544
▁times	-8.67688
1	-8.67698
▁live	-8.67763
▁basis	-8.67922
▁improve	-8.68236
▁result	-8.68456
_	-8.68711
▁impact	-8.68881
▁yet	-8.68901
▁meet	-8.68916
▁Programme	-8.68932
B	-8.69053
▁African	-8.69132
▁November	-8.69312
▁create	-8.69362
▁violence	-8.69545
▁conditions	-8.69716
▁Member	-8.69855
▁low	-8.69863
▁took	-8.69964
▁--	-8.70249
▁results	-8.70677
▁car	-8.70694
▁keep	-8.70729
▁appropriate	-8.70853
▁question	-8.70885
▁Europe	-8.70887
▁institutions	-8.709
▁understand	-8.70916
▁building	-8.71313
▁levels	-8.71408
▁doing	-8.71466
▁requirements	-8.71677
up	-8.71957
▁considered	-8.72048
▁Department	-8.72135
▁enough	-8.72151
▁age	-8.72217
▁January	-8.72286
▁policies	-8.72329
▁After	-8.72409
▁ever	-8.72441
▁main	-8.72688
▁agenda	-8.72918
▁projects	-8.72936
▁Now	-8.73132
▁Social	-8.73184
on	-8.7356
▁came	-8.73659
▁property	-8.73817
▁start	-8.73848
▁thought	-8.73955
▁show	-8.73997
▁form	-8.74101
▁Economic	-8.74218
▁population	-8.74243
▁Board	-8.74445
▁application	-8.74497
▁investment	-8.74514
▁recommendations	-8.74535
▁16	-8.74671
▁later	-8.74846
▁Union	-8.74958
▁14	-8.75044
▁room	-8.75185
▁play	-8.75428
▁whole	-8.75522
▁attention	-8.75792
▁April	-8.75831
▁common	-8.75866
▁Some	-8.75914
▁rate	-8.75946
▁recent	-8.76102
▁F	-8.76402
▁particularly	-8.765
▁network	-8.76508
▁budget	-8.76524
▁personal	-8.76633
▁taking	-8.76863
▁once	-8.76869
▁Home	-8.7733
▁billion	-8.77523
▁young	-8.77659
ers	-8.77866
▁member	-8.77955
▁known	-8.77957
▁High	-8.7805
▁war	-8.78164
▁matter	-8.78493
▁de	-8.78559
▁13	-8.78842
▁sector	-8.78902
▁gender	-8.78914
based	-8.79097
▁An	-8.79283
▁police	-8.79503
▁due	-8.79572
▁ago	-8.79653
▁17	-8.79812
▁clear	-8.79835
▁left	-8.79996
▁promote	-8.80084
▁provides	-8.80158
▁night	-8.8072
3	-8.80965
▁City	-8.81075
▁statement	-8.81103
▁performance	-8.81461
▁Asia	-8.81467
▁increased	-8.81651
▁self	-8.81761
▁hours	-8.81857
▁across	-8.8188
▁website	-8.81965
▁air	-8.82206
▁seen	-8.82223
▁living	-8.823
▁media	-8.82492
▁certain	-8.82578
▁mean	-8.82712
▁force	-8.8288
▁big	-8.82977
▁operations	-8.83135
▁share	-8.83341
▁develop	-8.83513
▁hand	-8.83523
▁R	-8.83715
▁minutes	-8.83736
▁Court	-8.83906
▁week	-8.83948
▁death	-8.84078
▁potential	-8.84173
▁York	-8.84181
▁received	-8.84202
an	-8.8446
▁Parties	-8.84583
▁bring	-8.84913
▁close	-8.85012
▁approach	-8.85161
▁Service	-8.85258
▁economy	-8.85394
▁costs	-8.85638
▁additional	-8.8565
▁strong	-8.8566
▁having	-8.85865
▁terms	-8.85963
▁won	-8.85977
▁foreign	-8.8619
▁While	-8.86209
▁kind	-8.86511
▁importance	-8.86523
▁face	-8.86673
▁fully	-8.86841
▁organization	-8.86887
▁sustainable	-8.87048
▁game	-8.87057
▁Law	-8.87104
▁G	-8.87112
▁everything	-8.87121
▁concerned	-8.87204
▁knowledge	-8.87339
▁however	-8.87486
▁land	-8.87507
▁natural	-8.87526
▁item	-8.87666
▁amount	-8.87916
▁sure	-8.88021
▁post	-8.8805
▁focus	-8.88064
▁Japan	-8.88136
▁India	-8.88201
F	-8.8825
▁towards	-8.88262
▁According	-8.88294
▁pay	-8.88374
▁25	-8.88584
▁Article	-8.88607
▁East	-8.88722
▁single	-8.88748
▁history	-8.88763
▁half	-8.88878
▁standards	-8.89373
▁needed	-8.8946
year	-8.89604
T	-8.89679
▁hope	-8.89902
▁Women	-8.89972
▁rules	-8.90008
▁conflict	-8.90038
▁list	-8.90296
▁changes	-8.9031
▁Then	-8.9038
▁consider	-8.9049
▁position	-8.90518
▁Let	-8.9052
▁continued	-8.90769
▁site	-8.90781
▁asked	-8.90887
▁follow	-8.91385
▁higher	-8.91553
▁treatment	-8.91578
P	-8.91725
▁framework	-8.91853
▁users	-8.91872
▁Please	-8.92069
▁domestic	-8.92289
M	-8.92396
▁Fund	-8.92473
▁August	-8.92498
▁six	-8.92509
▁weapons	-8.92725
▁M	-8.9278
▁noted	-8.92968
▁People	-8.92998
▁top	-8.93045
▁From	-8.93107
▁note	-8.93137
▁existing	-8.93204
▁anything	-8.93436
▁almost	-8.93549
▁office	-8.93577
▁significant	-8.93597
▁21	-8.93646
▁authorities	-8.93878
▁provisions	-8.93937
▁price	-8.94022
▁T	-8.94152
▁Russian	-8.94254
▁heart	-8.94361
▁book	-8.94371
▁First	-8.9445
term	-8.94639
▁range	-8.94671
▁50	-8.94726
▁proposed	-8.9494
▁safety	-8.94979
▁expected	-8.95374
▁nothing	-8.95504
▁environmental	-8.95532
▁request	-8.95563
▁series	-8.95632
▁individual	-8.95784
▁customers	-8.95889
h	-8.96011
▁interest	-8.96017
▁North	-8.96061
▁meetings	-8.96102
▁therefore	-8.96292
▁job	-8.96392
▁though	-8.96544
and	-8.96551
▁climate	-8.96589
▁hard	-8.96757
▁response	-8.96798
4	-8.96933
▁oil	-8.96979
▁Technology	-8.96989
▁contact	-8.97075
▁consideration	-8.97113
▁build	-8.97129
▁language	-8.97358
▁Working	-8.97432
▁Oh	-8.97653
▁house	-8.97691
▁doesn	-8.97835
▁software	-8.97981
▁subject	-8.98122
▁words	-8.98188
▁agreement	-8.98241
▁civil	-8.9865
▁O	-8.98667
▁Not	-8.98677
▁leave	-8.98715
▁2018	-8.98886
▁poverty	-8.98894
▁February	-8.98946
▁read	-8.98989
▁document	-8.99018
▁itself	-8.99136
▁mind	-8.99238
▁Israel	-8.99488
▁went	-8.99492
▁questions	-8.99505
▁longer	-8.99612
▁short	-8.99641
▁included	-8.99687
▁status	-8.99783
▁Well	-8.99904
▁side	-9.00091
▁themselves	-9.00126
▁type	-9.00276
▁reported	-9.0028
▁bodies	-9.00487
▁100	-9.00846
▁return	-9.00899
▁e	-9.00953
▁looking	-9.00956
▁K	-9.00963
▁challenges	-9.01009
▁lead	-9.01195
▁created	-9.01468
▁agreed	-9.01492
▁makes	-9.01585
▁date	-9.01664
▁19	-9.01713
▁forward	-9.01736
▁decided	-9.0191
▁providing	-9.01939
▁p	-9.02341
▁English	-9.02534
f	-9.02639
l	-9.02915
▁material	-9.03059
▁effect	-9.03061
▁responsibility	-9.03127
▁currently	-9.03333
▁month	-9.03656
▁achieve	-9.0366
▁agencies	-9.03732
▁program	-9.03825
▁24	-9.03825
▁strategy	-9.0387
▁online	-9.04153
▁H	-9.04273
▁according	-9.04798
▁deal	-9.04847
▁hotel	-9.04847
▁true	-9.04946
▁medical	-9.05066
▁opportunity	-9.05172
▁V	-9.05189
▁machine	-9.05344
k	-9.05527
▁content	-9.05591
▁woman	-9.05602
▁Since	-9.05678
▁rather	-9.0568
▁soon	-9.05903
▁participation	-9.05979
▁move	-9.0615
▁Report	-9.06184
▁Don	-9.06273
able	-9.06344
▁talk	-9.06427
▁please	-9.06437
▁Action	-9.06596
▁friends	-9.06641
▁Other	-9.06745
▁official	-9.06858
▁humanitarian	-9.06883
▁protect	-9.06898
?”	-9.07184
▁practice	-9.07248
▁reason	-9.07775
▁offer	-9.07852
▁model	-9.07888
▁actually	-9.07897
▁Can	-9.0791
▁concern	-9.07947
man	-9.08016
K	-9.08079
▁likely	-9.08097
▁started	-9.08169
▁wanted	-9.08224
▁understanding	-9.08313
▁submitted	-9.08389
▁largest	-9.08418
▁ways	-9.08442
▁materials	-9.08599
▁Center	-9.08622
▁nature	-9.08638
▁reduce	-9.08731
▁difficult	-9.08844
▁plans	-9.08887
”.	-9.08934
▁comprehensive	-9.08999
▁coming	-9.09019
▁context	-9.091
▁analysis	-9.09103
▁ask	-9.09296
▁allow	-9.09296
▁More	-9.09513
▁lives	-9.09612
▁everyone	-9.09669
▁2017	-9.09724
▁stop	-9.09981
▁capital	-9.10059
▁prevent	-9.10062
▁stay	-9.10079
▁rule	-9.10147
▁someone	-9.10158
▁II	-9.10172
▁try	-9.10301
▁outside	-9.10302
x	-9.10312
▁complete	-9.10318
▁Act	-9.10543
▁involved	-9.10826
▁learn	-9.10987
▁easy	-9.11254
▁co	-9.11467
▁safe	-9.11523
▁Yeah	-9.11534
▁greater	-9.11628
▁un	-9.1164
en	-9.11697
▁Germany	-9.11712
▁wish	-9.11733
▁added	-9.11785
▁run	-9.11807
▁31	-9.11814
▁applications	-9.11854
▁either	-9.11979
▁22	-9.12028
▁test	-9.12037
It	-9.12065
▁Global	-9.12499
▁head	-9.12586
▁opportunities	-9.12653
▁source	-9.12808
▁mission	-9.12868
▁monitoring	-9.12972
▁Information	-9.12975
▁2019	-9.13132
▁workers	-9.13185
▁Mission	-9.13196
▁comes	-9.13317
▁serious	-9.13399
▁justice	-9.13632
▁Bank	-9.13667
▁purpose	-9.13682
▁saw	-9.13709
▁Lord	-9.13844
▁Canada	-9.13901
▁delegation	-9.14037
▁annual	-9.1406
▁similar	-9.14104
▁average	-9.14131
);	-9.14164
▁directly	-9.14237
▁along	-9.14508
▁Central	-9.14534
▁partners	-9.14542
▁offers	-9.14581
▁standard	-9.14614
▁:	-9.14681
▁cultural	-9.14733
▁mother	-9.14797
▁basic	-9.1482
▁Internet	-9.15114
▁Health	-9.15246
▁responsible	-9.15413
▁father	-9.15492
5	-9.15621
▁Hong	-9.15704
▁code	-9.15798
▁demand	-9.15913
▁technologies	-9.16032
▁Secretariat	-9.16144
▁Ministry	-9.1637
▁principles	-9.16471
▁lost	-9.16601
▁lack	-9.16613
▁evidence	-9.16687
▁benefits	-9.16727
▁previous	-9.16792
▁practices	-9.1681
You	-9.16827
▁Company	-9.16901
▁idea	-9.16953
▁became	-9.16994
▁Are	-9.17043
▁funds	-9.17185
▁Yes	-9.17416
▁planning	-9.17537
▁receive	-9.17589
▁Management	-9.1768
▁supply	-9.17757
▁strengthen	-9.17838
▁forces	-9.17876
▁communication	-9.17923
▁remain	-9.18011
▁actions	-9.18308
▁decisions	-9.18337
▁culture	-9.18371
▁Of	-9.18589
▁facilities	-9.18603
▁Australia	-9.18604
▁below	-9.18636
▁requested	-9.1874
▁X	-9.18897
▁leading	-9.19093
▁During	-9.19138
▁representative	-9.19589
▁Arab	-9.19626
▁implement	-9.19635
▁limited	-9.19705
▁exchange	-9.19719
▁Centre	-9.19732
▁learning	-9.19754
▁Korea	-9.19784
▁final	-9.19784
▁step	-9.19793
▁France	-9.20139
▁commitment	-9.20165
▁began	-9.20198
▁Russia	-9.20299
▁L	-9.20468
▁representatives	-9.2047
▁Declaration	-9.20553
▁parts	-9.20601
▁Executive	-9.20648
▁story	-9.20917
▁saying	-9.20971
▁contained	-9.21011
▁House	-9.21043
▁Minister	-9.21071
▁establishment	-9.21079
▁designed	-9.21166
▁income	-9.2133
▁professional	-9.21407
▁23	-9.21489
▁former	-9.21763
▁Affairs	-9.21785
▁yourself	-9.22018
▁UN	-9.22212
▁center	-9.22332
N	-9.22338
▁turn	-9.22344
▁cause	-9.22377
▁expressed	-9.2244
▁Protocol	-9.2247
▁ability	-9.22497
▁independent	-9.22509
▁word	-9.22568
▁40	-9.22637
▁computer	-9.2283
▁French	-9.22989
▁platform	-9.22994
▁Kong	-9.2305
▁Institute	-9.23064
▁visit	-9.231
▁resolutions	-9.23281
see	-9.23296
▁legislation	-9.233
▁video	-9.23392
▁28	-9.23467
▁concerning	-9.23833
▁Many	-9.23856
▁sales	-9.24044
▁committed	-9.2426
▁travel	-9.24467
▁digital	-9.24562
▁laws	-9.24675
▁success	-9.24682
▁Where	-9.24695
▁hear	-9.24756
▁Just	-9.24804
▁•	-9.24834
V	-9.24991
▁criminal	-9.25125
▁construction	-9.25325
O	-9.25377
▁Who	-9.25469
▁inter	-9.25484
▁infrastructure	-9.25531
▁solutions	-9.25589
▁bad	-9.25718
▁Iraq	-9.25817
▁user	-9.26051
▁personnel	-9.2609
▁regarding	-9.26272
▁markets	-9.26336
▁news	-9.26351
▁Trade	-9.26502
▁term	-9.2658
▁growing	-9.26601
▁steps	-9.26695
▁goal	-9.26745
▁freedom	-9.26893
▁heard	-9.26905
▁documents	-9.26916
R	-9.27467
▁brought	-9.27664
▁relationship	-9.2768
▁reach	-9.27718
▁reform	-9.27801
▁includes	-9.2786
▁science	-9.27917
▁event	-9.27949
▁West	-9.27984
▁reporting	-9.28019
▁experts	-9.28051
▁mandate	-9.28155
▁Most	-9.28174
▁else	-9.28174
p	-9.28235
▁walk	-9.2829
▁procedures	-9.2834
▁events	-9.28372
▁leaders	-9.28388
▁parents	-9.28588
▁officials	-9.28617
▁alone	-9.28642
▁throughout	-9.28838
▁girls	-9.28838
▁Google	-9.28864
▁act	-9.28956
▁traditional	-9.28981
▁armed	-9.29034
▁led	-9.2924
▁individuals	-9.29325
▁regular	-9.29558
▁N	-9.29684
▁positive	-9.29691
▁strategic	-9.29815
▁discrimination	-9.29846
▁remains	-9.29923
▁crisis	-9.29931
▁modern	-9.30036
▁Is	-9.30041
▁entire	-9.30046
▁operation	-9.30154
st	-9.30159
▁benefit	-9.30223
▁states	-9.30251
▁trying	-9.30347
▁1.	-9.30428
▁sent	-9.30497
▁Palestinian	-9.30498
ness	-9.30584
▁industrial	-9.30684
▁overall	-9.30715
▁increasing	-9.30731
▁direct	-9.3088
▁27	-9.30984
▁Governments	-9.31007
▁relating	-9.31023
▁activity	-9.31121
▁provision	-9.31134
▁built	-9.31346
▁Because	-9.31394
▁morning	-9.31701
▁recently	-9.31759
▁entitled	-9.31773
▁Day	-9.31957
▁friend	-9.32165
▁victims	-9.32217
▁successful	-9.32221
▁About	-9.32272
▁solution	-9.323
▁Director	-9.32301
▁wrong	-9.32507
▁Party	-9.32525
▁2.	-9.3254
▁establish	-9.32704
▁size	-9.32707
▁goals	-9.32749
▁Services	-9.32802
▁phone	-9.32864
▁located	-9.33151
▁effects	-9.33231
▁author	-9.33316
▁essential	-9.33362
▁getting	-9.33455
▁section	-9.33499
▁physical	-9.33533
▁26	-9.33567
▁mechanisms	-9.33582
▁2000	-9.33692
▁forms	-9.33751
▁Copyright	-9.33801
▁paper	-9.33811
▁tools	-9.33835
▁Trump	-9.33877
▁himself	-9.34005
▁Al	-9.34036
▁hold	-9.34137
▁2005	-9.3419
W	-9.34318
▁Rapporteur	-9.34434
▁sexual	-9.34512
▁communities	-9.34609
▁processes	-9.34616
▁text	-9.34726
▁court	-9.34747
▁function	-9.34877
▁structure	-9.34915
▁transfer	-9.34942
▁funding	-9.34963
▁TV	-9.34996
▁obligations	-9.35057
▁sense	-9.35064
▁assessment	-9.35168
▁son	-9.35324
▁Although	-9.35405
▁tax	-9.3541
▁points	-9.35416
▁require	-9.35457
▁addressed	-9.3556
▁2016	-9.35607
▁Jesus	-9.35721
▁late	-9.35721
H	-9.3575
▁near	-9.35785
▁poor	-9.35846
ity	-9.35855
▁Beijing	-9.35857
▁©	-9.35909
▁Road	-9.35998
▁page	-9.36056
▁location	-9.36076
▁blood	-9.3608
▁Apple	-9.362
▁adoption	-9.36246
▁behind	-9.36248
▁crime	-9.36271
▁pressure	-9.36361
▁Research	-9.36437
▁thus	-9.36457
▁record	-9.36582
▁eyes	-9.36598
▁active	-9.36634
▁gonna	-9.36735
▁System	-9.36785
▁remember	-9.36827
▁lower	-9.36956
▁moment	-9.36957
▁simple	-9.37093
▁Kingdom	-9.37124
▁met	-9.3716
▁mobile	-9.3719
▁commercial	-9.37422
".	-9.37431
▁authority	-9.37454
▁coordination	-9.37591
▁2015	-9.37636
▁i	-9.37688
▁features	-9.3772
▁Go	-9.37776
▁Come	-9.37815
▁beginning	-9.37923
▁central	-9.37947
▁century	-9.37965
▁anti	-9.37989
▁2008	-9.3801
▁rest	-9.38065
▁issued	-9.3816
▁HIV	-9.38161
▁exercise	-9.38468
▁announced	-9.38496
▁joint	-9.38509
▁supported	-9.38519
▁concerns	-9.38603
▁anyone	-9.38636
▁employment	-9.38844
▁types	-9.389
▁rates	-9.38901
▁letter	-9.38917
▁devices	-9.38945
▁Business	-9.38946
▁drive	-9.38967
▁choose	-9.39115
▁Park	-9.3912
▁sea	-9.39273
▁gas	-9.39347
time	-9.39396
▁fight	-9.39412
▁families	-9.3944
▁version	-9.39486
▁published	-9.39498
▁J	-9.39575
▁drug	-9.3971
▁skills	-9.39715
▁affected	-9.39763
▁knew	-9.39865
▁loss	-9.39876
▁matters	-9.39881
▁nearly	-9.39916
▁60	-9.40073
▁truth	-9.40158
▁employees	-9.40171
▁Support	-9.40194
▁trust	-9.40355
▁arms	-9.40471
▁contributions	-9.40515
▁buy	-9.40561
▁fire	-9.40567
▁art	-9.40602
▁apply	-9.40622
▁Public	-9.40772
▁Even	-9.40812
▁road	-9.40857
▁gave	-9.40911
▁News	-9.41027
▁km	-9.41142
▁Iran	-9.41164
▁happy	-9.41229
▁Next	-9.41241
▁works	-9.41382
it	-9.41462
▁carried	-9.41469
▁connection	-9.41687
▁War	-9.41716
▁ready	-9.4185
▁takes	-9.41885
▁29	-9.41912
▁usually	-9.41979
▁equal	-9.42072
ation	-9.42119
▁beautiful	-9.42217
level	-9.42218
▁Or	-9.42268
▁British	-9.42333
▁dialogue	-9.42353
▁principle	-9.42415
▁terrorism	-9.42593
▁quickly	-9.42823
▁whose	-9.42911
▁reached	-9.42923
▁wife	-9.42948
▁table	-9.43008
▁functions	-9.43124
▁John	-9.43151
▁disease	-9.43418
▁core	-9.43613
▁music	-9.43646
▁approved	-9.43694
▁stated	-9.43705
▁conference	-9.43736
▁School	-9.43767
▁unique	-9.43781
▁web	-9.44028
▁Dr	-9.44086
▁behalf	-9.44302
▁purposes	-9.44325
▁Re	-9.44411
▁mechanism	-9.44444
▁2006	-9.44491
▁Democratic	-9.44573
▁Room	-9.44585
▁2010	-9.44595
▁hotels	-9.44615
▁vote	-9.44615
▁London	-9.44661
▁recommended	-9.44668
▁operating	-9.45085
?"	-9.45152
6	-9.45226
▁shows	-9.4526
▁initiatives	-9.45349
▁methods	-9.45371
▁prevention	-9.45394
▁processing	-9.4541
▁cancer	-9.45412
▁customer	-9.45559
▁strategies	-9.45596
▁critical	-9.45599
▁Under	-9.45646
▁studies	-9.45697
▁priority	-9.4572
▁avoid	-9.45767
▁effort	-9.45819
▁isn	-9.45891
▁enjoy	-9.45914
▁reduction	-9.45964
▁killed	-9.46059
▁Association	-9.4611
X	-9.46208
▁girl	-9.46352
▁internal	-9.46384
▁Ms	-9.46424
In	-9.4651
▁San	-9.46557
▁enhance	-9.46627
▁president	-9.46651
▁happened	-9.46766
ism	-9.47058
▁strengthening	-9.47213
▁Also	-9.47286
▁views	-9.47286
▁class	-9.47297
▁answer	-9.47384
▁prepared	-9.47392
▁weeks	-9.47445
▁EU	-9.47492
▁promotion	-9.47496
▁Representative	-9.4753
▁sources	-9.47604
▁pre	-9.47611
▁cities	-9.47614
▁UK	-9.47837
▁prices	-9.47878
▁Earth	-9.47931
ic	-9.48027
▁interests	-9.48028
▁2007	-9.48068
star	-9.48154
▁seven	-9.48223
▁Good	-9.48301
▁primary	-9.48301
&	-9.48426
▁ground	-9.4844
▁Policy	-9.48456
▁Here	-9.48525
▁white	-9.48573
ion	-9.48598
▁annex	-9.48601
▁Facebook	-9.4862
▁Today	-9.48903
▁requests	-9.48923
▁beyond	-9.48958
▁discussion	-9.48959
This	-9.48967
▁rooms	-9.48979
▁stage	-9.49109
▁St	-9.49115
▁seems	-9.49333
▁goods	-9.49358
▁2012	-9.49363
▁search	-9.49376
▁probably	-9.49476
▁aspects	-9.49593
▁black	-9.4967
▁fundamental	-9.49716
▁wants	-9.49827
▁released	-9.49834
▁eat	-9.49894
▁complex	-9.49929
▁German	-9.49961
▁d	-9.4997
▁administration	-9.50122
▁scientific	-9.50132
▁administrative	-9.50187
▁myself	-9.50203
▁challenge	-9.50239
▁efficiency	-9.50392
▁equality	-9.50566
▁Product	-9.50591
un	-9.50646
▁assets	-9.50692
▁dead	-9.50709
▁2013	-9.50848
▁hands	-9.50854
▁factors	-9.50968
▁manner	-9.51006
▁acts	-9.51012
is	-9.51094
▁1,	-9.51133
▁Advisory	-9.51267
▁operational	-9.51343
▁manufacturing	-9.51478
▁Education	-9.51496
▁choice	-9.51501
▁changed	-9.51509
▁Official	-9.51525
▁Products	-9.51612
▁reasons	-9.5162
▁serve	-9.51808
▁majority	-9.51853
▁integrated	-9.52052
▁paid	-9.52068
▁highest	-9.5212
▁enable	-9.52129
▁original	-9.52197
▁front	-9.52375
▁*	-9.52411
▁thinking	-9.52435
▁indigenous	-9.52579
▁Plan	-9.52641
▁Code	-9.52738
▁2004	-9.528
▁items	-9.52861
▁promoting	-9.52939
▁recognized	-9.52999
▁awareness	-9.53005
▁conduct	-9.53043
▁inside	-9.531
▁See	-9.53149
▁quite	-9.53239
▁device	-9.53281
▁schools	-9.53299
▁Be	-9.5333
▁regions	-9.53368
▁threat	-9.53407
▁procedure	-9.53411
▁Two	-9.53467
▁fear	-9.53529
▁contribute	-9.53719
▁researchers	-9.53913
▁speak	-9.53997
ist	-9.53999
▁requires	-9.54019
▁attack	-9.54039
▁2014	-9.54057
▁fast	-9.5406
▁associated	-9.54066
▁elements	-9.54088
▁peacekeeping	-9.54174
▁written	-9.54208
us	-9.54323
▁Great	-9.54357
▁multi	-9.54387
old	-9.54506
▁latest	-9.54551
▁2011	-9.54651
building	-9.54671
▁wide	-9.54822
▁notes	-9.54904
▁maintain	-9.55041
▁Chairman	-9.55065
▁save	-9.55342
▁organized	-9.5535
▁2002	-9.55453
▁2003	-9.55489
▁W	-9.55552
▁although	-9.55574
▁Children	-9.55672
▁agreements	-9.55737
▁patients	-9.55768
▁consultations	-9.55782
▁transport	-9.55783
▁highly	-9.55836
▁etc	-9.55901
▁sometimes	-9.55917
▁launched	-9.56062
▁Contact	-9.56075
▁simply	-9.56096
▁instruments	-9.56098
▁participate	-9.5622
▁Forum	-9.56222
▁De	-9.56322
▁immediately	-9.56359
7	-9.56386
▁speed	-9.56578
▁claims	-9.56581
le	-9.56675
▁aimed	-9.56769
governmental	-9.56946
▁earth	-9.56977
▁uses	-9.56997
▁assist	-9.57035
▁continues	-9.57251
▁Review	-9.57287
▁Western	-9.57361
▁debt	-9.57548
▁Second	-9.57595
▁welcome	-9.5764
▁deep	-9.57661
▁film	-9.57675
▁Mexico	-9.57697
▁Japanese	-9.57746
▁implemented	-9.57764
▁calls	-9.57889
):	-9.57924
▁conducted	-9.57954
▁completed	-9.57966
▁missions	-9.58017
▁worked	-9.58034
▁died	-9.58052
▁effectively	-9.58121
▁Get	-9.58144
▁innovation	-9.58181
▁citizens	-9.58189
▁3.	-9.58281
▁carry	-9.58335
▁2009	-9.58423
▁Site	-9.58621
▁Singapore	-9.58649
▁Hey	-9.5866
▁introduced	-9.5869
rs	-9.58761
▁Non	-9.58766
▁contract	-9.58796
▁secretariat	-9.59019
as	-9.5908
less	-9.59204
▁referred	-9.59206
▁identified	-9.59247
▁Power	-9.59449
▁daily	-9.59469
▁completely	-9.59498
▁brand	-9.59506
▁creation	-9.59531
If	-9.5967
▁objectives	-9.59684
▁2001	-9.59758
▁statements	-9.60033
@	-9.60036
no	-9.60188
▁Over	-9.60198
▁check	-9.60234
▁generally	-9.60326
▁compared	-9.60424
▁rural	-9.60552
▁leadership	-9.60563
▁offices	-9.60572
▁Middle	-9.60696
▁Air	-9.60716
related	-9.60832
▁regulations	-9.60845
at	-9.60949
J	-9.61081
▁bank	-9.61088
▁born	-9.61094
▁bit	-9.61102
▁signed	-9.61108
▁rise	-9.61165
▁disarmament	-9.61275
▁cover	-9.61338
▁identify	-9.61343
▁release	-9.61355
▁seek	-9.61358
▁Italy	-9.6138
▁Division	-9.61428
▁facilitate	-9.61544
▁ensuring	-9.61546
z	-9.61607
▁Shanghai	-9.61641
▁die	-9.61642
▁described	-9.61644
▁worldwide	-9.61677
▁estimated	-9.61681
▁base	-9.61743
▁sound	-9.61794
▁Asian	-9.6182
▁achieved	-9.61823
▁felt	-9.61874
▁caused	-9.61901
▁concept	-9.61949
▁communications	-9.61985
▁balance	-9.61994
ization	-9.62011
▁competition	-9.62028
▁allowed	-9.62034
▁sex	-9.62184
▁Federation	-9.62191
▁produce	-9.62193
▁trafficking	-9.62292
▁talking	-9.62295
▁delivery	-9.62302
▁continuing	-9.6237
▁wait	-9.62569
▁0	-9.62767
▁treaty	-9.62778
▁station	-9.62869
▁popular	-9.62937
▁participants	-9.63036
▁presented	-9.63059
▁para	-9.63175
▁send	-9.63183
▁CO	-9.63196
▁happen	-9.63224
▁businesses	-9.63246
▁distribution	-9.63302
▁cut	-9.63328
▁enterprises	-9.63329
▁Israeli	-9.63387
▁creating	-9.63392
▁earlier	-9.63393
▁watch	-9.63543
▁stand	-9.63587
▁airport	-9.63682
▁Red	-9.63685
▁jobs	-9.63704
▁target	-9.63825
▁relations	-9.63969
▁eight	-9.64036
▁maintenance	-9.64072
▁Treaty	-9.64082
*	-9.64082
▁Therefore	-9.64187
▁implementing	-9.64197
▁Justice	-9.64214
▁religious	-9.64307
▁reference	-9.64334
▁violations	-9.64341
▁integration	-9.64591
▁multiple	-9.64598
▁Agreement	-9.64633
▁nor	-9.64664
▁Permanent	-9.64676
▁storage	-9.64702
▁tool	-9.64737
▁Protection	-9.64739
–	-9.64894
v	-9.6497
▁Q	-9.64991
▁cells	-9.64999
▁resource	-9.65011
▁grow	-9.65063
▁instead	-9.65171
▁improving	-9.65182
▁details	-9.65188
▁movement	-9.6531
▁win	-9.65319
for	-9.65343
▁values	-9.65389
▁sub	-9.65431
▁method	-9.65465
▁generation	-9.65498
▁Commissioner	-9.65521
▁Only	-9.65575
▁Paris	-9.65575
▁aircraft	-9.65628
▁Such	-9.65674
▁Panel	-9.65711
▁Her	-9.65851
▁options	-9.65949
▁clearly	-9.65955
▁claim	-9.65966
▁proposal	-9.66058
▁advanced	-9.66103
▁places	-9.66155
▁Sea	-9.66272
▁fall	-9.66358
▁circumstances	-9.66485
▁add	-9.66523
▁Foreign	-9.66548
u	-9.66587
▁adequate	-9.66734
▁financing	-9.66776
▁nation	-9.66921
▁worth	-9.67009
▁perfect	-9.67021
▁Energy	-9.67103
▁allows	-9.67155
▁brain	-9.67202
▁door	-9.67231
▁Pacific	-9.67386
▁White	-9.67392
▁improved	-9.67496
▁contribution	-9.67548
▁vehicles	-9.67554
▁sleep	-9.676
▁Summit	-9.67646
▁file	-9.67652
▁labour	-9.67676
▁evaluation	-9.67728
▁town	-9.67884
▁normal	-9.67967
▁enter	-9.67986
▁scale	-9.68037
of	-9.68053
▁investigation	-9.68142
▁ten	-9.68162
▁presence	-9.68267
▁consumption	-9.68333
▁Science	-9.68343
▁write	-9.68372
▁+	-9.68387
$	-9.68432
▁partner	-9.68458
▁extent	-9.68459
▁credit	-9.6846
▁dollars	-9.6852
▁cross	-9.68669
▁expert	-9.6879
de	-9.68803
▁Agency	-9.68886
▁Brazil	-9.68943
8	-9.68981
▁focused	-9.69004
▁Street	-9.6901
▁applied	-9.69111
▁Every	-9.69112
▁articles	-9.69137
▁message	-9.69161
▁Food	-9.69168
▁Those	-9.69196
▁reality	-9.69203
▁Have	-9.69353
▁collaboration	-9.69447
▁negotiations	-9.69517
▁voice	-9.69541
▁easily	-9.69592
▁chance	-9.69607
▁begin	-9.69616
▁shared	-9.69619
▁followed	-9.69652
▁kids	-9.69747
▁electronic	-9.69785
▁cloud	-9.69914
▁informed	-9.69918
▁guidelines	-9.69935
▁Industry	-9.69973
▁Data	-9.70037
▁raised	-9.70045
▁weight	-9.70164
out	-9.70196
▁Millennium	-9.70263
▁Man	-9.70376
▁marketing	-9.70498
▁Force	-9.70555
▁Meeting	-9.70671
▁looked	-9.70878
▁damage	-9.70892
▁Last	-9.70943
▁posts	-9.7096
▁attacks	-9.7114
▁mainly	-9.71171
▁biennium	-9.71239
▁encourage	-9.71289
▁thousands	-9.71604
▁Covenant	-9.71619
▁shown	-9.71828
▁task	-9.71841
▁wrote	-9.71851
▁wasn	-9.71972
▁prior	-9.71974
▁Cooperation	-9.72019
▁UNDP	-9.72039
▁board	-9.72057
▁degree	-9.72058
▁initial	-9.72098
▁produced	-9.72109
▁temperature	-9.72181
▁Windows	-9.72196
▁whom	-9.72203
▁color	-9.72271
▁submit	-9.72387
▁interested	-9.72473
▁La	-9.725
▁powerful	-9.72547
▁writing	-9.72578
▁biggest	-9.72581
▁officers	-9.72582
▁insurance	-9.72662
▁sign	-9.72759
▁image	-9.72931
▁seem	-9.73015
▁territory	-9.73028
▁turned	-9.73058
+	-9.73129
▁external	-9.73402
▁Each	-9.73457
▁efficient	-9.7347
▁fine	-9.73513
▁Another	-9.73597
▁opened	-9.73607
▁dollar	-9.73666
▁outcome	-9.73702
▁Afghanistan	-9.73781
▁fund	-9.73801
▁gone	-9.73831
▁clean	-9.7395
▁advice	-9.73997
▁stability	-9.74024
▁goes	-9.7411
▁running	-9.742
▁dated	-9.74224
▁Year	-9.74224
▁units	-9.74243
▁secure	-9.74244
mm	-9.74331
▁Time	-9.74333
▁Open	-9.74334
▁collection	-9.74402
▁ongoing	-9.74479
▁determine	-9.7451
▁mass	-9.74671
▁affect	-9.74676
ar	-9.74768
▁comments	-9.74769
▁enforcement	-9.74824
▁networks	-9.74825
10	-9.74901
▁games	-9.74925
ling	-9.7497
▁Geneva	-9.74986
He	-9.75079
▁finally	-9.75111
▁objective	-9.75168
▁guidance	-9.7517
▁transition	-9.75195
▁testing	-9.75248
▁payment	-9.75303
▁giving	-9.75355
▁faith	-9.75393
▁career	-9.75434
.1	-9.75459
▁partnership	-9.75515
▁proposals	-9.75562
▁4.	-9.75565
▁variety	-9.75587
▁opinion	-9.75644
▁risks	-9.75721
▁enterprise	-9.75782
▁strength	-9.75795
▁Project	-9.75796
▁arrangements	-9.75836
▁knows	-9.75881
co	-9.75928
▁peoples	-9.7593
▁difference	-9.75978
▁aid	-9.75988
▁practical	-9.76002
▁waste	-9.76018
▁learned	-9.76075
▁Free	-9.76132
▁refugees	-9.76143
▁huge	-9.76146
ment	-9.76154
▁increasingly	-9.76183
▁III	-9.76232
▁useful	-9.76295
na	-9.76326
▁initiative	-9.76346
▁accept	-9.7644
▁combat	-9.76515
▁via	-9.76544
▁female	-9.76574
▁THE	-9.76648
▁District	-9.76696
da	-9.7671
▁marriage	-9.76716
▁leader	-9.7673
▁Charter	-9.76845
▁players	-9.76859
▁recommendation	-9.7686
No	-9.7696
▁advantage	-9.77027
day	-9.77043
▁ideas	-9.77061
▁Their	-9.77069
▁programs	-9.77112
▁Spain	-9.7712
▁Me	-9.77197
▁student	-9.77218
▁scientists	-9.77286
▁season	-9.77314
▁green	-9.77434
▁kill	-9.7757
▁negative	-9.77572
▁border	-9.77607
▁tried	-9.77621
▁Washington	-9.77682
▁El	-9.77768
▁Zealand	-9.7779
▁emergency	-9.77876
te	-9.7795
▁compliance	-9.7811
▁Unit	-9.7816
▁offered	-9.7818
▁Criminal	-9.78247
▁agree	-9.78444
▁steel	-9.78606
▁map	-9.7879
▁measure	-9.78874
▁governance	-9.7895
▁consumers	-9.78959
▁King	-9.78974
▁direction	-9.78978
▁fair	-9.7904
▁urban	-9.79057
▁pursuant	-9.79065
▁supporting	-9.79097
▁expect	-9.79097
▁Will	-9.79126
▁crimes	-9.79128
▁investors	-9.79129
▁exist	-9.79147
▁Tribunal	-9.7921
▁Ireland	-9.79247
▁Turkey	-9.79324
▁numbers	-9.79365
▁guy	-9.79414
>	-9.79428
▁launch	-9.79438
nd	-9.7945
▁Tel	-9.79475
▁husband	-9.79539
▁Look	-9.79617
▁hour	-9.79635
ton	-9.79796
▁looks	-9.7986
▁red	-9.79912
▁unit	-9.7993
▁influence	-9.79943
▁twenty	-9.80015
▁Industrial	-9.80026
▁Financial	-9.80141
▁Microsoft	-9.80173
▁card	-9.80215
▁m	-9.80247
▁components	-9.80276
▁applicable	-9.80439
▁sectors	-9.80487
▁firm	-9.80512
▁guests	-9.80514
▁preparation	-9.8053
▁entities	-9.80547
▁fifty	-9.80615
▁smart	-9.80649
▁thank	-9.8069
▁confidence	-9.80884
▁charge	-9.80931
▁baby	-9.80966
▁languages	-9.81028
▁AI	-9.81056
▁chemical	-9.81166
▁cash	-9.81364
▁books	-9.81403
▁vehicle	-9.81404
Add	-9.81407
▁::	-9.81469
▁floor	-9.81551
▁healthy	-9.81566
one	-9.81571
▁press	-9.81661
▁host	-9.81664
▁Like	-9.81795
▁separate	-9.81938
▁trading	-9.81947
▁Agenda	-9.8198
▁mentioned	-9.82077
▁models	-9.82168
▁campaign	-9.82351
▁situations	-9.8241
▁placed	-9.82567
▁Pakistan	-9.82649
▁Congress	-9.82729
▁Did	-9.82887
▁undertaken	-9.82962
▁vision	-9.82963
▁island	-9.83018
▁internet	-9.83058
▁35	-9.83064
▁middle	-9.8326
▁Federal	-9.83262
▁break	-9.83324
Y	-9.83424
▁commitments	-9.83452
▁round	-9.83486
▁debate	-9.835
▁housing	-9.83526
▁object	-9.83642
▁Right	-9.83657
▁80	-9.83669
▁reading	-9.83729
▁decades	-9.83773
▁Best	-9.8386
w	-9.83862
ized	-9.83886
▁Section	-9.83918
▁election	-9.8394
▁Congo	-9.84055
▁Christ	-9.84153
9	-9.84163
▁fuel	-9.84238
▁Latin	-9.84291
▁sold	-9.84393
▁Environment	-9.84409
▁gold	-9.84429
▁drink	-9.84453
▁Sudan	-9.84462
tergovernmental	-9.84464
▁summer	-9.84536
▁Space	-9.84539
▁reduced	-9.8454
▁Okay	-9.84611
▁approximately	-9.84646
▁hit	-9.84651
▁centre	-9.84692
▁moving	-9.84722
▁accounts	-9.84861
ry	-9.84861
▁passed	-9.84865
▁meters	-9.84902
▁brother	-9.84918
▁1999	-9.84924
▁boy	-9.84978
▁invited	-9.85001
▁sorry	-9.85075
▁illegal	-9.85196
el	-9.85203
▁export	-9.85246
▁senior	-9.85289
▁aim	-9.85366
▁ahead	-9.85411
▁phase	-9.85456
▁played	-9.85761
▁Regional	-9.85816
ting	-9.85895
▁Maybe	-9.85905
▁Indian	-9.85913
▁Implementation	-9.85916
▁trial	-9.85966
▁abuse	-9.85972
▁elections	-9.86037
▁Technical	-9.86083
▁90	-9.8609
▁remained	-9.86094
▁Art	-9.8621
▁closely	-9.86214
▁join	-9.8627
▁lose	-9.86346
▁economies	-9.86446
▁gives	-9.86476
▁scope	-9.86488
▁Life	-9.86503
▁instance	-9.86571
▁consumer	-9.86623
▁Add	-9.86642
▁Take	-9.8671
Z	-9.86731
▁Peace	-9.86759
▁path	-9.86771
What	-9.86791
▁becoming	-9.86795
▁notice	-9.86823
▁Web	-9.86839
est	-9.86864
▁plant	-9.86987
▁cars	-9.87064
▁store	-9.87125
▁200	-9.87139
▁spend	-9.87198
▁Britain	-9.8723
▁innovative	-9.87254
▁Water	-9.87268
making	-9.87336
▁respond	-9.87346
▁permanent	-9.87592
▁helped	-9.87623
▁intelligence	-9.87656
▁forced	-9.87731
▁sites	-9.87841
▁Saudi	-9.87914
li	-9.87916
▁Us	-9.88065
▁drugs	-9.88197
▁2,	-9.88217
▁recommends	-9.88286
▁fourth	-9.88361
son	-9.88418
▁Black	-9.88439
CN	-9.88466
▁universal	-9.88552
▁Egypt	-9.88562
▁advance	-9.88598
▁cold	-9.88615
▁(1	-9.88639
▁Police	-9.88643
-1	-9.88675
am	-9.88729
▁spirit	-9.88737
▁multilateral	-9.88747
▁nations	-9.88754
▁truly	-9.88792
▁spent	-9.8882
ia	-9.88821
▁feature	-9.88888
▁starting	-9.88894
▁indicated	-9.88952
▁rich	-9.88984
▁appear	-9.89023
▁Use	-9.89027
▁meaning	-9.89111
▁Islamic	-9.89161
▁Constitution	-9.89353
▁surface	-9.89389
▁Museum	-9.89457
▁survey	-9.89572
▁counter	-9.89604
▁previously	-9.89658
▁cookies	-9.89671
▁bar	-9.89816
▁>>	-9.89846
▁Administration	-9.89891
▁pretty	-9.89974
▁recovery	-9.90088
▁Network	-9.90124
▁70	-9.90163
▁covered	-9.90245
▁box	-9.90269
▁train	-9.90283
▁educational	-9.9031
▁Friday	-9.90315
”,	-9.90368
▁Z	-9.90374
▁manage	-9.90387
▁opening	-9.90395
▁Civil	-9.90417
▁Note	-9.90429
▁maybe	-9.9044
▁entry	-9.90479
▁mine	-9.90521
▁served	-9.90528
▁peaceful	-9.90549
▁coffee	-9.9056
▁View	-9.90577
▁raise	-9.90589
▁aware	-9.90643
▁follows	-9.90686
▁electric	-9.90724
▁terrorist	-9.90727
▁institutional	-9.90789
▁Americans	-9.9088
▁fields	-9.90945
▁vulnerable	-9.90965
▁minimum	-9.90966
▁race	-9.91018
▁Political	-9.91072
▁monitor	-9.91087
▁chain	-9.91143
▁showed	-9.91228
▁traffic	-9.91266
▁okay	-9.91362
▁Crime	-9.91467
▁c	-9.91507
▁actual	-9.91535
age	-9.91598
▁Child	-9.91604
▁playing	-9.91607
▁hot	-9.91754
▁#	-9.91877
▁weather	-9.91917
end	-9.91997
▁Monday	-9.92135
▁widely	-9.92165
▁Series	-9.92166
by	-9.92209
▁positions	-9.92291
▁detention	-9.92292
▁option	-9.92356
▁consequences	-9.924
▁believed	-9.92457
▁improvement	-9.92489
▁net	-9.92501
▁changing	-9.92577
▁Community	-9.92653
▁failure	-9.92681
▁contains	-9.92704
▁clients	-9.92795
▁Paul	-9.92855
▁pain	-9.93089
▁Third	-9.93094
ma	-9.93109
▁detailed	-9.93175
▁teams	-9.93402
▁deliver	-9.93463
▁finance	-9.93507
▁sell	-9.93535
▁Address	-9.93546
▁certainly	-9.93553
▁emissions	-9.93606
▁determined	-9.93615
▁regime	-9.93697
▁sharing	-9.93727
▁Chief	-9.9374
▁Page	-9.93752
▁bed	-9.9381
▁Family	-9.94011
j	-9.94057
▁Inn	-9.94062
▁sanctions	-9.94132
▁intended	-9.94201
▁youth	-9.94231
▁older	-9.94412
▁email	-9.94416
▁purchase	-9.94417
land	-9.94438
▁dream	-9.94486
▁2020	-9.94582
▁waiting	-9.946
▁double	-9.94681
▁link	-9.94698
▁federal	-9.94714
▁religion	-9.94722
▁closed	-9.94775
▁married	-9.94903
▁unless	-9.94922
▁David	-9.94922
▁character	-9.95033
▁carbon	-9.95043
▁broad	-9.95086
▁Syrian	-9.95136
▁Li	-9.95149
▁returned	-9.95179
▁Control	-9.95212
▁stars	-9.95217
AIDS	-9.95223
▁Foundation	-9.95226
▁named	-9.953
▁achieving	-9.95385
ch	-9.95547
▁discussions	-9.95558
▁banks	-9.95566
▁feeling	-9.95594
net	-9.95682
▁experiences	-9.95688
▁alternative	-9.95741
▁stock	-9.95751
▁governments	-9.959
▁helping	-9.95928
▁animals	-9.95941
▁judicial	-9.96007
▁except	-9.96008
▁consistent	-9.96052
U	-9.96058
▁guys	-9.96097
▁corporate	-9.96158
▁x	-9.9617
▁birth	-9.96177
▁sufficient	-9.96194
▁exactly	-9.96231
▁1990	-9.96287
▁)	-9.963
▁fun	-9.96382
responsibilities	-9.96425
▁causes	-9.96487
▁Annex	-9.96548
▁prison	-9.96549
▁Any	-9.96573
▁defined	-9.96576
▁Green	-9.9668
▁effectiveness	-9.96727
▁suggested	-9.96794
▁emerging	-9.96909
▁1998	-9.96915
▁cell	-9.96964
▁adopt	-9.9699
▁perhaps	-9.97064
▁forget	-9.9714
▁Building	-9.97178
▁delegations	-9.97237
▁expertise	-9.97306
▁perspective	-9.9741
▁couldn	-9.97413
▁prepare	-9.97415
▁guide	-9.97452
▁moved	-9.97559
▁spread	-9.9761
▁larger	-9.97631
▁currency	-9.97643
▁condition	-9.9765
▁informal	-9.97652
▁significantly	-9.97669
▁solar	-9.97699
▁specialized	-9.97707
▁Design	-9.97721
▁distance	-9.97761
▁daughter	-9.97782
▁welcomed	-9.97822
▁greatest	-9.97846
▁indicators	-9.9793
▁kept	-9.97958
▁app	-9.97974
▁accepted	-9.98001
▁Once	-9.98002
▁extremely	-9.9803
▁failed	-9.9805
▁Furthermore	-9.98101
▁College	-9.98221
▁Amazon	-9.98252
▁45	-9.98284
▁stakeholders	-9.9832
▁destruction	-9.9837
▁despite	-9.98431
▁planned	-9.98433
▁b	-9.98492
▁wouldn	-9.98521
▁centres	-9.98538
▁Sustainable	-9.98662
▁medium	-9.9867
▁names	-9.98901
org	-9.98962
he	-9.98984
▁industries	-9.98997
▁relation	-9.99007
▁Thus	-9.9909
▁eye	-9.99109
▁approval	-9.99158
line	-9.99175
▁track	-9.9921
▁civilian	-9.99229
▁alia	-9.99258
▁recognition	-9.99259
▁records	-9.99263
▁Hotels	-9.99275
▁Allah	-9.99328
▁Prime	-9.99391
▁Both	-9.99466
ive	-9.99466
▁reducing	-9.9947
▁nine	-9.99476
ra	-9.99495
▁possibility	-9.99721
▁recognize	-9.99749
▁resulting	-9.99787
▁tomorrow	-9.99826
▁Thank	-9.99926
▁democracy	-10
▁OF	-10.0008
▁quarter	-10.0015
▁sun	-10.0016
▁sessions	-10.0021
▁discuss	-10.0021
▁setting	-10.0024
▁agency	-10.0046
▁limit	-10.0047
▁toward	-10.0061
▁duty	-10.0062
▁independence	-10.0062
▁executive	-10.0067
▁priorities	-10.007
▁(1)	-10.0071
▁California	-10.0075
▁concluded	-10.0081
▁Y	-10.0083
▁figure	-10.0085
▁decide	-10.0106
▁Legal	-10.0114
▁indeed	-10.0119
led	-10.012
▁afraid	-10.0126
▁5.	-10.0132
▁reflect	-10.0135
▁hospital	-10.0143
▁trend	-10.0144
▁sale	-10.0158
▁fish	-10.0158
Q	-10.0165
▁statistics	-10.0171
▁Bar	-10.0172
▁Countries	-10.0172
▁UNICEF	-10.0177
▁proceedings	-10.0184
▁Indonesia	-10.0205
▁$	-10.0211
▁Beach	-10.0214
▁rapid	-10.0216
▁picture	-10.0217
▁dangerous	-10.0225
▁explain	-10.0227
▁relatively	-10.0229
▁v	-10.0229
ian	-10.0232
▁decade	-10.0252
▁Moreover	-10.0253
▁engineering	-10.0261
▁Model	-10.0272
▁encouraged	-10.0273
▁Cuba	-10.0273
▁screen	-10.0282
▁becomes	-10.0286
▁Switzerland	-10.0291
▁revised	-10.0291
▁disaster	-10.0294
▁species	-10.0295
▁doctor	-10.0303
▁Australian	-10.0303
▁actively	-10.0309
▁ship	-10.031
▁capabilities	-10.0312
▁Reserved	-10.0315
▁display	-10.0316
▁connected	-10.0317
20	-10.032
▁lines	-10.0331
▁agricultural	-10.0335
▁haven	-10.0344
But	-10.0353
▁director	-10.0362
▁pass	-10.0362
▁provisional	-10.0366
▁Caribbean	-10.0373
▁driving	-10.0373
▁doubt	-10.0382
▁database	-10.0387
▁Him	-10.0391
▁addressing	-10.0395
▁Joint	-10.0399
▁substantive	-10.0412
▁2008,	-10.0416
▁speaking	-10.0416
ro	-10.0422
▁torture	-10.0425
▁registered	-10.0431
▁revenue	-10.0432
ta	-10.0433
▁heat	-10.0436
▁Spanish	-10.0442
▁couple	-10.0445
▁500	-10.0464
▁listed	-10.0465
▁Airport	-10.0467
▁obligation	-10.0476
▁committee	-10.0484
▁reserved	-10.0484
▁maximum	-10.0504
▁radio	-10.0506
▁confirmed	-10.0509
▁entered	-10.0517
▁disabilities	-10.052
▁television	-10.0521
▁existence	-10.0533
▁skin	-10.0553
▁tasks	-10.0553
▁expand	-10.0556
ne	-10.0558
▁guarantee	-10.0573
Ltd	-10.0574
▁expansion	-10.0577
▁definition	-10.0578
▁university	-10.0579
▁appointed	-10.058
▁nice	-10.0585
▁identity	-10.0595
la	-10.0597
▁forest	-10.0608
▁wind	-10.0611
▁flow	-10.0613
▁2006,	-10.0614
▁discussed	-10.0619
!”	-10.062
▁excellent	-10.063
▁UNCTAD	-10.0635
free	-10.064
▁compensation	-10.0642
▁listen	-10.0643
▁Three	-10.0646
▁instrument	-10.0647
▁millions	-10.0651
▁2005,	-10.0652
▁faster	-10.0659
▁Goals	-10.0661
▁Le	-10.0663
▁Malaysia	-10.0666
▁heavy	-10.0677
▁Pro	-10.0678
▁experienced	-10.0678
▁Guests	-10.0678
▁specifically	-10.0678
ie	-10.0683
▁diseases	-10.0685
▁Thailand	-10.0689
▁stable	-10.0692
▁whatever	-10.0695
rd	-10.0698
▁www	-10.0705
▁Chapter	-10.0706
▁Inter	-10.071
▁feet	-10.0713
▁server	-10.0717
▁consensus	-10.0736
▁selected	-10.0737
▁establishing	-10.0747
▁legislative	-10.0749
▁Sun	-10.075
▁achievement	-10.075
▁helps	-10.0761
▁lies	-10.0762
▁Netherlands	-10.0764
▁holding	-10.0769
▁memory	-10.077
▁church	-10.0774
▁academic	-10.0774
▁temporary	-10.0778
▁patient	-10.078
▁soul	-10.0791
▁2007,	-10.0795
ant	-10.0795
▁remaining	-10.0807
▁hair	-10.0809
▁ourselves	-10.0811
▁Ukraine	-10.0811
▁settlement	-10.0819
▁component	-10.0825
▁touch	-10.083
▁factor	-10.0838
▁crucial	-10.0855
▁teaching	-10.0856
▁formal	-10.0866
▁targets	-10.0881
▁immediate	-10.0881
▁registration	-10.0902
▁Total	-10.0905
ine	-10.0905
▁chief	-10.0907
▁famous	-10.091
▁engaged	-10.0921
▁6.	-10.0922
AC	-10.0927
▁Love	-10.0937
▁secret	-10.0937
▁cycle	-10.0937
▁Christian	-10.0938
▁perform	-10.0938
ty	-10.0938
▁32	-10.0947
▁consultation	-10.0949
▁Island	-10.0959
▁Car	-10.0976
▁express	-10.0978
▁Medical	-10.0979
▁expression	-10.0987
▁Yet	-10.0988
▁leaving	-10.0995
▁Finally	-10.0997
▁mental	-10.1008
▁interesting	-10.1011
▁dark	-10.1012
▁bilateral	-10.1016
men	-10.1032
▁?	-10.1035
▁Table	-10.1037
▁update	-10.1039
▁dog	-10.1043
▁Korean	-10.1046
▁violation	-10.105
▁street	-10.105
▁approaches	-10.1056
be	-10.1056
ate	-10.1056
▁wall	-10.1057
And	-10.1064
▁paragraphs	-10.107
▁extended	-10.1075
▁plastic	-10.1079
▁category	-10.1084
▁glass	-10.1085
▁appreciation	-10.1085
▁joined	-10.1085
▁ones	-10.1088
▁happens	-10.1089
▁player	-10.1094
▁voluntary	-10.1094
▁protected	-10.1098
▁wine	-10.1102
il	-10.1105
▁threats	-10.1105
▁Name	-10.1119
There	-10.113
▁Ad	-10.113
▁Number	-10.1141
▁successfully	-10.1148
▁Before	-10.1148
▁offering	-10.1149
▁Un	-10.1149
▁trends	-10.1151
▁loved	-10.1158
▁promise	-10.1163
▁Training	-10.117
▁IT	-10.1182
▁engine	-10.1186
▁delivered	-10.1189
▁actors	-10.1199
▁planet	-10.1212
▁Previous	-10.1218
▁Italian	-10.1219
▁otherwise	-10.1222
▁findings	-10.1223
▁seeking	-10.1227
▁sir	-10.1229
▁eventually	-10.124
▁elected	-10.1241
▁involving	-10.1243
▁spending	-10.1251
▁respective	-10.1259
▁believes	-10.1273
▁Northern	-10.1279
▁facing	-10.1281
▁style	-10.1284
▁Islands	-10.1286
▁gain	-10.13
▁suffering	-10.1312
▁Its	-10.1322
▁al	-10.1324
▁developments	-10.1331
▁transportation	-10.1333
▁transactions	-10.1335
▁appears	-10.1356
▁images	-10.1359
▁worry	-10.1363
▁theme	-10.1363
▁Part	-10.1367
▁Taiwan	-10.1372
▁movie	-10.1372
▁window	-10.1375
▁Recalling	-10.1387
▁Post	-10.1416
▁Equipment	-10.1417
▁flight	-10.142
▁restaurant	-10.1422
▁Apartments	-10.1427
▁aren	-10.1435
▁combined	-10.1455
▁lived	-10.1457
▁privacy	-10.1457
▁Vienna	-10.1458
▁origin	-10.1458
▁ethnic	-10.1459
▁Bureau	-10.1459
▁partnerships	-10.1464
▁reflected	-10.1466
ka	-10.1466
▁Tuesday	-10.1469
China	-10.1469
▁investments	-10.1477
▁easier	-10.1495
▁numerous	-10.1502
▁Despite	-10.1512
▁mid	-10.1519
▁Prevention	-10.1521
▁contain	-10.1525
▁$1	-10.1533
▁background	-10.1533
▁LED	-10.1537
",	-10.1537
▁solve	-10.1539
▁appeal	-10.1543
▁democratic	-10.1547
▁Does	-10.1551
▁Work	-10.1551
▁Administrative	-10.1556
▁files	-10.1558
▁periodic	-10.1564
▁jurisdiction	-10.1565
▁Wi	-10.1569
▁Authority	-10.1571
▁thanks	-10.1572
▁speech	-10.1574
▁explore	-10.1581
▁zone	-10.1581
▁founded	-10.1588
▁desire	-10.1591
▁implications	-10.1591
do	-10.1597
▁plants	-10.1598
▁conclusion	-10.1603
▁discovered	-10.1609
▁hundreds	-10.1611
▁realize	-10.1614
▁seemed	-10.162
▁courses	-10.1624
▁theory	-10.1625
▁client	-10.1644
▁dedicated	-10.1653
▁square	-10.1653
▁obtain	-10.1656
▁consent	-10.1656
▁England	-10.1657
▁recommend	-10.1666
▁selection	-10.1676
▁criteria	-10.1681
▁Church	-10.1683
▁recorded	-10.1685
▁Guinea	-10.1692
▁(2)	-10.1701
me	-10.1707
▁linked	-10.1708
▁CEO	-10.1709
▁represent	-10.1714
▁dealing	-10.172
▁transparency	-10.1721
▁star	-10.1725
▁reliable	-10.1732
▁Long	-10.1734
Home	-10.1738
▁wealth	-10.1741
▁technological	-10.1746
▁techniques	-10.1752
▁slow	-10.1762
▁manufacturers	-10.1764
▁300	-10.1767
▁courts	-10.1779
▁teachers	-10.178
▁punishment	-10.1782
▁2004,	-10.1783
▁output	-10.1792
▁Sunday	-10.18
▁36	-10.1805
▁supports	-10.1807
▁Headquarters	-10.1809
▁thousand	-10.1812
▁James	-10.1813
▁master	-10.1814
▁hate	-10.1815
▁sports	-10.1816
▁hundred	-10.1816
▁Royal	-10.1819
▁Real	-10.182
▁conflicts	-10.1823
minute	-10.1825
▁Vice	-10.1827
▁hurt	-10.1837
▁Lebanon	-10.1837
ir	-10.1846
▁calling	-10.1853
▁miles	-10.1854
▁buildings	-10.1868
▁Thursday	-10.187
▁battery	-10.1873
▁extra	-10.1877
▁estimates	-10.188
ize	-10.1882
▁pro	-10.1884
▁Society	-10.1884
▁Canadian	-10.1885
▁valuable	-10.1893
▁USA	-10.1906
mail	-10.1908
▁deployment	-10.1918
▁2003,	-10.1918
▁differences	-10.1919
we	-10.1931
ul	-10.1935
▁fighting	-10.194
▁Sweden	-10.194
▁finding	-10.1948
▁homes	-10.195
scale	-10.1957
▁gets	-10.1961
▁Safety	-10.1966
▁evil	-10.1967
▁fell	-10.1969
▁proud	-10.1976
▁correct	-10.1976
▁2002,	-10.1982
▁sixty	-10.1991
▁meant	-10.2013
▁element	-10.202
▁animal	-10.2026
▁chapter	-10.2028
▁Nuclear	-10.2032
▁explained	-10.2043
▁Club	-10.2045
▁sides	-10.2049
▁displaced	-10.2064
▁Strategy	-10.2066
▁college	-10.207
▁Notice	-10.2073
▁minute	-10.2073
▁extend	-10.2076
▁competitive	-10.2078
▁seeing	-10.2084
▁king	-10.2086
▁sit	-10.2089
▁timely	-10.2092
▁tea	-10.2092
▁concrete	-10.2095
▁bringing	-10.2095
▁behavior	-10.2097
▁satellite	-10.2101
▁volume	-10.2102
▁Team	-10.2103
▁ex	-10.2107
▁Cultural	-10.2113
id	-10.2117
▁inform	-10.2118
▁formed	-10.2122
▁operate	-10.2123
▁rapidly	-10.2123
▁vital	-10.2127
▁historical	-10.2133
um	-10.2138
▁Further	-10.2138
▁Show	-10.2139
▁attempt	-10.2141
▁Media	-10.2143
0	-10.2144
first	-10.2145
▁Requests	-10.215
▁architecture	-10.2154
▁7.	-10.2155
▁eliminate	-10.2162
▁Wednesday	-10.2168
▁replace	-10.2169
▁judge	-10.217
12	-10.2171
▁willing	-10.2172
▁Market	-10.2174
▁hearing	-10.2177
▁aims	-10.2181
▁pollution	-10.2183
▁club	-10.2189
▁stories	-10.2203
ley	-10.222
▁appeared	-10.2226
▁hell	-10.2226
▁USD	-10.223
▁Philippines	-10.2235
▁categories	-10.2236
▁judges	-10.2241
▁boys	-10.2243
.6	-10.2245
▁33	-10.2248
▁Bed	-10.2253
izing	-10.2254
They	-10.2255
▁George	-10.2257
go	-10.226
▁2001,	-10.2262
▁Shenzhen	-10.2262
▁title	-10.2264
▁objects	-10.2266
▁ended	-10.2273
▁urgent	-10.2275
▁mutual	-10.2278
▁pool	-10.2281
▁managed	-10.2281
▁primarily	-10.2289
▁updated	-10.2293
▁electricity	-10.2307
▁conferences	-10.2307
▁treaties	-10.2311
▁revealed	-10.2325
▁2000,	-10.2326
▁civilians	-10.2331
▁abroad	-10.2332
▁blue	-10.2332
▁pointed	-10.2345
ary	-10.2348
▁Officer	-10.2354
▁·	-10.2355
▁Discrimination	-10.2356
▁agriculture	-10.2357
off	-10.2359
▁unable	-10.2362
▁percentage	-10.2371
▁affairs	-10.2376
▁Saint	-10.2381
▁2009,	-10.2382
▁Station	-10.2384
▁Peter	-10.2396
▁trip	-10.2401
▁payments	-10.2412
▁48	-10.2425
▁relationships	-10.2442
▁guess	-10.2445
▁Members	-10.2462
▁engage	-10.2463
▁iPhone	-10.2472
▁accounting	-10.2474
!"	-10.248
▁structures	-10.2483
▁neither	-10.2485
▁proper	-10.2488
▁respectively	-10.2492
▁IV	-10.2498
▁Draft	-10.2499
®	-10.25
▁impossible	-10.2501
▁Small	-10.2509
▁allowing	-10.252
▁worse	-10.2524
▁difficulties	-10.2527
way	-10.2529
▁adults	-10.2536
▁sort	-10.2542
▁declared	-10.2548
▁alive	-10.2553
▁links	-10.2558
▁photo	-10.2564
▁observed	-10.2569
▁draw	-10.2573
▁smaller	-10.2577
▁Mar	-10.2578
▁department	-10.2579
▁piece	-10.2584
▁Old	-10.2585
▁internationally	-10.2589
▁procurement	-10.2597
▁introduction	-10.2605
▁Norway	-10.2608
▁wear	-10.261
▁observations	-10.261
▁labor	-10.2611
▁represents	-10.2611
▁regulatory	-10.2612
▁cooperate	-10.2626
▁army	-10.2627
▁extreme	-10.263
▁34	-10.2636
▁suitable	-10.2639
▁granted	-10.2645
▁kinds	-10.2646
▁shape	-10.2648
▁seriously	-10.2652
▁journey	-10.2659
é	-10.266
My	-10.2661
▁Top	-10.2663
▁1997	-10.2665
▁Make	-10.268
▁Rome	-10.2684
▁Syria	-10.269
▁Program	-10.2703
ping	-10.2708
▁camera	-10.2713
▁55	-10.2713
▁Argentina	-10.2722
▁Anti	-10.2723
▁considering	-10.2723
▁integrity	-10.2725
▁Greece	-10.2725
▁37	-10.2726
▁command	-10.2728
▁Persons	-10.2731
▁remote	-10.2733
▁Czech	-10.2734
▁Army	-10.2737
per	-10.2741
▁comment	-10.2741
▁Sub	-10.2744
▁stressed	-10.2747
▁mostly	-10.2749
▁reasonable	-10.2762
▁Privacy	-10.2763
▁port	-10.2768
▁topic	-10.277
▁contracts	-10.2776
▁victim	-10.2777
▁tests	-10.2785
11	-10.2786
ies	-10.2787
▁capable	-10.2789
▁officer	-10.2791
▁represented	-10.2792
▁complaints	-10.2795
▁Change	-10.2799
▁twice	-10.2799
▁park	-10.28
▁headquarters	-10.2804
▁programming	-10.2809
if	-10.2812
▁strongly	-10.2812
▁shot	-10.2813
▁Award	-10.2813
▁River	-10.2816
▁printing	-10.282
▁audit	-10.2825
For	-10.2826
▁absence	-10.2827
▁Labour	-10.2831
▁occurred	-10.2841
▁Optional	-10.2841
▁participated	-10.2847
▁pursue	-10.2854
▁Grand	-10.2855
di	-10.2859
▁relief	-10.286
▁Which	-10.2861
▁expensive	-10.2862
▁metal	-10.2873
ful	-10.2875
▁plenary	-10.2882
▁corruption	-10.2893
▁closer	-10.2895
▁driver	-10.2896
▁Nigeria	-10.2896
▁2010,	-10.2901
▁sister	-10.2907
▁handle	-10.2907
▁membership	-10.2917
▁Area	-10.2919
▁fixed	-10.2922
▁Parliament	-10.2923
▁fresh	-10.2931
▁bear	-10.2938
▁Turkish	-10.2939
ii	-10.2941
▁Location	-10.2946
▁missing	-10.2946
▁t	-10.2947
▁involvement	-10.295
▁extensive	-10.2954
▁bill	-10.2962
▁arrived	-10.2963
▁characteristics	-10.2966
▁ancient	-10.2969
▁Operations	-10.2974
▁quick	-10.2985
▁Welcome	-10.2991
▁Item	-10.2993
▁Trust	-10.3008
▁Through	-10.301
▁decline	-10.3015
▁Pre	-10.3015
ad	-10.3024
▁solid	-10.3028
▁length	-10.303
▁accurate	-10.3033
▁enhanced	-10.3036
▁Big	-10.3043
▁signs	-10.3043
▁Bay	-10.3044
▁Hi	-10.3051
▁indicate	-10.3057
▁sought	-10.3059
▁Disarmament	-10.3062
ted	-10.3062
▁diversity	-10.3063
▁outcomes	-10.3064
▁professionals	-10.3072
▁g	-10.3091
▁foundation	-10.3094
▁Android	-10.31
▁Bo	-10.3102
▁blockchain	-10.3105
▁candidates	-10.3105
▁requirement	-10.3107
15	-10.3114
ise	-10.3117
▁assess	-10.3119
▁pick	-10.312
▁migration	-10.3126
▁Exhibition	-10.3129
▁collective	-10.3132
▁Poland	-10.3134
▁manager	-10.3135
▁institution	-10.3136
▁teacher	-10.3136
▁1995	-10.3136
▁packaging	-10.3138
▁honour	-10.3142
▁troops	-10.3153
▁accountability	-10.3154
▁evening	-10.3155
.3	-10.3163
▁enemy	-10.3165
▁exploitation	-10.3166
ce	-10.3167
▁Hall	-10.3167
。	-10.3175
▁Mark	-10.3176
▁faced	-10.3179
▁illicit	-10.3181
▁39	-10.3182
▁village	-10.3188
▁outstanding	-10.319
▁worst	-10.3206
▁gap	-10.3206
▁Engineering	-10.321
▁match	-10.3211
▁comfortable	-10.3212
▁submission	-10.3216
▁asking	-10.3217
Fi	-10.322
▁Machine	-10.3222
▁fifth	-10.3225
▁occupied	-10.3225
2:	-10.3228
▁soldiers	-10.3229
▁attend	-10.3231
▁ice	-10.3232
party	-10.3238
▁regularly	-10.3241
▁district	-10.3244
▁UNHCR	-10.3247
.4	-10.325
▁increases	-10.3254
▁Date	-10.3254
▁Sierra	-10.3258
▁coverage	-10.3259
▁destroyed	-10.3264
▁tree	-10.3266
▁largely	-10.3272
▁8.	-10.3273
▁keeping	-10.3275
▁Michael	-10.3275
▁Father	-10.3276
▁Chair	-10.3283
use	-10.3291
▁intellectual	-10.3296
ally	-10.331
▁severe	-10.331
▁Cyprus	-10.3311
▁Rules	-10.3333
▁understood	-10.3337
▁Arabia	-10.3339
▁marine	-10.3343
▁hardware	-10.3352
▁♪	-10.3368
▁Book	-10.3368
▁select	-10.337
▁AND	-10.3372
▁humans	-10.338
▁harm	-10.3382
▁award	-10.3382
▁depends	-10.3384
▁drop	-10.3393
▁Price	-10.3397
▁obtained	-10.3398
▁remove	-10.3398
▁serving	-10.3402
When	-10.3406
▁restrictions	-10.3407
ter	-10.3412
▁suggest	-10.3412
▁collect	-10.3413
▁Online	-10.3413
▁forth	-10.3413
▁standing	-10.3418
▁stress	-10.3422
▁availability	-10.3422
ING	-10.3425
▁creative	-10.3428
▁3-	-10.343
▁workshop	-10.3434
▁Twitter	-10.3436
▁expenditure	-10.3437
▁interview	-10.3438
▁Introduction	-10.3438
third	-10.3442
▁era	-10.345
▁micro	-10.3465
▁welcomes	-10.347
▁occur	-10.3479
▁collected	-10.348
▁humanity	-10.3482
▁providers	-10.3482
▁Kosovo	-10.3485
▁urged	-10.3493
▁Inc	-10.3496
▁lie	-10.3499
art	-10.3499
os	-10.3503
▁IP	-10.3504
That	-10.3504
▁2012,	-10.3504
▁Up	-10.3506
▁exports	-10.3507
.2	-10.3508
▁fit	-10.3513
▁song	-10.3519
▁asset	-10.3522
▁Mac	-10.3531
▁Territory	-10.354
▁Eastern	-10.3542
▁bus	-10.355
▁Province	-10.3555
▁revolution	-10.3558
▁warning	-10.3562
▁mode	-10.3562
▁amounts	-10.3563
▁participating	-10.3564
▁150	-10.3564
▁treat	-10.3567
▁owned	-10.3568
-2	-10.3568
▁photos	-10.357
mo	-10.3575
▁figures	-10.3575
▁north	-10.3576
▁forever	-10.358
▁Investment	-10.3581
▁2011,	-10.3585
▁machinery	-10.3586
▁Following	-10.3587
▁Christmas	-10.3588
▁belief	-10.3596
▁panel	-10.3598
▁universities	-10.3599
▁favorite	-10.36
▁Thanks	-10.3601
including	-10.3603
▁locations	-10.3605
▁virtual	-10.3606
▁developers	-10.3613
▁capacities	-10.3613
▁treated	-10.3615
▁properties	-10.3624
▁stopped	-10.3626
▁arrested	-10.3638
▁Am	-10.3653
▁receiving	-10.3654
▁Mobile	-10.3654
ists	-10.3657
▁Town	-10.3661
30	-10.3661
▁Supreme	-10.3665
▁yes	-10.3667
▁struggle	-10.3668
▁rising	-10.3668
▁targeted	-10.3672
▁fill	-10.3673
▁Blue	-10.3674
▁38	-10.3677
▁Master	-10.3683
▁delay	-10.3685
called	-10.369
▁occupation	-10.3691
▁Mo	-10.3692
▁documentation	-10.3693
▁machines	-10.37
▁ideal	-10.3703
▁Leone	-10.3703
▁contributed	-10.371
min	-10.371
▁resulted	-10.3711
▁Kuwait	-10.3711
▁losses	-10.3714
▁engagement	-10.3723
▁Environmental	-10.3725
▁Bill	-10.3726
▁Light	-10.373
se	-10.3734
▁Sometimes	-10.3735
▁battle	-10.3738
▁Back	-10.374
▁combination	-10.3756
ating	-10.3757
▁42	-10.376
▁summary	-10.3763
▁gun	-10.3768
▁carrying	-10.3774
As	-10.3775
▁factory	-10.3778
▁conclusions	-10.3779
▁PC	-10.378
▁tourism	-10.378
▁prove	-10.3783
▁Star	-10.3784
▁Resort	-10.3786
▁pages	-10.3791
▁enhancing	-10.3805
▁firms	-10.3814
ri	-10.3818
▁imposed	-10.3825
hour	-10.3826
▁package	-10.3827
▁residents	-10.3827
▁Elimination	-10.3828
▁Moscow	-10.3832
▁UNEP	-10.3832
▁Experts	-10.3833
▁platforms	-10.3833
▁Ma	-10.3834
▁atmosphere	-10.3836
▁male	-10.384
▁politics	-10.3841
▁entirely	-10.3841
▁Sir	-10.3849
▁encourages	-10.3853
▁houses	-10.3859
▁continuous	-10.386
▁Myanmar	-10.3864
iv	-10.3864
▁subsequent	-10.3866
▁Soviet	-10.3868
▁super	-10.3869
▁9.	-10.387
▁reforms	-10.3871
tech	-10.3874
.7	-10.3874
▁(19	-10.3875
▁stations	-10.388
▁greatly	-10.3884
▁League	-10.3891
▁regulation	-10.3895
Do	-10.3895
▁defense	-10.3898
▁bought	-10.3903
▁saved	-10.3908
her	-10.3916
▁declaration	-10.3917
ke	-10.392
▁signal	-10.392
▁supplies	-10.3926
▁Check	-10.3926
▁Head	-10.3927
▁latter	-10.393
▁substantial	-10.393
▁completion	-10.3937
▁talks	-10.3938
ca	-10.3939
▁3,	-10.3941
▁Framework	-10.3948
▁performed	-10.395
▁winter	-10.3955
▁Indeed	-10.3955
▁trouble	-10.3962
▁Coordination	-10.3969
▁Somalia	-10.3971
▁Finland	-10.3973
▁vast	-10.3974
▁Staff	-10.3982
▁exhibition	-10.3986
▁Jerusalem	-10.3987
▁Cookie	-10.3988
ur	-10.3993
▁maintaining	-10.3994
▁Holiday	-10.4004
lin	-10.4007
▁Culture	-10.4011
▁refer	-10.4013
▁Current	-10.4016
▁copy	-10.4019
▁Obama	-10.402
▁organs	-10.4021
▁south	-10.4024
long	-10.403
▁Finance	-10.4032
▁eating	-10.4037
▁refugee	-10.4038
▁Help	-10.404
▁Ambassador	-10.4045
▁shopping	-10.4047
▁massive	-10.4048
▁maintained	-10.4051
▁distributed	-10.4062
▁apartment	-10.4063
▁»	-10.4065
▁Palestine	-10.4066
▁claimed	-10.4066
▁Georgia	-10.4071
▁visited	-10.4076
▁History	-10.408
▁fucking	-10.4083
▁Holy	-10.4092
▁ownership	-10.4093
▁accused	-10.4095
▁demands	-10.4095
▁stuff	-10.4097
▁1996	-10.4101
▁transparent	-10.4104
▁comply	-10.4106
▁donors	-10.4109
▁defence	-10.412
▁deaths	-10.4122
▁Professional	-10.4125
▁Austria	-10.4127
▁sentence	-10.4129
▁enabling	-10.4134
▁recruitment	-10.4135
▁sets	-10.4137
▁transmission	-10.4147
▁65	-10.4149
▁shop	-10.415
▁resolve	-10.4151
▁=	-10.4151
▁lessons	-10.4161
▁spoke	-10.4167
▁heads	-10.4167
▁Da	-10.417
▁transaction	-10.4171
▁certification	-10.4172
▁automatically	-10.4173
▁racial	-10.4177
▁controlled	-10.418
▁emphasis	-10.4183
▁Fifth	-10.4186
▁List	-10.4189
▁Men	-10.419
▁format	-10.4203
▁visitors	-10.4203
so	-10.4207
▁Among	-10.4208
▁Everyone	-10.4213
UN	-10.4217
▁dinner	-10.4221
▁productivity	-10.4228
▁Platform	-10.4229
▁computers	-10.423
▁Watch	-10.4231
▁estate	-10.4241
like	-10.4242
▁Di	-10.4243
▁equivalent	-10.4247
▁flexible	-10.4252
▁Resources	-10.426
▁invest	-10.4262
▁reviews	-10.4265
▁diplomatic	-10.4267
▁none	-10.4269
▁pilot	-10.4271
▁ordinary	-10.4274
▁undertake	-10.4279
▁orders	-10.4288
▁settings	-10.4289
▁drinking	-10.4297
▁classes	-10.4298
em	-10.4309
▁sensitive	-10.4311
▁visits	-10.4317
▁Zone	-10.4317
▁departments	-10.4322
ler	-10.4325
▁Rooms	-10.4326
house	-10.4328
▁scene	-10.4332
▁grateful	-10.4332
▁applies	-10.4348
▁Tell	-10.4348
all	-10.4349
▁forum	-10.435
▁LTD	-10.4352
▁2013,	-10.4353
▁Land	-10.4354
▁Guide	-10.4357
▁Without	-10.4359
▁o	-10.436
▁selling	-10.4367
▁Local	-10.4377
▁overcome	-10.4383
ah	-10.4386
▁facility	-10.439
ya	-10.4395
▁shit	-10.44
▁ill	-10.4406
▁Several	-10.4407
▁limits	-10.4409
▁Limited	-10.4409
ba	-10.4412
▁resistance	-10.4412
▁managers	-10.4414
ous	-10.4414
▁56	-10.4417
▁beauty	-10.4426
▁publication	-10.4428
▁Corporation	-10.4436
▁medicine	-10.4437
18	-10.4439
▁football	-10.4439
▁protecting	-10.4446
▁expanded	-10.4449
▁Academy	-10.4453
im	-10.4453
▁dis	-10.4464
▁Colombia	-10.4468
▁containing	-10.4475
▁Professor	-10.4475
▁designated	-10.4481
▁territories	-10.4484
et	-10.4485
▁Con	-10.4486
▁Times	-10.4487
▁namely	-10.4491
▁powers	-10.4493
lo	-10.4494
▁acquisition	-10.4495
▁reviewed	-10.4497
▁representation	-10.4502
▁replaced	-10.4503
▁TO	-10.4504
▁stronger	-10.4514
▁cable	-10.4515
▁telling	-10.4517
▁migrants	-10.4521
▁CLD	-10.4523
▁2015,	-10.4528
▁shower	-10.4533
▁updates	-10.4533
.5	-10.4536
con	-10.4539
▁Chamber	-10.4539
ance	-10.4539
▁Main	-10.4542
▁Digital	-10.4544
United	-10.4545
ated	-10.4546
▁brings	-10.4547
▁properly	-10.4547
▁error	-10.4561
▁profit	-10.4561
▁danger	-10.4565
▁charges	-10.4567
▁Euro	-10.457
▁universe	-10.4572
▁teach	-10.4577
▁examples	-10.4582
▁cutting	-10.4583
▁Read	-10.4584
50	-10.4587
▁Climate	-10.459
▁tons	-10.4592
▁installed	-10.4593
▁taught	-10.4597
▁Weapons	-10.4601
-3	-10.4607
▁Find	-10.4608
▁constantly	-10.4609
▁Chile	-10.461
▁satisfaction	-10.4611
▁Assistance	-10.4615
▁grounds	-10.4617
▁spring	-10.462
class	-10.462
▁inclusion	-10.4628
▁adding	-10.4629
▁Vietnam	-10.4635
▁mining	-10.4638
40	-10.4646
▁thirty	-10.4649
▁removed	-10.465
▁constitute	-10.4662
▁Mary	-10.4662
▁workshops	-10.4664
▁frequently	-10.4665
▁authorized	-10.467
▁showing	-10.4675
▁Saturday	-10.468
▁carefully	-10.4685
▁attended	-10.469
▁blog	-10.4691
▁400	-10.4692
▁letters	-10.4693
▁Field	-10.4696
▁finished	-10.4698
▁Southern	-10.47
▁grown	-10.4703
▁imagine	-10.4707
▁Son	-10.4718
▁rely	-10.4721
▁wonderful	-10.4722
▁Sales	-10.4729
▁Super	-10.4731
▁false	-10.4732
▁warm	-10.4736
ions	-10.4747
▁watching	-10.4748
▁broken	-10.4751
▁controls	-10.4751
▁la	-10.4761
▁breakfast	-10.4764
▁ultimately	-10.4766
▁gift	-10.4768
▁chemicals	-10.4777
▁subregional	-10.4777
▁sustainability	-10.4779
▁identification	-10.4786
io	-10.4786
ex	-10.4788
▁Quality	-10.4789
▁realized	-10.4796
▁walking	-10.4798
So	-10.4799
▁weak	-10.4802
▁advertising	-10.4812
▁rose	-10.4813
▁44	-10.4819
▁Four	-10.4829
ov	-10.4832
▁expectations	-10.4837
ner	-10.4839
wide	-10.4839
▁deeply	-10.4839
▁Greek	-10.4845
▁Based	-10.4847
▁Search	-10.4847
▁connect	-10.4852
▁freedoms	-10.4853
▁secondary	-10.4853
▁Five	-10.4862
not	-10.4863
▁miss	-10.4865
17	-10.4865
▁improvements	-10.4866
▁gross	-10.4866
▁strengthened	-10.4869
▁assessments	-10.4872
▁Jordan	-10.4872
▁f	-10.4885
▁pleased	-10.4886
▁alleged	-10.4888
quality	-10.4891
▁en	-10.4892
▁amazing	-10.4894
▁happiness	-10.491
▁proportion	-10.4911
▁gradually	-10.4913
▁acting	-10.4915
▁ocean	-10.4915
▁Give	-10.4921
▁anywhere	-10.4922
▁generate	-10.4924
▁Press	-10.4926
▁chosen	-10.4928
▁favour	-10.4929
▁accommodation	-10.4935
▁extension	-10.4935
▁Should	-10.4935
▁facts	-10.4939
site	-10.4943
▁monthly	-10.4944
60	-10.4947
▁sick	-10.4947
▁burden	-10.4948
US	-10.4952
▁responses	-10.4953
▁interface	-10.496
▁sitting	-10.496
▁suffered	-10.4962
▁brands	-10.4965
▁intention	-10.4969
▁Letter	-10.4972
▁happening	-10.4975
▁preparing	-10.4978
▁shift	-10.4979
▁tonight	-10.498
▁Music	-10.4986
▁push	-10.4993
▁Machinery	-10.5003
▁scheduled	-10.5009
▁Cup	-10.5013
▁biological	-10.5013
▁Port	-10.5017
▁herself	-10.5018
▁advantages	-10.5024
▁preventing	-10.5025
▁Na	-10.5038
▁coordinated	-10.504
▁sky	-10.5041
▁appointment	-10.505
▁arrest	-10.5052
▁Standard	-10.5054
▁Gender	-10.5056
▁Ocean	-10.5058
▁Exchange	-10.5068
▁populations	-10.5075
▁colleagues	-10.5077
▁GDP	-10.5079
but	-10.5083
▁Bible	-10.5084
▁sovereignty	-10.5084
▁ISO	-10.5087
▁channels	-10.5089
▁forty	-10.509
▁heaven	-10.5092
▁exists	-10.5097
▁bottom	-10.51
▁emphasized	-10.51
-10	-10.5101
▁Lake	-10.5101
▁moon	-10.5104
▁fashion	-10.5104
▁Smart	-10.5108
▁dispute	-10.5109
▁considerable	-10.511
▁download	-10.511
ji	-10.5111
▁straight	-10.5116
ana	-10.512
▁wishes	-10.5122
bo	-10.5124
▁Cross	-10.5131
▁domain	-10.5132
▁52	-10.5133
▁incident	-10.5133
▁friendly	-10.5136
▁Country	-10.5136
▁4,	-10.5141
▁Wall	-10.5146
▁installation	-10.515
▁Ho	-10.5151
▁mandates	-10.5152
▁Venezuela	-10.5155
▁Capital	-10.5158
ni	-10.5161
▁Belgium	-10.5162
▁2017,	-10.5172
▁wonder	-10.5184
▁farmers	-10.5186
▁75	-10.5188
▁presentation	-10.5191
[	-10.5194
▁clothes	-10.5197
▁Deputy	-10.52
To	-10.5201
▁interpretation	-10.5201
▁Ben	-10.5206
▁owner	-10.5207
All	-10.5209
▁expenses	-10.5211
ning	-10.5216
▁bridge	-10.5218
▁charged	-10.5225
▁everybody	-10.5225
▁Lu	-10.5228
▁intelligent	-10.5237
▁renewable	-10.5238
▁Chemical	-10.5238
▁rehabilitation	-10.5241
▁decrease	-10.5242
▁NGOs	-10.5249
▁browser	-10.525
▁shares	-10.5253
▁mountain	-10.5256
▁obvious	-10.5258
▁putting	-10.5267
▁divided	-10.5269
▁Instead	-10.5273
▁grew	-10.5279
▁import	-10.528
▁focusing	-10.528
▁Los	-10.5284
▁Bangladesh	-10.5284
▁suggests	-10.5291
▁(2	-10.5293
▁Robert	-10.5293
▁mouth	-10.5294
▁anymore	-10.5296
weapon	-10.5298
▁authors	-10.5299
ability	-10.5301
▁Denmark	-10.5301
▁lighting	-10.5301
▁2014,	-10.5302
ol	-10.5303
▁symptoms	-10.5304
▁covers	-10.5309
▁entity	-10.5315
▁suffer	-10.5316
▁trained	-10.5317
16	-10.5327
▁camp	-10.533
、	-10.5343
▁Kenya	-10.5345
▁input	-10.5347
▁killing	-10.5348
ish	-10.535
ti	-10.5351
▁flat	-10.5356
▁Scientific	-10.5357
▁allegations	-10.5363
▁conventions	-10.5366
▁49	-10.5373
▁2018,	-10.5373
second	-10.5374
▁Azerbaijan	-10.5381
▁principal	-10.5383
▁fail	-10.539
▁relative	-10.5393
▁moral	-10.5396
▁block	-10.5397
▁Sri	-10.5402
▁filled	-10.5403
ha	-10.5404
▁achievements	-10.5413
▁legitimate	-10.5418
▁index	-10.5424
▁highlighted	-10.5426
▁Rwanda	-10.5427
▁covering	-10.5428
▁kitchen	-10.5432
ak	-10.5433
▁Morocco	-10.5434
ga	-10.5439
▁Enterprise	-10.5446
hotels	-10.5448
que	-10.5452
▁southern	-10.5453
▁n	-10.5454
▁definitely	-10.5464
▁diverse	-10.5465
▁DNA	-10.5468
▁donor	-10.5469
▁1980	-10.5476
▁household	-10.5478
▁ban	-10.5479
▁residence	-10.5479
▁association	-10.548
that	-10.548
▁rare	-10.5481
▁transformation	-10.5482
▁potentially	-10.5485
▁Video	-10.5487
▁thereby	-10.5491
▁opposition	-10.5492
▁cool	-10.5493
▁Ethiopia	-10.5493
▁UNFPA	-10.5496
▁41	-10.5497
you	-10.5497
▁investigations	-10.5499
▁1994	-10.5501
▁54	-10.5503
▁specified	-10.5503
▁Having	-10.5506
▁Key	-10.5509
▁$2	-10.5517
resolution	-10.5522
▁introduce	-10.5532
▁crazy	-10.5532
▁mention	-10.5538
▁detail	-10.5542
▁statistical	-10.5543
▁encouraging	-10.5544
▁Internal	-10.5545
▁1999,	-10.5545
▁artist	-10.5545
▁organizational	-10.5546
▁combating	-10.5549
▁drawn	-10.5558
▁caught	-10.5559
den	-10.5562
▁visa	-10.5568
▁supposed	-10.5569
▁Rule	-10.5572
▁Liberia	-10.5573
TM	-10.5577
▁urges	-10.5578
▁familiar	-10.5583
Re	-10.5584
ho	-10.5585
▁iron	-10.5587
ard	-10.5591
▁<	-10.5594
Our	-10.5595
▁Financing	-10.5596
▁careful	-10.5597
32	-10.5598
▁mom	-10.5601
▁fruit	-10.5603
▁51	-10.5604
▁yesterday	-10.5606
▁inclusive	-10.5614
▁meat	-10.5619
▁productive	-10.562
▁overseas	-10.5624
▁equipped	-10.5627
▁destroy	-10.5629
▁schedule	-10.5631
▁garden	-10.5638
ES	-10.5653
▁`	-10.5658
▁retail	-10.566
▁Gold	-10.5662
▁immigration	-10.5664
▁officially	-10.5671
▁Line	-10.5673
▁agent	-10.5673
▁communicate	-10.5674
▁43	-10.5674
▁fans	-10.5675
▁Portugal	-10.5676
▁Chicago	-10.5676
▁reservation	-10.5678
▁analytical	-10.5682
▁fees	-10.5682
ised	-10.5683
▁virus	-10.5688
▁commission	-10.5695
▁zero	-10.5696
▁Perhaps	-10.5699
▁Application	-10.57
13	-10.5704
▁(3)	-10.5704
▁coal	-10.5707
▁Ar	-10.5725
▁Military	-10.5726
▁Bosnia	-10.5727
over	-10.5727
▁grant	-10.573
▁provider	-10.573
▁catch	-10.5731
▁adult	-10.5734
▁river	-10.5734
▁Follow	-10.5735
▁subsidiary	-10.5739
▁venue	-10.574
▁agents	-10.5741
▁suddenly	-10.5752
▁Stop	-10.5754
▁kid	-10.5756
▁Fourth	-10.5756
▁leads	-10.5756
▁Games	-10.5757
ko	-10.5757
▁doctors	-10.5758
▁seat	-10.5759
▁ships	-10.5762
▁buying	-10.5763
▁Tom	-10.5771
▁prefer	-10.5772
▁pattern	-10.5775
▁Status	-10.5776
-5	-10.5776
South	-10.5779
▁Gaza	-10.5782
▁Type	-10.5782
▁Swiss	-10.5786
▁minister	-10.5795
▁Timor	-10.5798
▁Questions	-10.5799
▁norms	-10.5805
▁Travel	-10.5807
▁apps	-10.5808
▁absolutely	-10.5809
▁rain	-10.5821
▁thoughts	-10.5822
▁minority	-10.5823
▁library	-10.5826
▁Hospital	-10.5826
▁77	-10.5826
▁examine	-10.5827
▁dynamic	-10.5837
▁translation	-10.5841
▁province	-10.5851
▁topics	-10.5854
▁Initiative	-10.5856
-4	-10.5859
ED	-10.5859
▁enjoyment	-10.5859
▁structural	-10.5862
▁duties	-10.5865
▁accident	-10.5867
▁l	-10.5873
ang	-10.5875
au	-10.5875
▁fishing	-10.5875
▁wood	-10.5879
▁Annual	-10.5879
▁audience	-10.5889
▁bigger	-10.5889
▁denied	-10.5893
▁constitutional	-10.5895
▁substances	-10.5896
ina	-10.5896
▁tech	-10.59
▁describe	-10.59
▁constant	-10.5901
▁convention	-10.5902
▁tour	-10.5903
▁engineers	-10.5904
▁globalization	-10.5907
▁ordered	-10.5908
▁pregnant	-10.5909
▁roles	-10.5909
-12	-10.5911
▁Everything	-10.5913
▁stood	-10.5915
▁seconds	-10.593
▁Phone	-10.5934
▁consult	-10.594
▁Promotion	-10.5948
▁ratification	-10.595
▁Ka	-10.5953
▁advisory	-10.5955
▁degrees	-10.5956
▁penalty	-10.5957
14	-10.5958
▁messages	-10.5958
▁OK	-10.5959
▁managing	-10.5965
▁manufacturer	-10.5969
▁wake	-10.5972
▁fly	-10.5972
CP	-10.5972
▁Miss	-10.5981
▁cards	-10.5985
▁profile	-10.5986
▁Hello	-10.5989
▁Partnership	-10.5997
▁accessible	-10.5999
tic	-10.6
▁spot	-10.6004
▁impacts	-10.6006
▁unto	-10.6006
▁afternoon	-10.6013
▁raising	-10.6017
▁11.	-10.6018
▁frequency	-10.6019
ze	-10.6024
▁dad	-10.6028
▁Garden	-10.6031
▁necessarily	-10.6032
▁healthcare	-10.604
▁rejected	-10.6041
▁plane	-10.6044
▁exposure	-10.6045
▁escape	-10.6048
ge	-10.605
▁clinical	-10.6053
▁investigate	-10.6054
▁anniversary	-10.6057
▁totally	-10.6058
▁suppliers	-10.6059
▁Jack	-10.6063
▁Would	-10.6065
▁dry	-10.6066
▁generated	-10.6072
▁acquired	-10.6074
▁functioning	-10.6075
▁Systems	-10.6081
▁affecting	-10.6085
▁proof	-10.6085
▁owners	-10.6086
▁unemployment	-10.6087
▁Muslim	-10.6089
▁begun	-10.6092
▁UNIDO	-10.6095
▁websites	-10.6096
pa	-10.6098
▁speakers	-10.6101
ities	-10.6102
▁Spirit	-10.611
▁CD	-10.6112
▁trees	-10.6113
▁sustained	-10.6117
▁Nothing	-10.6119
▁bag	-10.6123
▁flexibility	-10.6124
▁pace	-10.6127
▁Download	-10.6131
▁2016,	-10.6137
▁typically	-10.6139
▁Universal	-10.6143
▁En	-10.6143
▁patterns	-10.6144
▁discover	-10.6145
▁Haiti	-10.6154
▁serves	-10.6162
▁47	-10.6164
▁destination	-10.6165
▁newly	-10.6166
▁transit	-10.6167
▁offences	-10.6168
▁define	-10.6175
100	-10.6178
▁genetic	-10.6182
▁expanding	-10.6184
▁quiet	-10.6184
▁determination	-10.6189
▁choices	-10.6189
▁broader	-10.619
64	-10.6192
▁savings	-10.6195
▁prisoners	-10.6195
▁62	-10.62
▁centers	-10.6202
▁territorial	-10.6205
▁Martin	-10.6207
▁Territories	-10.6211
▁VI	-10.6211
side	-10.6212
▁Peacekeeping	-10.6213
21	-10.6216
▁Keep	-10.6228
▁papers	-10.6231
▁certificate	-10.6233
▁dance	-10.6235
▁Set	-10.6238
sen	-10.6239
▁funded	-10.624
▁murder	-10.624
pe	-10.6241
▁valid	-10.6241
▁soil	-10.6249
▁foot	-10.6252
▁Within	-10.6264
▁Chi	-10.6267
▁dignity	-10.627
▁1,000	-10.6271
▁desk	-10.6274
80	-10.6274
▁competent	-10.6274
▁Su	-10.6275
▁46	-10.6275
▁driven	-10.6278
▁refers	-10.6278
▁Per	-10.628
▁inspection	-10.6282
▁ye	-10.6284
▁Peru	-10.6287
ship	-10.6288
▁examination	-10.6291
▁Fire	-10.6296
▁tend	-10.6297
▁owing	-10.6297
▁wireless	-10.63
▁Call	-10.6312
▁globally	-10.6317
▁Ha	-10.6324
▁Oil	-10.633
▁taxes	-10.6333
▁artists	-10.6335
▁employee	-10.6336
▁Assistant	-10.6337
▁flows	-10.6338
▁awarded	-10.6349
▁grave	-10.6352
▁Queen	-10.6353
▁demonstrated	-10.6353
▁53	-10.6356
▁58	-10.6363
▁Order	-10.6363
▁IN	-10.6368
19	-10.6369
▁Mrs	-10.637
▁forecast	-10.6374
▁stores	-10.6375
▁fat	-10.6377
▁Cloud	-10.6377
▁motor	-10.6378
▁depend	-10.6387
▁busy	-10.6388
▁directed	-10.6389
▁hoped	-10.6389
▁tested	-10.6389
▁$5	-10.6397
▁feed	-10.6402
▁Future	-10.641
▁sugar	-10.6411
▁noise	-10.6419
▁wedding	-10.642
lu	-10.6425
▁Hostel	-10.6431
▁click	-10.6436
▁indicates	-10.6444
▁laid	-10.6446
▁ball	-10.6446
▁sweet	-10.6447
▁shoes	-10.6449
▁witness	-10.6451
room	-10.6452
▁Population	-10.6458
▁involve	-10.6468
▁61	-10.6475
▁historic	-10.6478
▁minorities	-10.6478
▁contributing	-10.6479
How	-10.6479
▁contrast	-10.6487
ring	-10.6502
▁taste	-10.6507
▁Young	-10.6508
25	-10.6509
▁channel	-10.6509
▁asylum	-10.6512
▁Mother	-10.6513
▁conventional	-10.6518
24	-10.652
▁banking	-10.6524
▁Croatia	-10.6527
▁stands	-10.6528
▁Jewish	-10.6529
▁comfort	-10.6535
▁equity	-10.6538
▁electrical	-10.6538
ee	-10.6538
▁reaching	-10.6538
field	-10.6538
▁Production	-10.6543
▁refused	-10.6546
▁boat	-10.6547
▁realization	-10.6548
▁observers	-10.6552
▁interaction	-10.6554
▁functional	-10.6554
▁Iraqi	-10.6567
▁elimination	-10.6567
▁sounds	-10.6576
▁northern	-10.6578
▁permit	-10.6582
▁Resolution	-10.6587
▁%	-10.659
▁Herzegovina	-10.6592
▁Software	-10.6592
being	-10.6595
▁everywhere	-10.6596
▁Dad	-10.6601
po	-10.6606
▁dreams	-10.6613
▁automatic	-10.6621
▁videos	-10.6625
▁tells	-10.6627
ICP	-10.6634
▁Studies	-10.6634
▁strange	-10.6637
▁liability	-10.6642
▁→	-10.6647
proliferation	-10.6647
▁contrary	-10.665
▁fulfil	-10.6652
▁County	-10.6653
▁ad	-10.6654
▁protocol	-10.6655
▁Sorry	-10.6656
▁faces	-10.6658
▁pictures	-10.6663
▁Students	-10.6665
▁120	-10.6666
▁demonstrate	-10.6672
▁outer	-10.6673
▁64	-10.6674
▁Given	-10.6675
▁producing	-10.6675
▁enables	-10.6676
▁Strategic	-10.6677
▁Lo	-10.6682
der	-10.6684
which	-10.6684
▁division	-10.6685
▁opt	-10.6688
▁57	-10.669
▁widespread	-10.6698
▁turning	-10.6698
▁equally	-10.6699
▁Access	-10.67
▁feels	-10.6703
▁welfare	-10.6711
▁survive	-10.6712
▁Cambodia	-10.6713
with	-10.6713
▁mark	-10.6714
red	-10.6714
▁assigned	-10.6715
▁Monitoring	-10.6716
▁Valley	-10.6716
▁Nepal	-10.6719
▁parking	-10.6722
▁phenomenon	-10.6733
%	-10.6733
▁Meanwhile	-10.6741
▁AIDS	-10.6742
▁obstacles	-10.6744
▁raw	-10.6745
▁worship	-10.6746
▁paying	-10.6751
▁considers	-10.6758
▁fiscal	-10.6759
▁customs	-10.676
▁stages	-10.676
▁Costa	-10.6761
isation	-10.6761
▁ran	-10.6762
▁joy	-10.6764
▁possibly	-10.6775
▁dear	-10.6777
hu	-10.6777
▁Personal	-10.6779
▁exception	-10.6786
▁Sam	-10.6788
▁appreciate	-10.6789
▁End	-10.679
▁furniture	-10.6791
▁Indigenous	-10.6792
▁Website	-10.6793
wa	-10.6798
les	-10.6799
▁consists	-10.6799
▁count	-10.6804
▁license	-10.6805
▁telephone	-10.6808
▁hopes	-10.6809
▁feelings	-10.681
▁lay	-10.6812
bit	-10.6815
▁Very	-10.6821
ten	-10.6825
▁di	-10.6827
▁Has	-10.6827
▁mortality	-10.683
▁contemporary	-10.6831
LTD	-10.6832
▁segment	-10.6843
▁Yu	-10.6843
▁Angeles	-10.6843
▁commit	-10.6849
70	-10.6851
▁2-	-10.6857
▁aspect	-10.686
▁€	-10.6863
▁pleasure	-10.6864
▁1970	-10.6866
▁reconciliation	-10.6866
▁unknown	-10.6875
▁shut	-10.688
▁transferred	-10.6887
▁jointly	-10.6889
car	-10.6899
▁integrate	-10.6902
my	-10.6903
www	-10.692
▁Process	-10.6923
▁societies	-10.6923
▁deployed	-10.6924
▁describes	-10.6926
▁glad	-10.6931
▁Whether	-10.6938
▁Lanka	-10.6941
▁strike	-10.6941
▁slowly	-10.6943
▁route	-10.6945
▁con	-10.6949
▁Remember	-10.695
▁Festival	-10.6953
▁milk	-10.6958
▁Care	-10.6958
▁WHO	-10.6959
▁wisdom	-10.6961
▁strict	-10.6962
▁Electric	-10.6962
ham	-10.6965
▁Summary	-10.6966
▁instructions	-10.697
economic	-10.6971
▁alcohol	-10.6974
▁annually	-10.6975
▁soft	-10.6979
▁entering	-10.6987
▁injured	-10.699
▁identifying	-10.6991
▁fuck	-10.6995
▁Burundi	-10.6999
▁reservations	-10.7002
▁Planning	-10.7008
▁disputes	-10.7008
▁exciting	-10.7011
▁disasters	-10.7012
▁holds	-10.7013
▁Statement	-10.7015
▁Swedish	-10.7017
▁Côte	-10.7019
▁explanation	-10.7022
▁ecosystem	-10.7027
▁Principles	-10.7028
▁slightly	-10.7029
▁beach	-10.7031
▁Private	-10.7031
▁wider	-10.7031
▁Out	-10.7033
▁depending	-10.7035
▁accelerate	-10.7038
▁Ministers	-10.7039
▁Property	-10.7042
▁replied	-10.7048
▁Jews	-10.7048
▁blind	-10.7054
▁bound	-10.7055
▁incidents	-10.7057
▁begins	-10.7058
▁injury	-10.7066
▁fellow	-10.7068
▁suicide	-10.7069
▁internally	-10.7072
▁Apartment	-10.7074
▁patent	-10.7079
▁mistake	-10.7079
▁Innovation	-10.708
▁Movement	-10.7088
▁Still	-10.7102
ier	-10.7103
▁Mom	-10.7104
▁merely	-10.7107
▁lawyer	-10.7109
▁presidential	-10.711
▁conversation	-10.7112
▁attached	-10.7112
▁snow	-10.7113
▁cast	-10.7114
▁arising	-10.7115
▁assume	-10.7115
▁reputation	-10.7116
▁returns	-10.7116
▁formulation	-10.712
▁sin	-10.7126
ci	-10.7131
▁capability	-10.7131
▁Unfortunately	-10.7134
▁Using	-10.7134
▁boost	-10.7138
▁talent	-10.714
▁Decides	-10.7142
▁weekend	-10.7144
▁yeah	-10.7145
vi	-10.7145
▁systematic	-10.7148
▁Electronic	-10.7149
▁pure	-10.715
▁100%	-10.715
owned	-10.7157
▁stored	-10.7158
▁”	-10.7159
▁2008.	-10.7163
▁composition	-10.7163
▁execution	-10.7166
ja	-10.7169
▁reflects	-10.7172
▁Developing	-10.7173
▁deposit	-10.7176
▁Say	-10.7177
▁Agriculture	-10.7178
▁Ko	-10.718
▁heating	-10.718
ence	-10.7181
▁arm	-10.7192
▁losing	-10.7193
▁Manager	-10.7203
▁Sha	-10.7213
▁artificial	-10.7223
▁stone	-10.7234
▁auto	-10.7234
▁promised	-10.7235
▁honor	-10.7239
▁Spring	-10.7239
▁concepts	-10.7244
▁starts	-10.7244
▁intervention	-10.7252
▁Case	-10.7255
▁swear	-10.7258
▁pregnancy	-10.7259
▁nationality	-10.726
▁pieces	-10.726
▁initiated	-10.7261
▁4-	-10.7261
ong	-10.7265
▁reaction	-10.7266
▁lots	-10.7268
▁falling	-10.7274
▁UNESCO	-10.7276
▁answered	-10.7279
▁succeed	-10.728
fa	-10.7281
▁employed	-10.7282
▁aged	-10.7282
▁invite	-10.7282
▁1993	-10.7286
▁hosting	-10.7293
▁weapon	-10.7293
▁Square	-10.7298
▁Jan	-10.73
▁Berlin	-10.7303
▁museum	-10.731
▁representing	-10.731
▁mm	-10.731
▁generations	-10.7311
bar	-10.7321
▁Session	-10.7323
▁Hungary	-10.7329
▁Ten	-10.733
▁Customer	-10.7331
▁Language	-10.7332
▁scheme	-10.7332
▁Youth	-10.7332
▁dropped	-10.7339
▁endorsed	-10.734
fifth	-10.7348
▁operated	-10.7355
▁drivers	-10.7358
▁Xi	-10.7358
▁reproductive	-10.7362
▁absolute	-10.7373
▁responded	-10.7379
▁bearing	-10.7381
65	-10.7382
▁citizen	-10.7389
▁Uganda	-10.7391
▁Darfur	-10.7391
▁racism	-10.7395
▁loans	-10.7398
▁voting	-10.74
▁attitude	-10.74
▁bio	-10.7401
▁Guangzhou	-10.7411
▁assessed	-10.7412
▁12.	-10.7412
▁install	-10.7414
▁Humanitarian	-10.7428
▁visual	-10.7437
fourth	-10.7438
▁$3	-10.7439
▁rock	-10.7441
▁regardless	-10.7442
48	-10.7444
▁1998,	-10.7444
▁geographical	-10.7445
▁inflation	-10.7445
▁evaluate	-10.7448
▁(3	-10.7449
▁grade	-10.7452
▁talked	-10.7454
▁evolution	-10.7456
▁fee	-10.7461
AP	-10.7462
▁Natural	-10.7464
▁involves	-10.7464
▁warned	-10.7468
▁Max	-10.7472
▁parent	-10.7473
▁examined	-10.7473
▁band	-10.7474
▁ending	-10.7477
▁Full	-10.7483
▁confident	-10.7486
▁borders	-10.7486
▁corresponding	-10.7492
45	-10.7496
▁Budget	-10.7497
▁Drugs	-10.7499
▁Independent	-10.7499
ster	-10.7499
▁register	-10.7501
▁barriers	-10.7501
▁Taking	-10.7502
▁finish	-10.7502
▁acceptance	-10.7503
▁fewer	-10.7507
▁Chairperson	-10.7507
▁William	-10.7508
▁Kyoto	-10.7509
▁portfolio	-10.7509
▁amendment	-10.7512
▁behaviour	-10.7513
▁Belarus	-10.7513
▁offence	-10.7513
▁reply	-10.7523
▁Prince	-10.7527
90	-10.7529
▁Communications	-10.753
▁Texas	-10.753
ended	-10.7532
▁originally	-10.7533
▁Multi	-10.754
▁phones	-10.7542
kin	-10.7543
▁disability	-10.7543
▁estimate	-10.7544
▁Hot	-10.7545
▁Activities	-10.7549
▁Java	-10.7551
Why	-10.7551
▁Corporate	-10.7555
▁Source	-10.7558
▁drawing	-10.7559
▁Wait	-10.756
▁preliminary	-10.7566
▁10.	-10.7569
▁Currently	-10.7571
▁description	-10.7575
▁amended	-10.7582
▁diet	-10.7582
▁normally	-10.7582
▁chair	-10.7584
▁organic	-10.7586
▁logistics	-10.759
ac	-10.7597
▁exclusive	-10.7597
▁exposed	-10.7598
▁@	-10.7599
▁dishes	-10.7609
▁subsequently	-10.7609
▁appearance	-10.7616
▁computing	-10.7618
▁plays	-10.7621
▁gained	-10.7621
▁Registration	-10.7622
▁binding	-10.7623
▁excited	-10.7625
▁Algeria	-10.7628
▁governing	-10.7628
▁calm	-10.763
▁movements	-10.7635
23	-10.7638
▁Regulations	-10.7641
▁harmful	-10.7647
▁victory	-10.7652
▁13.	-10.7652
dy	-10.7655
▁Journal	-10.7658
▁holiday	-10.7662
▁initially	-10.7664
▁survival	-10.7666
▁philosophy	-10.7669
▁Ro	-10.767
▁movies	-10.7672
▁oversight	-10.7674
▁horse	-10.7679
▁qualified	-10.7684
▁verification	-10.7684
▁Forces	-10.7686
▁Sa	-10.7688
-11	-10.7689
▁salary	-10.769
▁Test	-10.7694
▁hearts	-10.7696
▁hidden	-10.7699
CO	-10.7702
ology	-10.7704
▁empty	-10.7708
▁sixth	-10.771
▁Lee	-10.7714
▁Could	-10.7714
▁Terms	-10.7715
▁protein	-10.7719
▁Fu	-10.7721
61	-10.7725
▁Alliance	-10.7734
▁expenditures	-10.7734
▁filed	-10.7735
°	-10.7736
▁cat	-10.7736
▁fraud	-10.7737
▁yuan	-10.7738
▁lawyers	-10.7739
▁finds	-10.7741
ial	-10.7747
mer	-10.7748
▁Was	-10.7756
port	-10.7757
▁recalled	-10.776
▁saving	-10.776
▁surprise	-10.7761
▁Bitcoin	-10.7763
▁ratio	-10.7765
▁root	-10.7766
▁Romania	-10.7771
▁Tokyo	-10.7778
▁lunch	-10.7778
▁Kazakhstan	-10.778
▁Statistics	-10.7784
more	-10.7785
▁clothing	-10.7791
▁Decade	-10.7792
▁shouldn	-10.7804
▁summit	-10.7805
▁Christians	-10.781
▁tradition	-10.7811
▁WTO	-10.7811
ron	-10.7813
▁amendments	-10.7815
▁marked	-10.782
▁missile	-10.782
▁Yugoslavia	-10.7822
▁studying	-10.7823
▁Construction	-10.7826
▁worried	-10.783
▁Richard	-10.7832
▁button	-10.7833
▁answers	-10.7837
▁Adoption	-10.7844
▁violent	-10.7846
▁Restaurant	-10.7847
▁knowing	-10.7848
▁shipping	-10.7849
▁2005.	-10.7849
▁bright	-10.7852
▁surely	-10.7854
▁bathroom	-10.7854
▁withdrawal	-10.7858
ino	-10.786
mp	-10.7862
▁2007.	-10.7862
▁sight	-10.7865
▁Francisco	-10.7867
▁switch	-10.7871
.8	-10.7872
▁load	-10.7875
▁automation	-10.7879
▁causing	-10.7879
▁nearby	-10.7879
▁surrounding	-10.7884
▁apart	-10.7885
▁versions	-10.7892
▁Live	-10.7893
▁Thomas	-10.7897
▁59	-10.7907
specific	-10.791
▁elsewhere	-10.7911
▁passengers	-10.7911
▁missed	-10.7913
light	-10.7914
oriented	-10.7914
q	-10.7919
▁85	-10.7923
▁convinced	-10.7927
▁lasting	-10.7932
▁prime	-10.7933
▁infection	-10.7934
▁defend	-10.7934
▁wanna	-10.7936
▁2006.	-10.7938
▁transmitted	-10.7941
▁psychological	-10.7943
▁somebody	-10.7943
▁pull	-10.7947
▁Really	-10.7948
▁focuses	-10.7948
▁Fair	-10.795
▁younger	-10.7951
▁Library	-10.7952
let	-10.7953
▁stocks	-10.7955
▁operators	-10.7956
▁beat	-10.7957
▁feedback	-10.7958
▁campaigns	-10.7962
▁adaptation	-10.7962
ut	-10.7962
▁hide	-10.7964
▁Store	-10.7964
▁environments	-10.7966
▁Forms	-10.7969
▁Guatemala	-10.797
ger	-10.7974
▁Jin	-10.7974
▁10-	-10.7975
income	-10.7977
▁Iranian	-10.7982
known	-10.7984
▁!	-10.7985
▁birthday	-10.799
▁novel	-10.7991
▁lowest	-10.7992
▁streets	-10.7992
▁Villa	-10.7993
▁ratified	-10.7994
▁repair	-10.8002
▁Awards	-10.8003
▁5,	-10.8003
49	-10.8004
▁publications	-10.8005
ray	-10.8008
▁incorporated	-10.8012
▁thou	-10.8015
▁conservation	-10.8021
back	-10.8024
▁disabled	-10.8025
▁dust	-10.8025
▁equitable	-10.8026
-20	-10.8028
▁helpful	-10.8028
▁pray	-10.8029
ung	-10.8029
▁runs	-10.8032
▁10%	-10.8035
▁seats	-10.8038
▁candidate	-10.8038
▁Between	-10.8042
dis	-10.8042
▁Qatar	-10.8043
▁nobody	-10.8044
▁replacement	-10.8046
▁foods	-10.8051
▁union	-10.8051
▁imports	-10.8056
▁coast	-10.8057
▁Ask	-10.8061
▁judgment	-10.8063
▁electoral	-10.8066
▁substance	-10.8067
:00	-10.8074
▁foster	-10.8076
▁broke	-10.8079
▁sad	-10.8085
▁ultimate	-10.8089
sixth	-10.8092
▁Fifty	-10.8092
▁periods	-10.8094
▁subjects	-10.8096
▁dissemination	-10.8099
▁terrible	-10.8099
▁Pan	-10.8101
▁5-	-10.8105
▁Play	-10.8105
▁1992	-10.8106
▁proved	-10.8111
▁rape	-10.8113
▁detection	-10.8114
▁reserve	-10.8115
▁Serbia	-10.8118
shan	-10.8121
▁Card	-10.8123
▁assembly	-10.8124
▁Records	-10.8124
▁formation	-10.8125
▁Governing	-10.813
▁chose	-10.8131
77	-10.8131
▁frameworks	-10.8136
▁OHCHR	-10.8136
▁Refugees	-10.8137
spoke	-10.8139
seventh	-10.8143
▁Select	-10.8144
▁onto	-10.8145
ium	-10.8149
▁Task	-10.8151
▁challenging	-10.8151
▁allocation	-10.8152
▁Double	-10.8154
▁Film	-10.8161
▁legally	-10.8161
wood	-10.8167
▁brothers	-10.817
▁prayer	-10.8174
▁Johnson	-10.8174
▁smoke	-10.8174
▁surprised	-10.8176
▁socio	-10.8177
▁anyway	-10.8178
▁hospitals	-10.818
-19	-10.8182
▁manufacture	-10.8186
▁brief	-10.8189
▁coordinate	-10.8192
▁Study	-10.8192
▁]	-10.8194
▁Additional	-10.8197
=	-10.82
▁guarantees	-10.8201
▁adapt	-10.8201
▁Ya	-10.8203
▁handling	-10.8206
▁2009.	-10.8207
▁somewhere	-10.8208
▁Operation	-10.821
▁ring	-10.8211
▁Though	-10.8212
▁balanced	-10.8216
▁audio	-10.8218
lan	-10.8223
▁earn	-10.8223
▁studied	-10.8226
▁Charles	-10.8228
▁entertainment	-10.8229
▁print	-10.8229
care	-10.823
▁surveillance	-10.8231
▁dependent	-10.8234
▁sample	-10.8239
ek	-10.824
▁Jo	-10.824
▁experiment	-10.8243
▁continent	-10.8244
▁restore	-10.8244
▁COP	-10.8246
She	-10.8247
▁plus	-10.8248
▁Prosecutor	-10.8248
▁tracking	-10.8249
▁navigation	-10.8249
▁acquire	-10.8249
▁cleaning	-10.8251
▁ride	-10.8252
▁Marine	-10.8255
▁meaningful	-10.8259
▁wave	-10.826
▁complaint	-10.826
▁hunger	-10.826
▁trials	-10.826
such	-10.826
▁1991	-10.8261
ent	-10.8262
▁Linux	-10.8264
▁witnesses	-10.8267
▁afford	-10.8273
▁luxury	-10.8273
▁heritage	-10.8275
▁attractive	-10.8277
▁autonomous	-10.8278
▁Low	-10.8282
▁Navy	-10.8283
▁emotional	-10.8284
▁professor	-10.8286
▁reportedly	-10.8286
▁capture	-10.8289
▁Game	-10.8289
▁Expert	-10.8291
ey	-10.8293
▁attract	-10.8293
▁motion	-10.8294
▁Treatment	-10.8295
▁sending	-10.8296
▁wild	-10.83
▁Ke	-10.8303
ER	-10.8308
▁occasion	-10.831
▁journalists	-10.831
▁comparison	-10.8311
▁App	-10.8311
▁sat	-10.8312
▁Senate	-10.8318
▁tough	-10.8318
▁reconstruction	-10.8324
▁ICT	-10.8329
▁radiation	-10.8333
▁Learn	-10.8339
▁dates	-10.8343
za	-10.8344
▁Word	-10.8344
▁paras	-10.8346
▁reintegration	-10.8348
▁smoking	-10.8352
▁promoted	-10.8352
▁genuine	-10.8358
ninth	-10.8361
▁addresses	-10.8361
86	-10.8362
▁obviously	-10.8362
▁makers	-10.8363
▁Comprehensive	-10.8363
▁Bridge	-10.8365
▁posted	-10.8365
▁IoT	-10.8366
▁63	-10.8371
▁Account	-10.8376
▁Ecuador	-10.8378
▁ID	-10.8379
▁argument	-10.8381
ki	-10.8382
▁Afghan	-10.8392
▁detained	-10.8394
▁invitation	-10.84
▁usual	-10.8405
▁guaranteed	-10.8406
▁Auto	-10.8407
▁situated	-10.8408
▁tired	-10.8412
▁seeks	-10.8416
▁composed	-10.8421
sh	-10.8423
▁detect	-10.8424
▁14.	-10.8427
▁Palace	-10.843
▁prohibited	-10.8435
▁vice	-10.8435
ran	-10.8436
month	-10.8444
▁adjustment	-10.845
▁layer	-10.845
▁eradication	-10.8451
▁thematic	-10.8451
▁farm	-10.8455
board	-10.8457
eighth	-10.8458
▁complicated	-10.846
▁Integrated	-10.8465
▁Guest	-10.8466
▁filter	-10.8471
▁Due	-10.8477
号	-10.8478
▁Region	-10.8479
▁concluding	-10.8481
▁Prize	-10.8481
▁mechanical	-10.8486
▁k	-10.8487
▁frame	-10.8489
▁Moon	-10.8493
▁confirm	-10.8494
▁Rica	-10.8497
▁Click	-10.8502
▁2015.	-10.8512
▁Notes	-10.8516
▁interactive	-10.8526
▁prosecution	-10.8529
▁dress	-10.8541
▁symbol	-10.8543
▁24-	-10.8548
▁Lebanese	-10.8552
▁votes	-10.8553
97	-10.8555
▁DC	-10.8557
ite	-10.8564
▁therapy	-10.8567
▁spiritual	-10.8567
▁Shi	-10.8568
▁Defense	-10.8571
▁Calls	-10.8572
▁wage	-10.8576
▁western	-10.8577
▁enormous	-10.8577
▁mankind	-10.858
500	-10.8581
▁camps	-10.8582
▁threatened	-10.8582
▁giant	-10.8585
▁honest	-10.8585
▁constructive	-10.8585
IT	-10.8587
▁exceed	-10.8588
▁organisations	-10.8591
▁tariffs	-10.8591
▁gains	-10.8593
▁facilitating	-10.8594
▁loan	-10.8598
://	-10.8598
▁acknowledged	-10.8599
▁lift	-10.8604
▁reserves	-10.8613
▁constraints	-10.8619
▁newspaper	-10.862
▁Level	-10.862
IP	-10.8621
▁corner	-10.8623
▁Transport	-10.8624
▁Daily	-10.8625
▁duration	-10.8626
▁Senior	-10.8626
▁2010.	-10.8631
▁crew	-10.8637
▁66	-10.8643
▁heavily	-10.8649
▁Final	-10.865
▁applying	-10.8651
▁exploration	-10.8652
▁flying	-10.8658
terrorism	-10.8658
备	-10.866
▁winning	-10.8664
▁Breakfast	-10.8666
▁Tanzania	-10.8667
▁signature	-10.8668
du	-10.8668
▁east	-10.8669
▁Nevertheless	-10.867
▁Never	-10.8671
▁Marketing	-10.8672
▁flag	-10.8678
▁favor	-10.8681
▁carrier	-10.8682
▁accuracy	-10.8688
▁lady	-10.8688
▁deals	-10.8691
▁beings	-10.8693
▁affordable	-10.87
▁characters	-10.87
▁Spa	-10.8712
op	-10.8712
▁Things	-10.8715
▁exchanges	-10.8715
▁rent	-10.8717
▁declined	-10.8718
▁conformity	-10.872
▁Mars	-10.8721
▁cheap	-10.8722
▁publicly	-10.8724
.00	-10.8725
para	-10.8727
▁Kim	-10.8729
▁Olympic	-10.873
▁commissions	-10.8733
▁acid	-10.8734
▁robot	-10.8734
▁devoted	-10.8735
▁rental	-10.8746
▁(4	-10.8749
▁god	-10.8749
▁50%	-10.875
▁automotive	-10.8751
▁copies	-10.8751
OS	-10.8752
▁extraordinary	-10.8757
▁Bio	-10.8759
▁Nam	-10.8764
▁belong	-10.8766
hua	-10.8767
▁liberty	-10.8775
▁childhood	-10.8776
king	-10.8779
▁hole	-10.8779
▁exact	-10.8783
▁writer	-10.8783
▁explains	-10.8785
▁leaves	-10.8785
▁attempts	-10.8787
▁Arts	-10.8791
▁noting	-10.8791
ber	-10.8795
▁Se	-10.8797
▁requiring	-10.8797
▁custom	-10.8799
▁Noting	-10.8807
determination	-10.881
▁Hua	-10.881
▁signing	-10.881
▁parameters	-10.881
▁Smith	-10.8813
▁fate	-10.8818
▁limitations	-10.882
▁vulnerability	-10.8821
▁roughly	-10.8822
▁branch	-10.8822
▁[...]	-10.8823
▁Basic	-10.8826
▁producers	-10.8827
AL	-10.883
▁listening	-10.8835
▁Subcommittee	-10.8835
▁stupid	-10.8835
▁preserve	-10.8836
▁acceptable	-10.8838
▁wearing	-10.8846
▁Po	-10.885
▁dogs	-10.885
▁Sydney	-10.8852
▁edge	-10.8853
▁IAEA	-10.8855
▁basically	-10.8859
▁measurement	-10.886
▁fan	-10.8863
▁monetary	-10.8871
▁bottle	-10.8872
▁Think	-10.8874
▁truck	-10.8877
▁2012.	-10.8877
SR	-10.8878
▁everyday	-10.8878
】	-10.8878
-6	-10.8881
▁permission	-10.8882
▁fix	-10.8884
▁households	-10.8885
▁opposite	-10.8893
▁sections	-10.8899
▁ruling	-10.89
▁Ni	-10.8901
▁proven	-10.8902
▁interim	-10.8902
▁creates	-10.8903
▁allocated	-10.8904
▁visible	-10.8904
▁fault	-10.8905
ID	-10.8909
▁urge	-10.891
American	-10.8911
▁naturally	-10.8912
ible	-10.8914
▁till	-10.8915
▁organize	-10.8922
▁opposed	-10.8927
▁troop	-10.8931
▁(4)	-10.8933
▁profits	-10.8934
▁visiting	-10.8936
▁2004.	-10.8938
istic	-10.894
PC	-10.894
▁loves	-10.8943
▁Night	-10.8949
MA	-10.8949
▁|	-10.895
▁typical	-10.8951
▁terrorists	-10.8954
▁regarded	-10.8955
▁laboratory	-10.8958
▁angry	-10.8959
▁resident	-10.8961
▁Bulgaria	-10.8963
▁throw	-10.8964
▁gotta	-10.8964
▁laser	-10.8966
▁inventory	-10.8966
▁sport	-10.8969
▁$4	-10.897
▁1960	-10.8971
▁conversion	-10.8972
▁Pay	-10.898
vo	-10.8987
▁prospects	-10.9002
▁Village	-10.9005
▁innocent	-10.9007
▁pursuit	-10.9009
▁campus	-10.9009
66	-10.9017
▁Revolution	-10.902
▁usage	-10.9021
35	-10.9022
▁Drug	-10.9024
▁servers	-10.9029
▁swimming	-10.9032
▁plate	-10.9042
iii	-10.9044
▁coach	-10.9051
▁fiber	-10.9055
▁repeatedly	-10.9056
▁magic	-10.9058
▁restaurants	-10.9063
commerce	-10.9064
55	-10.9066
▁plenty	-10.9068
▁cry	-10.9069
▁sensors	-10.907
▁Counter	-10.9076
▁Major	-10.9076
▁smile	-10.9079
▁250	-10.908
95	-10.9084
▁Experience	-10.9085
▁Steel	-10.9088
▁investing	-10.909
▁immune	-10.9095
▁discovery	-10.9099
▁connections	-10.9101
▁Joseph	-10.9106
▁guest	-10.9112
▁underlying	-10.9115
▁Wang	-10.9116
▁Boston	-10.9118
42	-10.9118
▁cluster	-10.9121
chi	-10.9122
▁enjoyed	-10.9123
▁arrive	-10.9124
▁Start	-10.9126
▁Ra	-10.9127
▁Modern	-10.913
▁Brown	-10.9131
point	-10.9132
▁robots	-10.914
▁w	-10.9142
▁Tour	-10.9146
▁gathered	-10.9146
▁anybody	-10.9146
▁Iceland	-10.9147
▁Harry	-10.9153
▁gene	-10.9154
▁eligible	-10.9155
Well	-10.9163
▁Dutch	-10.9163
Rev	-10.9164
▁shoot	-10.9168
tro	-10.9169
▁Ex	-10.917
▁freely	-10.9172
ide	-10.9174
▁Size	-10.9178
▁Tower	-10.9182
▁disposal	-10.9183
▁Question	-10.9191
▁repeated	-10.9194
va	-10.9195
▁Yemen	-10.9196
▁prosperity	-10.9198
▁associations	-10.9198
▁Zhejiang	-10.9199
▁Dan	-10.9205
▁rescue	-10.9207
▁reiterated	-10.9215
▁commonly	-10.9217
▁Net	-10.922
▁celebrate	-10.9221
99	-10.9221
▁Dis	-10.9228
▁purchased	-10.9231
▁Suites	-10.9232
▁aluminum	-10.9234
EC	-10.9241
▁liquid	-10.9242
▁Han	-10.9243
22	-10.9244
▁Solutions	-10.925
56	-10.9252
▁95	-10.9254
▁mines	-10.9255
▁Rio	-10.9256
▁importantly	-10.9259
▁2003.	-10.9262
▁Roman	-10.9264
▁inspired	-10.9264
▁Analysis	-10.9268
▁Henry	-10.9268
▁Nature	-10.927
ck	-10.9273
▁Medicine	-10.9273
▁portion	-10.9279
▁parallel	-10.9283
▁arrival	-10.9283
IC	-10.9287
▁drafting	-10.9287
▁significance	-10.9295
▁magazine	-10.9299
▁Radio	-10.93
▁Eritrea	-10.9302
▁Communication	-10.9302
▁belonging	-10.9304
▁courage	-10.9309
▁subprogramme	-10.931
▁mainstreaming	-10.9313
down	-10.9315
▁Base	-10.9317
▁supervision	-10.9319
▁Communist	-10.9319
▁painting	-10.932
▁600	-10.9324
▁enabled	-10.9327
▁height	-10.9328
▁commodity	-10.9332
▁upgrade	-10.9334
▁mixed	-10.9337
can	-10.9339
▁adverse	-10.9339
▁IBM	-10.9349
▁recover	-10.936
▁Sports	-10.9363
▁turns	-10.9363
SC	-10.9363
▁dating	-10.9363
▁Brand	-10.9368
▁2011.	-10.9369
tra	-10.9371
▁Dubai	-10.9375
▁~	-10.9377
▁Angola	-10.9379
▁boss	-10.9382
▁zones	-10.9386
▁Material	-10.9386
▁default	-10.9386
▁Little	-10.9387
41	-10.9389
}	-10.9391
▁admitted	-10.9392
▁shooting	-10.9395
▁convenient	-10.9397
▁liked	-10.9399
▁Salvador	-10.94
▁affects	-10.9405
▁respected	-10.9405
▁settlements	-10.9406
▁satisfied	-10.9408
▁violated	-10.9415
▁migrant	-10.9419
▁distinction	-10.9423
▁conducting	-10.9425
▁difficulty	-10.9426
▁transmit	-10.9428
▁unprecedented	-10.9429
▁greenhouse	-10.9429
▁Micro	-10.943
▁Islam	-10.943
▁vessels	-10.9438
▁suggestions	-10.9439
▁Common	-10.9439
▁gaps	-10.944
continued	-10.944
▁Computer	-10.9443
▁concentration	-10.9445
▁derived	-10.9446
fer	-10.9447
▁Money	-10.9452
▁guilty	-10.9452
▁mistakes	-10.9456
▁fired	-10.9456
▁Profile	-10.9457
gen	-10.9458
▁elderly	-10.9459
▁Catholic	-10.9459
▁pension	-10.9474
▁complainant	-10.9475
▁meals	-10.9482
▁score	-10.9485
▁venture	-10.9485
▁kingdom	-10.9485
▁doors	-10.9496
▁Mali	-10.9497
▁FAO	-10.9498
▁eastern	-10.9498
▁native	-10.9498
PA	-10.9498
ker	-10.9501
ries	-10.9502
▁Florida	-10.9503
#	-10.9505
▁illness	-10.9507
▁Until	-10.951
▁Materials	-10.9516
▁compete	-10.9517
▁flowers	-10.9519
▁employers	-10.9522
▁recognizes	-10.9523
Yes	-10.9524
▁lucky	-10.9526
▁Frank	-10.9527
▁pending	-10.9529
hai	-10.9529
▁organ	-10.953
▁outdoor	-10.9531
▁Golden	-10.9535
▁10,000	-10.9536
▁Sciences	-10.9536
uk	-10.954
▁permitted	-10.9542
.9	-10.9542
▁NASA	-10.9543
▁Views	-10.9548
▁films	-10.9548
▁globe	-10.9556
▁outlined	-10.9559
▁Madrid	-10.9563
▁solidarity	-10.9565
▁continuously	-10.9565
▁observer	-10.9566
▁integral	-10.9568
▁cultures	-10.957
▁diabetes	-10.9576
▁Hu	-10.9584
▁module	-10.9586
▁funny	-10.9588
fi	-10.9588
▁transform	-10.959
:30	-10.9596
▁forgotten	-10.9603
▁dealt	-10.9604
▁reward	-10.9604
▁Additionally	-10.9606
▁Plaza	-10.9607
▁Similarly	-10.9607
▁Dec	-10.9611
▁returning	-10.9612
▁sanitation	-10.9613
xi	-10.9614
▁speaker	-10.9615
▁mountains	-10.9616
▁awards	-10.9616
75	-10.9617
▁advocacy	-10.9619
▁firmly	-10.962
▁conclude	-10.9621
~	-10.9623
▁batteries	-10.9624
▁HK	-10.9633
▁YOU	-10.9637
▁Bush	-10.9638
▁Stay	-10.9645
▁noticed	-10.9645
▁Palestinians	-10.9645
▁safeguards	-10.9646
▁Commerce	-10.9646
▁User	-10.965
▁ease	-10.965
bi	-10.9651
▁fleet	-10.9651
▁proceed	-10.9652
27	-10.9655
▁Du	-10.9656
▁Learning	-10.9657
▁lights	-10.9659
▁immigrants	-10.966
MP	-10.9662
▁counsel	-10.9665
▁roads	-10.9667
▁Place	-10.9667
▁Armenia	-10.9669
▁Tunisia	-10.9671
▁Manufacturing	-10.9673
1,	-10.9676
▁1000	-10.9677
▁technique	-10.9682
▁predict	-10.9683
▁16.	-10.9686
▁empowerment	-10.9686
▁founder	-10.969
▁sake	-10.9694
05	-10.9695
▁Death	-10.9698
▁Adam	-10.9698
▁closing	-10.9701
68	-10.9703
▁coastal	-10.9705
▁flights	-10.9707
▁possibilities	-10.9707
▁colors	-10.971
▁20%	-10.9713
▁Self	-10.9717
ile	-10.972
▁deny	-10.972
▁Being	-10.9721
▁Coordinator	-10.9723
▁resolved	-10.9724
43	-10.9724
▁Far	-10.9731
▁Photo	-10.9731
▁nutrition	-10.9732
ft	-10.9736
▁gather	-10.974
▁occurs	-10.9745
▁competence	-10.9746
54	-10.9746
▁Nor	-10.9747
Oh	-10.9748
▁citizenship	-10.9749
▁ticket	-10.9754
▁Hill	-10.9758
▁minor	-10.9762
▁robust	-10.9763
▁calendar	-10.9764
▁separation	-10.9764
▁signals	-10.9764
▁essentially	-10.9765
▁Senegal	-10.9774
▁Assessment	-10.9775
▁Slovenia	-10.9776
ably	-10.978
ped	-10.9781
▁walked	-10.9782
▁drinks	-10.9782
▁hasn	-10.9783
▁cup	-10.9785
▁assisting	-10.9787
▁laugh	-10.9788
▁storm	-10.9789
▁manual	-10.979
▁ought	-10.979
▁6,	-10.9794
ab	-10.9795
han	-10.9795
▁menu	-10.9801
Secretary	-10.9802
▁Emergency	-10.9808
▁Recognizing	-10.9814
DP	-10.9816
▁advances	-10.9816
47	-10.9818
▁secured	-10.9822
▁Defence	-10.9823
ming	-10.9827
▁Box	-10.9827
▁Insurance	-10.9829
▁opinions	-10.9831
▁interact	-10.9836
mi	-10.9837
▁Statute	-10.9837
▁retirement	-10.9838
▁Listen	-10.984
▁inequality	-10.9843
▁silence	-10.9844
`	-10.9849
▁Solar	-10.9853
▁Ja	-10.9853
▁1.5	-10.9853
▁announcement	-10.9856
▁Violence	-10.9858
▁pump	-10.9862
▁governmental	-10.9865
▁maritime	-10.9869
mar	-10.9873
▁beneficial	-10.9874
▁Gas	-10.9877
▁centuries	-10.988
▁Van	-10.9881
▁Santa	-10.9881
TA	-10.9882
▁Atlantic	-10.9885
▁Related	-10.9885
▁fallen	-10.9888
▁wished	-10.989
pm	-10.9892
▁interventions	-10.9892
▁mobility	-10.9892
speed	-10.9893
▁seminar	-10.9896
▁Step	-10.9899
▁interior	-10.9905
▁2002.	-10.9907
▁reliability	-10.991
▁blame	-10.9911
▁Survey	-10.9913
▁committees	-10.9914
▁observe	-10.9915
▁Factory	-10.9922
▁marry	-10.9923
▁Color	-10.9924
▁removal	-10.9927
▁Hoc	-10.9928
▁enemies	-10.9929
▁Relations	-10.9929
▁preparatory	-10.993
▁investor	-10.9932
bu	-10.9935
▁sovereign	-10.9935
▁Want	-10.9938
▁Emirates	-10.9944
▁Summer	-10.9948
▁workplace	-10.995
▁allies	-10.9953
▁breach	-10.9954
ny	-10.9955
▁r	-10.9957
▁remedies	-10.9958
▁fastest	-10.9959
▁whereas	-10.996
▁lifetime	-10.9961
28	-10.9964
▁Plus	-10.9968
▁Si	-10.9968
▁Donald	-10.997
▁Stock	-10.9971
▁chip	-10.9972
▁literature	-10.9974
▁west	-10.9975
▁ceremony	-10.9977
▁suspected	-10.9978
▁modified	-10.998
▁HD	-10.9982
gu	-10.9983
▁2013.	-10.9985
▁teeth	-10.999
▁posed	-10.9992
▁argued	-10.9992
▁observation	-10.9992
▁lists	-10.9992
▁salt	-10.9994
▁Overall	-10.9994
ical	-11.0001
ure	-11.0001
▁Barcelona	-11.0003
▁Map	-11.0003
▁7,	-11.0003
▁watched	-11.0004
▁Panama	-11.0004
▁repeat	-11.0004
▁subjected	-11.0005
▁forests	-11.0006
▁Montreal	-11.0007
▁Tax	-11.0008
▁smooth	-11.0008
our	-11.0012
▁arbitrary	-11.0013
qui	-11.0017
▁●	-11.0019
▁VR	-11.0019
war	-11.0024
▁Muslims	-11.0026
▁2001.	-11.0027
▁strictly	-11.0028
▁budgetary	-11.0028
SE	-11.0031
▁2000.	-11.0031
▁Early	-11.0031
▁preventive	-11.0033
▁adds	-11.0035
ow	-11.0035
▁array	-11.0042
▁sensor	-11.0042
▁landscape	-11.0043
ding	-11.0044
▁Accordingly	-11.0053
New	-11.0054
▁Branch	-11.0055
ane	-11.0055
▁supplier	-11.0057
▁personally	-11.0068
▁complexity	-11.0069
▁Ukrainian	-11.0071
hotel	-11.0074
▁yellow	-11.0074
▁Freedom	-11.0077
▁Mike	-11.0078
▁invested	-11.0078
▁suit	-11.0079
▁mainstream	-11.0079
▁measured	-11.0081
▁hosted	-11.0086
▁Republican	-11.0087
▁Supplement	-11.0087
▁utilization	-11.0089
▁luck	-11.0092
▁Malta	-11.0093
▁perpetrators	-11.0096
▁stick	-11.01
72	-11.0101
from	-11.0101
▁methodology	-11.0101
new	-11.0103
▁Nairobi	-11.0104
▁aviation	-11.0105
▁scared	-11.0112
▁Mongolia	-11.0112
▁Server	-11.0115
▁86	-11.0121
▁crises	-11.0126
▁walls	-11.0128
▁consistently	-11.0128
▁drew	-11.0129
▁Cookies	-11.0129
▁1997,	-11.013
▁$6	-11.0131
▁projected	-11.0133
▁perfectly	-11.0134
▁Six	-11.0135
▁Put	-11.0139
▁Brussels	-11.0141
right	-11.0145
▁weren	-11.0145
▁forgive	-11.0147
▁viewed	-11.0152
▁Arabic	-11.0153
▁tolerance	-11.0156
▁Age	-11.0158
tin	-11.0163
88	-11.0166
▁Urban	-11.0167
▁insufficient	-11.0169
▁thy	-11.0171
▁spoken	-11.0173
▁islands	-11.0178
▁incredible	-11.0185
▁constitutes	-11.0185
▁info	-11.0189
ator	-11.0191
62	-11.0193
▁birds	-11.0196
AM	-11.0196
08	-11.0197
▁mercy	-11.02
▁(5	-11.0205
ru	-11.0211
▁Mi	-11.0213
▁Mediterranean	-11.0217
Pacific	-11.0219
▁2014.	-11.0219
▁engines	-11.022
▁Boutique	-11.0221
46	-11.0222
▁deserve	-11.0223
▁Avenue	-11.0224
▁competitiveness	-11.0226
▁invasion	-11.0228
▁Ghana	-11.0228
▁classic	-11.023
ng	-11.0239
▁oldest	-11.024
▁determining	-11.0245
▁wages	-11.0248
▁Budgetary	-11.0255
▁Commercial	-11.0255
▁accounted	-11.0258
▁depth	-11.026
▁delivering	-11.0263
ura	-11.0268
▁presents	-11.0268
▁uncertainty	-11.0269
▁accompanied	-11.0272
▁operates	-11.0274
shi	-11.0275
▁Bi	-11.0275
▁cyber	-11.0277
work	-11.0277
▁premises	-11.0282
IA	-11.0283
▁advancement	-11.0295
▁Express	-11.0295
▁Zimbabwe	-11.0295
hi	-11.03
▁Luxembourg	-11.0302
▁OS	-11.0305
▁precision	-11.0305
▁Index	-11.0306
▁breast	-11.0307
▁imprisonment	-11.0308
▁organisation	-11.031
▁heading	-11.0312
▁67	-11.0315
head	-11.0321
▁resumed	-11.0324
pro	-11.0325
item	-11.0326
▁Intelligence	-11.0327
▁Issues	-11.0328
▁Ban	-11.0329
▁ST	-11.0333
▁judiciary	-11.0334
▁reveal	-11.0335
▁performing	-11.0335
One	-11.0338
▁Weight	-11.0346
cn	-11.035
▁Armed	-11.0353
▁constitution	-11.0356
▁mail	-11.0357
▁17.	-11.0358
▁divorce	-11.0361
▁networking	-11.0361
▁jump	-11.0361
▁damaged	-11.0365
ative	-11.0365
▁adopting	-11.0368
ns	-11.037
▁password	-11.0375
▁Jiangsu	-11.0378
▁split	-11.0379
▁emails	-11.0389
▁Representatives	-11.039
MS	-11.0392
▁agreeing	-11.0396
lic	-11.0399
▁injuries	-11.0403
78	-11.0406
▁edition	-11.0407
ot	-11.0416
▁precise	-11.0416
▁targeting	-11.0416
agency	-11.0418
▁clock	-11.0422
▁arrangement	-11.0423
▁printed	-11.0435
▁darkness	-11.0436
▁oral	-11.0437
RO	-11.0441
▁Uruguay	-11.0441
▁argue	-11.0442
▁proliferation	-11.0445
don	-11.0446
▁servants	-11.0446
▁bacteria	-11.0447
▁belongs	-11.0448
2,	-11.0452
▁ties	-11.0453
▁grace	-11.0456
▁iOS	-11.0458
▁ages	-11.0459
▁Former	-11.0461
ville	-11.0462
raising	-11.0464
▁2019,	-11.0465
▁fairly	-11.0468
01	-11.0469
name	-11.0472
▁rarely	-11.0473
▁Tech	-11.0473
▁focal	-11.0476
▁retain	-11.0481
▁roll	-11.0481
▁Preparatory	-11.0482
▁Yi	-11.0485
▁restricted	-11.0487
▁bomb	-11.0488
▁Guangdong	-11.0488
▁Advanced	-11.0493
▁grand	-11.0495
▁worker	-11.0498
▁seminars	-11.0503
▁suspect	-11.0504
▁strive	-11.0507
▁recall	-11.0515
▁graduate	-11.0517
Be	-11.0521
▁Join	-11.0522
▁Mc	-11.0524
▁Bolivia	-11.0526
▁Body	-11.0528
▁respondents	-11.053
▁Gallery	-11.0538
▁decides	-11.0541
ara	-11.0543
▁Week	-11.0549
▁arts	-11.055
▁missiles	-11.0551
made	-11.0552
▁Single	-11.0553
▁wise	-11.0554
▁tackle	-11.0556
▁analyze	-11.056
▁Lithuania	-11.0567
▁briefing	-11.0567
▁Try	-11.0568
▁narrow	-11.0572
▁tourists	-11.0576
▁Register	-11.0584
▁Whatever	-11.0585
▁Tri	-11.0588
▁smell	-11.0589
▁ends	-11.059
Co	-11.0593
▁circulated	-11.0595
▁2018.	-11.0599
LE	-11.06
▁YouTube	-11.0601
▁buyers	-11.0602
▁reaffirmed	-11.0604
sized	-11.0605
▁Transfer	-11.0606
▁mix	-11.0606
▁Tesla	-11.0608
▁passion	-11.0615
▁seventh	-11.0618
▁Ford	-11.0619
▁frequent	-11.062
▁Gar	-11.0621
58	-11.0624
▁crowd	-11.0625
▁guided	-11.0625
▁lying	-11.0627
▁beer	-11.063
▁Wu	-11.0635
▁earned	-11.0636
▁samples	-11.0636
▁colour	-11.0638
▁98	-11.0639
▁genes	-11.0641
▁Measures	-11.0642
▁developer	-11.0642
▁Tourism	-11.0646
▁Coast	-11.0649
▁inner	-11.0649
kg	-11.0652
▁surgery	-11.0656
ari	-11.0657
ford	-11.066
ification	-11.0661
▁relevance	-11.0662
▁Joe	-11.0665
▁ILO	-11.0669
▁fitness	-11.0672
▁criticism	-11.0672
▁72	-11.0672
tel	-11.0672
pre	-11.0674
▁emerged	-11.068
▁Reserve	-11.0682
▁Bangkok	-11.0682
39	-11.0684
▁PM	-11.0687
▁sand	-11.0688
▁Torture	-11.0689
conflict	-11.069
▁hardly	-11.0691
▁ma	-11.0693
▁unilateral	-11.0695
71	-11.0697
▁anger	-11.0697
▁18.	-11.07
▁ON	-11.0701
▁residential	-11.0701
▁Resource	-11.0702
▁pair	-11.0703
border	-11.0704
▁1:	-11.0705
ons	-11.071
▁breath	-11.0712
ix	-11.0712
▁depression	-11.0712
▁corporations	-11.0715
▁regret	-11.072
▁Mechanism	-11.0721
▁dimensions	-11.0723
▁Standards	-11.0723
▁mothers	-11.0725
▁Sky	-11.0729
▁regards	-11.0729
34	-11.073
▁arise	-11.0731
service	-11.0731
▁instances	-11.0734
▁recording	-11.0734
▁existed	-11.0735
▁Steve	-11.0735
▁personality	-11.0737
▁booking	-11.0737
▁Reports	-11.0738
▁harassment	-11.0739
5,000	-11.0743
▁overview	-11.0749
▁deeper	-11.0751
are	-11.0759
▁Paper	-11.0759
▁unity	-11.0766
ON	-11.0768
▁Others	-11.0768
IN	-11.0769
▁Southeast	-11.0769
▁Especially	-11.0774
▁revenues	-11.0774
▁Ministerial	-11.0775
▁excessive	-11.0781
▁separated	-11.0784
▁Tu	-11.0785
33	-11.0787
▁meal	-11.0788
▁19.	-11.0789
▁800	-11.0791
▁contacts	-11.0793
▁Lin	-11.0793
▁Delivery	-11.0794
SA	-11.0798
▁Win	-11.0798
eth	-11.0804
▁68	-11.0805
▁Mexican	-11.0808
▁sins	-11.0808
▁Again	-11.081
▁passing	-11.0812
▁Paragraph	-11.0813
▁entrepreneurs	-11.0813
▁Studio	-11.0814
▁Employment	-11.0815
85	-11.0817
▁$7	-11.0818
ward	-11.0819
▁designer	-11.082
▁browse	-11.0822
▁adjust	-11.0827
81	-11.0828
▁skill	-11.0828
▁Create	-11.0829
Pro	-11.0831
▁dual	-11.0832
▁TEL	-11.0834
▁inadequate	-11.0835
▁leg	-11.0837
yl	-11.0838
▁£	-11.084
▁Har	-11.084
gi	-11.0844
▁USB	-11.0845
▁windows	-11.0845
▁aggression	-11.0847
▁efficiently	-11.0847
▁electronics	-11.085
▁lab	-11.085
▁praise	-11.085
▁Ali	-11.0852
▁Sixth	-11.0853
▁Libyan	-11.0853
▁distinct	-11.0856
era	-11.0856
State	-11.0857
▁Equality	-11.0864
rate	-11.0864
▁Combat	-11.0868
▁possession	-11.0868
▁studio	-11.0868
▁passenger	-11.0869
well	-11.0874
79	-11.0882
-8	-11.0885
oc	-11.0885
76	-11.0886
▁NO	-11.0892
▁Doctor	-11.0892
▁environmentally	-11.0895
▁custody	-11.0895
▁Tea	-11.0901
▁admit	-11.0907
▁dying	-11.0916
▁100,000	-11.0919
▁powder	-11.092
▁Jamaica	-11.0924
▁Later	-11.0925
▁Macedonia	-11.0926
▁impunity	-11.0926
OR	-11.0931
▁Student	-11.0931
▁compromise	-11.0933
how	-11.0936
▁grid	-11.0938
▁headed	-11.0941
▁unlikely	-11.0942
▁pride	-11.0942
▁Upon	-11.0944
▁Position	-11.0946
▁Gulf	-11.095
▁Norwegian	-11.0954
▁coordinating	-11.0961
▁harder	-11.0961
▁highlight	-11.0962
▁joining	-11.0963
II	-11.0965
▁2:	-11.0972
▁cameras	-11.0974
▁deemed	-11.0974
friendly	-11.0975
▁Logistics	-11.0976
▁Informal	-11.0978
hand	-11.0983
▁notification	-11.0985
▁Peoples	-11.0986
▁Motor	-11.0989
▁fake	-11.0991
▁Jim	-11.0994
▁UNODC	-11.0997
▁Release	-11.0997
▁engineer	-11.1001
▁automated	-11.1002
▁【	-11.1002
▁Companies	-11.1003
▁relate	-11.1003
▁ignore	-11.1004
▁Share	-11.1005
life	-11.1007
▁2)	-11.1007
200	-11.1008
>>	-11.101
run	-11.101
▁upper	-11.1011
AS	-11.1016
▁FOR	-11.102
▁glory	-11.1023
cheng	-11.1026
AI	-11.1027
▁mini	-11.1029
▁lifestyle	-11.1036
▁NATO	-11.1037
▁negotiation	-11.1038
▁whenever	-11.1043
▁Know	-11.1043
▁precious	-11.1046
▁Cape	-11.1047
▁Liu	-11.1051
▁Core	-11.1056
▁Pa	-11.106
ware	-11.1063
▁hoc	-11.1064
▁sleeping	-11.1064
▁Performance	-11.1064
▁Document	-11.1067
▁sons	-11.107
▁holy	-11.107
▁ICP	-11.1072
▁reception	-11.1074
▁sees	-11.1074
▁prominent	-11.1078
▁accountable	-11.1081
69	-11.1081
▁uh	-11.1081
▁exceptional	-11.1083
▁Reform	-11.1086
▁assumed	-11.1089
-7	-11.1095
▁excess	-11.11
▁Chen	-11.1104
▁introducing	-11.1108
▁currencies	-11.1111
▁Class	-11.1112
▁reverse	-11.1114
09	-11.1116
▁prostitution	-11.112
▁quantum	-11.1128
▁bird	-11.1129
67	-11.1131
▁simultaneously	-11.1132
▁workforce	-11.1132
▁consultative	-11.1132
▁friendship	-11.1133
yang	-11.1137
▁Guidelines	-11.1137
ble	-11.114
vis	-11.1141
▁15.	-11.1145
▁compatible	-11.1145
▁tiny	-11.1149
▁LDCs	-11.1152
▁prohibition	-11.1152
▁2017.	-11.1153
win	-11.1153
▁imported	-11.1156
▁Point	-11.1163
酒店	-11.1165
▁provinces	-11.1167
▁Inspection	-11.1167
▁chap	-11.1168
▁cuts	-11.1169
▁peak	-11.117
yuan	-11.1171
▁moves	-11.1178
52	-11.1179
▁waters	-11.118
▁Besides	-11.118
▁undertaking	-11.1181
▁Economy	-11.1185
▁thinks	-11.1186
▁exit	-11.1187
91	-11.1189
air	-11.1191
57	-11.1192
▁maternal	-11.1192
tion	-11.1193
ju	-11.1194
▁necessity	-11.1196
▁Strengthening	-11.1204
▁renewed	-11.1205
ou	-11.1206
ez	-11.1208
.10	-11.1213
▁Uh	-11.1214
▁protocols	-11.1215
▁telecommunicat	-11.1218
▁sing	-11.1219
▁Way	-11.1222
▁operator	-11.1229
yan	-11.1238
94	-11.1239
▁momentum	-11.124
▁Cameroon	-11.1241
▁forums	-11.1241
▁comprises	-11.1244
▁recognizing	-11.1247
53	-11.1248
▁mandated	-11.1248
84	-11.125
▁Xin	-11.1251
▁bathrooms	-11.1252
96	-11.1252
▁anticipated	-11.1256
▁Ki	-11.1259
screen	-11.1259
▁Toronto	-11.126
▁9,	-11.126
▁mis	-11.1261
depth	-11.1262
▁paint	-11.1264
Let	-11.127
▁seized	-11.1272
▁upcoming	-11.1272
▁Mountain	-11.1274
▁elevator	-11.1274
▁Capacity	-11.1276
page	-11.1276
zi	-11.1281
▁stayed	-11.1282
▁beliefs	-11.1282
▁acknowledge	-11.1283
▁terror	-11.1285
▁vary	-11.1286
▁provincial	-11.1289
▁refuse	-11.129
▁Chris	-11.129
che	-11.129
▁Against	-11.1291
▁degradation	-11.1299
▁processed	-11.1302
▁guard	-11.1303
▁memories	-11.1305
▁trusted	-11.1306
▁aside	-11.1306
▁convened	-11.131
▁chairman	-11.1312
▁bath	-11.1313
▁designers	-11.1318
▁consequence	-11.132
06	-11.1321
De	-11.1322
▁voted	-11.133
▁configuration	-11.133
▁LORD	-11.1332
book	-11.1332
ap	-11.1333
ai	-11.1336
▁transfers	-11.1338
top	-11.1338
▁album	-11.1338
▁superior	-11.134
▁tank	-11.134
▁disclosure	-11.1341
▁pipe	-11.1346
ps	-11.1347
▁songs	-11.1347
▁alternatives	-11.1348
▁mandatory	-11.1348
▁infected	-11.1349
▁politicians	-11.1349
▁ambitious	-11.1349
An	-11.135
▁rubber	-11.1351
CH	-11.1355
▁accordingly	-11.1358
▁profound	-11.1359
▁incentives	-11.1364
▁marks	-11.1365
▁Cat	-11.1368
▁Shop	-11.137
▁Electronics	-11.1372
▁habits	-11.1374
▁OIOS	-11.1376
low	-11.1376
yu	-11.1376
▁Living	-11.1378
▁designs	-11.1383
Leste	-11.1383
▁tables	-11.1385
26	-11.1387
sharing	-11.1388
▁disappeared	-11.1391
▁quantity	-11.1393
▁inhabitants	-11.1396
▁producer	-11.1398
▁VII	-11.1399
38	-11.14
▁cruel	-11.1402
▁logic	-11.1403
▁trillion	-11.1404
▁assistant	-11.1405
jo	-11.1405
▁et	-11.1406
▁staying	-11.1407
▁biodiversity	-11.1409
▁appeals	-11.1409
▁emotions	-11.1412
▁wherever	-11.1416
▁2020.	-11.1418
▁Clinton	-11.142
▁hall	-11.1421
▁preferred	-11.1422
▁grants	-11.1426
▁council	-11.1427
▁AT	-11.1436
▁semi	-11.1437
MC	-11.1438
▁roof	-11.1442
▁partly	-11.1444
▁2.5	-11.1448
SP	-11.1448
▁spare	-11.1449
▁parliament	-11.145
▁Reduction	-11.1453
si	-11.1455
▁complement	-11.1456
water	-11.1457
92	-11.146
▁cargo	-11.146
▁1)	-11.1462
▁sole	-11.1463
▁Python	-11.1468
▁employer	-11.1469
/1	-11.1471
▁Mauritius	-11.1472
▁Save	-11.1473
under	-11.1473
▁sum	-11.1476
▁attacked	-11.148
▁lock	-11.1483
▁mirror	-11.1486
▁expresses	-11.1486
98	-11.1487
▁30%	-11.1491
▁adjustments	-11.1491
▁orientation	-11.1492
At	-11.1492
▁burning	-11.1493
▁Supply	-11.1493
▁container	-11.1494
▁Expo	-11.1497
▁budgets	-11.1498
▁prize	-11.1499
▁indicator	-11.1502
▁hungry	-11.1504
▁notably	-11.1504
▁cease	-11.1504
▁ethical	-11.1505
▁oxygen	-11.1508
▁conjunction	-11.1508
▁Plastic	-11.1511
▁Taliban	-11.1512
▁copyright	-11.1514
▁ear	-11.1514
▁collapse	-11.1517
CA	-11.1518
▁label	-11.1519
▁analysts	-11.1522
▁errors	-11.1526
▁launching	-11.1528
▁EUR	-11.1529
▁Close	-11.1535
▁pose	-11.1537
▁Pi	-11.1537
type	-11.1539
▁exploring	-11.1539
▁110	-11.1543
▁considerations	-11.1543
▁phrase	-11.1545
▁rail	-11.1547
world	-11.1547
▁warming	-11.1547
▁falls	-11.1552
▁Chad	-11.1556
▁modalities	-11.1557
89	-11.1558
“	-11.156
▁precisely	-11.1562
▁Collection	-11.1564
▁exclusively	-11.1573
▁Welcomes	-11.1575
▁AC	-11.1578
▁abandoned	-11.158
▁Years	-11.1581
▁cooperative	-11.1581
▁withdraw	-11.1583
set	-11.1584
▁attracted	-11.1584
▁Zambia	-11.1585
▁possess	-11.1587
▁formula	-11.1587
▁h	-11.1589
▁Glass	-11.1594
▁bread	-11.1595
▁villages	-11.1597
Now	-11.1598
▁Excellency	-11.1598
-15	-11.16
▁Nice	-11.1603
ani	-11.1603
state	-11.1606
ens	-11.161
▁shelter	-11.1616
▁Cancer	-11.1617
▁180	-11.1619
▁tenth	-11.1619
ita	-11.162
00	-11.1621
▁responding	-11.1622
▁incorporate	-11.1623
▁unusual	-11.1623
▁allegedly	-11.1625
▁civilization	-11.1625
▁tourist	-11.1626
PS	-11.1627
▁translated	-11.1628
▁mature	-11.1628
▁Ju	-11.163
▁Together	-11.163
▁Job	-11.1633
600	-11.1634
▁burn	-11.1639
▁Ru	-11.1642
▁Roma	-11.1648
▁Empire	-11.1651
▁Educational	-11.1652
▁municipal	-11.1653
▁(“	-11.1654
▁Viet	-11.1659
▁Daniel	-11.1661
▁silver	-11.1662
ach	-11.1663
▁tickets	-11.1664
▁banned	-11.167
▁hoping	-11.1671
▁toxic	-11.1672
▁readers	-11.1676
ising	-11.1678
▁Regulation	-11.1678
RA	-11.1686
▁explosive	-11.1688
07	-11.169
▁terminal	-11.1693
▁breaking	-11.1697
val	-11.1697
▁Miami	-11.1698
▁preparations	-11.1699
▁Irish	-11.1701
▁Slovakia	-11.1701
▁Decision	-11.1702
▁decreased	-11.1707
▁Nobody	-11.1709
▁desert	-11.1709
▁circuit	-11.171
▁impressive	-11.1712
▁uniform	-11.1713
ney	-11.1713
ST	-11.1717
▁Election	-11.1721
Show	-11.1724
▁Ah	-11.1725
▁captured	-11.1725
▁intolerance	-11.1732
OL	-11.1734
▁Polish	-11.1735
▁deliberations	-11.174
▁Increased	-11.174
▁gathering	-11.1741
▁dimension	-11.1743
▁protest	-11.1747
▁relatives	-11.1751
▁Need	-11.1754
▁revision	-11.1758
▁Workshop	-11.1758
▁embargo	-11.176
▁meets	-11.176
▁hang	-11.1763
▁dining	-11.1766
▁99	-11.1767
▁Montenegro	-11.1767
▁73	-11.1768
▁interference	-11.1768
▁propose	-11.1771
▁Customs	-11.1772
▁Much	-11.1772
▁alongside	-11.1773
▁Bus	-11.1779
▁earnings	-11.1784
▁rice	-11.179
▁cited	-11.1793
▁Andrew	-11.1797
▁hazardous	-11.1798
ay	-11.1798
▁vaccine	-11.1799
▁modules	-11.1799
▁Sure	-11.18
▁wire	-11.1808
▁Democrats	-11.1808
▁jail	-11.181
▁themes	-11.181
▁cryptocurrency	-11.1813
▁somewhat	-11.1814
▁Gen	-11.1822
-16	-11.1822
▁sword	-11.1826
▁ministers	-11.1827
▁staffing	-11.1831
▁Bob	-11.1831
▁trans	-11.1832
zhou	-11.1835
▁surveys	-11.1835
▁Reaffirming	-11.1836
▁analytics	-11.1837
RC	-11.1837
▁declare	-11.184
ala	-11.1841
93	-11.1843
▁tensions	-11.1844
mon	-11.1848
▁resort	-11.185
▁subsidies	-11.185
▁69	-11.1856
▁Faso	-11.1859
▁NOT	-11.1859
▁calculated	-11.186
▁impose	-11.1862
▁Looking	-11.1865
▁reflecting	-11.1865
▁promises	-11.1866
▁Peacebuilding	-11.1866
▁Rock	-11.1867
▁Deep	-11.187
▁assisted	-11.1877
sk	-11.1879
/2	-11.188
▁discharge	-11.1882
▁assault	-11.1883
▁variable	-11.1885
▁mobilization	-11.1886
▁journal	-11.1887
▁formally	-11.1887
▁sheet	-11.1891
▁executed	-11.1891
▁winner	-11.19
▁relax	-11.1901
73	-11.1902
▁remind	-11.1902
▁Te	-11.1905
▁Oversight	-11.1906
▁1950	-11.1906
▁alarm	-11.1906
law	-11.1906
Don	-11.1907
▁discipline	-11.1909
▁sponsors	-11.1909
▁towns	-11.1912
▁experiments	-11.1912
▁Sign	-11.1913
▁contents	-11.1918
app	-11.1918
▁Ne	-11.1918
▁Moses	-11.192
▁{	-11.1922
she	-11.1924
▁blow	-11.1926
▁Average	-11.1929
▁Ri	-11.1929
▁Choose	-11.193
▁Category	-11.1931
sha	-11.1932
▁solely	-11.1939
▁temperatures	-11.1941
▁Louis	-11.1942
ok	-11.1951
▁pharmaceutical	-11.1952
▁entrance	-11.1955
▁ASEAN	-11.1956
36	-11.1959
▁vacation	-11.1963
effective	-11.1964
▁Developed	-11.1967
▁rid	-11.197
▁Tim	-11.1976
82	-11.1976
EN	-11.1976
▁Cuban	-11.1977
▁reviewing	-11.1978
▁Satan	-11.198
▁Interior	-11.1981
▁Independence	-11.1983
IS	-11.1983
▁Credit	-11.1984
▁Ku	-11.1986
▁Hold	-11.1988
▁Better	-11.1988
▁Organisation	-11.199
▁Weather	-11.1991
▁hire	-11.1992
000	-11.1994
▁Truth	-11.1996
▁engaging	-11.2003
▁negotiating	-11.2003
▁Harvard	-11.2004
▁tower	-11.2005
▁API	-11.2009
tor	-11.2012
▁editor	-11.2013
▁inquiry	-11.2013
▁Za	-11.2014
▁functionality	-11.2015
cha	-11.2015
▁occasions	-11.2015
▁Standing	-11.2018
▁File	-11.2022
▁Albania	-11.2022
▁tears	-11.2027
▁minimize	-11.2027
▁expects	-11.203
▁deadline	-11.203
▁valve	-11.2035
▁curriculum	-11.2036
▁stolen	-11.2039
▁$10	-11.2042
▁coherence	-11.2042
jiang	-11.2043
▁pursuing	-11.2044
▁requesting	-11.2045
▁Risk	-11.2047
▁broadcast	-11.2048
▁Technologies	-11.2055
DS	-11.2056
▁Latvia	-11.2062
▁decent	-11.2065
.1,	-11.2066
On	-11.2067
▁1988	-11.2067
DA	-11.2072
tu	-11.2074
▁crops	-11.2075
▁certified	-11.2078
▁settled	-11.2079
▁Honor	-11.2081
FA	-11.2081
▁airspace	-11.2085
▁Fa	-11.2088
▁Monetary	-11.2092
▁transnational	-11.2092
▁independently	-11.2093
▁Something	-11.2094
▁Turn	-11.2097
▁Email	-11.2097
▁remarkable	-11.2098
▁1996,	-11.2099
▁(2001)	-11.2101
▁damn	-11.2102
▁cooling	-11.2102
▁consulting	-11.2104
▁Opening	-11.2104
▁Dominican	-11.2104
post	-11.2109
▁safer	-11.2111
▁highlights	-11.2113
▁Mu	-11.2114
▁Ver	-11.2114
▁Conditions	-11.2116
Commission	-11.212
▁shadow	-11.2121
ken	-11.2121
rich	-11.2124
▁80%	-11.2127
▁Move	-11.2128
▁eternal	-11.2128
▁commodities	-11.2129
tle	-11.2129
▁mutually	-11.213
-18	-11.2131
pi	-11.2131
▁Twenty	-11.2132
▁moments	-11.2133
▁slavery	-11.2133
ren	-11.2136
▁Audit	-11.2138
▁ministry	-11.2139
▁liberal	-11.2143
▁prejudice	-11.2143
AD	-11.2147
fu	-11.2149
▁suspended	-11.215
▁spectrum	-11.215
▁picked	-11.2151
▁defeat	-11.2151
▁deploy	-11.2151
▁departure	-11.2154
▁Moldova	-11.2158
▁Poverty	-11.217
Habitat	-11.2171
▁Progress	-11.2172
▁Ti	-11.2172
▁eggs	-11.2173
▁remedy	-11.2174
▁Cold	-11.2175
DC	-11.2181
▁Partners	-11.2184
▁Captain	-11.2185
▁accession	-11.2185
74	-11.2191
ius	-11.2192
▁Scott	-11.2192
RE	-11.2199
▁Estonia	-11.2201
▁14,	-11.2205
▁apparently	-11.2206
▁minds	-11.2206
▁schemes	-11.2207
300	-11.221
MO	-11.2212
▁connectivity	-11.2215
▁pounds	-11.2216
▁persistent	-11.2216
▁Corr	-11.2226
▁directions	-11.2228
▁IMF	-11.2235
▁Uzbekistan	-11.2235
▁screening	-11.2238
-9	-11.2241
▁Rose	-11.2242
▁Tai	-11.2244
▁delayed	-11.225
03	-11.2251
▁Almost	-11.2252
▁displacement	-11.2253
▁ranging	-11.2253
▁promptly	-11.2253
stone	-11.2254
▁delays	-11.2255
▁Domestic	-11.2255
With	-11.226
▁Maria	-11.2263
▁scientist	-11.2271
▁21.	-11.2272
▁sentenced	-11.2274
▁Heaven	-11.2279
▁revolutionary	-11.228
31	-11.2281
▁hairdryer	-11.229
▁Wood	-11.2295
▁NGO	-11.2295
▁orbit	-11.2298
▁magnetic	-11.2298
▁keeps	-11.2301
44	-11.2306
▁MP	-11.2306
▁Conduct	-11.2308
▁Researchers	-11.2308
▁evident	-11.2309
▁proceeds	-11.2309
NO	-11.231
▁particles	-11.2311
▁Hai	-11.2312
▁creativity	-11.2314
▁NPT	-11.2317
▁alien	-11.2318
▁texts	-11.2319
mentioned	-11.2322
▁1.2	-11.2322
/56/	-11.2325
▁choosing	-11.2326
▁Encourages	-11.2328
▁Urges	-11.2331
▁voters	-11.2332
▁virtually	-11.2333
▁pursued	-11.2336
▁Leave	-11.2344
▁gay	-11.2345
▁offset	-11.2346
▁struck	-11.2346
▁Unless	-11.2347
▁Wine	-11.2348
▁Heart	-11.2348
▁2,000	-11.2351
á	-11.2353
▁outreach	-11.2354
AR	-11.2356
▁Burkina	-11.236
▁Vi	-11.2361
▁metres	-11.2364
ano	-11.2365
▁welcoming	-11.2368
this	-11.2369
▁tobacco	-11.237
▁boundaries	-11.237
▁2016.	-11.2371
yi	-11.2371
▁sharp	-11.2372
▁honey	-11.2372
▁organizing	-11.2372
▁consolidated	-11.2373
▁progressive	-11.2373
▁viable	-11.2375
▁Cap	-11.2375
▁Che	-11.2382
/55/	-11.2383
▁AM	-11.2384
▁cap	-11.2385
▁radical	-11.239
▁Visit	-11.2391
04	-11.2392
▁AR	-11.2396
▁gifts	-11.2396
van	-11.2399
▁Run	-11.24
▁Recommendation	-11.2404
▁rating	-11.2407
▁asks	-11.2407
29	-11.2408
▁chronic	-11.241
▁Governor	-11.241
▁Workers	-11.2411
▁Figure	-11.2414
▁WEB	-11.2415
▁Racial	-11.2416
▁Century	-11.2416
▁scenario	-11.2417
▁Ca	-11.2418
▁buried	-11.2422
▁hadn	-11.2425
▁Prior	-11.2427
▁Chang	-11.2428
table	-11.2429
▁Procedure	-11.243
▁Boy	-11.243
▁Competition	-11.2434
▁vitamin	-11.2437
▁fisheries	-11.2438
▁76	-11.2439
ice	-11.2443
▁y	-11.2443
▁spaces	-11.2446
▁Update	-11.2447
▁eliminating	-11.245
▁Seven	-11.2452
ig	-11.2456
▁treatments	-11.246
pp	-11.246
some	-11.2463
▁attempted	-11.2464
▁purchasing	-11.2468
▁Articles	-11.2475
▁emphasize	-11.2475
▁instruction	-11.2477
▁silent	-11.2477
▁(5)	-11.2477
\	-11.248
2018	-11.2481
box	-11.2481
▁legs	-11.2481
▁desired	-11.2482
▁Jean	-11.2482
▁Hell	-11.2485
▁8,	-11.2487
ev	-11.2487
▁leverage	-11.249
▁adequately	-11.249
▁Suite	-11.2491
▁96	-11.25
▁measuring	-11.25
ct	-11.2501
▁consciousness	-11.2501
▁HOME	-11.2501
▁(6	-11.2502
▁extradition	-11.2502
Mo	-11.2502
▁Manchester	-11.2504
▁designing	-11.2505
▁iPad	-11.2508
▁classified	-11.2509
wan	-11.2511
▁insights	-11.2512
▁Visa	-11.2516
▁Someone	-11.2516
▁apparent	-11.2518
▁accidents	-11.252
▁exclusion	-11.2521
▁Observer	-11.2525
tz	-11.2528
▁Thai	-11.2528
▁Ivoire	-11.2529
discrimination	-11.2531
▁physics	-11.2533
▁diagnosis	-11.2533
▁Basel	-11.2534
▁Floor	-11.2535
2)	-11.2539
▁emission	-11.254
▁Bahrain	-11.2543
▁ports	-11.2543
▁commerce	-11.2549
▁loving	-11.2551
▁cooking	-11.2553
▁shareholders	-11.2553
▁imp	-11.2554
▁spokesman	-11.2555
▁guns	-11.2555
▁Too	-11.2555
▁classification	-11.2556
▁seed	-11.2557
▁01	-11.2559
▁vocational	-11.2562
▁Camp	-11.2564
▁conviction	-11.2566
▁lake	-11.2567
▁Hard	-11.2567
▁traditions	-11.2567
▁Ge	-11.257
▁invites	-11.2572
▁allowance	-11.2575
▁undermine	-11.2577
▁remarks	-11.2579
▁collaborative	-11.2579
▁Strip	-11.2583
▁shops	-11.2584
▁assure	-11.2586
▁landing	-11.2587
▁Disney	-11.2587
▁indoor	-11.2589
▁accomplishments	-11.2589
▁fitted	-11.259
Con	-11.2591
Go	-11.2598
▁formulated	-11.2598
▁Libya	-11.2599
▁Aviation	-11.26
▁kilometers	-11.2601
▁settle	-11.2603
▁Golf	-11.2605
ified	-11.2607
▁Baby	-11.261
▁Scientists	-11.2613
▁Milan	-11.2613
▁Nu	-11.2613
▁competitors	-11.2615
▁announce	-11.2619
sky	-11.2623
▁volunteers	-11.2624
▁consolidation	-11.2624
▁Temple	-11.2632
,800	-11.2634
▁Adviser	-11.2635
ik	-11.2637
▁deficit	-11.2638
▁Events	-11.2641
▁envisaged	-11.2642
▁Tibet	-11.2642
▁underground	-11.2644
▁embrace	-11.2646
▁produces	-11.265
▁referendum	-11.2653
list	-11.2654
▁tongue	-11.2657
▁nose	-11.2659
59	-11.266
▁Egyptian	-11.2662
▁protective	-11.2663
▁judgement	-11.2664
▁Doha	-11.2665
▁graduates	-11.2665
▁steady	-11.2665
▁Fine	-11.2667
▁Winter	-11.2667
▁investigating	-11.2667
▁smartphone	-11.2669
▁isolated	-11.267
▁Jones	-11.2671
mann	-11.2672
▁Certificate	-11.2674
▁Ball	-11.2677
▁Forest	-11.2677
▁searching	-11.2677
▁inputs	-11.2681
PM	-11.2682
TS	-11.2683
▁Evaluation	-11.2684
▁Fuck	-11.2685
ery	-11.2688
▁ammunition	-11.2688
3,	-11.2691
▁chart	-11.2691
▁desktop	-11.2692
ff	-11.2693
▁Unlike	-11.2695
▁railway	-11.2698
▁ha	-11.2698
▁girlfriend	-11.27
▁Form	-11.2702
▁Plant	-11.2702
▁Gi	-11.2703
▁Judge	-11.2704
▁steam	-11.2706
ological	-11.2706
▁Occupied	-11.2709
▁infections	-11.271
▁passport	-11.2713
▁Las	-11.2714
▁$8	-11.2715
▁fought	-11.2717
▁neighbouring	-11.2718
▁Fast	-11.2719
▁voltage	-11.272
37	-11.2726
▁arbitration	-11.2729
▁thereof	-11.2731
med	-11.2738
▁sustain	-11.2739
▁Hangzhou	-11.274
TH	-11.2744
▁Zhang	-11.2746
▁Acting	-11.2747
▁ecosystems	-11.2748
▁intent	-11.2749
▁23.	-11.2749
CC	-11.2752
▁1989	-11.2752
▁mitigation	-11.2756
▁Vision	-11.2758
▁**	-11.2759
▁crash	-11.2761
83	-11.2769
ria	-11.2769
profit	-11.277
▁gratitude	-11.2775
▁°	-11.2779
ned	-11.2782
Bissau	-11.2785
▁therein	-11.2786
▁tight	-11.2786
▁Constitutional	-11.2788
range	-11.279
▁Hollywood	-11.2792
▁assessing	-11.2795
▁patents	-11.2798
▁unclear	-11.2799
ini	-11.2804
▁prevented	-11.2805
▁golf	-11.2806
▁charging	-11.2806
▁crypto	-11.2806
▁Ever	-11.2807
▁receipt	-11.2809
▁Lady	-11.2809
▁forgiveness	-11.281
▁Sector	-11.2811
▁enforced	-11.2811
51	-11.2814
▁Results	-11.2814
▁reporters	-11.2815
▁Short	-11.2816
▁Arms	-11.2816
▁babies	-11.2817
▁Round	-11.2825
▁encountered	-11.2826
▁Intel	-11.2826
oo	-11.2827
▁SO	-11.2834
▁protests	-11.2834
▁bags	-11.2836
▁indicating	-11.2838
▁Yugoslav	-11.2839
▁excellence	-11.284
▁suppose	-11.2841
▁Portuguese	-11.2842
▁Outer	-11.2845
▁accommodate	-11.2845
▁ministries	-11.2852
▁22.	-11.2853
▁compare	-11.2853
▁ears	-11.2853
high	-11.2854
▁epidemic	-11.2858
▁Happy	-11.2858
▁threshold	-11.2858
▁displayed	-11.2859
▁circle	-11.2863
▁Railway	-11.2863
▁substantially	-11.2863
▁kg	-11.2865
▁disk	-11.2865
▁130	-11.2867
ious	-11.2873
▁mad	-11.2874
▁safeguard	-11.2877
▁enforce	-11.2877
▁wheel	-11.2878
▁External	-11.288
▁90%	-11.2882
▁ranked	-11.2882
▁hero	-11.2885
ric	-11.2887
▁Dollar	-11.2888
▁referring	-11.2891
▁recycling	-11.2892
▁intense	-11.2894
▁pushed	-11.2895
▁realistic	-11.2897
▁lesson	-11.2898
▁2008-2009	-11.2899
ans	-11.29
ging	-11.2902
▁satellites	-11.2903
▁outlook	-11.2906
▁packages	-11.2907
power	-11.2911
▁correctly	-11.2912
▁LA	-11.2914
▁Putin	-11.2915
-01	-11.2915
▁optical	-11.2919
▁encounter	-11.2919
▁ALL	-11.2919
▁Buy	-11.292
▁objection	-11.292
▁Drive	-11.2921
BA	-11.2921
date	-11.2925
▁databases	-11.2928
▁chances	-11.2929
▁Danish	-11.2933
▁Cook	-11.2936
These	-11.2939
ye	-11.294
▁anxiety	-11.2941
▁integrating	-11.2943
▁Story	-11.2945
▁shortly	-11.2948
▁safely	-11.295
▁resume	-11.2951
▁Nicaragua	-11.2952
▁Auditors	-11.2952
▁associate	-11.2955
▁Nan	-11.2956
▁dare	-11.2957
▁krone	-11.2958
▁mere	-11.2958
▁Command	-11.2961
ip	-11.2964
▁2019.	-11.2964
")	-11.2965
▁vegetables	-11.2971
▁Namibia	-11.2988
▁Heads	-11.2989
▁recalls	-11.2996
▁Girl	-11.2996
▁00	-11.2996
▁Had	-11.2996
▁flu	-11.2997
▁97	-11.2998
▁testimony	-11.3004
­	-11.3007
▁collecting	-11.3009
▁Takes	-11.3013
mit	-11.3014
,400	-11.3016
▁fossil	-11.3016
▁innovations	-11.3017
▁40%	-11.3018
▁prompt	-11.3023
▁101	-11.3023
▁hatred	-11.3026
bb	-11.3032
▁publish	-11.3035
▁vessel	-11.3037
▁Victoria	-11.3038
CE	-11.3039
02	-11.304
▁PDF	-11.3041
▁Brazilian	-11.3044
▁routine	-11.3045
ris	-11.3046
tan	-11.3047
▁1.1	-11.3048
▁EC	-11.3053
▁Pu	-11.3053
▁Hence	-11.3055
▁Consequently	-11.3057
▁lands	-11.3058
AT	-11.3058
▁Stone	-11.3059
▁authorization	-11.3062
▁combine	-11.3063
driven	-11.3067
▁Consideration	-11.307
▁separately	-11.3074
▁comprising	-11.3075
▁adjusted	-11.3075
▁Value	-11.3076
▁Terrorism	-11.3076
▁Pursuant	-11.3077
▁Jacob	-11.3077
▁reject	-11.3078
,700	-11.308
▁Front	-11.308
vin	-11.308
xin	-11.3081
▁stake	-11.3081
▁Stockholm	-11.3081
▁intend	-11.3085
▁sudden	-11.3085
▁convert	-11.3086
▁Easy	-11.3087
▁unions	-11.3091
▁88	-11.3092
iz	-11.3099
▁durable	-11.3103
▁Uber	-11.3104
▁Provisional	-11.3105
▁fears	-11.3107
▁flower	-11.3112
▁GM	-11.3116
non	-11.3117
▁blocks	-11.3117
▁Scotland	-11.3118
▁interactions	-11.312
▁unified	-11.3121
▁maximize	-11.3122
▁rentals	-11.3123
▁outputs	-11.3123
▁convicted	-11.3125
▁gear	-11.3127
▁concentrated	-11.3133
▁Sex	-11.3135
▁Par	-11.3137
wing	-11.3138
▁legacy	-11.3139
▁Abu	-11.3144
▁microwave	-11.3148
▁waves	-11.3149
▁chocolate	-11.315
ada	-11.3154
▁Regarding	-11.3154
▁discriminatory	-11.3161
▁Coffee	-11.3164
▁credibility	-11.3174
▁Pe	-11.3174
-22	-11.3177
▁advised	-11.3177
▁specialist	-11.3179
tal	-11.3182
rk	-11.3182
▁peacebuilding	-11.3182
nt	-11.3182
▁Large	-11.3186
▁huh	-11.319
▁earthquake	-11.319
▁True	-11.3192
▁severely	-11.3192
▁stream	-11.3198
▁140	-11.3198
▁traveling	-11.32
▁logo	-11.3205
▁euro	-11.3205
▁row	-11.3205
▁yield	-11.3205
▁regulated	-11.3207
style	-11.3207
▁Side	-11.321
born	-11.3211
▁codes	-11.3212
▁boyfriend	-11.3214
▁Disaster	-11.3215
je	-11.3215
▁Title	-11.3215
▁restoration	-11.3217
LD	-11.3221
▁nervous	-11.3223
▁1995,	-11.3227
ph	-11.3232
▁ministerial	-11.3233
▁mercury	-11.3233
▁Immigration	-11.3234
▁Partner	-11.3241
▁Bur	-11.3242
▁twelve	-11.3243
▁Mozambique	-11.3243
▁evolving	-11.3245
▁intends	-11.3248
▁stresses	-11.3249
▁Applications	-11.3251
.1)	-11.3251
▁tension	-11.3252
▁supplied	-11.3252
▁wars	-11.3255
▁coalition	-11.3256
▁del	-11.3257
▁interviews	-11.3258
▁Wind	-11.3258
▁Trafficking	-11.3261
▁servant	-11.3262
▁rocket	-11.3263
▁reminded	-11.3265
▁Sch	-11.3266
eg	-11.3266
tai	-11.3267
▁memorandum	-11.3267
▁tremendous	-11.3269
▁applicant	-11.3271
GA	-11.3275
▁Dream	-11.3279
▁inspiration	-11.3279
▁secretary	-11.3279
▁routes	-11.3281
▁string	-11.3281
▁log	-11.3282
▁vendors	-11.3287
▁suite	-11.3288
su	-11.3288
▁featuring	-11.3289
▁Mount	-11.3292
ama	-11.3293
▁Pension	-11.3293
▁Sale	-11.3296
CI	-11.3298
▁parliamentary	-11.3298
▁slave	-11.3301
market	-11.3301
Terrorism	-11.3303
▁nationals	-11.3303
▁Abraham	-11.3307
▁mood	-11.331
▁Min	-11.3314
▁diamond	-11.3315
▁FBI	-11.3316
SS	-11.3319
▁stem	-11.332
▁alert	-11.3324
▁excuse	-11.3324
cent	-11.3326
▁explosion	-11.3327
▁Alex	-11.3331
▁attitudes	-11.3333
▁Clean	-11.3335
▁procedural	-11.3335
Other	-11.3336
▁controlling	-11.3337
▁Consider	-11.334
▁Metal	-11.3342
▁HTML	-11.3343
▁defenders	-11.3345
▁drought	-11.3347
▁Hope	-11.3349
cost	-11.335
▁Recently	-11.335
cal	-11.3352
▁financed	-11.3355
▁chat	-11.3357
▁2006-2007	-11.3359
▁Fiji	-11.3359
▁Sixty	-11.3362
▁satisfy	-11.3363
▁Down	-11.3365
▁lo	-11.3365
▁Direct	-11.3365
▁predicted	-11.3365
▁dozens	-11.3366
uck	-11.3367
▁painful	-11.3369
ella	-11.337
▁Ga	-11.337
▁dramatic	-11.337
▁chains	-11.3372
nes	-11.3378
▁thorough	-11.3381
▁Dong	-11.3382
▁detainees	-11.3382
▁None	-11.3385
▁arguments	-11.3389
▁impression	-11.3389
▁factories	-11.339
▁bid	-11.3391
▁accomplished	-11.3393
▁obtaining	-11.3394
800	-11.3398
▁consultants	-11.3398
▁approve	-11.3398
▁Nov	-11.3405
▁actor	-11.3406
len	-11.3406
▁compulsory	-11.3408
TO	-11.3408
▁Lab	-11.3408
/61/	-11.3409
ians	-11.3411
▁1999.	-11.3414
▁crop	-11.3414
▁quit	-11.3416
▁unnecessary	-11.3419
▁euros	-11.3422
▁executives	-11.3423
▁pulled	-11.3425
▁mitigate	-11.3426
▁CA	-11.3426
/60/	-11.3426
ku	-11.3426
ud	-11.3428
▁Ba	-11.3428
▁Facility	-11.3432
▁(2004)	-11.3434
▁Return	-11.3435
▁issuance	-11.3437
▁assurance	-11.3438
▁AS	-11.3439
▁exercises	-11.3441
:1	-11.3443
▁Heritage	-11.3446
/5	-11.3446
▁da	-11.3448
▁abortion	-11.3451
▁Earlier	-11.3452
▁receives	-11.3452
▁Provide	-11.3453
▁branches	-11.3453
▁occupying	-11.3457
▁Ray	-11.3461
▁ecological	-11.3464
uri	-11.347
87	-11.3472
har	-11.3473
▁publishing	-11.3475
▁IS	-11.3478
▁notion	-11.348
▁Actually	-11.3481
nic	-11.3483
▁presidency	-11.3484
▁OECD	-11.3487
▁PA	-11.3491
▁Melbourne	-11.3492
▁tonnes	-11.3493
▁perceived	-11.3495
▁Talk	-11.3497
▁Message	-11.3497
▁willingness	-11.3498
▁malaria	-11.3501
▁liver	-11.3502
▁91	-11.3505
▁clarify	-11.3512
▁Iron	-11.3515
▁Hand	-11.3518
▁experiencing	-11.3519
▁Fax	-11.3521
▁Shandong	-11.3521
▁Sp	-11.3527
▁cuisine	-11.3528
▁explicitly	-11.3531
▁converted	-11.3533
treatment	-11.3537
form	-11.3537
ties	-11.3539
▁lovely	-11.3541
▁Cell	-11.3541
OT	-11.3543
▁Invites	-11.3544
▁Huawei	-11.3548
150	-11.3549
IL	-11.3553
▁Mon	-11.3556
▁***	-11.3558
▁bond	-11.3559
▁buyer	-11.356
▁evolved	-11.3563
▁drunk	-11.3563
▁SC	-11.3567
▁Course	-11.3568
Signed	-11.3572
▁vol	-11.3573
pt	-11.3574
▁ignored	-11.3575
generation	-11.3576
sis	-11.3577
bin	-11.3577
▁neck	-11.358
▁passage	-11.3584
▁restructuring	-11.3584
▁Bad	-11.3586
▁maintains	-11.3586
▁thin	-11.3587
▁eighth	-11.3588
▁sophisticated	-11.3589
▁fulfilled	-11.359
▁Except	-11.359
▁mysterious	-11.3591
WG	-11.3592
▁Quick	-11.3593
▁Knowledge	-11.3596
▁promising	-11.36
God	-11.36
▁ads	-11.36
▁utilize	-11.36
▁FDA	-11.3602
▁diamonds	-11.3604
▁2020,	-11.3606
63	-11.3608
▁sufficiently	-11.361
▁capita	-11.3612
▁Wa	-11.3612
▁Biological	-11.3613
▁invented	-11.3614
▁foreigners	-11.3615
▁specialists	-11.362
▁87	-11.3622
▁Migration	-11.3623
▁WE	-11.3624
▁Laboratory	-11.3625
▁faculty	-11.3629
▁conservative	-11.363
▁cheaper	-11.364
▁hired	-11.3642
five	-11.3643
▁oceans	-11.3645
▁reiterates	-11.3646
▁26.	-11.3648
▁Houston	-11.365
ations	-11.365
▁Anna	-11.3651
▁excluded	-11.3651
▁consisting	-11.3653
▁Yo	-11.3653
▁94	-11.3653
▁hydrogen	-11.3653
cm	-11.3654
ME	-11.366
▁Friends	-11.366
ven	-11.3664
▁vacuum	-11.3664
▁conducive	-11.3666
▁stuck	-11.3668
▁Version	-11.3668
▁verify	-11.367
▁utility	-11.367
▁accurately	-11.3672
▁Charlie	-11.3673
▁reader	-11.3675
PE	-11.3675
▁imperative	-11.3675
ec	-11.3675
▁Virginia	-11.3676
▁Off	-11.3678
▁Mini	-11.3683
▁Puerto	-11.3689
▁Trading	-11.3689
▁forgot	-11.3689
▁biennial	-11.3691
▁Dar	-11.3692
▁alliance	-11.3694
/4	-11.3694
▁Sahara	-11.3695
▁aggressive	-11.3696
▁Recent	-11.3696
▁Comments	-11.3697
▁temple	-11.3699
▁coherent	-11.37
▁differently	-11.37
▁bases	-11.3705
▁fulfill	-11.3708
▁pricing	-11.3711
▁Days	-11.3713
SD	-11.3715
.15	-11.3715
▁du	-11.3715
▁shame	-11.3715
BC	-11.3717
ants	-11.3717
▁assured	-11.3719
▁insight	-11.372
▁gate	-11.3722
nan	-11.3723
▁billions	-11.3723
▁sponsored	-11.3725
▁shock	-11.3725
▁Least	-11.3726
▁puts	-11.3726
▁van	-11.3727
▁demonstration	-11.3728
hr	-11.3728
▁(1999)	-11.3732
▁Em	-11.3733
▁applicants	-11.3735
▁toys	-11.3738
/10	-11.3738
▁opens	-11.3741
▁Mid	-11.3743
▁Speed	-11.3743
▁medicines	-11.3745
▁recession	-11.3748
▁cook	-11.3749
▁Got	-11.3751
▁handed	-11.3752
ball	-11.3753
▁Nobel	-11.3756
▁constituted	-11.3756
▁2.0	-11.3757
ony	-11.3757
▁witnessed	-11.3761
▁Conflict	-11.3762
▁3)	-11.3763
▁securities	-11.3764
▁dioxide	-11.3766
▁Wei	-11.377
▁discount	-11.377
▁continuation	-11.3771
▁crude	-11.3771
▁directors	-11.3772
uff	-11.3775
▁earliest	-11.3775
TV	-11.3776
▁ethics	-11.3777
▁penalties	-11.3778
▁Columbia	-11.3778
▁Atlas	-11.3781
▁perspectives	-11.3788
NA	-11.3792
▁foundations	-11.3793
▁lamp	-11.3794
▁religions	-11.3795
▁permits	-11.3795
▁Agricultural	-11.3796
▁Content	-11.3797
▁locally	-11.3799
▁UNCITRAL	-11.3801
▁pleasant	-11.3803
▁Bearing	-11.3806
▁listing	-11.3807
▁inevitable	-11.3808
▁unlike	-11.3808
▁deleted	-11.3812
Who	-11.3812
▁devil	-11.3813
▁Organized	-11.3818
▁monitored	-11.3821
▁UNOPS	-11.3822
▁experimental	-11.3831
2017	-11.3832
▁steal	-11.3833
▁Season	-11.3833
sy	-11.3833
▁VPN	-11.3834
▁pertaining	-11.3836
▁tens	-11.3836
▁pushing	-11.3837
▁kiss	-11.3838
week	-11.3839
▁chicken	-11.3839
▁secrets	-11.384
▁airline	-11.3841
▁expense	-11.3842
▁administering	-11.3844
▁mystery	-11.3849
▁admission	-11.3852
▁Facilities	-11.3854
▁negotiate	-11.3857
▁Flower	-11.3861
act	-11.3862
▁Soon	-11.3864
▁burned	-11.3865
▁influenced	-11.3867
▁Effective	-11.3868
▁hiding	-11.3869
Not	-11.387
▁Honduras	-11.3871
▁gaming	-11.3877
▁assumption	-11.3882
▁contingent	-11.3882
▁bonds	-11.3884
▁1986	-11.3884
▁imagination	-11.3891
▁timing	-11.3891
▁confirmation	-11.3891
▁investigated	-11.3894
▁advise	-11.3894
▁Contents	-11.3899
▁Song	-11.39
▁Author	-11.3901
▁relates	-11.3901
▁Works	-11.3902
▁Rather	-11.3903
-17	-11.3907
▁panels	-11.3908
▁demanding	-11.3908
▁Fed	-11.3911
▁Practice	-11.3913
▁condemned	-11.3914
▁Image	-11.3914
▁Prohibition	-11.3915
,300	-11.3916
▁Sport	-11.3918
▁Intelligent	-11.392
▁comparable	-11.3921
▁salaries	-11.3921
ub	-11.3923
▁grass	-11.3924
▁Continue	-11.3925
part	-11.3926
▁insolvency	-11.3926
▁Gu	-11.3926
▁adhere	-11.3927
EU	-11.3928
-03	-11.393
EP	-11.3931
▁fool	-11.3932
▁tragedy	-11.3935
▁Silver	-11.3937
▁accomplish	-11.3937
▁700	-11.3937
Me	-11.394
▁skilled	-11.3941
▁Aid	-11.3947
▁reflection	-11.3955
▁twentieth	-11.3956
▁HOTEL	-11.3956
▁manufactured	-11.396
core	-11.3962
▁Ab	-11.3962
zo	-11.3963
▁transformed	-11.3968
▁Simon	-11.3968
▁Tony	-11.3968
▁laptop	-11.397
▁ceiling	-11.397
▁profession	-11.3972
ever	-11.3973
HRC	-11.3973
▁sacrifice	-11.3976
▁wounded	-11.3977
▁arrange	-11.3982
▁Seattle	-11.3982
▁pack	-11.3984
Self	-11.3984
▁incurred	-11.3985
▁matches	-11.3986
▁locked	-11.3987
▁characterized	-11.3989
aka	-11.399
▁emphasizes	-11.3993
▁Ta	-11.3995
Your	-11.3996
▁05	-11.3998
▁surrounded	-11.4001
source	-11.4003
▁instant	-11.4004
▁Jamahiriya	-11.4008
▁checked	-11.4009
▁accessories	-11.4011
▁fruits	-11.4012
▁confidential	-11.4012
.9/	-11.4013
▁formulate	-11.4015
ug	-11.4016
▁discussing	-11.4018
▁bedroom	-11.4019
▁salvation	-11.402
▁wash	-11.402
▁prospect	-11.402
▁threaten	-11.402
▁cabinet	-11.402
▁Enjoy	-11.4021
bed	-11.4022
▁angel	-11.4023
▁abilities	-11.4024
▁surprising	-11.4024
▁DVD	-11.4026
▁Procurement	-11.4032
▁indication	-11.4034
▁struggling	-11.4036
4,	-11.4037
▁Ye	-11.4044
▁thermal	-11.4046
▁remembered	-11.4046
▁gym	-11.4051
▁tangible	-11.4055
▁Dialogue	-11.4055
))	-11.406
▁tennis	-11.4062
▁divide	-11.4064
ks	-11.4065
▁mo	-11.4067
▁reveals	-11.4068
▁disappointed	-11.4068
▁Princess	-11.4071
▁Instagram	-11.4072
▁macroeconomic	-11.4072
▁closure	-11.4072
▁Atomic	-11.4075
▁UNRWA	-11.4075
▁modify	-11.4076
▁Zhong	-11.4076
ENT	-11.4079
▁transmitting	-11.408
▁perception	-11.408
▁Users	-11.4082
▁Link	-11.4082
▁consecutive	-11.4083
▁pet	-11.4084
▁70%	-11.4086
▁ruled	-11.4086
▁copper	-11.4089
▁toiletries	-11.4091
▁http	-11.4092
ero	-11.4093
▁submissions	-11.4093
▁specify	-11.4095
▁Elizabeth	-11.4096
▁MS	-11.4096
▁auction	-11.4102
▁balcony	-11.4105
▁credible	-11.4105
▁ingredients	-11.4108
▁Tan	-11.4108
▁Apart	-11.4108
▁Maritime	-11.4112
▁featured	-11.4114
▁restored	-11.4116
▁isolation	-11.4117
▁Oct	-11.4117
▁embedded	-11.4121
▁xenophobia	-11.4121
▁Increase	-11.4123
▁outbreak	-11.4124
▁Transitional	-11.4125
▁71	-11.4132
▁delete	-11.4134
▁Yang	-11.4136
DR	-11.4136
▁Benin	-11.4138
▁11,	-11.4139
-30	-11.414
▁74	-11.4145
▁harmony	-11.4146
▁joke	-11.4146
▁genocide	-11.4148
▁Commonwealth	-11.415
▁Samsung	-11.415
▁Cha	-11.4152
▁spouse	-11.4156
▁literacy	-11.4157
▁Theatre	-11.4157
▁abuses	-11.4159
▁2004-2005	-11.416
▁specifications	-11.4162
ene	-11.4163
nu	-11.4164
▁des	-11.4165
▁champion	-11.4165
▁recovered	-11.4167
▁09	-11.417
▁complementary	-11.4172
▁Growth	-11.4175
▁vertical	-11.4176
▁Everybody	-11.4177
▁customary	-11.4179
▁Lao	-11.4182
▁peer	-11.4182
▁retired	-11.4186
▁poly	-11.4186
▁Tian	-11.419
▁Embassy	-11.4191
▁Madagascar	-11.4191
▁("	-11.4192
▁Venice	-11.4193
GE	-11.4195
grade	-11.4198
ue	-11.4198
▁writes	-11.4199
▁generating	-11.42
▁harsh	-11.42
▁failing	-11.4201
GB	-11.4201
▁24.	-11.4203
▁distant	-11.421
▁neutral	-11.4211
▁Closed	-11.4212
▁holidays	-11.4213
▁Jackson	-11.4213
▁supportive	-11.4217
▁artistic	-11.4223
▁Interim	-11.4225
▁78	-11.4226
▁gods	-11.423
gan	-11.4231
▁spa	-11.4231
▁Liechtenstein	-11.4232
▁practitioners	-11.4232
▁dozen	-11.4234
▁replies	-11.4234
▁amounted	-11.4234
▁ultra	-11.4239
▁Delhi	-11.4239
▁supporters	-11.424
▁Lastly	-11.424
▁defining	-11.4241
▁touched	-11.4242
▁crying	-11.4242
▁optional	-11.4244
bra	-11.4246
▁attributed	-11.4246
▁Monaco	-11.4248
LA	-11.4249
,900	-11.4251
ments	-11.4251
▁Arctic	-11.4253
▁5%	-11.4254
▁Higher	-11.4255
▁Mine	-11.4257
▁AD	-11.426
▁avoiding	-11.426
gar	-11.4263
▁Package	-11.4264
qu	-11.4267
▁sentences	-11.4267
▁contractual	-11.4268
La	-11.427
km	-11.4271
▁attending	-11.4272
▁demobilization	-11.4275
▁constructed	-11.4278
▁partial	-11.4279
rin	-11.4281
”)	-11.4282
▁pledged	-11.4284
▁flash	-11.4289
▁CE	-11.4291
▁angels	-11.4292
▁hits	-11.4294
▁Appeals	-11.4295
▁Making	-11.4296
▁density	-11.4298
▁activists	-11.4298
▁Display	-11.4299
national	-11.4301
▁Motel	-11.4302
▁mineral	-11.4308
des	-11.4308
FC	-11.4311
-14	-11.4314
▁mold	-11.4317
▁pen	-11.432
aw	-11.4324
▁Hitler	-11.4328
▁PS	-11.4329
▁ensures	-11.433
▁analyse	-11.433
▁27.	-11.4331
COP	-11.4331
▁Transportation	-11.4332
▁worthy	-11.4332
ture	-11.4333
int	-11.4333
▁speaks	-11.4333
PR	-11.4334
▁logical	-11.4335
town	-11.4339
▁collaborate	-11.4339
yo	-11.434
▁advancing	-11.434
▁concert	-11.4342
▁Paraguay	-11.4346
▁prosecutors	-11.4347
SI	-11.4349
▁spite	-11.4352
yn	-11.4352
▁solving	-11.4354
ola	-11.4357
▁1985	-11.4359
▁ranking	-11.4359
▁releases	-11.4359
▁transitional	-11.436
▁Girls	-11.4367
▁Kar	-11.4368
ver	-11.4369
▁ME	-11.437
▁Trans	-11.4372
▁Mel	-11.4373
▁sciences	-11.4374
▁Metro	-11.4374
ins	-11.4375
Proliferation	-11.4375
▁Eric	-11.4379
contributing	-11.438
▁regulate	-11.438
▁Consumer	-11.438
▁bitch	-11.438
▁captain	-11.4382
▁Democracy	-11.4382
▁musical	-11.4383
fully	-11.4383
▁column	-11.4386
▁ranks	-11.4387
ica	-11.4388
▁enjoying	-11.4391
▁Attorney	-11.4391
▁autonomy	-11.4391
COM	-11.4394
wi	-11.4395
▁valuation	-11.4396
od	-11.4398
▁weekly	-11.4402
▁SD	-11.4403
illa	-11.4405
▁charity	-11.4406
av	-11.4407
▁Testing	-11.4407
▁weird	-11.4408
▁premium	-11.4409
▁dramatically	-11.4409
▁84	-11.441
▁solved	-11.4411
▁purchases	-11.4417
▁cure	-11.4421
▁upgrading	-11.4421
▁pop	-11.4421
▁advocate	-11.4424
▁expressing	-11.4427
view	-11.4429
▁forming	-11.4429
▁Participants	-11.4432
▁deprived	-11.4433
▁competing	-11.4433
▁cake	-11.4433
▁Solomon	-11.4433
2019	-11.4433
▁holders	-11.4433
▁certificates	-11.4434
▁demographic	-11.4436
▁sisters	-11.4436
Ex	-11.4436
▁optimize	-11.4437
az	-11.4438
xing	-11.444
()	-11.444
▁Statements	-11.4443
▁indispensable	-11.4443
▁Housing	-11.4445
▁bitcoin	-11.4446
▁Residence	-11.4446
▁Stephen	-11.4448
▁tube	-11.445
▁guestrooms	-11.445
▁Regular	-11.4451
▁economically	-11.4451
▁attractions	-11.4452
▁disorder	-11.4453
▁romantic	-11.4455
▁plain	-11.4455
▁Nick	-11.4456
BO	-11.4457
▁5,000	-11.4457
President	-11.4459
size	-11.446
▁essence	-11.446
▁refrain	-11.4465
▁retained	-11.4466
cho	-11.4472
▁Tajikistan	-11.4477
▁Manual	-11.4478
▁immunity	-11.4485
▁reductions	-11.4487
▁carriers	-11.4492
▁Republicans	-11.4494
▁Jobs	-11.4495
▁succeeded	-11.4495
▁Silicon	-11.4495
▁Vegas	-11.4496
▁160	-11.4497
▁shoulder	-11.4499
▁clubs	-11.4499
▁partially	-11.4499
▁Istanbul	-11.45
CM	-11.4501
▁metals	-11.4502
▁Different	-11.4507
▁Send	-11.4508
▁82	-11.4515
▁contest	-11.4516
▁writers	-11.4516
▁Around	-11.4518
▁horses	-11.452
▁suspension	-11.4522
▁facilitated	-11.4522
▁optimal	-11.4524
▁3,000	-11.4524
▁Ed	-11.4525
▁SA	-11.4526
▁rational	-11.4527
Ro	-11.4528
▁frozen	-11.4528
▁infant	-11.4529
▁confused	-11.4529
▁Wild	-11.453
▁traders	-11.453
▁execute	-11.4533
▁sect	-11.4533
▁reinforce	-11.4537
▁Djibouti	-11.454
▁suggestion	-11.454
Then	-11.4543
▁clearance	-11.4543
ali	-11.4543
▁commended	-11.4544
▁Premier	-11.4552
▁Responsible	-11.4559
▁pressing	-11.456
▁Cost	-11.456
▁journalist	-11.4562
▁scholars	-11.4562
▁punish	-11.4563
▁gases	-11.4563
▁connecting	-11.4564
▁influential	-11.4564
▁mobilize	-11.4565
standing	-11.4567
▁HR	-11.4567
Ma	-11.4568
NET	-11.4568
Can	-11.4569
▁$9	-11.457
▁drives	-11.457
▁initiate	-11.4573
▁detected	-11.4575
▁Safe	-11.4576
ening	-11.4577
▁Event	-11.4578
▁conscience	-11.4579
▁voices	-11.4583
▁barrier	-11.4583
link	-11.4583
▁limitation	-11.4584
▁wondered	-11.4585
bank	-11.4585
▁1982	-11.4585
▁Alexander	-11.4586
▁indirect	-11.4588
ick	-11.4589
▁mainland	-11.4589
▁conditioning	-11.4591
▁questioned	-11.4592
▁unexpected	-11.4592
▁translate	-11.4592
▁fuels	-11.4594
▁injection	-11.4595
▁recipient	-11.4601
▁considerably	-11.4603
▁render	-11.461
▁Focus	-11.4611
pu	-11.4613
ep	-11.4614
▁finger	-11.4617
▁Sal	-11.462
▁motivated	-11.4621
▁adolescents	-11.4622
▁restrict	-11.4625
▁disappear	-11.4625
▁hence	-11.463
▁repatriation	-11.4631
▁bulk	-11.4631
▁tap	-11.4632
fold	-11.4633
▁unfair	-11.4637
▁hub	-11.4638
▁declarations	-11.4638
▁Battle	-11.4639
mark	-11.4639
▁BBC	-11.4641
MB	-11.4642
▁Villas	-11.4644
▁script	-11.4644
▁convey	-11.4645
▁rough	-11.4648
▁consistency	-11.4651
▁Welcoming	-11.4654
▁liabilities	-11.4659
▁urgently	-11.466
▁81	-11.466
▁churches	-11.4662
▁NBA	-11.4665
cc	-11.4665
.11	-11.4666
▁deadly	-11.4666
▁theoretical	-11.4669
feng	-11.4671
▁fantastic	-11.4671
▁defines	-11.4672
▁Block	-11.4672
Page	-11.4673
▁backup	-11.4674
▁Always	-11.4676
▁tape	-11.4679
▁regimes	-11.4683
▁supplement	-11.4685
WP	-11.4686
▁Anyone	-11.4688
▁threatening	-11.4688
two	-11.4688
▁thick	-11.4692
▁Edward	-11.4696
▁reaches	-11.4697
ski	-11.4698
▁physically	-11.4698
▁farming	-11.4705
▁Penal	-11.4713
▁1373	-11.4714
▁Certification	-11.4717
▁1987	-11.4718
berg	-11.4721
▁survivors	-11.4723
▁shortage	-11.4724
ika	-11.4726
▁facilitation	-11.4727
▁Storage	-11.4728
▁mess	-11.4734
▁strongest	-11.4734
▁funeral	-11.4734
▁soldier	-11.4737
▁intensive	-11.474
▁governed	-11.4746
USD	-11.4751
,500	-11.4753
▁curious	-11.4754
aries	-11.4758
▁marking	-11.4763
▁Pope	-11.4764
▁libraries	-11.4767
▁consolidate	-11.4769
++	-11.477
IR	-11.4773
▁Barbados	-11.4773
▁60%	-11.4776
real	-11.4776
▁bold	-11.4782
▁somehow	-11.4784
í	-11.4788
▁retailers	-11.479
▁Decree	-11.4793
▁avoided	-11.4794
▁Prophet	-11.4795
▁unacceptable	-11.4795
▁patience	-11.4795
▁react	-11.4798
▁Ensure	-11.4798
▁risen	-11.4799
▁Founded	-11.4801
▁forthcoming	-11.4803
▁appoint	-11.4803
▁evolve	-11.4806
▁filing	-11.4806
▁Recommendations	-11.4806
▁Ram	-11.4807
▁stimulate	-11.4807
▁attributable	-11.4811
▁($1	-11.4811
LY	-11.4812
▁Ze	-11.4816
▁le	-11.4816
▁Prev	-11.4817
▁egg	-11.4818
▁DO	-11.482
-06	-11.4821
▁faithful	-11.4823
▁sphere	-11.4827
key	-11.4833
▁segments	-11.4835
▁Export	-11.4836
▁prescribed	-11.4836
▁extending	-11.4839
▁dirty	-11.484
▁valued	-11.4843
▁Williams	-11.4844
▁Mal	-11.4846
▁marketplace	-11.4849
▁Cabinet	-11.4854
▁3:	-11.4861
▁unlawful	-11.4862
▁subway	-11.4865
ett	-11.4866
▁appreciated	-11.4867
▁concentrate	-11.4868
▁03	-11.4868
▁Settlements	-11.4869
▁balances	-11.4874
▁000	-11.4875
▁promotes	-11.4876
▁02	-11.4878
8%	-11.4879
▁Mai	-11.4881
▁tied	-11.4885
about	-11.4885
▁Less	-11.4886
▁folks	-11.4886
▁$100	-11.4887
Al	-11.4888
▁Parts	-11.4889
▁reduces	-11.4891
ple	-11.4897
ym	-11.4899
▁sequence	-11.49
▁Del	-11.49
▁HE	-11.4902
face	-11.4903
▁Dead	-11.4906
▁Impact	-11.4906
▁resist	-11.4911
▁founding	-11.4911
▁offshore	-11.4912
▁invention	-11.4912
▁Val	-11.4913
▁Enter	-11.4915
get	-11.4915
▁Ken	-11.4916
▁generous	-11.4916
▁predictable	-11.492
▁21,	-11.4921
▁preservation	-11.4921
▁arranged	-11.4923
▁united	-11.4924
▁treasure	-11.4933
▁inherent	-11.4934
▁nationwide	-11.4935
▁Estate	-11.4936
ette	-11.4937
2016	-11.4939
400	-11.494
▁Edition	-11.494
▁(10	-11.4945
▁brave	-11.4948
-05	-11.4951
▁Sony	-11.4951
▁contractors	-11.4953
▁kick	-11.4958
ag	-11.496
▁83	-11.496
▁winners	-11.4961
▁followers	-11.4962
Is	-11.4963
▁stating	-11.4964
▁Luxury	-11.4967
what	-11.4969
▁keys	-11.497
▁washing	-11.4971
▁Hotline	-11.4971
▁105	-11.4971
▁alter	-11.4972
▁Overview	-11.4973
▁360	-11.4974
▁recruited	-11.4975
-08	-11.4975
gy	-11.4979
▁administered	-11.4979
var	-11.498
▁parks	-11.498
Ha	-11.498
SO	-11.4982
▁Engine	-11.4982
▁Florence	-11.4983
▁IC	-11.4986
▁PR	-11.4988
▁Wan	-11.499
▁lithium	-11.4996
‘	-11.4996
▁Labor	-11.4999
IM	-11.5003
▁fulfilling	-11.5006
ami	-11.5006
ying	-11.5007
EL	-11.5009
▁disseminate	-11.501
▁Fox	-11.5012
▁Bra	-11.5013
ena	-11.5015
▁Electrical	-11.5016
gue	-11.5016
sensitive	-11.5018
▁absorb	-11.5018
▁guiding	-11.5019
saving	-11.502
EM	-11.5021
▁filling	-11.5022
PP	-11.5026
▁Participation	-11.5027
▁Popular	-11.5027
-2015	-11.503
▁variables	-11.5031
▁th	-11.5032
▁updating	-11.5032
▁algorithms	-11.5032
TC	-11.5033
▁Speaking	-11.5036
▁Castle	-11.5036
-23	-11.5037
▁ceasefire	-11.5037
▁Bri	-11.5038
▁delegates	-11.5038
home	-11.504
▁fulfilment	-11.5044
▁Otherwise	-11.5046
▁subparagraph	-11.5046
▁Trial	-11.505
▁identical	-11.505
▁pipeline	-11.5051
▁Active	-11.5054
▁disclose	-11.5057
▁royal	-11.5058
▁contributes	-11.5058
▁Taipei	-11.5059
▁Mass	-11.506
▁1973	-11.5062
▁Near	-11.5062
▁Statistical	-11.5062
▁bi	-11.5062
▁Detailed	-11.5063
▁punished	-11.5066
▁Contracting	-11.5067
br	-11.5067
▁outline	-11.5068
▁cr	-11.5069
hal	-11.5069
▁cried	-11.5069
mb	-11.5069
▁«	-11.507
▁(212)	-11.5072
▁1.3	-11.5073
▁Half	-11.5074
▁Kids	-11.5075
▁Maldives	-11.508
▁stomach	-11.5082
▁recognised	-11.5083
▁compound	-11.5083
▁Magic	-11.5084
▁Beyond	-11.5085
▁travelling	-11.509
▁1994,	-11.5096
▁Wales	-11.5097
▁urgency	-11.5103
▁Recruitment	-11.5103
▁convenience	-11.5105
▁placing	-11.5105
▁Sy	-11.5108
▁gravity	-11.5108
▁adapted	-11.5109
▁exceeded	-11.5114
▁freight	-11.5116
▁poorest	-11.5118
▁Bag	-11.5119
▁Fish	-11.512
▁layout	-11.5121
▁sincere	-11.5121
there	-11.5123
▁Allow	-11.5124
▁wastes	-11.5125
▁min	-11.5127
they	-11.5127
▁79	-11.5128
▁bone	-11.513
▁Niger	-11.5138
▁uncle	-11.5138
▁ratify	-11.5138
▁conform	-11.5139
▁Diversity	-11.514
▁circulation	-11.514
▁belt	-11.5141
▁25.	-11.5141
▁brilliant	-11.5142
▁Telephone	-11.5147
▁proteins	-11.515
Where	-11.515
Man	-11.515
▁Delegations	-11.5151
▁claimant	-11.5154
▁boxes	-11.5155
▁eliminated	-11.5156
▁diagnosed	-11.5157
uring	-11.516
-25	-11.5163
▁tanks	-11.5164
cy	-11.5166
Ivoire	-11.5168
▁weakness	-11.5169
▁Durban	-11.5169
▁justified	-11.5169
▁19,	-11.517
▁Oman	-11.5172
See	-11.5173
▁Traditional	-11.5174
▁Pass	-11.5174
▁removing	-11.5177
▁analyses	-11.5178
-07	-11.5178
lon	-11.5179
row	-11.5179
▁neighbors	-11.5181
▁flesh	-11.5184
▁noble	-11.5186
▁ninth	-11.5186
▁breathing	-11.5194
▁nights	-11.5195
▁kilometres	-11.5197
AF	-11.5198
▁checks	-11.5203
▁singing	-11.521
▁virtue	-11.5211
▁Rural	-11.5212
▁Cities	-11.5215
▁taxi	-11.5215
CONF	-11.5218
▁Reviews	-11.5219
▁politically	-11.5221
▁hat	-11.5223
▁conscious	-11.5223
English	-11.5223
▁Cor	-11.5225
▁Yan	-11.5225
tr	-11.5225
▁Malawi	-11.5227
▁29.	-11.5232
▁algorithm	-11.5232
aki	-11.5232
▁backed	-11.5233
▁county	-11.5234
▁economics	-11.5236
▁twin	-11.5238
▁beds	-11.5239
tar	-11.5239
▁amongst	-11.524
▁geographic	-11.5241
▁Matt	-11.5242
Governing	-11.5242
/19	-11.5242
▁Beauty	-11.5244
country	-11.5247
▁surplus	-11.5249
▁evaluations	-11.5253
▁analyst	-11.5253
▁Corp	-11.5254
▁Guard	-11.5254
▁festival	-11.5256
▁Response	-11.5257
▁dominant	-11.5257
▁Sen	-11.5259
▁trucks	-11.5259
▁incidence	-11.5259
▁linkages	-11.5263
▁Advancement	-11.5264
▁cream	-11.5266
▁Nearly	-11.5266
IV	-11.5267
▁Reaffirms	-11.5275
▁Copenhagen	-11.5275
▁modest	-11.5275
Please	-11.5277
▁knife	-11.5278
▁Kai	-11.5279
▁fails	-11.5281
▁Relief	-11.5283
▁temporarily	-11.5285
MI	-11.5289
▁medication	-11.5291
▁motivation	-11.5292
▁socialist	-11.5293
▁prisons	-11.5294
▁alike	-11.5294
▁thereto	-11.5294
▁photography	-11.5296
▁intake	-11.5296
▁GB	-11.5296
▁systematically	-11.5297
▁planets	-11.5297
▁Reuters	-11.5298
▁insecurity	-11.5298
af	-11.5299
▁07	-11.53
▁AP	-11.53
▁sheep	-11.5301
▁Target	-11.5303
▁Latest	-11.5307
▁angle	-11.5309
EA	-11.5309
▁2.1	-11.5315
▁toilet	-11.5315
▁benefited	-11.5317
▁palace	-11.5318
▁intensify	-11.5319
▁Organizations	-11.532
▁Powered	-11.5322
▁minimal	-11.5323
▁fabric	-11.5324
▁(18	-11.5325
▁nurse	-11.5326
▁references	-11.5327
▁whereby	-11.5328
inch	-11.5328
▁wealthy	-11.5329
Saharan	-11.533
▁celebration	-11.5335
▁carries	-11.5337
▁indirectly	-11.5339
▁Ve	-11.534
▁Automatic	-11.5341
▁fingers	-11.5343
zu	-11.5343
ual	-11.5344
▁trace	-11.5347
▁acted	-11.5348
und	-11.5348
▁subregion	-11.5349
▁FDI	-11.535
▁mouse	-11.5353
▁3.5	-11.5355
▁commented	-11.5356
▁muscle	-11.5362
▁Import	-11.5362
▁Directorate	-11.5362
▁Fe	-11.5362
▁barely	-11.5363
gate	-11.5364
▁empower	-11.537
▁Throughout	-11.5371
By	-11.5373
▁distinguish	-11.5376
▁Shopping	-11.5377
/58/	-11.5378
▁08	-11.5378
▁Bu	-11.5382
▁instability	-11.5382
thirds	-11.5384
▁Snow	-11.5385
▁interfere	-11.5385
▁denial	-11.5385
▁Musk	-11.5386
▁BE	-11.5388
▁cm	-11.539
▁tall	-11.5391
-21	-11.5391
ET	-11.5392
▁beneficiaries	-11.5393
▁favourable	-11.5393
▁Virtual	-11.5395
€	-11.5395
▁350	-11.5397
risk	-11.5397
▁optimistic	-11.5398
▁obey	-11.5398
▁Train	-11.5399
▁CNC	-11.5399
▁random	-11.54
▁tribunal	-11.54
▁freeze	-11.54
▁Transnational	-11.5407
▁ho	-11.5407
-09	-11.5408
▁landlocked	-11.5409
▁Secondly	-11.541
cut	-11.541
▁prince	-11.5415
▁Op	-11.5416
▁pocket	-11.5417
▁folder	-11.5418
▁Mad	-11.5418
▁celebrated	-11.5425
▁Sh	-11.5431
case	-11.5433
▁bike	-11.5434
bound	-11.5435
▁1975	-11.5438
▁lacking	-11.5439
IE	-11.5441
▁feasible	-11.5442
▁interpreted	-11.5442
▁Role	-11.5444
▁extract	-11.5445
rie	-11.5446
▁Sexual	-11.5447
▁inhuman	-11.5447
▁Details	-11.5447
▁capitalism	-11.5448
▁asleep	-11.5449
take	-11.5449
▁ageing	-11.545
▁Tibetan	-11.5451
ral	-11.5452
▁Dragon	-11.5453
play	-11.5453
late	-11.5454
▁25%	-11.5455
fe	-11.5457
OC	-11.5458
▁fluid	-11.5459
▁utilized	-11.546
▁seeds	-11.5463
▁devastating	-11.5463
▁disappearance	-11.5466
▁accelerated	-11.5467
▁Cambridge	-11.5469
▁(6)	-11.5469
makers	-11.5471
▁fragile	-11.5472
▁Excuse	-11.5473
▁Mor	-11.5479
▁league	-11.5479
▁Netflix	-11.548
▁Taylor	-11.548
bus	-11.548
▁enhancement	-11.5482
Islamic	-11.5482
▁athletes	-11.5486
▁RIGHTS	-11.5487
▁Solution	-11.5489
▁placement	-11.549
san	-11.5493
▁suggesting	-11.55
▁reaffirm	-11.5501
▁couples	-11.5501
▁killer	-11.5501
▁cotton	-11.5502
▁reactions	-11.5503
▁districts	-11.5504
▁compounds	-11.5504
par	-11.5505
▁chips	-11.5508
▁convene	-11.5508
▁bin	-11.5509
▁GPS	-11.5511
▁Airlines	-11.5511
▁sacred	-11.5512
▁controversial	-11.5513
▁elaborate	-11.5515
▁bills	-11.5516
▁establishes	-11.5518
only	-11.552
▁shell	-11.5523
▁Ross	-11.5524
▁differ	-11.5527
▁URL	-11.5527
▁consume	-11.5527
rt	-11.5529
▁Seminar	-11.5529
▁convince	-11.5531
▁Er	-11.5531
▁securing	-11.5532
▁Sound	-11.5533
▁successor	-11.5534
RI	-11.5535
▁divisions	-11.5535
operation	-11.5538
▁20,000	-11.5539
▁radar	-11.554
▁1998.	-11.554
▁32.	-11.5544
▁presentations	-11.5548
▁・	-11.5549
:15	-11.555
▁startup	-11.5551
▁Ph	-11.5551
▁emergence	-11.5556
▁Pra	-11.5556
▁Protocols	-11.5556
▁Ice	-11.5556
▁12,	-11.5558
▁assignment	-11.5558
▁28.	-11.556
▁offensive	-11.556
▁Sin	-11.556
▁Overseas	-11.5563
▁dynamics	-11.5564
▁chemistry	-11.5567
also	-11.5568
IF	-11.5568
HS	-11.557
▁convening	-11.557
▁licensing	-11.5573
▁complain	-11.5573
▁Amsterdam	-11.5576
▁Situation	-11.5576
▁93	-11.5577
▁feeding	-11.5582
▁intensity	-11.5583
sion	-11.5585
▁abstract	-11.5586
▁1993,	-11.5586
ea	-11.5588
GC	-11.5588
▁Eight	-11.5592
eng	-11.5592
▁screw	-11.5594
▁mathematics	-11.5598
▁scenarios	-11.5601
▁(7	-11.5603
dar	-11.5605
120	-11.5605
rick	-11.5607
▁Kyrgyzstan	-11.5609
▁Togo	-11.5611
ory	-11.5614
pl	-11.5616
▁Avoid	-11.562
▁sexually	-11.5623
▁se	-11.5624
▁healing	-11.5626
▁Sarah	-11.5627
▁trigger	-11.563
ese	-11.563
▁thereon	-11.5631
▁prohibit	-11.5631
▁Pharmaceutical	-11.5631
▁tips	-11.5633
-13	-11.5633
RS	-11.5633
▁Understanding	-11.5633
▁trademark	-11.5635
▁negotiated	-11.5636
▁habit	-11.5636
▁yourselves	-11.5636
▁(2003)	-11.5636
▁accepting	-11.5637
-04	-11.5641
tter	-11.5645
▁laundry	-11.5647
▁Greater	-11.5648
▁Virgin	-11.5649
TP	-11.5651
▁cope	-11.5651
▁drove	-11.5651
▁distinguished	-11.5652
▁juvenile	-11.5653
▁expulsion	-11.5653
▁refrigerator	-11.5654
:05	-11.5655
▁facto	-11.5656
▁15%	-11.5657
250	-11.5657
▁Goal	-11.5657
▁VIII	-11.5659
stop	-11.566
-29	-11.566
▁Request	-11.5661
▁claiming	-11.5663
▁theft	-11.5669
▁compact	-11.5669
▁automobile	-11.5672
▁liaison	-11.5672
lay	-11.5673
▁Feb	-11.5673
▁rotation	-11.5673
.12	-11.5674
▁Bell	-11.5675
▁gotten	-11.5675
▁Galaxy	-11.5675
▁maps	-11.5676
RP	-11.5677
▁quote	-11.5679
▁daughters	-11.5679
▁regulators	-11.568
▁Packaging	-11.5683
▁ozone	-11.5684
▁sizes	-11.5684
▁Corruption	-11.5686
▁33.	-11.569
▁structured	-11.569
▁aiming	-11.5691
▁crossing	-11.5694
▁Diamond	-11.5695
▁termination	-11.5697
most	-11.5698
▁disclosed	-11.5698
▁Chain	-11.5699
▁Flash	-11.5699
▁vacancy	-11.57
▁1972	-11.5702
▁deputy	-11.5703
▁upset	-11.5703
▁Mag	-11.5705
▁degrading	-11.5706
▁flood	-11.5706
good	-11.5707
▁89	-11.5707
▁argues	-11.5707
▁sheets	-11.5708
▁125	-11.5713
-24	-11.5713
▁steadily	-11.5714
▁exploit	-11.5716
▁destinations	-11.572
▁neighborhood	-11.572
▁92	-11.5726
▁breathe	-11.5728
▁attorney	-11.5728
▁newspapers	-11.5729
▁decisive	-11.573
▁mediation	-11.573
▁Subject	-11.5732
▁Institutions	-11.5738
▁Cable	-11.574
▁damages	-11.5741
▁terrace	-11.5742
▁AG	-11.5742
ox	-11.5743
▁1967	-11.5744
▁prevalence	-11.5745
▁diesel	-11.5746
4,000	-11.575
▁Oxford	-11.575
▁loud	-11.5751
▁bars	-11.5751
▁Rich	-11.5752
▁completing	-11.5753
▁Border	-11.5756
▁titles	-11.576
▁demanded	-11.5761
flow	-11.5761
▁investigators	-11.5764
▁Carbon	-11.5764
sub	-11.5769
▁Football	-11.577
▁climb	-11.5772
▁standardized	-11.5772
▁justify	-11.5772
▁Located	-11.5773
▁tribute	-11.5773
▁SP	-11.5776
▁strikes	-11.5777
code	-11.5777
ky	-11.5778
/57/	-11.5782
▁profitable	-11.5782
▁ju	-11.5784
▁priest	-11.5785
lor	-11.5785
▁qualifications	-11.5785
Part	-11.5787
▁Tools	-11.5789
OP	-11.5789
▁besides	-11.5789
sp	-11.5789
▁Accounting	-11.579
▁photographs	-11.579
,200	-11.5791
▁notable	-11.5794
▁Phase	-11.5795
▁consumed	-11.5796
▁obstacle	-11.5799
▁preferences	-11.58
▁demonstrates	-11.5802
▁massage	-11.5802
▁Cash	-11.5806
▁Hague	-11.5807
Laughter	-11.5807
▁doubled	-11.5807
People	-11.5809
▁harmonization	-11.5809
▁emergencies	-11.5812
▁wallet	-11.5815
▁obliged	-11.5817
gg	-11.5819
▁bathtub	-11.5823
▁registry	-11.5824
▁Rental	-11.5826
▁Athens	-11.5826
iya	-11.5829
▁wins	-11.583
▁1976	-11.583
▁aspirations	-11.5833
UR	-11.5833
▁entrusted	-11.5834
▁Tool	-11.5835
▁Ok	-11.5835
▁Olympics	-11.5836
▁fled	-11.5838
▁Unity	-11.584
▁supplementary	-11.5841
▁Christianity	-11.5841
hn	-11.5842
▁seas	-11.5843
city	-11.5843
▁MO	-11.5844
▁Economics	-11.5846
Women	-11.5849
▁definitions	-11.5852
▁Wilson	-11.5852
▁Cam	-11.5854
▁creditors	-11.5855
▁Ji	-11.5858
TE	-11.5859
▁Grant	-11.586
▁Physical	-11.5864
▁reiterate	-11.5867
▁Buddhist	-11.5869
▁Legislative	-11.5869
▁advisers	-11.587
▁conversations	-11.5871
▁Face	-11.5872
▁consist	-11.5874
▁pm	-11.5874
▁Bhutan	-11.5874
▁incredibly	-11.5874
▁handled	-11.5877
▁Visual	-11.5878
▁survived	-11.5879
▁queen	-11.588
▁18,	-11.5882
▁mu	-11.5885
▁Patent	-11.5886
▁strip	-11.589
▁nominated	-11.5891
▁methodologies	-11.5891
▁newsletters	-11.5894
▁theatre	-11.5894
▁Blog	-11.5896
▁occurring	-11.5898
▁documented	-11.5899
▁clouds	-11.5899
▁violate	-11.5899
▁retention	-11.59
▁lease	-11.5905
lar	-11.5906
▁Indonesian	-11.5906
article	-11.5907
▁confusion	-11.5908
▁decentralized	-11.5912
▁dose	-11.5913
▁Leadership	-11.5914
▁limiting	-11.5914
▁uphold	-11.5916
▁psychology	-11.5917
▁waited	-11.5917
del	-11.5917
▁pitch	-11.5919
▁2002-2003	-11.592
▁dangers	-11.5925
▁tropical	-11.5925
▁Links	-11.5926
▁replacing	-11.5928
▁Reservation	-11.5929
Shanghai	-11.5931
lit	-11.5931
▁pot	-11.5933
▁im	-11.5934
▁Marshall	-11.5936
▁multinational	-11.594
▁2.2	-11.5943
▁Vehicle	-11.5943
▁Projects	-11.5944
▁34.	-11.5944
▁Samoa	-11.5946
▁GEF	-11.5946
▁nano	-11.5946
▁tragic	-11.5948
▁gaining	-11.5949
who	-11.5949
▁classroom	-11.595
▁volunteer	-11.5951
▁Tar	-11.5954
More	-11.5954
▁Voluntary	-11.5954
▁1984	-11.5954
▁Senator	-11.5955
▁Pat	-11.5956
▁desertification	-11.5957
▁comparative	-11.5958
▁controller	-11.596
▁utmost	-11.5965
▁Disabilities	-11.5965
▁undoubtedly	-11.5968
East	-11.5968
century	-11.5971
▁employ	-11.5971
▁suspects	-11.5974
▁06	-11.5976
phone	-11.5978
/65/	-11.5978
▁Muhammad	-11.5978
▁talents	-11.5984
▁glasses	-11.5986
▁airports	-11.5987
▁meantime	-11.599
▁eradicate	-11.5991
2,000	-11.5992
proof	-11.5994
▁Certain	-11.5995
▁roots	-11.5997
▁contracting	-11.5998
LI	-11.5999
▁Farm	-11.6
▁hybrid	-11.6001
▁quantities	-11.6003
▁Pound	-11.6005
▁Qur	-11.6007
read	-11.6008
▁stainless	-11.6009
/8	-11.601
▁examining	-11.6011
▁Com	-11.6012
eo	-11.6013
log	-11.6013
▁displays	-11.6015
▁Loss	-11.6019
▁Neither	-11.602
▁Dear	-11.602
▁PCB	-11.6024
dia	-11.6024
▁15-	-11.6026
6,000	-11.6028
▁Daddy	-11.6028
▁Establishment	-11.6029
▁Woods	-11.603
▁Mayor	-11.6031
▁jury	-11.6032
▁mask	-11.6035
▁granting	-11.6035
▁fridge	-11.6037
▁Punishment	-11.604
▁thoroughly	-11.604
▁blessed	-11.6042
▁questionnaire	-11.6042
fish	-11.6048
laundering	-11.6049
▁liberalization	-11.605
DE	-11.605
CR	-11.6056
eh	-11.6056
▁plug	-11.6057
▁likes	-11.6057
▁bite	-11.6059
tte	-11.606
▁submitting	-11.6061
▁attendance	-11.6061
▁suspicious	-11.6063
▁Vol	-11.6067
▁Casa	-11.6068
ock	-11.607
▁amend	-11.6071
▁abide	-11.6071
▁(8	-11.6074
▁distribute	-11.6075
▁castle	-11.6077
International	-11.6078
carbon	-11.6078
▁tracks	-11.6079
▁tri	-11.6084
▁Background	-11.6086
will	-11.6087
▁nevertheless	-11.6089
▁Rate	-11.6093
▁Botswana	-11.6093
▁owe	-11.6093
▁legitimacy	-11.6095
▁phases	-11.61
ute	-11.6102
▁1969	-11.6105
▁editing	-11.6105
▁pan	-11.6108
▁proximity	-11.6109
government	-11.6111
▁Pool	-11.6112
▁Maintenance	-11.6113
▁righteous	-11.6114
▁LCD	-11.6115
/3	-11.6119
▁Build	-11.612
▁exceptions	-11.612
▁Bit	-11.6124
▁golden	-11.6125
▁Bring	-11.6126
▁Wen	-11.6129
▁Jing	-11.613
▁adventure	-11.6131
▁(2006)	-11.6132
▁desirable	-11.6133
▁blocked	-11.6133
▁attempting	-11.6136
▁cleaner	-11.6138
▁clarity	-11.6138
▁processor	-11.614
Are	-11.6142
▁Reporting	-11.6142
▁lending	-11.6143
▁logistical	-11.6144
▁longest	-11.6149
school	-11.615
round	-11.615
▁declining	-11.6153
▁2010-2011	-11.6153
▁Cut	-11.6153
▁theories	-11.6155
▁stroke	-11.6155
▁Pen	-11.6157
hong	-11.6158
▁rendered	-11.6159
▁Angel	-11.6159
▁traditionally	-11.6163
▁Woman	-11.6164
▁Fan	-11.6164
▁shorter	-11.6164
▁MA	-11.6166
▁acute	-11.6166
▁debtor	-11.6169
▁cognitive	-11.617
▁surrender	-11.6172
▁Phil	-11.618
▁BC	-11.618
▁Answer	-11.6182
▁believers	-11.6183
▁emerge	-11.6185
▁popularity	-11.6185
person	-11.6187
▁extrabudgetary	-11.6192
▁governor	-11.6193
▁deserves	-11.6195
FI	-11.6197
▁assumptions	-11.6199
▁Automation	-11.62
▁containers	-11.6201
rid	-11.6202
▁cruise	-11.6203
|	-11.6203
▁researcher	-11.6205
▁Hang	-11.6206
▁leisure	-11.6206
▁Anne	-11.6207
▁expecting	-11.6208
▁miracle	-11.6209
▁singer	-11.621
▁Excellent	-11.6211
▁harvest	-11.6211
tri	-11.6213
PO	-11.6214
▁warrant	-11.6215
▁preference	-11.6216
▁jet	-11.6218
lia	-11.6219
▁operative	-11.622
▁commentary	-11.6225
wei	-11.6227
▁Blood	-11.6227
▁reaffirms	-11.6229
▁calculate	-11.6229
▁bo	-11.623
▁Officers	-11.623
▁Habitat	-11.623
▁hosts	-11.6231
▁Vincent	-11.6232
▁firearms	-11.6233
▁Bel	-11.624
TER	-11.6242
▁wondering	-11.6243
▁implies	-11.6244
▁merits	-11.6244
▁qualities	-11.6247
ade	-11.6247
CRP	-11.6247
▁Jane	-11.6249
pin	-11.6253
▁tariff	-11.6254
cat	-11.6259
▁mayor	-11.6264
▁17,	-11.6265
▁readiness	-11.6265
▁baseline	-11.6266
▁#1	-11.6267
DI	-11.6269
▁sooner	-11.627
▁policymakers	-11.627
▁naked	-11.627
▁volumes	-11.627
▁Magazine	-11.6273
▁cycles	-11.6273
▁Kennedy	-11.6276
▁Dance	-11.6277
▁enshrined	-11.6277
▁coating	-11.6278
very	-11.6279
▁Jersey	-11.6279
▁Bin	-11.6279
-02	-11.6283
▁Lincoln	-11.6285
▁scan	-11.6285
just	-11.629
▁treating	-11.6292
▁govern	-11.6293
▁overwhelming	-11.6294
▁tries	-11.6297
▁welding	-11.6298
▁mice	-11.6299
▁Jun	-11.6301
▁cute	-11.6301
▁Starting	-11.6303
▁regrets	-11.6304
:10	-11.6306
▁Je	-11.6307
band	-11.6307
▁elegant	-11.6309
▁Consultative	-11.6309
▁Description	-11.6309
▁j	-11.6311
▁unlimited	-11.6312
SU	-11.6317
▁Ber	-11.6318
▁colleges	-11.6319
tian	-11.632
▁Governance	-11.632
▁basketball	-11.6324
▁Translation	-11.6324
▁Equal	-11.6324
▁trick	-11.6325
▁Blockchain	-11.6326
▁sensitivity	-11.6334
▁orally	-11.6335
cutting	-11.6335
▁unfortunately	-11.6336
▁resilience	-11.6338
/11	-11.634
nie	-11.6341
▁continually	-11.6343
▁bottles	-11.6345
▁CI	-11.6346
▁Malaysian	-11.6347
▁wishing	-11.6347
▁broadly	-11.6348
▁substitute	-11.635
▁awesome	-11.635
▁believing	-11.635
▁Feng	-11.6352
▁insisted	-11.6353
▁colonial	-11.6355
▁varied	-11.6359
Bo	-11.6361
▁****	-11.6361
▁persecution	-11.6362
▁Responsibility	-11.6363
▁Integration	-11.6365
▁sofa	-11.6366
▁Mauritania	-11.6368
▁Trinidad	-11.6372
▁holes	-11.6373
▁evaluated	-11.6375
▁3*	-11.6375
▁elaboration	-11.6377
gmail	-11.6378
▁Automotive	-11.6381
▁visas	-11.6381
▁tag	-11.6381
▁Hat	-11.6382
▁MONUC	-11.6382
▁OR	-11.6382
▁viewing	-11.6383
▁Comp	-11.6385
▁seller	-11.6386
▁Photos	-11.6387
▁CN	-11.6391
▁fighters	-11.6392
▁Dark	-11.6393
ened	-11.6397
▁auspices	-11.6398
▁eaten	-11.6398
▁Commander	-11.64
▁margin	-11.6402
-27	-11.6406
▁Philip	-11.6406
▁streaming	-11.6407
▁ladies	-11.6407
▁Palm	-11.6407
▁16,	-11.6409
▁disorders	-11.6409
lam	-11.6414
▁spreading	-11.6415
▁GE	-11.6416
▁preceding	-11.6416
▁pillars	-11.6417
GO	-11.6418
▁appointments	-11.642
▁alloy	-11.6421
▁NC	-11.6422
▁102	-11.6422
▁literally	-11.6423
▁validity	-11.6424
EX	-11.6425
action	-11.6428
▁rank	-11.6429
▁cultivation	-11.6431
▁narrative	-11.6437
▁criminals	-11.6438
ups	-11.6439
▁reimbursement	-11.644
▁quoted	-11.644
▁Laser	-11.6443
▁coordinator	-11.6443
▁Francis	-11.6445
clock	-11.6447
▁Serious	-11.6447
▁participant	-11.6449
▁complimentary	-11.6452
▁cats	-11.6452
ell	-11.6453
▁Bali	-11.6454
▁Flight	-11.6456
▁weaknesses	-11.6457
▁continuity	-11.6458
▁counselling	-11.6459
▁construct	-11.6459
▁Mer	-11.646
▁Matters	-11.6462
Le	-11.6464
▁Kit	-11.6464
▁Jeff	-11.6465
now	-11.6465
jin	-11.6469
▁hath	-11.647
▁compassion	-11.6472
×	-11.6472
▁hurry	-11.6476
ata	-11.6476
▁UV	-11.6477
ATION	-11.648
ulation	-11.6481
NC	-11.6481
▁1979	-11.6485
▁Amendment	-11.6488
even	-11.6489
▁Tobago	-11.6491
nar	-11.6494
▁reads	-11.6494
sales	-11.6495
▁Academic	-11.6497
▁poetry	-11.65
▁Hilton	-11.6503
burg	-11.6509
▁20-	-11.6512
▁challenged	-11.6517
.[	-11.6525
▁individually	-11.6526
News	-11.6526
▁37.	-11.6526
▁GA	-11.6527
▁portal	-11.6529
▁pornography	-11.653
▁creatures	-11.6532
▁SQL	-11.6532
▁NEW	-11.6532
▁Nanjing	-11.6536
▁Infrastructure	-11.6539
▁Ring	-11.6543
▁installations	-11.6543
▁congratulate	-11.6546
▁clarification	-11.6547
▁Channel	-11.6548
▁Vo	-11.6548
cor	-11.6548
ram	-11.6548
▁Host	-11.655
▁formats	-11.6552
2015	-11.6553
▁Somali	-11.6554
▁Sar	-11.6558
CL	-11.6558
▁Morgan	-11.6558
▁probability	-11.656
▁Develop	-11.6561
▁Aug	-11.6561
▁Americas	-11.6563
press	-11.6564
▁Xiao	-11.6567
â	-11.6567
ros	-11.6569
▁Lisbon	-11.657
▁enacted	-11.657
▁Cal	-11.6571
▁par	-11.6575
▁cancel	-11.6577
▁costly	-11.6579
▁Terminal	-11.6579
▁letting	-11.6581
▁Perfect	-11.6583
▁endeavour	-11.6586
▁Mat	-11.6586
cus	-11.6589
looking	-11.6591
▁evaluating	-11.6591
▁warehouse	-11.6593
▁Tomorrow	-11.6593
▁Record	-11.6593
▁Albert	-11.6593
▁slaves	-11.6594
ob	-11.6597
▁Ombudsman	-11.6597
▁dismissed	-11.6598
hard	-11.6599
▁occurrence	-11.66
▁Johannesburg	-11.6601
▁blessing	-11.6602
▁13,	-11.6609
▁dominated	-11.661
▁hiring	-11.6612
foot	-11.6618
▁Surely	-11.6622
▁magnitude	-11.6624
▁Tor	-11.6626
▁wanting	-11.6628
▁quietly	-11.6628
las	-11.6633
▁textile	-11.6635
▁UNMIK	-11.6639
py	-11.6639
ida	-11.6639
▁Fall	-11.664
sch	-11.6642
▁tender	-11.6642
▁Welfare	-11.6643
MM	-11.6643
▁104	-11.6644
oe	-11.6644
▁Traffic	-11.6644
▁measurements	-11.6644
▁pig	-11.6646
Sub	-11.6647
ib	-11.6648
▁Meet	-11.6648
▁Mode	-11.6649
▁farms	-11.665
▁Schedule	-11.6652
Tech	-11.6653
▁Bear	-11.6655
160	-11.6655
▁disadvantaged	-11.6658
▁cancellation	-11.6661
▁Twin	-11.6661
▁presenting	-11.6662
▁Text	-11.6665
tes	-11.6666
▁documentary	-11.6669
▁Poor	-11.667
▁destiny	-11.667
▁tissue	-11.6674
▁underlined	-11.6674
▁breakfasts	-11.6674
▁Getting	-11.6675
pri	-11.6675
▁goodness	-11.6676
▁alternate	-11.6676
▁permanently	-11.6676
▁Guyana	-11.6677
▁EN	-11.6678
▁calculation	-11.668
▁Info	-11.668
▁moderate	-11.668
human	-11.6682
EE	-11.6682
▁helicopter	-11.6683
▁Generally	-11.6683
▁coins	-11.6691
▁spots	-11.6691
CS	-11.6692
▁cheese	-11.6692
▁hydro	-11.6695
▁Female	-11.6699
▁phenomena	-11.67
▁po	-11.6701
lock	-11.6702
▁aliens	-11.6703
▁mathematical	-11.6704
AB	-11.6707
▁Bahamas	-11.6707
▁tournament	-11.6708
▁resolving	-11.6711
▁Liverpool	-11.6713
▁3.1	-11.6714
▁1%	-11.6718
▁106	-11.6722
▁Mail	-11.6725
▁satisfactory	-11.6726
▁corrupt	-11.6727
▁Along	-11.6729
▁Worldwide	-11.6729
▁DE	-11.673
▁CEDAW	-11.6731
▁Col	-11.6731
ä	-11.6732
▁static	-11.6734
pers	-11.6737
▁RMB	-11.6738
▁speeds	-11.6739
▁maternity	-11.6741
▁BY	-11.6742
▁Howard	-11.6744
▁favourite	-11.6747
▁CPU	-11.6749
was	-11.6749
▁neural	-11.675
▁rivers	-11.6757
▁Yong	-11.6758
▁22,	-11.6761
▁hunting	-11.6761
ux	-11.6762
▁deprivation	-11.6763
founder	-11.6763
▁Shit	-11.6765
▁reminder	-11.6767
▁Securities	-11.6772
▁statute	-11.6774
▁consultant	-11.6778
▁commander	-11.6778
test	-11.6778
▁drama	-11.6778
8,000	-11.6778
▁Printing	-11.6779
World	-11.678
▁apartments	-11.6781
mes	-11.6784
▁Administrator	-11.6788
▁Strong	-11.6791
▁35.	-11.6791
▁36.	-11.6792
▁realities	-11.6793
▁Success	-11.6796
▁Turkmenistan	-11.6797
▁Campaign	-11.68
▁drafted	-11.68
▁inspire	-11.6801
▁spacecraft	-11.6804
▁thereafter	-11.6807
▁decree	-11.6809
▁Bond	-11.681
▁Cairo	-11.6813
▁lifted	-11.6813
3,000	-11.6814
▁deck	-11.6815
▁hey	-11.6816
▁dressed	-11.6817
▁museums	-11.6821
▁casting	-11.6821
▁clause	-11.6824
▁justification	-11.6825
▁Creative	-11.6825
▁Reference	-11.6828
▁Published	-11.6829
▁tumor	-11.6834
▁plastics	-11.6835
zy	-11.6835
TF	-11.6836
▁CR	-11.6837
Products	-11.6837
▁quantitative	-11.6837
▁draws	-11.6838
▁classical	-11.684
▁Entertainment	-11.6841
▁breaks	-11.6841
▁unemployed	-11.6841
▁pin	-11.6841
▁grandmother	-11.6847
▁Lighting	-11.6847
▁Crown	-11.6853
tain	-11.6854
ula	-11.6854
▁encryption	-11.6856
▁Papua	-11.6857
▁murdered	-11.6858
ova	-11.6858
▁Conventions	-11.6859
▁tunnel	-11.6859
▁Treasury	-11.6859
▁Fashion	-11.686
▁notified	-11.6861
▁Must	-11.6862
▁Brian	-11.6864
▁photograph	-11.6865
▁renowned	-11.6866
▁Nazi	-11.6866
▁finalized	-11.6867
▁Va	-11.6868
▁bunch	-11.6868
▁loyal	-11.6868
▁(2005)	-11.6869
▁thrown	-11.6871
▁empire	-11.6872
▁piano	-11.6872
5%	-11.6874
▁z	-11.6875
▁aging	-11.6876
III	-11.6879
▁smallest	-11.688
▁milestone	-11.6881
oma	-11.6885
▁warn	-11.6885
▁Bre	-11.6887
▁Ly	-11.6889
▁passes	-11.689
▁rated	-11.6893
▁concerted	-11.6894
ash	-11.6895
▁Documentation	-11.6895
▁badly	-11.6896
▁38.	-11.6896
▁Consensus	-11.6897
▁layers	-11.6897
▁pe	-11.6898
▁interpret	-11.6899
▁luggage	-11.69
▁grasp	-11.6902
▁approaching	-11.6903
▁probe	-11.6903
▁meter	-11.6907
▁rear	-11.6907
▁Brother	-11.6908
"?	-11.6908
▁purely	-11.6909
▁sixtieth	-11.6909
▁talented	-11.691
▁breakthrough	-11.691
▁grows	-11.691
▁coin	-11.6912
/16	-11.6914
▁Income	-11.6916
nuclear	-11.6917
til	-11.6922
▁dancing	-11.6922
▁oh	-11.6923
▁fax	-11.6924
▁Operating	-11.6926
▁Bedroom	-11.6926
▁$20	-11.6928
▁franc	-11.6932
▁prosecute	-11.6932
▁explicit	-11.6933
▁Band	-11.6934
▁Manhattan	-11.6935
▁Morning	-11.6935
▁accessibility	-11.6936
▁tail	-11.6941
▁Talent	-11.6941
▁halt	-11.6944
▁lifting	-11.6947
▁dressing	-11.695
/20	-11.6951
▁swim	-11.6953
▁Boeing	-11.6954
▁108	-11.6954
▁MORE	-11.6955
▁theater	-11.6958
▁semiconductor	-11.696
▁PRO	-11.6961
▁Gates	-11.6962
nce	-11.6962
▁whoever	-11.6964
▁yen	-11.6965
▁attain	-11.6966
▁tone	-11.6967
▁lord	-11.6969
▁Wow	-11.697
gin	-11.6972
▁prayers	-11.6974
▁crown	-11.6974
ima	-11.6979
▁observance	-11.698
.4/	-11.6982
▁brown	-11.6982
Mr	-11.6983
-26	-11.6983
▁exhausted	-11.6983
▁spin	-11.6987
▁collectively	-11.6988
▁Bal	-11.6989
▁authentic	-11.699
ien	-11.699
▁Suzhou	-11.699
CD	-11.699
▁ugly	-11.6992
▁servicing	-11.6992
▁hostile	-11.6993
▁align	-11.6997
/12	-11.6997
▁128	-11.6998
▁Primary	-11.6999
▁exceeding	-11.6999
▁Organic	-11.7002
▁pledge	-11.7003
cher	-11.7004
▁occupational	-11.7004
▁beloved	-11.7004
▁liable	-11.7005
▁Structure	-11.7008
▁intermediate	-11.7008
▁Um	-11.7012
/2003/	-11.7015
Next	-11.7015
Aligned	-11.7017
▁Expresses	-11.7018
▁notify	-11.7018
Because	-11.7019
▁vs	-11.702
▁guards	-11.7021
▁desires	-11.7021
▁Jiang	-11.7022
▁Yen	-11.7022
▁Den	-11.7022
▁fostering	-11.7024
VI	-11.7025
▁credits	-11.7026
▁fatal	-11.7028
▁compatibility	-11.7029
/54/	-11.703
▁printer	-11.7031
Shenzhen	-11.7031
▁scenes	-11.7033
▁commands	-11.7035
▁Alice	-11.7037
▁PVC	-11.7037
▁accelerating	-11.7039
▁contractor	-11.7048
▁jurisdictions	-11.705
▁bonus	-11.705
value	-11.7053
7,000	-11.7054
▁Original	-11.7056
▁debates	-11.7058
▁juice	-11.7062
▁BA	-11.7062
▁eager	-11.7064
May	-11.7064
▁Audio	-11.7065
▁deposits	-11.7065
▁gardens	-11.7068
▁Bao	-11.707
001	-11.7071
▁Vietnamese	-11.7071
▁Rd	-11.7073
▁Efforts	-11.7076
▁23,	-11.7076
▁exam	-11.7077
dic	-11.7078
Time	-11.7079
After	-11.7079
cast	-11.708
▁viruses	-11.7081
▁Jia	-11.7084
▁Thirty	-11.7085
▁educated	-11.7086
▁Verde	-11.7087
▁Usually	-11.7088
▁abandon	-11.7089
▁checking	-11.7094
▁Liberation	-11.7094
▁radioactive	-11.7094
▁1992,	-11.71
▁Rico	-11.7102
▁briefings	-11.7102
▁Obviously	-11.7103
ira	-11.7105
▁Matthew	-11.7106
▁agrees	-11.7106
Net	-11.7107
▁Ryan	-11.7107
▁WiFi	-11.7108
▁suited	-11.7108
▁Features	-11.7108
▁Khan	-11.7109
▁crossed	-11.711
▁biology	-11.711
▁shirt	-11.7112
▁afterwards	-11.7114
▁Dansk	-11.7114
▁Mall	-11.7119
▁Mind	-11.7119
▁Arthur	-11.7119
▁municipalities	-11.7119
▁minors	-11.7122
ND	-11.7124
▁paintings	-11.7124
▁math	-11.7124
▁Sur	-11.7124
▁4:	-11.7125
▁debris	-11.7126
▁elect	-11.7127
▁Sand	-11.7128
▁counterparts	-11.7129
▁closest	-11.7131
oil	-11.7134
▁scores	-11.7135
▁workload	-11.7139
/53/	-11.714
▁Domain	-11.714
▁accredited	-11.714
zer	-11.7142
people	-11.7143
sea	-11.7144
▁thread	-11.7146
▁characteristic	-11.7149
▁1981	-11.715
▁Log	-11.7152
kan	-11.7152
▁103	-11.7155
First	-11.7156
▁rolling	-11.7157
▁scandal	-11.7158
▁Shipping	-11.7161
ify	-11.7162
}}	-11.7162
▁visibility	-11.7162
▁Below	-11.7162
▁Promote	-11.7162
▁bones	-11.7168
▁Lucia	-11.7168
▁chamber	-11.7171
▁graphics	-11.7171
▁awful	-11.7176
▁Schools	-11.7179
▁hanging	-11.718
/6	-11.7182
▁Vancouver	-11.7183
▁horrible	-11.7183
▁leather	-11.7183
▁disagree	-11.7184
Site	-11.7184
▁4.0	-11.7185
▁rejection	-11.7187
▁blast	-11.7189
▁humidity	-11.7193
▁Processing	-11.7194
▁Uncle	-11.7196
▁architect	-11.7198
izer	-11.7198
four	-11.7199
▁approached	-11.72
▁neighbours	-11.7202
▁Likewise	-11.7203
▁renew	-11.7205
▁anonymous	-11.7205
▁ruble	-11.7208
ANG	-11.721
▁dawn	-11.721
▁allocate	-11.721
▁neighbor	-11.7211
▁Goods	-11.7215
▁passive	-11.7215
▁lasted	-11.7216
DO	-11.7217
▁economists	-11.7217
▁seal	-11.7219
▁exported	-11.722
▁Visitors	-11.7222
▁Provision	-11.7222
onic	-11.7223
▁outset	-11.7224
▁suspicion	-11.7226
▁enjoys	-11.7226
▁Outcome	-11.7226
▁Secret	-11.7227
▁petition	-11.7228
▁credentials	-11.7229
▁gentlemen	-11.7232
▁illegally	-11.7233
▁crystal	-11.7234
edge	-11.7234
▁Lodge	-11.7235
▁tendency	-11.7236
▁Belize	-11.7236
▁Marriage	-11.7236
▁raises	-11.7237
▁fed	-11.7238
▁Archives	-11.7238
▁airlines	-11.7239
dom	-11.724
▁31.	-11.724
/7	-11.7243
▁conceptual	-11.7243
▁countless	-11.7244
1)	-11.7244
▁coat	-11.7244
▁1978	-11.7245
▁instantly	-11.7245
▁Monterrey	-11.7245
sex	-11.725
▁Whole	-11.7251
▁genius	-11.7252
SM	-11.7254
cap	-11.7257
▁ca	-11.7257
▁Eve	-11.7258
▁Fort	-11.7263
▁doubts	-11.7263
▁appropriately	-11.7264
▁broadband	-11.7265
▁Posted	-11.7267
▁doctrine	-11.7269
▁privilege	-11.727
MT	-11.727
author	-11.727
▁SE	-11.7273
cell	-11.7273
▁Zi	-11.7274
▁compilation	-11.7274
▁privileges	-11.7277
▁delicious	-11.7281
▁Intellectual	-11.7281
▁charter	-11.7282
▁Carl	-11.7284
▁Dongguan	-11.7288
7,	-11.729
▁loop	-11.7291
▁Retail	-11.7291
▁Managing	-11.7291
ators	-11.7291
▁HP	-11.7293
▁determines	-11.7294
▁listened	-11.7294
▁SS	-11.7296
▁stipulated	-11.7296
▁mi	-11.7296
▁travelers	-11.7299
▁Shan	-11.73
cryptocurrencies	-11.73
▁Yuan	-11.7301
▁visitor	-11.7305
▁reign	-11.7306
▁39.	-11.7306
ole	-11.7308
▁Fat	-11.7309
▁responsive	-11.731
▁365	-11.7313
▁occasionally	-11.7313
WA	-11.7314
▁shield	-11.7315
▁tenure	-11.7318
▁smartphones	-11.7319
▁boards	-11.7319
▁Para	-11.732
▁Envoy	-11.732
▁Industries	-11.732
where	-11.7322
▁SBSTA	-11.7328
▁Yellow	-11.7328
▁qualification	-11.733
▁hi	-11.7332
▁Kitchen	-11.7333
▁Generation	-11.7334
2.5	-11.7334
▁summits	-11.7336
▁impartial	-11.7338
ü	-11.7339
▁Conservation	-11.734
From	-11.7342
fire	-11.7342
▁foremost	-11.7343
▁critics	-11.7344
ati	-11.7344
vers	-11.7345
ado	-11.7348
▁%1	-11.7348
▁Often	-11.7349
110	-11.735
▁thankful	-11.735
▁naval	-11.735
▁livelihoods	-11.7351
entrepreneurship	-11.7351
▁aligned	-11.7353
Just	-11.7353
tea	-11.7353
▁lips	-11.7353
▁ensured	-11.7355
ich	-11.7355
▁Municipal	-11.7356
▁Kan	-11.7357
put	-11.7358
▁stranger	-11.7358
▁prevailing	-11.7359
▁Volunteers	-11.7359
▁covenant	-11.7359
▁Camera	-11.736
▁Proposed	-11.7364
▁AWS	-11.7366
▁disciplines	-11.7367
▁breakdown	-11.7367
CT	-11.7369
▁Mas	-11.7371
▁Switch	-11.7372
▁uncertain	-11.7372
▁Touch	-11.7373
NE	-11.7374
dong	-11.7375
▁modes	-11.7376
▁Hal	-11.7377
cause	-11.738
▁115	-11.7381
▁imaging	-11.7383
▁Recovery	-11.7383
▁SBI	-11.7384
▁Eye	-11.7384
▁prototype	-11.7385
ila	-11.7387
▁boats	-11.7387
▁Stand	-11.7388
▁Belt	-11.7388
▁panic	-11.7389
▁span	-11.7389
▁marginalized	-11.739
▁nationally	-11.739
▁Ren	-11.739
▁Geo	-11.7391
cing	-11.7394
▁PE	-11.7397
▁Offering	-11.7399
qua	-11.7399
▁grab	-11.7401
Chinese	-11.7401
▁manifest	-11.7401
▁Prague	-11.7402
▁Lion	-11.7403
▁(2000)	-11.7403
▁Ger	-11.7403
▁descent	-11.7404
dimensional	-11.7405
TR	-11.7409
▁fighter	-11.7411
▁04	-11.7411
▁analyzed	-11.7413
▁Markets	-11.7415
▁socially	-11.7416
▁Austrian	-11.7418
▁unchanged	-11.7419
elle	-11.7419
▁assurances	-11.742
▁CAD	-11.742
▁briefly	-11.7421
Article	-11.7421
personnel	-11.7421
▁serial	-11.7424
▁Lead	-11.7425
▁preserved	-11.7428
▁1930	-11.7428
▁duplication	-11.7429
mat	-11.743
▁Atlanta	-11.7432
▁Reading	-11.7433
▁Disease	-11.7435
▁loose	-11.7436
verse	-11.7437
▁comprise	-11.7439
▁heavens	-11.744
▁cinema	-11.7442
▁Promoting	-11.7443
▁grandfather	-11.7446
▁Poly	-11.7447
▁Contacts	-11.7448
▁MI	-11.7449
ae	-11.7449
▁readily	-11.745
▁failures	-11.745
▁diameter	-11.7452
▁RE	-11.7452
▁praised	-11.7452
4%	-11.7454
▁holder	-11.7455
▁careers	-11.7455
▁Shin	-11.7455
▁1968	-11.7457
RT	-11.7461
▁casualties	-11.7462
▁Crisis	-11.7462
▁Flat	-11.7464
▁licence	-11.7466
......	-11.747
▁watches	-11.7472
step	-11.7473
three	-11.7473
▁fundamentally	-11.7476
**	-11.7477
▁1961	-11.7478
▁combining	-11.7479
▁Damn	-11.7479
▁1.6	-11.7479
(1)	-11.748
▁Casino	-11.7482
▁Arbitration	-11.7486
▁devote	-11.749
▁Violations	-11.749
▁(2002)	-11.7495
▁Ak	-11.7497
▁PV	-11.7497
▁Mill	-11.7497
▁profiles	-11.7497
▁inappropriate	-11.7498
▁striking	-11.7499
▁executions	-11.7499
▁ironing	-11.7499
metric	-11.75
▁Sino	-11.7502
▁corporation	-11.7502
▁Toilet	-11.7505
▁redress	-11.7506
▁4)	-11.7508
▁Pick	-11.7508
driving	-11.751
Agency	-11.7511
▁Chan	-11.7511
-28	-11.7512
▁4*	-11.7513
▁WFP	-11.7514
sheng	-11.7515
▁trains	-11.7517
▁Lewis	-11.7522
1000	-11.7522
▁launches	-11.7523
▁describing	-11.7526
2%	-11.7528
▁Chu	-11.7529
▁Tree	-11.7532
▁Isn	-11.7533
▁Pop	-11.7533
▁livestock	-11.7533
▁4.5	-11.7538
els	-11.7539
▁licensed	-11.7541
▁planes	-11.7544
1,000	-11.7544
▁gradual	-11.7547
▁Important	-11.7548
▁Ci	-11.7548
▁Satellite	-11.7549
▁vaccines	-11.7549
▁hill	-11.7553
▁rush	-11.7553
▁mono	-11.7555
▁inevitably	-11.7555
▁Macau	-11.7557
▁loyalty	-11.7559
▁LE	-11.756
kar	-11.756
Ban	-11.7562
▁Kevin	-11.7563
▁stones	-11.7564
rat	-11.7567
▁refusal	-11.7569
▁(2009)	-11.7569
▁fever	-11.7569
▁deeds	-11.757
▁Aluminum	-11.757
NS	-11.7571
▁Customers	-11.7572
din	-11.7574
▁wicked	-11.7575
▁Duke	-11.7575
▁diplomacy	-11.7576
▁Seoul	-11.7576
▁episode	-11.7578
▁vulnerabilities	-11.7579
▁sp	-11.758
meter	-11.758
lot	-11.758
▁Beautiful	-11.7583
▁concludes	-11.7585
▁Minimum	-11.7586
▁elite	-11.7592
▁optimization	-11.7592
▁offenders	-11.7593
▁calories	-11.7595
▁laboratories	-11.7596
▁orange	-11.7596
▁defeated	-11.7598
▁Buddha	-11.7599
▁positioning	-11.76
▁directory	-11.76
▁specially	-11.7602
gon	-11.7602
▁autumn	-11.7602
▁participatory	-11.7602
▁killings	-11.7603
aging	-11.7607
▁50,000	-11.7607
▁maker	-11.7607
▁proceeding	-11.7608
▁racist	-11.7609
▁browsing	-11.7609
▁Gabon	-11.761
▁Count	-11.761
▁comprised	-11.7611
▁craft	-11.7613
▁Forests	-11.7622
▁AL	-11.7624
LS	-11.7626
card	-11.7626
▁holistic	-11.7626
▁warfare	-11.7626
▁SMEs	-11.7626
▁Appeal	-11.7628
▁mg	-11.7629
▁linking	-11.763
▁authorize	-11.763
lat	-11.7632
▁feasibility	-11.7633
▁ballot	-11.7633
▁NT	-11.7633
▁pixels	-11.7639
▁explored	-11.7639
▁¥	-11.7642
▁incentive	-11.7645
oon	-11.7646
och	-11.7649
彩票	-11.765
▁lounge	-11.765
▁positively	-11.765
Come	-11.7651
▁overnight	-11.7653
FS	-11.7654
▁Same	-11.7657
pping	-11.7657
▁decoration	-11.7657
ess	-11.7659
▁Messenger	-11.7663
▁Carolina	-11.7663
▁RO	-11.7664
▁creditor	-11.7665
▁surveyed	-11.7666
▁modification	-11.7666
CU	-11.7666
▁Specific	-11.7667
▁varying	-11.7671
▁Instrument	-11.7673
▁reminds	-11.7678
▁timetable	-11.7679
▁gut	-11.7679
▁Eat	-11.7679
▁111	-11.7679
/2004/	-11.768
lip	-11.7681
▁nearest	-11.7682
▁1.4	-11.7683
▁remuneration	-11.7684
▁123	-11.7686
▁smuggling	-11.7687
▁advocates	-11.7687
▁ONLINE	-11.769
uo	-11.7692
6,	-11.7696
▁institutes	-11.7697
:+86-	-11.7698
▁shine	-11.7699
▁Opportunities	-11.7701
▁Anyway	-11.7701
▁Tong	-11.7701
Today	-11.7702
▁Imagine	-11.7702
▁dominate	-11.7705
▁stops	-11.7706
▁Various	-11.7708
▁Kelly	-11.7713
▁trap	-11.7713
▁Dallas	-11.7714
▁poet	-11.7715
▁Chrome	-11.7716
▁interviewed	-11.7717
▁MT	-11.7717
▁relies	-11.7719
▁Hol	-11.7727
▁bother	-11.7727
▁composite	-11.7731
▁boundary	-11.7736
fin	-11.7736
▁el	-11.7736
▁Mont	-11.7737
▁dies	-11.7739
▁Brexit	-11.774
Ba	-11.774
▁Cho	-11.7741
/2006/	-11.7748
any	-11.775
▁($	-11.7755
has	-11.7756
ban	-11.7756
▁ambition	-11.7759
▁Ohio	-11.776
▁Payment	-11.7762
▁institute	-11.7764
▁Finnish	-11.7764
▁behave	-11.7764
▁alleviate	-11.7765
▁understands	-11.7767
▁Tianjin	-11.7768
Look	-11.7768
▁Ch	-11.7769
▁confrontation	-11.777
▁chaired	-11.7772
avi	-11.7772
▁chaos	-11.7773
space	-11.7773
▁Campus	-11.7774
▁attributes	-11.7774
▁bears	-11.7774
▁Architecture	-11.7776
▁fortune	-11.7777
▁brains	-11.7777
▁grain	-11.7779
▁Documents	-11.7779
▁synergies	-11.7779
▁ES	-11.7779
▁Highway	-11.778
▁confront	-11.7782
ele	-11.7783
▁900	-11.7783
▁shoe	-11.7783
▁thanked	-11.7784
▁accord	-11.7784
▁Bull	-11.7784
▁Valve	-11.7786
▁corn	-11.7788
.25	-11.779
ign	-11.7791
▁renovation	-11.7793
▁boom	-11.7794
▁hated	-11.7795
▁Antonio	-11.7797
▁geo	-11.7797
via	-11.7798
▁NEWS	-11.7798
worth	-11.7798
▁shake	-11.7799
▁protesters	-11.7799
ew	-11.7799
▁inheritance	-11.78
▁bombs	-11.7802
While	-11.7803
▁HTTP	-11.7803
▁Gate	-11.7805
▁Nation	-11.7806
oh	-11.7806
▁wing	-11.7807
▁Ship	-11.7808
▁Ibid	-11.7808
▁statutory	-11.781
▁Precision	-11.781
▁extends	-11.7811
▁Qi	-11.7813
▁adherence	-11.7814
▁prosecutor	-11.7814
▁powered	-11.7815
/62/	-11.7815
▁hostilities	-11.7817
▁Pack	-11.7821
▁Baghdad	-11.7821
bel	-11.7822
lt	-11.7822
▁demonstrations	-11.7823
▁inspections	-11.7823
ui	-11.7823
oli	-11.7823
logy	-11.7825
▁ABOUT	-11.7825
TI	-11.7825
▁Anything	-11.7826
▁appliances	-11.7831
PT	-11.7832
ses	-11.7834
▁mixture	-11.7834
.30	-11.7837
2000	-11.7837
▁magnet	-11.7837
▁Families	-11.7838
mel	-11.7842
▁aggregate	-11.7847
▁riding	-11.7848
▁cement	-11.7848
▁Theme	-11.7852
▁sends	-11.7853
▁dependence	-11.7854
▁107	-11.7854
Contact	-11.7854
▁Presidential	-11.7856
▁poll	-11.7858
▁keen	-11.7859
109	-11.786
▁explaining	-11.7861
▁fifteen	-11.7861
▁Chemicals	-11.7862
hui	-11.7862
away	-11.7865
▁horror	-11.7865
▁1991,	-11.7867
▁wholly	-11.7867
maker	-11.787
SAR	-11.7871
▁Rates	-11.7873
▁lets	-11.7879
▁monitors	-11.7882
▁exercising	-11.7883
▁shuttle	-11.7883
▁carriage	-11.7883
130	-11.7884
purpose	-11.7885
▁realizing	-11.7885
▁24,	-11.7885
▁Cover	-11.7886
▁modernization	-11.7887
▁racing	-11.7889
▁Surface	-11.789
▁withdrawn	-11.789
▁Individual	-11.7893
vert	-11.7893
▁2.4	-11.7893
▁Tag	-11.7893
▁combines	-11.7894
▁openly	-11.7894
▁deliberate	-11.7899
far	-11.7899
▁baggage	-11.79
▁JavaScript	-11.79
▁Diego	-11.79
▁Andorra	-11.7901
▁shortcomings	-11.7903
▁delivers	-11.7904
▁Prison	-11.7906
▁Soft	-11.7907
/2005/	-11.7909
ld	-11.7909
▁st	-11.7909
▁subscription	-11.791
▁ESCAP	-11.791
:13	-11.7911
▁synthetic	-11.7912
Every	-11.7913
matic	-11.7913
▁taxation	-11.7913
▁Adults	-11.7914
▁Leader	-11.7914
▁Ming	-11.7915
▁issuing	-11.7917
last	-11.7918
▁apologize	-11.7919
▁refund	-11.7921
▁Cyber	-11.7924
▁wooden	-11.7924
▁educate	-11.7926
ao	-11.7929
▁Sleep	-11.793
▁packing	-11.7931
▁MB	-11.7932
▁delighted	-11.7934
▁appropriation	-11.7934
▁License	-11.7935
▁u	-11.7936
▁(9	-11.7936
▁EV	-11.7937
▁midst	-11.794
ass	-11.794
▁Investigation	-11.7941
▁valley	-11.7942
▁Outlook	-11.7942
OD	-11.7943
▁Clear	-11.7947
▁centralized	-11.7948
ched	-11.7948
▁UAE	-11.795
▁titled	-11.7953
Ra	-11.7954
PL	-11.7956
▁stepped	-11.7958
▁Lan	-11.796
▁exhibit	-11.7962
▁30,000	-11.7966
HK	-11.7966
▁Michigan	-11.7966
▁{{	-11.7966
▁Style	-11.7968
▁adviser	-11.7969
▁Leaders	-11.7971
▁prisoner	-11.7971
▁Coalition	-11.7973
pan	-11.7974
▁42.	-11.7975
▁intentions	-11.7976
▁Adobe	-11.7977
▁poses	-11.7978
▁Similar	-11.7979
▁3.2	-11.7979
▁verbale	-11.798
▁absent	-11.798
▁tailored	-11.7981
▁bug	-11.7981
Test	-11.7983
▁destroying	-11.7984
▁41.	-11.7985
▁Azure	-11.7987
▁surge	-11.7988
▁Emperor	-11.799
iti	-11.7991
eb	-11.7992
▁vibrant	-11.7994
▁diversification	-11.7994
▁ro	-11.7995
▁Operational	-11.7996
▁insist	-11.7997
iest	-11.8
hang	-11.8
▁Colonial	-11.8
▁customized	-11.8003
▁injustice	-11.8004
▁Distribution	-11.8005
▁threw	-11.8005
▁architectural	-11.8005
▁attracting	-11.8005
Qu	-11.8006
▁Categories	-11.8008
▁deterioration	-11.8012
gel	-11.8015
▁exercised	-11.8015
▁prophet	-11.8018
▁forcing	-11.802
▁Adult	-11.802
▁patrol	-11.8022
▁Available	-11.8023
▁boasts	-11.8026
▁acquiring	-11.8026
▁Interest	-11.8026
▁expectation	-11.8028
▁fires	-11.8029
▁fertility	-11.803
▁prevail	-11.803
▁atomic	-11.8031
▁Electoral	-11.8033
▁Universe	-11.8033
▁Parents	-11.8033
▁proposes	-11.8033
▁footprint	-11.8034
▁altogether	-11.8036
▁PP	-11.8037
▁(1);	-11.8037
tus	-11.8039
▁minerals	-11.8039
▁proactive	-11.8039
als	-11.804
arts	-11.8041
▁brush	-11.8042
/18	-11.8044
▁develops	-11.8044
▁correction	-11.8046
▁TD	-11.8046
▁counts	-11.8047
▁monster	-11.8047
▁sponsor	-11.8048
▁mapping	-11.8049
▁Dog	-11.8052
▁Mur	-11.8053
gas	-11.8053
▁Made	-11.8054
▁DA	-11.8056
▁Alibaba	-11.8057
▁highway	-11.8057
▁righteousness	-11.8058
/68/	-11.8058
▁Shut	-11.8059
/59/	-11.8061
▁na	-11.8061
▁compelling	-11.8061
▁FLOWER	-11.8064
▁deciding	-11.8064
Li	-11.8067
aya	-11.8068
▁0.5	-11.8069
▁1983	-11.807
atory	-11.807
▁LI	-11.8071
▁rebel	-11.8072
▁MD	-11.8072
▁odd	-11.8073
had	-11.8073
▁clinic	-11.8074
hood	-11.8074
▁oppose	-11.8074
Some	-11.8075
▁MDGs	-11.8076
▁2030	-11.8079
▁exclude	-11.8082
▁umbrella	-11.8082
▁passionate	-11.8082
▁shipments	-11.8083
2012	-11.8083
▁rigorous	-11.8084
Year	-11.8085
▁fathers	-11.8086
▁Left	-11.8086
0.00	-11.8094
ili	-11.8096
▁450	-11.8096
▁Illicit	-11.8096
▁Prosecution	-11.8096
▁112	-11.8098
▁strengths	-11.8099
▁feared	-11.8099
▁Wide	-11.8099
▁ski	-11.81
About	-11.81
disciplinary	-11.8101
▁useless	-11.8103
▁rebuild	-11.8106
▁Ol	-11.8106
▁Door	-11.8107
▁Victims	-11.8108
▁ya	-11.8108
self	-11.8111
▁Benefits	-11.8112
▁Fear	-11.8116
▁offerings	-11.8119
▁photographer	-11.812
▁seize	-11.8123
▁em	-11.8125
▁Guardian	-11.8127
▁pressures	-11.8127
▁heal	-11.8128
▁personalized	-11.8129
▁chapters	-11.8129
▁trips	-11.813
▁170	-11.813
INF	-11.8131
▁census	-11.8133
▁swing	-11.8134
▁reporter	-11.8134
▁Ser	-11.8134
▁propaganda	-11.8135
▁versus	-11.8135
▁cancelled	-11.8136
▁traveled	-11.8137
▁30-	-11.8139
BM	-11.8142
▁Socialist	-11.8143
▁Walk	-11.8143
▁souls	-11.8145
▁Nokia	-11.8146
▁Mil	-11.8146
▁graduated	-11.8147
▁prompted	-11.8147
▁26,	-11.8147
▁vi	-11.8149
▁Scripture	-11.8149
▁recognise	-11.8149
▁deepen	-11.8152
▁neglect	-11.8153
▁capitalist	-11.8153
▁inches	-11.8154
▁matching	-11.8159
▁Faculty	-11.816
▁HKD	-11.8162
▁Discover	-11.8163
5,	-11.8165
▁BMW	-11.8166
▁Pump	-11.8168
▁Grace	-11.8169
▁vaccination	-11.8171
▁lens	-11.8171
▁Bor	-11.8172
▁Munich	-11.8175
▁Fortunately	-11.8175
▁criticized	-11.8175
▁appraisal	-11.8178
▁arriving	-11.8178
stage	-11.8178
▁Die	-11.8181
▁Consulting	-11.8183
▁Eventually	-11.8185
▁linguistic	-11.8186
▁laughed	-11.8187
▁specification	-11.8188
▁shaped	-11.8189
3%	-11.8189
▁Challenge	-11.8192
AN	-11.8193
nia	-11.8194
bn	-11.8194
▁admissibility	-11.8196
▁Sitemap	-11.8196
▁lonely	-11.8197
▁Wolf	-11.8201
▁incompatible	-11.8203
▁Memorial	-11.8203
▁Eco	-11.8203
▁fiction	-11.8204
▁Watson	-11.8207
▁Holmes	-11.821
▁1963	-11.8213
▁confidentiality	-11.8215
▁Prof	-11.8215
▁Huang	-11.8216
▁Jay	-11.8216
▁molecules	-11.8218
▁sorts	-11.8219
▁Sweet	-11.822
▁Bathroom	-11.822
▁prolonged	-11.822
▁Rubber	-11.8221
▁civilizations	-11.8222
▁Pressure	-11.8222
▁beside	-11.8226
place	-11.8227
▁caution	-11.8228
AA	-11.8228
▁Launch	-11.8229
ique	-11.8231
▁preserving	-11.8232
▁Complete	-11.8235
▁Ontario	-11.8235
700	-11.8237
▁Cases	-11.8238
▁bicycle	-11.8238
▁abolition	-11.8239
▁Either	-11.824
▁disciplinary	-11.8242
game	-11.8243
▁Stage	-11.8244
▁preparedness	-11.8245
▁Creating	-11.8247
▁Nine	-11.8247
RES	-11.8251
OM	-11.8251
▁Were	-11.8252
▁Animal	-11.8253
»	-11.8253
▁princess	-11.8256
▁NEPAD	-11.8257
▁Petersburg	-11.8257
▁Updated	-11.8258
▁Directive	-11.8261
▁Formula	-11.8261
sure	-11.8262
▁Hui	-11.8263
▁scrap	-11.8264
▁shed	-11.8265
▁aforementioned	-11.8267
▁ruin	-11.8268
▁filters	-11.8272
ees	-11.8272
▁teaches	-11.8274
▁Germans	-11.8274
CF	-11.8274
oz	-11.8274
▁ra	-11.8279
▁compiled	-11.8281
▁Write	-11.8281
▁retreat	-11.8282
uch	-11.8283
ition	-11.8284
/64/	-11.8285
fall	-11.8286
ona	-11.8287
▁designation	-11.8292
▁dedication	-11.8293
▁$50	-11.8294
rah	-11.8296
▁invisible	-11.83
speaking	-11.83
▁Directors	-11.8302
▁reasonably	-11.8303
▁Filter	-11.8303
▁Kate	-11.8304
Good	-11.8305
▁Golan	-11.8306
▁Oscar	-11.8307
▁46.	-11.8308
▁sectoral	-11.831
▁1949	-11.831
▁vendor	-11.8311
▁43.	-11.8312
▁sterling	-11.8314
▁plot	-11.8315
▁wings	-11.8316
▁31,	-11.8318
1%	-11.8318
3/	-11.8319
▁posting	-11.8319
data	-11.832
door	-11.8321
▁FA	-11.8321
▁Heat	-11.8322
got	-11.8324
▁guides	-11.8324
gra	-11.8326
RD	-11.8326
▁certainty	-11.8326
ale	-11.8327
▁reinforced	-11.8327
的	-11.8329
▁Organizational	-11.8331
▁Downtown	-11.8333
▁expressly	-11.8333
▁marriages	-11.8333
▁imagined	-11.8334
imate	-11.8334
▁kit	-11.8335
▁Books	-11.8335
▁beneath	-11.8336
à	-11.8336
▁accumulated	-11.8337
▁guilt	-11.834
▁Agent	-11.8341
piece	-11.8342
▁ridiculous	-11.8343
▁coupled	-11.8344
▁laundering	-11.8344
▁crack	-11.8346
▁seasonal	-11.8347
▁edit	-11.8347
▁likewise	-11.8349
▁AN	-11.835
▁mortgage	-11.8352
lands	-11.8352
▁wives	-11.8353
▁pandemic	-11.8354
▁Miller	-11.8354
▁Teaching	-11.8355
▁Rob	-11.8356
▁tip	-11.8356
▁expectancy	-11.8358
▁Macao	-11.836
▁2.3	-11.8364
FF	-11.8364
green	-11.8365
▁rounds	-11.8365
ography	-11.8366
▁Client	-11.8367
▁Patrick	-11.8369
▁Drink	-11.837
▁deliberately	-11.837
▁token	-11.8371
▁Meetings	-11.8371
▁enrolment	-11.8373
▁emotion	-11.8374
▁anticipate	-11.8375
▁ODA	-11.8375
▁cybersecurity	-11.8376
▁Stresses	-11.8377
▁pledges	-11.8382
▁predictions	-11.8382
...”	-11.8384
sta	-11.8384
▁technically	-11.8386
▁pupils	-11.8387
▁Medium	-11.8388
▁slight	-11.839
▁pulse	-11.8391
▁RF	-11.8391
mu	-11.8391
▁gang	-11.8392
rit	-11.8394
▁budgeting	-11.8396
▁Davis	-11.8396
▁Held	-11.8397
▁1965	-11.8399
/63/	-11.8399
▁imply	-11.84
sol	-11.84
.13	-11.8401
ei	-11.8402
▁(7)	-11.8403
▁mate	-11.8403
▁petroleum	-11.8405
▁Accessories	-11.8405
▁distinctive	-11.8407
organized	-11.8408
Open	-11.841
▁Telecommunicati	-11.841
LL	-11.841
▁Marino	-11.841
funded	-11.8411
growing	-11.8411
▁handful	-11.8411
kov	-11.8413
▁styles	-11.8414
/67/	-11.8417
▁28,	-11.8417
/66/	-11.8419
ato	-11.8421
▁Mining	-11.8422
▁appealed	-11.8422
▁hyper	-11.8423
HA	-11.8424
▁incorporating	-11.8427
▁hazards	-11.843
▁paths	-11.8434
▁horizon	-11.8434
▁worrying	-11.8435
▁Maximum	-11.8436
DF	-11.8436
night	-11.8438
▁DELIVERY	-11.8438
▁laughing	-11.8438
▁screens	-11.8439
▁Considering	-11.8439
▁Rod	-11.8439
▁donations	-11.8442
▁Battery	-11.8442
▁predecessor	-11.8444
▁Andy	-11.8445
private	-11.8446
▁4,000	-11.8448
▁embassy	-11.8449
▁muscles	-11.8451
sur	-11.846
▁Editor	-11.846
▁refuge	-11.846
▁nutritional	-11.846
▁landed	-11.8461
▁qualify	-11.8462
▁UNIFIL	-11.8462
ient	-11.8465
/13	-11.8467
▁Desertification	-11.8468
ency	-11.847
/2007/	-11.8471
UM	-11.8475
Product	-11.8476
▁Kuwaiti	-11.8476
chen	-11.8476
▁aunt	-11.8476
FT	-11.848
▁Planet	-11.848
▁Controller	-11.8482
▁Stanford	-11.8482
▁Gun	-11.8484
▁Gong	-11.8485
PF	-11.8486
▁distress	-11.8486
▁va	-11.8488
▁throat	-11.8489
▁GC	-11.849
▁NA	-11.8491
▁organised	-11.8492
▁audiences	-11.8494
ml	-11.8495
▁Prevent	-11.8495
▁ancestors	-11.8495
▁$15	-11.8496
▁prescription	-11.8497
▁Honey	-11.8503
holders	-11.8503
its	-11.8504
▁heroes	-11.8504
▁Committed	-11.8504
▁jealous	-11.8505
▁Sta	-11.8507
▁seemingly	-11.8508
▁Hair	-11.851
▁floating	-11.8511
▁simulation	-11.8511
▁divine	-11.8512
▁Luke	-11.8512
▁chest	-11.8513
▁Ready	-11.8515
▁donation	-11.8519
front	-11.8521
oni	-11.8521
ites	-11.8521
▁beaten	-11.8522
mal	-11.8523
▁bridges	-11.8525
mic	-11.8525
▁committing	-11.8528
▁insert	-11.853
▁Wedding	-11.8533
▁Voice	-11.8535
▁Changes	-11.8535
▁communicated	-11.8536
▁hotline	-11.8539
dan	-11.8542
▁Heavy	-11.8542
▁forecasts	-11.8543
▁Premium	-11.8545
▁clever	-11.8545
▁Dublin	-11.8545
rian	-11.8545
▁Peninsula	-11.8549
▁cart	-11.8549
▁Bei	-11.8552
▁merit	-11.8553
▁genome	-11.8556
▁flagship	-11.8557
▁entrepreneur	-11.8558
▁tweeted	-11.8558
▁beating	-11.8562
▁verified	-11.8563
▁wildlife	-11.8564
▁ta	-11.8565
▁pilots	-11.8565
▁Ash	-11.8566
▁tel	-11.8566
▁summarized	-11.8567
▁Route	-11.8568
▁floors	-11.8568
10)	-11.8569
/2000/	-11.8569
NI	-11.8569
▁supplements	-11.857
▁RS	-11.8571
▁Alan	-11.8571
compliance	-11.8571
▁breaches	-11.8572
▁exhibitions	-11.8574
▁109	-11.8574
▁accumulation	-11.8575
▁gentleman	-11.8576
▁Demand	-11.8576
child	-11.8579
TY	-11.8581
nation	-11.8582
▁Device	-11.8586
▁bubble	-11.8587
▁Zen	-11.8587
▁Lakes	-11.8588
▁medications	-11.8589
▁Civilian	-11.8589
▁Frankfurt	-11.8589
▁1940	-11.8591
▁Acts	-11.8592
▁inception	-11.8592
▁stretch	-11.8593
▁(12	-11.8596
▁Banking	-11.8598
rated	-11.8598
▁intimate	-11.86
▁Paradise	-11.8601
▁Mis	-11.8602
▁desperate	-11.8603
▁endless	-11.8604
▁incumbent	-11.8604
▁Hy	-11.8605
▁Cool	-11.8605
▁Remove	-11.8606
▁violating	-11.8608
▁rival	-11.861
▁trail	-11.861
AG	-11.8612
▁1971	-11.8612
▁Cu	-11.8615
rest	-11.8616
▁spray	-11.8618
▁44.	-11.8618
▁apple	-11.8619
▁spokesperson	-11.8619
▁restriction	-11.8621
▁fi	-11.8621
▁Subsequently	-11.8621
ending	-11.8622
▁subsistence	-11.8623
▁lung	-11.8623
live	-11.8623
▁Via	-11.8623
▁XI	-11.8624
▁1966	-11.8624
BE	-11.8626
▁escaped	-11.8628
▁CAN	-11.8628
lier	-11.863
▁Improve	-11.8631
▁118	-11.8632
▁pointing	-11.8634
▁li	-11.8635
▁startups	-11.8636
nal	-11.8636
▁immense	-11.8637
▁stack	-11.8637
▁Providing	-11.8638
▁cattle	-11.8638
▁inconsistent	-11.8639
▁UNIFEM	-11.864
▁guideline	-11.8641
▁forefront	-11.8642
3)	-11.8642
ó	-11.8643
▁Tre	-11.8644
▁Hawaii	-11.8647
▁realm	-11.8647
▁Pentagon	-11.8649
▁Shu	-11.865
▁relying	-11.8653
▁curricula	-11.8659
lum	-11.8659
▁drill	-11.8659
▁trapped	-11.866
▁Brunei	-11.866
▁literary	-11.866
▁females	-11.8662
▁renewal	-11.8663
LC	-11.8663
▁3.0	-11.8663
▁hunt	-11.8663
stein	-11.8665
▁Bro	-11.8666
Di	-11.8667
▁Contributions	-11.8667
▁Pennsylvania	-11.8668
▁Suppression	-11.8668
▁cow	-11.867
mun	-11.8673
▁Scheme	-11.8674
▁Antigua	-11.8676
▁Barack	-11.8676
die	-11.8676
▁GO	-11.8676
cia	-11.8679
▁commissioned	-11.8679
Of	-11.8681
▁lobby	-11.8681
taking	-11.8681
2014	-11.8682
▁CON	-11.8683
▁WordPress	-11.8683
WC	-11.8683
▁generic	-11.8683
▁Connect	-11.8684
▁fe	-11.8684
▁buses	-11.8685
▁showcase	-11.8688
ert	-11.8689
▁formulating	-11.8689
▁lawful	-11.869
▁addiction	-11.8691
▁Qingdao	-11.8694
▁scratch	-11.8694
▁Attractions	-11.8694
▁attraction	-11.8698
▁Built	-11.8698
▁Imperial	-11.8698
▁healthier	-11.8702
▁inequalities	-11.8702
▁114	-11.8702
▁stopping	-11.8703
ically	-11.8704
aged	-11.8705
▁Zuckerberg	-11.8705
▁forbidden	-11.8705
▁yoga	-11.8706
▁persist	-11.8708
system	-11.8709
▁Compliance	-11.8709
▁identifies	-11.8713
ular	-11.8719
▁Fight	-11.8721
▁privately	-11.8721
▁SAR	-11.8721
▁demo	-11.8725
▁whatsoever	-11.8727
▁CIA	-11.8727
▁Ron	-11.8728
▁Lost	-11.8732
	-11.8732
▁freezing	-11.8734
Dec	-11.8738
ook	-11.8739
▁manifestations	-11.8743
▁seasons	-11.8743
/1999/	-11.8744
ef	-11.8744
ase	-11.8745
▁forestry	-11.8746
▁12-	-11.8746
▁pit	-11.8747
▁Nutrition	-11.8747
▁Registrar	-11.8747
▁particle	-11.875
ches	-11.875
▁enthusiasm	-11.8751
▁financially	-11.8752
▁Issue	-11.8756
▁Concept	-11.8757
▁Simple	-11.8759
▁hydraulic	-11.8763
▁Challenges	-11.8763
▁(15	-11.8767
say	-11.8768
▁mill	-11.8768
▁labels	-11.8769
gle	-11.877
High	-11.8772
▁Origin	-11.8772
gal	-11.8772
▁Mei	-11.8773
▁Hamburg	-11.8773
▁leap	-11.8774
▁1.0	-11.8774
▁caring	-11.8776
▁Going	-11.8777
▁debut	-11.8784
ddle	-11.8786
▁rocks	-11.8787
sign	-11.8788
▁organisms	-11.8789
▁Hours	-11.879
EG	-11.8791
powered	-11.8791
▁instalment	-11.8792
▁Citizens	-11.8793
▁tear	-11.8794
▁rebels	-11.8795
▁painted	-11.8796
▁Lower	-11.8797
▁collections	-11.8798
▁quarters	-11.8799
▁Powers	-11.8799
▁stunning	-11.88
▁27,	-11.8801
▁Player	-11.8802
▁beef	-11.8802
▁(2007)	-11.8804
ult	-11.8805
▁brutal	-11.8806
base	-11.8807
▁expose	-11.8808
180	-11.8808
Pa	-11.8814
▁companion	-11.8814
▁Teacher	-11.8814
▁1990,	-11.8815
▁continental	-11.8815
▁Mah	-11.8818
▁lend	-11.8819
▁succession	-11.8822
▁discretion	-11.8822
▁Lack	-11.8822
▁Jimmy	-11.8823
▁IX	-11.8823
▁Tra	-11.8824
▁49.	-11.8824
▁Anthony	-11.8826
▁Outdoor	-11.8827
▁nutrients	-11.8827
▁linear	-11.8827
▁mild	-11.8827
Yeah	-11.8828
▁CC	-11.8828
million	-11.8829
▁neuro	-11.8829
▁Judicial	-11.883
▁genital	-11.883
▁Temperature	-11.8831
▁undergraduate	-11.8831
▁stance	-11.8834
▁authentication	-11.8835
▁25,	-11.8836
▁Track	-11.8836
▁2022	-11.8837
▁varieties	-11.8838
-35	-11.8838
ters	-11.8838
▁Ground	-11.884
▁symbols	-11.8843
bal	-11.8843
▁Pakistani	-11.8845
dal	-11.8845
▁rewards	-11.8845
▁thrive	-11.8846
▁Multilateral	-11.8846
▁Faith	-11.8847
▁flame	-11.8848
▁pretend	-11.8848
▁disruption	-11.885
kh	-11.885
▁1948	-11.885
▁EX	-11.8851
▁Gal	-11.8855
lation	-11.8855
VA	-11.8855
chan	-11.8856
▁Ag	-11.8857
ack	-11.886
▁slower	-11.886
▁nomination	-11.8861
master	-11.8863
0°	-11.8865
▁undergo	-11.8866
pur	-11.8866
▁prestigious	-11.8872
▁malnutrition	-11.8872
Com	-11.8873
ico	-11.8874
cam	-11.8875
▁clarified	-11.8876
▁FLORIST	-11.888
▁tactics	-11.888
▁recruit	-11.888
▁blessings	-11.8881
mor	-11.8881
▁Path	-11.8881
▁similarly	-11.8883
▁Late	-11.8886
▁duly	-11.8888
active	-11.8889
UL	-11.8891
▁builds	-11.8896
▁Opera	-11.8896
▁Probably	-11.8896
setting	-11.8897
▁curb	-11.8897
▁lawmakers	-11.8897
▁downloaded	-11.8898
▁Tags	-11.8898
▁Flowers	-11.8898
▁Roger	-11.8899
▁commenced	-11.89
▁CNN	-11.8901
▁›	-11.8902
ancy	-11.8902
▁Effects	-11.8903
▁diagnostic	-11.8903
▁batch	-11.8903
▁jumped	-11.8904
▁broadcasting	-11.8906
▁strangers	-11.8907
▁expressions	-11.8908
▁consequently	-11.8908
▁selecting	-11.8909
▁Compact	-11.8909
▁Cafe	-11.8912
▁graph	-11.8912
▁Born	-11.8912
BS	-11.8913
▁opponents	-11.8914
trade	-11.8914
ics	-11.8916
▁noon	-11.8916
▁Walter	-11.8918
PD	-11.8919
BI	-11.892
▁highlighting	-11.892
▁immigrant	-11.8921
hy	-11.8921
control	-11.8922
▁Screen	-11.8922
▁Cheng	-11.8925
▁reinforcing	-11.8926
/9	-11.8926
▁Ping	-11.8927
▁complications	-11.8929
▁jacket	-11.893
▁homeless	-11.8932
▁kindly	-11.8936
▁Fri	-11.8939
▁Dun	-11.8939
▁cancers	-11.8939
▁contaminated	-11.894
sar	-11.894
▁tablet	-11.894
▁Zero	-11.8943
rus	-11.8945
sum	-11.8947
▁licenses	-11.8952
▁munitions	-11.8953
▁graduation	-11.8953
▁stipulates	-11.8954
▁47.	-11.8954
tier	-11.8955
▁impressed	-11.8956
▁Creator	-11.8957
▁Var	-11.8957
▁gallery	-11.8958
▁SEO	-11.8959
▁keyboard	-11.8959
▁116	-11.896
▁awaiting	-11.8961
▁Method	-11.8963
▁revenge	-11.8964
▁Accounts	-11.8965
amp	-11.8967
▁incomplete	-11.8968
▁Registry	-11.8968
anda	-11.897
▁Enterprises	-11.897
▁anxious	-11.8972
▁prohibits	-11.8973
▁masses	-11.8975
▁normative	-11.8976
development	-11.8977
jan	-11.8979
▁misconduct	-11.8984
▁1997.	-11.8986
▁destructive	-11.8987
▁fence	-11.8989
▁spouses	-11.8989
▁1977	-11.8989
▁exceeds	-11.899
▁Sit	-11.8991
▁bull	-11.8992
Free	-11.8995
▁legend	-11.8998
▁Episode	-11.8999
hill	-11.9001
▁speeches	-11.9003
▁enrolled	-11.9006
▁}	-11.9007
▁verse	-11.9007
▁Recognizes	-11.901
▁OEM	-11.9011
▁Ste	-11.9012
4)	-11.9012
▁contributors	-11.9012
▁liquidity	-11.9013
▁Deluxe	-11.9015
ates	-11.9015
▁donated	-11.9016
▁VIP	-11.9017
▁Bath	-11.9018
▁BO	-11.9018
▁Ethereum	-11.9019
▁117	-11.9022
▁Explorer	-11.9023
▁Pet	-11.9023
▁Practices	-11.9025
▁beam	-11.9027
olo	-11.9027
▁Established	-11.9028
UNDP	-11.9028
▁Tehran	-11.903
▁throne	-11.9031
east	-11.9031
.1).	-11.9032
▁owns	-11.9032
▁creature	-11.9032
▁nowhere	-11.9033
▁spectacular	-11.9034
-10/	-11.9035
ax	-11.9036
▁villa	-11.9036
▁Fun	-11.9038
▁Concerning	-11.9038
▁Gift	-11.9039
©	-11.9039
ame	-11.904
▁molecular	-11.9043
▁awake	-11.9046
▁Oracle	-11.905
▁bullet	-11.9052
▁accessed	-11.9052
▁Male	-11.9053
▁aerospace	-11.9054
▁whilst	-11.9054
▁Bat	-11.9055
▁meditation	-11.9058
▁ballistic	-11.9058
▁ambassador	-11.9059
/21	-11.906
▁magical	-11.906
UNEP	-11.9063
nch	-11.9068
ora	-11.9069
▁Wil	-11.907
▁likelihood	-11.9073
DM	-11.9075
▁suspend	-11.9076
▁2050	-11.9078
▁sunlight	-11.9078
▁proclaimed	-11.9079
▁stereotypes	-11.9082
▁disrupt	-11.9082
▁quest	-11.9083
▁bloody	-11.9084
when	-11.9084
▁projections	-11.9088
▁(8)	-11.9089
▁circular	-11.9089
▁stadium	-11.9089
▁uranium	-11.9089
▁wines	-11.909
▁flee	-11.9091
zen	-11.9091
▁Championship	-11.9091
▁unhappy	-11.9093
▁Jason	-11.9094
Japan	-11.9094
▁mighty	-11.9096
▁1974	-11.9102
▁GT	-11.9103
▁Lesotho	-11.9104
▁condemn	-11.9105
▁bombing	-11.9105
▁charm	-11.9106
▁livelihood	-11.9107
ender	-11.9108
▁flew	-11.9108
▁Ac	-11.911
▁Ultra	-11.9111
▁lira	-11.9113
▁^	-11.9113
▁horizontal	-11.9113
▁Dave	-11.9115
▁Custom	-11.9116
▁Corps	-11.9116
▁Firefox	-11.9116
▁cooperating	-11.9116
9,000	-11.9119
▁figured	-11.912
▁Congratulations	-11.9122
▁inherited	-11.9122
▁irregular	-11.9124
Chairman	-11.9125
hol	-11.9125
adi	-11.9126
▁confined	-11.9127
HD	-11.9127
▁infectious	-11.9128
/2008/	-11.9128
▁commend	-11.9129
▁CT	-11.913
▁MW	-11.913
▁Einstein	-11.9132
▁macro	-11.9132
dale	-11.9134
pass	-11.9136
En	-11.914
working	-11.9141
ged	-11.9141
▁1,500	-11.9142
▁Deposit	-11.9144
▁accorded	-11.9144
other	-11.9144
▁CH	-11.9145
▁shelf	-11.9147
▁Principal	-11.9149
▁triggered	-11.915
▁cabin	-11.915
▁Narcotic	-11.9151
▁volatility	-11.9151
▁worries	-11.9151
▁practically	-11.9152
▁varies	-11.9152
▁animation	-11.9155
▁kidney	-11.9156
rov	-11.9156
▁developmental	-11.9158
▁altered	-11.9159
▁Pearl	-11.9159
101	-11.9166
▁sq	-11.9166
▁garbage	-11.9167
▁drag	-11.9168
xiang	-11.9168
▁rally	-11.9168
▁1.8	-11.9169
ily	-11.9169
▁bis	-11.917
▁contacted	-11.917
▁Technological	-11.9171
▁Fuel	-11.9171
have	-11.9174
▁loading	-11.9176
!!	-11.9179
▁pink	-11.9179
▁Zhu	-11.9182
▁Television	-11.9183
▁29,	-11.9184
▁PRODUCTS	-11.9184
▁upgraded	-11.9187
▁Indians	-11.9187
▁ashamed	-11.9191
▁unpaid	-11.9192
▁Classic	-11.9198
▁Os	-11.9198
member	-11.9198
▁borrow	-11.9201
▁spell	-11.9203
tur	-11.9204
▁therapeutic	-11.9204
watch	-11.9205
.14	-11.9205
▁slept	-11.9207
ERS	-11.9207
word	-11.9208
▁Holdings	-11.9208
/14	-11.921
ved	-11.921
EF	-11.921
ction	-11.9211
▁MIT	-11.9211
▁OP	-11.9211
aff	-11.9211
▁bias	-11.9215
è	-11.9215
▁Ivan	-11.9217
▁Tang	-11.9218
-2019	-11.922
▁delicate	-11.9223
▁retire	-11.9223
▁exemption	-11.9223
▁shipment	-11.9223
”;	-11.9224
▁tends	-11.9225
▁garage	-11.9227
▁Cro	-11.9227
sector	-11.9227
▁historically	-11.9229
▁intensified	-11.923
▁Gross	-11.9231
▁Russians	-11.9232
▁138	-11.9233
performance	-11.9234
▁CRC	-11.9235
▁2%	-11.9235
rating	-11.9235
cer	-11.9237
▁Ethics	-11.9238
▁cleared	-11.9239
▁Fi	-11.924
ose	-11.924
▁benchmarks	-11.9242
▁hinder	-11.9242
▁investigative	-11.9242
ching	-11.9244
▁attach	-11.9244
lim	-11.9246
▁behaviors	-11.9246
▁mile	-11.9247
▁generator	-11.9247
lian	-11.9254
lessness	-11.9257
RU	-11.9258
▁smarter	-11.9258
▁Remote	-11.9258
▁GS	-11.9259
▁corrected	-11.9259
▁Hungarian	-11.9259
trans	-11.9261
om	-11.9261
position	-11.9266
▁Himself	-11.9267
▁Gambia	-11.9269
▁perceive	-11.9269
▁Serving	-11.927
▁Than	-11.9276
▁positioned	-11.9278
▁outlets	-11.928
/2002/	-11.9281
▁Secure	-11.9282
▁spatial	-11.9282
▁drilling	-11.9284
Russian	-11.9285
▁benchmark	-11.9286
▁console	-11.9286
▁Wireless	-11.9287
▁successes	-11.9288
ori	-11.9289
ets	-11.929
▁recycled	-11.929
▁proprietary	-11.929
▁colleague	-11.9291
[...]
